<unk>	0
<s>	0
</s>	0
▁	-2.75099
។	-3.29065
និង	-4.67121
ដែល	-4.78976
▁-	-4.88968
ការ	-5.0109
អ្នក	-5.0681
?	-5.08777
នៃ	-5.14511
ហើយ	-5.14911
របស់	-5.18602
បាន	-5.2166
,	-5.34303
មាន	-5.4863
ឬ	-5.547
វា	-5.54941
ដោយ	-5.59016
របស់អ្នក	-5.6127
នៅ	-5.6242
)	-5.62975
សម្រាប់	-5.65592
នេះ	-5.69685
▁(	-5.70254
ទេ	-5.7299
ទេ។	-5.73978
ខ្ញុំ	-5.77366
▁។	-5.77568
▁"	-5.8268
នៅក្នុង	-5.85457
មួយ	-5.88154
ពី	-5.9012
s	-5.90402
ដែលមាន	-5.91365
ដើម្បី	-5.93423
គឺ	-5.94272
ក្នុង	-5.95029
ទៅ	-5.99091
ជា	-6.06692
"	-6.09325
នឹង	-6.09407
ស	-6.14726
នៅលើ	-6.16228
ត្រូវបាន	-6.17397
គាត់	-6.20197
ពួកគេ	-6.24675
ថា	-6.27828
▁ហើយ	-6.30449
មិន	-6.33835
!	-6.34738
យើង	-6.34913
ន	-6.35629
រ	-6.36616
អាច	-6.37715
នាង	-6.38014
ក្នុងការ	-6.40352
ជាមួយ	-6.41904
ក	-6.41985
ល	-6.44584
លើ	-6.4701
គឺជា	-6.47158
ដែលបាន	-6.47431
ភាព	-6.50739
ទទួលបាន	-6.52917
y	-6.53406
ម	-6.5541
▁អ្នក	-6.56215
នោះ	-6.56704
ត	-6.57239
e	-6.57647
ឱ្យ	-6.57883
ប	-6.61603
▁ខ្ញុំ	-6.62752
:	-6.63619
ប៉ុន្តែ	-6.6373
▁និង	-6.64034
ដូចជា	-6.64188
របស់អ្នក។	-6.64264
▁...	-6.65009
n	-6.66761
ធ្វើ	-6.67055
ឆ្នាំ	-6.68883
របស់ខ្ញុំ	-6.70257
▁19	-6.73355
លោក	-6.73867
អ្វីដែល	-6.75505
នៃការ	-6.76643
មនុស្ស	-6.77303
របស់គាត់	-6.78096
ប្រើ	-6.79016
ចំពោះ	-6.79434
▁ប៉ុន្តែ	-6.82717
ដល់	-6.83531
t	-6.84291
ទឹក	-6.86747
ស្	-6.87952
ទី	-6.88227
របស់ពួកគេ	-6.88392
▁ការ	-6.89756
a	-6.91208
ទាំងនេះ	-6.91531
.	-6.92566
របស់នាង	-6.93079
d	-6.93468
កំពុង	-6.93625
▁វា	-6.93917
អំពី	-6.9444
▁ដូច្នេះ	-6.94897
i	-6.97114
r	-6.97206
ចំនួន	-6.98307
និយាយ	-6.99345
ណា	-6.99404
ចាប់ផ្តើម	-6.99486
ប្រទេស	-6.99495
ទាំងអស់	-7.00637
យក	-7.02362
ធ្វើឱ្យ	-7.02637
u	-7.03106
ង	-7.04198
ជាច្រើន	-7.06447
▁C	-7.07533
▁2	-7.07659
▁តើ	-7.07939
ត្រូវបានគេ	-7.08031
in	-7.08242
ក្រុម	-7.08524
o	-7.08598
មក	-7.09773
របស់យើង	-7.10558
ដំបូង	-7.10671
al	-7.11182
ដាក់	-7.11967
er	-7.12016
en	-7.13224
ផ្នែក	-7.1395
ដ៏	-7.14037
▁S	-7.1532
b	-7.15998
ស៊ី	-7.16773
ចេញ	-7.17262
យ	-7.17313
ដូច្នេះ	-7.17851
ជាង	-7.17922
ឈ្មោះ	-7.18635
្	-7.21967
នេះ។	-7.22104
ថ្មី	-7.22284
▁គឺជា	-7.22382
re	-7.22551
ដែលជា	-7.22677
អ	-7.22822
▁1	-7.23862
មិនមាន	-7.23883
ការងារ	-7.24627
នៅទីនេះ	-7.24644
បំផុត	-7.24848
▁A	-7.25172
ខ្លះ	-7.25498
ពេលវេលា	-7.26134
ពីរ	-7.26659
ប្រព័ន្ធ	-7.27345
រឿង	-7.27567
▁លោក	-7.27883
មើល	-7.28122
k	-7.28189
▁T	-7.28397
ជាមួយនឹង	-7.28409
▁G	-7.28949
▁3	-7.29723
ល្អ	-7.3003
នូវ	-7.3008
C	-7.30574
▁បាន	-7.31038
បុរស	-7.3117
តាម	-7.31276
ក្រុមហ៊ុន	-7.31288
ំ	-7.31545
l	-7.3184
ចេញពី	-7.32642
ថ្នាំ	-7.3355
ជំងឺ	-7.34199
ទីក្រុង	-7.34351
ra	-7.34924
វ	-7.35311
g	-7.36141
កា	-7.36225
កម្មវិធី	-7.36773
▁B	-7.3684
ច	-7.36947
ដូច	-7.36971
ម៉ា	-7.3699
ដំណើរការ	-7.37737
ដឹងថា	-7.38016
▁F	-7.38261
ផ្សេងទៀត	-7.38366
an	-7.3931
▁ប្រសិនបើ	-7.39499
ក៏	-7.39852
m	-7.40668
ស្ត្រី	-7.41039
សូម	-7.41151
ឡើង	-7.41263
នៅពេល	-7.42378
បន្ទាប់ពី	-7.4256
នៅពេលដែល	-7.4314
សត្វ	-7.43931
ធ្វើការ	-7.44306
ប្រជាជន	-7.44522
និយាយថា	-7.45086
ទ	-7.45089
គ្នា	-7.45693
តំបន់	-7.45892
▁ខ្ញុំបាន	-7.45971
z	-7.46104
ផ្តល់	-7.46512
អា	-7.46536
on	-7.46818
លី	-7.47013
កន្លែង	-7.47863
le	-7.47953
អ្នកអាច	-7.48669
បង្កើត	-7.49058
▁ប្រសិនបើអ្នក	-7.49293
មិនមែនជា	-7.50184
S	-7.50544
ប្រភេទ	-7.50705
ត្រូវ	-7.50733
c	-7.5091
សា	-7.50967
or	-7.51118
គំនិត	-7.51559
ដ	-7.51593
ជីវិត	-7.51868
សម្រាប់ការ	-7.52023
▁P	-7.52032
គ្រាន់តែ	-7.52207
ព្យាយាម	-7.5244
ច្រើន	-7.52563
មួយចំនួន	-7.52989
h	-7.53063
▁គាត់	-7.53487
ar	-7.54311
បន្ថែម	-7.54483
ពិតជា	-7.55185
បញ្ហា	-7.55659
ផ្លូវ	-7.55975
ri	-7.56351
▁ៗ	-7.56364
ផ្ទះ	-7.56771
A	-7.56878
ចូល	-7.56937
▁ឆ្នាំ	-7.56963
ឥឡូវនេះ	-7.56993
ណាស់	-7.57035
អាហារ	-7.57164
កំណត់	-7.57231
ផ្លាស់ប្តូរ	-7.57965
ប្រ	-7.58359
អ្វី	-7.58454
ប្រហែលជា	-7.58694
us	-7.59018
▁តើអ្នក	-7.59109
ដែលអ្នក	-7.59187
ជាតិ	-7.59333
▁ពួកគេ	-7.59379
របស់ខ្ញុំ។	-7.59711
ពិភពលោក	-7.59774
ខ្ញុំបាន	-7.59983
el	-7.60453
បង្ហាញ	-7.60543
មួយ។	-7.60748
ជ្រើសរើស	-7.61014
ត្រូវការ	-7.61235
រក	-7.61841
រហូតដល់	-7.62211
f	-7.62244
w	-7.62745
ចង់	-7.6287
នៅឆ្នាំ	-7.62913
▁យើង	-7.62966
ថ្ងៃ	-7.63318
▁ខ្ញុំនឹង	-7.637
M	-7.63988
ដា	-7.64836
la	-7.64901
ប្រសិនបើ	-7.65031
រក្សា	-7.65273
គ្រប់គ្រង	-7.65464
ធំ	-7.65849
▁D	-7.66173
យ៉ាង	-7.66737
▁មែនហើយ	-7.66777
ការផ្លាស់ប្តូរ	-7.67058
តែ	-7.67399
ប្រសិនបើអ្នក	-7.67404
អូ	-7.67541
ro	-7.67582
និងការ	-7.67614
អ្នកនឹង	-7.67867
D	-7.67905
លេង	-7.6882
ិ	-7.69121
នី	-7.69279
P	-7.69292
ភាគច្រើន	-7.69744
▁ខ្ញុំមិន	-7.69768
ខ្ពស់	-7.69967
ផងដែរ។	-7.69983
is	-7.70284
ចុងក្រោយ	-7.70285
ម្នាក់	-7.70438
ដៃ	-7.70962
ឧបករណ៍	-7.71142
ប្រឆាំងនឹង	-7.71213
ខ្ញុំនឹង	-7.71242
ក្នុងឆ្នាំ	-7.71689
មានអារម្មណ៍	-7.717
x	-7.71939
▁មាន	-7.72497
▁នៅ	-7.72538
មុន	-7.72634
គិតថា	-7.7277
T	-7.73166
មុនពេល	-7.73857
▁/	-7.73901
▁នាង	-7.74136
បើក	-7.74202
▁នាក់	-7.74411
អនុញ្ញាតឱ្យ	-7.74611
▁E	-7.74809
▁M	-7.75102
ពាក្យ	-7.75144
សង្គម	-7.75364
ព	-7.76045
រី	-7.762
ជ	-7.7654
ia	-7.76642
នៅទីនោះ	-7.76954
▁អូ	-7.77426
ដើម	-7.77587
រដ្ឋ	-7.77619
▁វាជា	-7.77839
ច្បាប់	-7.77914
ខ្លួនឯង	-7.77923
▁K	-7.78227
តើ	-7.78359
ol	-7.78417
វាជា	-7.78546
ទាំង	-7.78564
lo	-7.78901
មានន័យថា	-7.78966
to	-7.78988
ុ	-7.79152
គ្មាន	-7.79297
យ៉ាងខ្លាំង	-7.79377
ឡា	-7.79492
▁10	-7.79612
មិនមែន	-7.79616
មួយដែល	-7.79827
ណាមួយ	-7.79952
ពេល	-7.80081
តា	-7.80082
ី	-7.80737
ch	-7.8075
ur	-7.80947
▁4	-7.81061
ព័ត៌មាន	-7.81129
▁5	-7.81146
សំខាន់	-7.81312
▁H	-7.82151
ហា	-7.82238
គួរឱ្យ	-7.82502
ព្រះ	-7.83077
វា។	-7.83136
គិត	-7.83166
ដឹង	-7.83466
▁កុំ	-7.83549
បញ្ចប់	-7.83746
កូន	-7.83914
បន្ត	-7.8415
អារម្មណ៍	-7.84233
អេ	-7.84432
នៅតែ	-7.8478
ស្តាប់	-7.84981
សួរ	-7.85302
ហ	-7.85546
am	-7.85736
សកម្មភាព	-7.86316
ដ៏អស្ចារ្យ	-7.8655
ក្លាយជា	-7.86668
p	-7.86816
ង់	-7.87089
ា	-7.87154
ta	-7.87278
▁Ma	-7.87427
របស់ខ្លួន	-7.87536
ទំនាក់ទំនង	-7.87801
បិទ	-7.88363
នៅថ្ងៃទី	-7.88496
ដី	-7.88941
ការពារ	-7.89063
លក់	-7.89275
ដោយសារតែ	-7.89537
ne	-7.89656
កើតឡើង	-7.89676
ដែរ។	-7.89709
E	-7.89749
ោ	-7.89759
គ	-7.89893
ចុះ	-7.90347
តូច	-7.90517
លេខ	-7.90604
ឃើញ	-7.9091
ដែលអាច	-7.91148
li	-7.91407
▁នេះគឺជា	-7.9144
តើអ្នក	-7.91476
th	-7.91578
ma	-7.91685
ប្រាប់	-7.91721
នរណាម្នាក់	-7.91815
ដែលត្រូវបាន	-7.91958
ក្នុងរយៈពេល	-7.92282
រវាង	-7.92766
មិនអាច	-7.9299
ឆ្លងកាត់	-7.93083
ប្រាក់	-7.93518
▁O	-7.93622
រ៉ា	-7.93826
រួមមាន	-7.94498
il	-7.95011
▁ឬ	-7.95024
ណាស់។	-7.95099
មានអារម្មណ៍ថា	-7.95687
ភាសា	-7.95697
ឯកសារ	-7.95877
I	-7.95906
មើលទៅ	-7.95992
ម៉ាស៊ីន	-7.95997
មែនទេ	-7.96154
ខ្លួនអ្នក	-7.96825
អ្នកមិន	-7.96849
▁ឥឡូវនេះ	-7.96952
របស់លោក	-7.96967
B	-7.96995
na	-7.97056
ing	-7.97347
កាត់	-7.9745
ក្	-7.97474
ថាមពល	-7.97479
at	-7.97558
▁I	-7.97635
មានភាព	-7.98079
ស្វែងរក	-7.98302
ព្រោះ	-7.98392
សម្លាប់	-7.98832
ត្រ	-7.99422
របស់ពួកគេ។	-7.99589
▁នាងបាន	-7.99834
ស្បែក	-7.99996
នេះគឺជា	-8.00086
▁ខ្ញុំគិតថា	-8.00219
រឿងនេះ	-8.00291
សរសេរ	-8.00457
កម្រិត	-8.00562
▁6	-8.00621
តាមរយៈ	-8.00847
បានទេ	-8.00881
បន្ទាប់មក	-8.01018
ក្រ	-8.01032
ដើរ	-8.01249
គ្រប់គ្រាន់	-8.01302
វី	-8.01305
សហរដ្ឋអាមេរិក	-8.01472
ដោះស្រាយ	-8.01515
ទិញ	-8.01519
▁18	-8.01549
ល្អបំផុត	-8.01589
អាក្រក់	-8.0161
▁នៅឆ្នាំ	-8.01662
ចូលចិត្ត	-8.01855
សូម្បីតែ	-8.02244
សៀវភៅ	-8.02851
ទៀត	-8.02877
មី	-8.03065
;	-8.03232
ហៅ	-8.03273
▁នៅពេលដែល	-8.03427
ណ	-8.03503
បាញ់	-8.03519
បា	-8.03528
ខ្លួន	-8.03634
នាំ	-8.0367
រស់នៅ	-8.03837
នៅឯ	-8.03886
R	-8.04009
ជាពិសេស	-8.04231
ស្ថានភាព	-8.04325
ញ	-8.04351
ចាស់	-8.04401
កាន់តែ	-8.04831
លា	-8.04869
ថាតើ	-8.04937
វិធី	-8.04949
របស់វា	-8.05002
ធម្មតា	-8.05123
ចំណុច	-8.05201
ែ	-8.05318
ជួយ	-8.0558
មកពី	-8.05607
រៀន	-8.0565
ការព្យាបាល	-8.05753
et	-8.05794
ប្រហែល	-8.05958
រាងកាយ	-8.06259
st	-8.06365
រូបភាព	-8.06598
ភ្នែក	-8.07096
អាន	-8.07239
ic	-8.0732
ឌី	-8.07368
ស្លាប់	-8.07416
មុខ	-8.07526
H	-8.07657
បានទទួល	-8.07762
គាត់បាន	-8.07802
ស្គាល់	-8.07939
រយៈពេល	-8.08342
ខ្ញុំមិន	-8.08357
តម្លៃ	-8.08438
▁បន្ទាប់មក	-8.08686
រត់	-8.09386
មូលដ្ឋាន	-8.09646
ខ្សែ	-8.09696
te	-8.09856
ក្មេងស្រី	-8.09959
របស់គាត់។	-8.0999
▁W	-8.10427
អនុវត្ត	-8.10448
es	-8.10713
ខ្លាំង	-8.10724
បាននិយាយថា	-8.10821
មិត្តភក្តិ	-8.10854
នៅជុំវិញ	-8.11673
អ្នកបាន	-8.1181
▁20	-8.12053
ពន្លឺ	-8.12129
នយោបាយ	-8.1222
ផងដែរ	-8.12342
ទាំងនោះ	-8.12517
F	-8.12557
ត្រជាក់	-8.12643
▁សូម	-8.12725
យ៉ាងដូចម្តេច	-8.12853
▁N	-8.1302
ឈាម	-8.13227
O	-8.13352
រ៉ូ	-8.13406
ខ្ញុំ។	-8.13472
ទូរស័ព្ទ	-8.13557
ាំង	-8.13558
នោះ។	-8.13881
se	-8.14032
ទាប	-8.14082
ទេប៉ុន្តែ	-8.14183
នៅពេលអ្នក	-8.14244
2	-8.1452
ត្រឡប់មកវិញ	-8.14532
ចូលក្នុង	-8.14632
បញ្ចូល	-8.15323
ក់	-8.15705
សញ្ញា	-8.15711
ដែលមិន	-8.16039
យកចិត្តទុកដាក់	-8.1606
mi	-8.16166
▁ហេតុអ្វីបានជា	-8.16177
ទាំងមូល	-8.16251
4	-8.16471
ed	-8.16616
ពណ៌	-8.16677
សេដ្ឋកិច្ច	-8.16714
គ្រួសារ	-8.16763
▁ដែលជា	-8.16875
ក្បាល	-8.1717
ផ្ទាល់ខ្លួន	-8.1722
ម្តាយ	-8.17309
កូ	-8.17368
ឺ	-8.17461
ត្រឹមត្រូវ	-8.17699
គួរតែ	-8.17738
តែងតែ	-8.17756
▁អ្នកអាច	-8.17839
រកឃើញ	-8.18243
បានធ្វើ	-8.18276
as	-8.18281
កុមារ	-8.18319
និយាយអំពី	-8.18391
សប្តាហ៍	-8.18546
ប៊ី	-8.18669
អ៊ី	-8.18777
-	-8.19231
▁7	-8.19364
ប់	-8.1954
ធ្លាប់	-8.19591
L	-8.19666
រដ្ឋាភិបាល	-8.19854
ផលិត	-8.19884
មិនបាន	-8.20365
▁គាត់បាន	-8.20484
G	-8.2059
នាងបាន	-8.20801
ធ	-8.2087
រង់ចាំ	-8.20963
អ្នកកំពុង	-8.21172
ខ្សែភាពយន្ត	-8.21194
me	-8.21727
វាយ	-8.21728
ប្រេង	-8.21826
ដង	-8.22305
បង្កើន	-8.22429
ព្យាបាល	-8.22433
os	-8.22652
សម្រាប់អ្នក	-8.22658
បន្ថែមទៀត	-8.22727
សេ	-8.22829
▁បន្ទាប់ពី	-8.22989
▁ក្នុង	-8.23098
▁R	-8.23151
ថ	-8.23211
▁V	-8.23238
ទាំងពីរ	-8.23247
ផលិតផល	-8.23329
ni	-8.23337
យើងអាច	-8.23346
co	-8.23373
ចិត្ត	-8.23631
ine	-8.24042
សិក្សា	-8.24273
រីករាយ	-8.2429
បួន	-8.2504
ad	-8.25345
ធម្មជាតិ	-8.25389
ចាប់អារម្មណ៍	-8.2548
ួ	-8.25481
កាន់	-8.25566
វត្ថុ	-8.25622
ស្រឡាញ់	-8.25631
ចង់បាន	-8.26038
ការប្រើប្រាស់	-8.26152
សង្គ្រាម	-8.26155
អ្វីមួយ	-8.26192
អ្នកមាន	-8.26286
បន្ទប់	-8.2646
▁8	-8.26504
មិនអីទេ	-8.2665
3	-8.26677
ទទួលយក	-8.26838
បី	-8.27002
▁ទោះយ៉ាងណា	-8.27351
គោលដៅ	-8.27413
N	-8.27416
បានចាប់ផ្តើម	-8.27433
ឈប់	-8.27507
▁នេះ	-8.27697
សាកល្បង	-8.27754
ជើង	-8.27757
ភ្ជាប់	-8.27864
ដែរ	-8.27904
បញ្ជី	-8.27999
ខុសគ្នា	-8.28011
កំពូល	-8.28146
យើងនឹង	-8.2819
▁L	-8.28646
កណ្តាល	-8.28672
កុំ	-8.28682
ដែលត្រូវ	-8.28766
ទៅក្នុង	-8.29108
ផ្តល់ឱ្យ	-8.29638
នោះទេ។	-8.29725
កន្លែងដែល	-8.29825
ទីតាំង	-8.29952
វិទ្យាសាស្ត្រ	-8.3013
it	-8.30241
ជម្រើស	-8.30327
តិចតួច	-8.30328
ធ្វើឱ្យមាន	-8.30514
បានទេ។	-8.30597
ធ្វើវា	-8.30661
ie	-8.30665
ត្រូវតែ	-8.30703
j	-8.30756
ថ្នាក់	-8.30787
ពីការ	-8.30859
សុខភាព	-8.31065
នៅទីក្រុង	-8.31335
ទូទៅ	-8.31463
ជាធម្មតា	-8.3148
ti	-8.31557
អ្វីដែលអ្នក	-8.316
ន់	-8.31977
ធ្វើឱ្យអ្នក	-8.32409
da	-8.32498
▁នៅក្នុង	-8.32646
ទទួល	-8.32857
េ	-8.32956
ដូចគ្នា	-8.33005
ៀ	-8.33014
អាមេរិក	-8.33022
ុន	-8.33036
យូ	-8.33102
នេះគឺ	-8.3329
ka	-8.33418
ខ	-8.33418
ភ្លាមៗ	-8.33535
អង្គុយ	-8.33693
មានការ	-8.33864
▁La	-8.33888
ជនជាតិ	-8.34149
ដោយប្រើ	-8.34258
ខួរក្បាល	-8.34262
do	-8.34374
ចូលទៅក្នុង	-8.34744
ម្តងទៀត	-8.34885
អំណាច	-8.34919
ប៉ុណ្ណោះ។	-8.34962
ខ្	-8.35227
▁គីឡូម៉ែត្រ	-8.35247
ul	-8.35492
ឱកាស	-8.35598
▁15	-8.36115
▁ឧទាហរណ៍	-8.3615
▁ប្រហែលជា	-8.36181
សិទ្ធិ	-8.36271
បានឃើញ	-8.36433
ប្រយុទ្ធ	-8.36593
យឺត	-8.36636
វិញ	-8.36685
របស់យើង។	-8.3694
អ្នក។	-8.374
▁ត្រូវបាន	-8.37556
បន្ទាប់	-8.377
បង្ហាញពី	-8.37751
អាជីវកម្ម	-8.37979
ចំណាយពេល	-8.38052
អាចត្រូវបាន	-8.38078
ខ្ញុំគិតថា	-8.38199
ជាទូទៅ	-8.38279
តែមួយ	-8.3831
សូ	-8.38519
កាន់តែច្រើន	-8.38549
កាលពី	-8.38573
ខា	-8.38634
សក់	-8.38696
ក៏ដោយ	-8.38878
សំណួរ	-8.38918
ជិត	-8.39389
ខ្មៅ	-8.3945
ខ្យល់	-8.39549
ជំនួយ	-8.39905
លទ្ធផល	-8.40063
ដែលយើង	-8.40247
កើត	-8.40373
យ៉ា	-8.40478
ផ្សព្វផ្សាយ	-8.40776
ba	-8.40844
ថ្ងៃទី	-8.4085
គី	-8.40932
នៅទីនេះ។	-8.40933
បំពេញ	-8.41019
ប៉ូលីស	-8.41118
រៀបចំ	-8.41237
វ៉ា	-8.4125
បែបនេះ	-8.41498
យើងបាន	-8.41517
មេ	-8.4152
នេះត្រូវបាន	-8.42113
ភ	-8.42364
▁មិនអីទេ	-8.42445
ត្រូវបានប្រើ	-8.42643
ដូ	-8.42667
មានបញ្ហា	-8.42779
តុ	-8.42833
នីមួយៗ	-8.42857
ជាប់	-8.42931
ករណី	-8.42938
ប្រតិបត្តិការ	-8.42993
▁9	-8.43018
ក្រោយមក	-8.43094
សិល្បៈ	-8.43255
sh	-8.43425
ញ៉ាំ	-8.43483
ប៉ា	-8.43503
op	-8.43598
សារ	-8.43727
កាត់បន្ថយ	-8.43913
បានក្លាយជា	-8.44054
បំបែក	-8.44134
ដោយគ្មាន	-8.44213
ha	-8.44223
ខ្ញុំអាច	-8.44257
ck	-8.44309
ទើបតែ	-8.44368
ចលនា	-8.44401
ក្មេងប្រុស	-8.44521
ុង	-8.44731
▁ទៅ	-8.449
រោគសញ្ញា	-8.44918
នឹងមាន	-8.44994
គាំទ្រ	-8.45037
មើលឃើញ	-8.45043
ir	-8.45169
▁Al	-8.45199
ឡ	-8.45394
ប្រទេសចិន	-8.45436
ផលប៉ះពាល់	-8.45471
ទៅនឹង	-8.45474
ខាង	-8.45492
ផែនការ	-8.45522
រា	-8.45629
ទទួលបានការ	-8.45774
គិតអំពី	-8.45804
man	-8.46026
តន្ត្រី	-8.4603
ធ្ងន់ធ្ងរ	-8.46042
បំ	-8.46088
ស្រ	-8.46173
om	-8.46299
ទៅជា	-8.46408
ខាងត្បូង	-8.46551
ga	-8.46653
ម៉ោង	-8.46713
ហ្គា	-8.4675
ខុស	-8.46893
ហើយបន្ទាប់មក	-8.46966
សមុទ្រ	-8.47382
ិន	-8.47455
ដែលកំពុង	-8.47508
បច្ចេកវិទ្យា	-8.47626
ទូរទស្សន៍	-8.47805
ការធ្វើ	-8.48092
ពួកគេនឹង	-8.48097
ខ្លី	-8.48161
ce	-8.48213
អ្នកដែល	-8.48285
វេជ្ជបណ្ឌិត	-8.48344
បាត់បង់	-8.48362
ក្នុងចំណោម	-8.48448
ian	-8.48465
▁12	-8.48527
ពាក់កណ្តាល	-8.48572
▁U	-8.48573
▁Ch	-8.48721
ការសិក្សា	-8.48728
កុំព្យូទ័រ	-8.48825
▁ក្នុងឆ្នាំ	-8.48846
គំរូ	-8.49006
មិនចាំបាច់	-8.49116
គ្រូពេទ្យ	-8.49129
ក្រោម	-8.49156
▁ដើម្បី	-8.49212
ពិត	-8.49603
ម្	-8.49614
យូរ	-8.49687
យល់	-8.49698
ឡើងវិញ	-8.49768
▁គ្រាន់តែ	-8.49938
V	-8.50095
ពិសេស	-8.50379
របស់មនុស្ស	-8.50431
'	-8.50588
ពិចារណា	-8.50628
ៈ	-8.50648
▁ដោយសារតែ	-8.50679
ជំនាញ	-8.50765
and	-8.50767
▁ហេ	-8.50858
▁Mar	-8.50946
កោសិកា	-8.50958
ជាមួយអ្នក	-8.50982
ចូលរួម	-8.51196
៍	-8.51495
ពាណិជ្ជកម្ម	-8.51544
សំ	-8.51572
ជាមួយនឹងការ	-8.51587
ពាក់	-8.51869
ទិន្នន័យ	-8.51886
ជាក់លាក់	-8.52038
ពីរបី	-8.52115
សំណើច	-8.52289
នឹងមិន	-8.52563
ប្រភព	-8.52594
ក្មេង	-8.52622
មានតែ	-8.52638
បច្ចុប្បន្ន	-8.52726
un	-8.52773
ឈរ	-8.52834
ការប្រកួត	-8.52989
ចិន	-8.53015
ថ្ម	-8.53055
បង្កើតឡើង	-8.5328
គម្រោង	-8.53452
សាលា	-8.53498
ឥឡូវនេះ។	-8.53508
អន្តរជាតិ	-8.53528
បានបង្កើត	-8.53584
ph	-8.53618
ជី	-8.53625
ប៉ះ	-8.53782
ខែ	-8.54049
ផ្ទៃ	-8.54106
ទារក	-8.54265
របស់ក្រុមហ៊ុន	-8.54342
ចាំបាច់	-8.54438
ខាងលិច	-8.54478
sa	-8.54681
វានឹង	-8.54726
បានស្លាប់	-8.54782
អាយុ	-8.54879
bo	-8.54958
សេវាកម្ម	-8.55011
តូ	-8.55044
ព្រឹត្តិការណ៍	-8.55365
មាត់	-8.55631
ry	-8.55668
ថាជា	-8.557
ក្នុងតំបន់	-8.55936
▁អ្នកមិន	-8.55962
របស់នាង។	-8.55989
▁អ្នកបាន	-8.56049
um	-8.56066
ទាក់ទងនឹង	-8.56117
ឪពុក	-8.56137
ទម្រង់	-8.56237
គាត់នឹង	-8.56265
▁នាទី	-8.5627
di	-8.56345
ប៉ុន្មាន	-8.56349
▁30	-8.56445
ពិនិត្យមើល	-8.56563
របស់អ្នកហើយ	-8.56678
ោះ	-8.56687
ៃ	-8.56709
និយាយជាមួយ	-8.56736
ល់	-8.56847
ស្ងួត	-8.57053
ចម្ងាយ	-8.57238
ធី	-8.57271
បន្តិច	-8.57488
ក៏ដោយ។	-8.57574
អេស	-8.57581
▁នៅថ្ងៃទី	-8.57636
ឈឺចាប់	-8.57685
ប្រាប់អ្នក	-8.57693
id	-8.57701
▁ទោះបីជា	-8.57724
បំផ្លាញ	-8.57842
ទីផ្សារ	-8.57872
ទុក	-8.57923
mo	-8.57961
ិត	-8.5798
ពួកគេបាន	-8.58092
យ៉ាងហោចណាស់	-8.58371
វីដេអូ	-8.58437
ហាក់ដូចជា	-8.58439
ស្អាត	-8.58496
អត្ថបទ	-8.58504
ច្រើនជាង	-8.5852
ជាអ្នក	-8.58574
ខាងលើ	-8.58641
ជួប	-8.58689
▁ខ្ញុំចង់	-8.58733
ក្រោយ	-8.58745
ៗ	-8.59095
ះ	-8.59148
បង្រៀន	-8.59239
ផ្សេងទៀត។	-8.59273
សំលេង	-8.5943
▁Re	-8.59616
K	-8.59718
ពិតប្រាកដ	-8.59743
ទោះបីជា	-8.59832
ter	-8.59872
▁នោះហើយជា	-8.60125
de	-8.60138
កោះ	-8.6017
កូនប្រុស	-8.60191
▁St	-8.60242
ផ្ទុក	-8.60396
គេហទំព័រ	-8.60449
▁Co	-8.60589
ភាគ	-8.60622
កាំភ្លើង	-8.60681
លើក	-8.60685
ទ្វារ	-8.61091
ត្រី	-8.61325
ចាំ	-8.61664
ឡាន	-8.61869
វប្បធម៌	-8.6195
ប៉ូឡូញ	-8.62064
ឱ្យអ្នក	-8.62106
បញ្ឈប់	-8.62269
ទាំងស្រុង	-8.62571
វាអាច	-8.62605
សាកលវិទ្យាល័យ	-8.62686
ហើយបាន	-8.62709
ទំហំ	-8.62709
កម្លាំង	-8.6291
យើងមាន	-8.62913
ភ្លើង	-8.62979
របៀបដែល	-8.63063
ដោយមាន	-8.63208
ang	-8.63223
បានធ្វើឱ្យ	-8.6323
ដក	-8.6326
ធាតុ	-8.63269
wa	-8.63391
son	-8.63455
no	-8.63464
រូប	-8.63472
ដោយការ	-8.63551
រាល់	-8.63635
ហ្គេម	-8.63701
ជំនួស	-8.63721
v	-8.63861
ថត	-8.63921
ឱ្យមាន	-8.63937
បណ្តាញ	-8.63964
ខ្ញុំមាន	-8.63984
នៅក្រោម	-8.6399
អ្នកត្រូវ	-8.64071
បញ្ជូន	-8.64101
ពិបាក	-8.64181
ប្រាំ	-8.64272
ទុកចិត្ត	-8.64273
ការិយាល័យ	-8.64451
មូលហេតុដែល	-8.64544
សាច់	-8.64577
ណូ	-8.64626
ភ្នំ	-8.6469
មួយទៀត	-8.64735
អ្នកដទៃ	-8.64916
ដទៃទៀត	-8.64986
ផ្សេងៗគ្នា	-8.6505
បូ	-8.65143
ប្រវត្តិសាស្ត្រ	-8.65167
អាវ	-8.65172
ly	-8.65236
be	-8.65338
ទៅកាន់	-8.65567
ចេញ។	-8.65918
ការពិត	-8.66296
បង់	-8.66364
▁Le	-8.66549
ែល	-8.66566
ton	-8.66794
ឪពុកម្តាយ	-8.66986
អង្គការ	-8.67037
ឈឺ	-8.67108
1	-8.67108
pe	-8.67415
▁Ka	-8.67466
ពីព្រោះ	-8.6752
vi	-8.67959
▁ខ្ញុំមាន	-8.67969
▁Ro	-8.67978
វាបាន	-8.68186
ard	-8.68197
ក្តៅ	-8.68237
អ្នកគួរតែ	-8.68446
ពួកគេ។	-8.68617
▁យើងនឹង	-8.68644
ចុច	-8.68731
សាធារណៈ	-8.68758
ិច	-8.68898
នៅពេលដែលអ្នក	-8.68982
ក៏ដូចជា	-8.69184
ពង្រីក	-8.69221
រាប់	-8.69238
នៅទីនោះ។	-8.69244
ក្នុងករណី	-8.69263
ការគ្រប់គ្រង	-8.69273
ៅ	-8.69326
សហគមន៍	-8.69517
ខ្ញុំកំពុង	-8.69519
ទាញ	-8.69526
ធ្វើដំណើរ	-8.69623
go	-8.69634
ca	-8.69649
មិនដែល	-8.69656
io	-8.69757
ប្រអប់	-8.69814
ហេតុអ្វីបានជា	-8.69913
ប្រាកដថា	-8.69955
ម៉ូ	-8.6996
័រ	-8.70224
ណែនាំ	-8.70416
ថ្លៃ	-8.70444
ជាងនេះ	-8.70499
ពេញចិត្ត	-8.705
ហ្វ	-8.70529
ក្រឡេកមើល	-8.70861
សាមញ្ញ	-8.70936
អាហ្វ្រិក	-8.70936
សម្លៀកបំពាក់	-8.71087
នេះបាន	-8.71151
បេះដូង	-8.71245
ត់	-8.71258
ក៏អាច	-8.71311
ហាង	-8.71352
ពេក	-8.71365
នៅប្រទេស	-8.71534
▁17	-8.71587
ខ្ញុំចង់	-8.71593
00	-8.71778
មិត្ត	-8.71848
▁នៅពេល	-8.7194
បម្រើ	-8.7212
អាចមាន	-8.7213
ទំនងជា	-8.72147
អាចធ្វើឱ្យ	-8.72164
កងទ័ព	-8.72223
ហើយវា	-8.72245
ធ្វើឱ្យវា	-8.72503
មើលទៅដូចជា	-8.72514
ow	-8.72519
កំណើត	-8.72521
រំ	-8.72553
សាងសង់	-8.72659
▁អ្នកនឹង	-8.72672
ែន	-8.72805
é	-8.72912
▁16	-8.72976
ស្ទើរតែ	-8.72988
ចំ	-8.7301
ពួកគេមិន	-8.73046
តិ	-8.73085
ទា	-8.73139
ឧទាហរណ៍	-8.73139
ឡើយ។	-8.73221
ម៉	-8.73452
នេះជា	-8.73581
រួមទាំង	-8.73585
គ្រោះថ្នាក់	-8.73682
▁Ba	-8.73691
ផ្កាយ	-8.73909
វាពិតជា	-8.73959
គឺថា	-8.7413
វាមិន	-8.74195
តិចជាង	-8.74212
ខណៈពេលដែល	-8.7423
▁Me	-8.74336
%	-8.74372
បុរាណ	-8.74535
ផ្តោតលើ	-8.74569
អាឡឺម៉ង់	-8.74663
▁De	-8.74757
ចាប់	-8.74871
ប្រធានាធិបតី	-8.74899
ូ	-8.74962
ច្រ	-8.74982
មួយក្នុងចំណោម	-8.75055
អ្នកចង់	-8.75113
ដែលខ្ញុំ	-8.75236
សរុប	-8.75318
ជឿ	-8.75354
សុវត្ថិភាព	-8.7546
ដើម្បីទទួលបាន	-8.75525
បទពិសោធន៍	-8.7561
បានបញ្ចប់	-8.75929
ក្លឹប	-8.76107
ចែករំលែក	-8.76107
បន្	-8.7611
រង	-8.7628
មានសុវត្ថិភាព	-8.7636
ដោយផ្ទាល់	-8.76374
រារាំង	-8.76424
បានរកឃើញ	-8.76429
U	-8.76574
ប៉ុន្តែវា	-8.76593
គូ	-8.76718
បង្ហាញថា	-8.76725
លុយ	-8.76726
របៀប	-8.76772
ភី	-8.768
ចាកចេញ	-8.76924
កំដៅ	-8.77062
រុក្ខជាតិ	-8.77062
ឱ្យបាន	-8.77105
ដែលពួកគេ	-8.77131
វែង	-8.77154
រថយន្ត	-8.77222
មាស	-8.77227
▁Mi	-8.77244
ម៉ាក់	-8.77261
ko	-8.77291
ប្តូរ	-8.77462
ជារឿយៗ	-8.77543
ho	-8.7764
មិនត្រឹមតែ	-8.77769
អ្នកណាម្នាក់	-8.77942
ទាំងអស់។	-8.77981
យល់ព្រម	-8.78026
ខណៈដែល	-8.7811
he	-8.78144
ដែលអ្នកបាន	-8.78269
សាសនា	-8.78362
ជាមួយគ្នា	-8.78369
សេចក្តី	-8.78387
មិនល្អ	-8.78426
គណបក្ស	-8.78431
ut	-8.78458
▁Ca	-8.78807
កំហុស	-8.78977
នោះគឺជា	-8.79344
▁អញ្ចឹង	-8.79392
រក្សាទុក	-8.79465
គ្រប់	-8.7956
បារាំង	-8.79611
ចិញ្ចឹម	-8.7971
ទាក់ទង	-8.79757
ដឹកនាំ	-8.79797
បុរសម្នាក់	-8.79926
▁ឥឡូវ	-8.80171
អតីត	-8.80206
ជុំវិញ	-8.8026
▁ខ្ញុំកំពុង	-8.80283
តូចមួយ	-8.80287
ធ្វើឱ្យខ្ញុំ	-8.80296
នៅជិត	-8.80302
▁J	-8.80884
ke	-8.80931
▁Mo	-8.81018
ot	-8.81195
ុក	-8.81245
វិជ្ជមាន	-8.8132
▁ដុល្លារ	-8.81342
និយម	-8.81375
មិនត្រូវបាន	-8.81439
របស់ប្រទេស	-8.81744
អស់រយៈពេល	-8.81765
ឈានដល់	-8.81885
ស្នាក់នៅ	-8.81971
នា	-8.81988
bi	-8.82015
ក្រុមគ្រួសារ	-8.82037
ជប៉ុន	-8.82055
po	-8.82216
អាចជួយ	-8.82317
គុណ	-8.82465
ចាកចេញពី	-8.82528
▁Bo	-8.82555
អស្ចារ្យ	-8.82607
បុគ្គល	-8.82642
tt	-8.82658
ល្អ។	-8.82708
ដើម្បីធ្វើឱ្យ	-8.82732
ដំណោះស្រាយ	-8.82738
សម្	-8.82791
ចាប់តាំងពី	-8.8291
8	-8.82937
ចំពោះការ	-8.83159
▁Z	-8.83302
ru	-8.83485
Y	-8.83517
ជឿថា	-8.83555
អាចជា	-8.8357
ចាក់	-8.83637
យោធា	-8.83759
គាត់។	-8.83872
កូនស្រី	-8.83989
ស្ថិតនៅក្នុង	-8.84118
ក្នុងស្រុក	-8.84146
តម្រូវការ	-8.84166
ភ្លេច	-8.84273
ដៃរបស់អ្នក	-8.84463
ផ្កា	-8.84538
ឆ	-8.84729
បរិមាណ	-8.8479
តុលាការ	-8.84803
ធ្វើជា	-8.84804
អគារ	-8.84876
ហេតុផល	-8.84895
9	-8.84898
▁យើងបាន	-8.84947
សម្រាក	-8.85024
ដ៏ធំមួយ	-8.85051
ki	-8.85055
ប៉	-8.85104
ci	-8.85124
ផ្	-8.85179
ac	-8.85305
ឆ្កួត	-8.85396
ឆ្ងាយ	-8.85528
សមាជិក	-8.85557
គ្រាន់តែជា	-8.85629
ការបង្កើត	-8.85669
ភ្នាក់ងារ	-8.85816
ផ្ទាល់	-8.85838
មនុស្សដែល	-8.85874
ក្រហម	-8.85891
ab	-8.85904
បរិភោគ	-8.85919
ក្រដាស	-8.85923
ill	-8.85948
ព្រៃ	-8.86057
ជំហាន	-8.86182
va	-8.86191
▁Sa	-8.8631
សកម្ម	-8.86343
▁Ha	-8.86355
យើងកំពុង	-8.86557
សាច់ដុំ	-8.86586
មួយផ្សេងទៀត	-8.86625
ទឹកកក	-8.86701
បដិសេធ	-8.86765
ពេលខ្លះ	-8.86829
ត្	-8.86859
បែប	-8.87024
វៀតណាម	-8.87043
ant	-8.87051
ទាក់ទាញ	-8.87062
ពិ	-8.87068
▁ហើយខ្ញុំ	-8.87094
អ្វីដែលខ្ញុំ	-8.87279
ប៊	-8.87299
យ៉ាងឆាប់រហ័ស	-8.87327
នៅខាងក្រៅ	-8.87356
▁11	-8.8738
អាល់	-8.87405
នឹងក្លាយជា	-8.87425
ចំណាយ	-8.87478
អវិជ្ជមាន	-8.87493
▁អ្នកដឹងទេ	-8.87498
ថែរក្សា	-8.87505
តាមដាន	-8.87579
ł	-8.87682
ុយ	-8.87855
ប្រសិនបើខ្ញុំ	-8.87923
▁Ra	-8.87944
ផ្តល់នូវ	-8.88011
បង្ក	-8.88241
ឆ្កែ	-8.88246
នាក់	-8.88274
អង់គ្លេស	-8.88312
ទសវត្សឆ្នាំ	-8.88449
ពេញ	-8.88462
ៀន	-8.88572
នៅតែមាន	-8.88692
▁ពួកគេបាន	-8.88768
ប្រមូល	-8.88852
ធនាគារ	-8.89115
គោលបំណង	-8.89128
ឡូ	-8.8914
សមត្ថភាព	-8.8921
ts	-8.8932
មុខងារ	-8.89567
▁de	-8.89578
ឯក	-8.89701
ខ្លាំងណាស់	-8.89746
វិធីសាស្រ្ត	-8.8979
រឿងរ៉ាវ	-8.8984
▁មិនមាន	-8.89879
តាមរបៀប	-8.8996
ell	-8.89999
nd	-8.90054
វិ	-8.90115
រស់នៅក្នុង	-8.90291
័	-8.9035
លើសពី	-8.90385
អ្នកនិពន្ធ	-8.90429
នោះគឺ	-8.9053
▁14	-8.90553
ឃ	-8.90579
▁0	-8.90626
បញ្ចេញ	-8.9066
ភូមិ	-8.90789
ឈើ	-8.90808
ពួកគេអាច	-8.90825
លូ	-8.90862
កំ	-8.91293
មនុស្សម្នាក់	-8.91489
មន្ទីរពេទ្យ	-8.91499
គាត់មិន	-8.91617
ផែនដី	-8.9182
ដែលមិនមាន	-8.91945
ទន្លេ	-8.92135
មនុស្សគ្រប់គ្នា	-8.92138
▁វាគឺជា	-8.92151
នៅថ្ងៃ	-8.92211
តារា	-8.9239
តួនាទី	-8.92484
លីន	-8.92485
W	-8.92587
▁Te	-8.92603
មកដល់	-8.92607
មជ្ឈមណ្ឌល	-8.92697
បានកើតឡើង	-8.9271
one	-8.92854
▁An	-8.92921
លួច	-8.93072
ជំរុញ	-8.93074
ពីរនាក់	-8.93164
នៅខាងក្នុង	-8.93325
លាយ	-8.93388
▁បុរស	-8.93395
ជេ	-8.93398
ដែលខ្ញុំបាន	-8.93486
ff	-8.93536
ឈ្នះ	-8.93643
កីឡា	-8.9372
បេ	-8.93729
អតិថិជន	-8.93731
ងងឹត	-8.94015
សេរីភាព	-8.94022
មិនគួរ	-8.94054
ប្រធានបទ	-8.94106
ជួរ	-8.9428
យើងទាំងអស់គ្នា	-8.94304
7	-8.94355
ប្រតិកម្ម	-8.94423
ឧស្សាហកម្ម	-8.94585
▁2016	-8.94595
នៅសហរដ្ឋអាមេរិក	-8.9463
▁100	-8.94729
ត្រូវធ្វើ	-8.94953
ហ្	-8.94999
ដំណាក់កាល	-8.95062
ស្មុគស្មាញ	-8.95062
អ្នកពិតជា	-8.95136
រឹង	-8.95228
អ្វីៗ	-8.95264
ពីមុន	-8.95323
កើនឡើង	-8.95378
ងាយស្រួល	-8.95386
ទោះបី	-8.95534
បរិស្ថាន	-8.95543
ចង	-8.95545
នោះជា	-8.95567
អំពីការ	-8.95586
/	-8.95819
ពួកគេមាន	-8.95824
ជាការពិត	-8.95872
ខេត្ត	-8.95928
ល្បឿន	-8.96035
អ្នកជំងឺ	-8.96104
អាស៊ីត	-8.96145
គ្រាប់	-8.96214
ទៅរក	-8.96259
នឹងត្រូវបាន	-8.96283
យើងមិន	-8.96289
យកវា	-8.96331
អ្នកដឹងទេ	-8.96473
ទំនើប	-8.96501
លាង	-8.96523
ហើយខ្ញុំ	-8.96542
ក្រៅ	-8.96619
នៅចុង	-8.96653
បន្ទាត់	-8.96709
▁13	-8.96741
ប្រកាស	-8.96755
ធ្វើដូច្នេះ	-8.97045
ស្រុក	-8.97175
▁លោកស្រី	-8.97415
za	-8.97455
▁p	-8.97487
ផ្តល់ឱ្យអ្នកនូវ	-8.97593
▁នោះគឺជា	-8.97624
ឃើញថា	-8.97823
ថាអ្នក	-8.97856
ate	-8.97872
បទ	-8.97879
ប្រទេសវៀតណាម	-8.97899
អាស៊ី	-8.97975
រូ	-8.97981
នៅឯណា	-8.98015
គេង	-8.98041
ពណ៌ស	-8.98089
ឹម	-8.98132
ឆាប់	-8.98159
អ្នកប្រហែលជា	-8.98202
អភិវឌ្ឍ	-8.98433
ដែលមានឈ្មោះថា	-8.98654
5	-8.98672
ជំងឺមហារីក	-8.98702
អាចធ្វើបាន	-8.98717
ឌ	-8.98782
វិញ។	-8.98786
មានតម្លៃ	-8.98829
ជាងមុន	-8.98954
រដ្ឋបាល	-8.99007
ជីវ	-8.99053
បើកចំហ	-8.99192
ការអភិវឌ្ឍ	-8.99304
▁ខណៈពេលដែល	-8.99365
បច្ចេកទេស	-8.99366
រឹងមាំ	-8.99566
im	-8.99579
ធ្លាក់ចុះ	-8.99594
▁Po	-8.99601
ber	-8.99694
អាចមើលឃើញ	-8.99714
បោះ	-8.99775
ov	-8.9979
▁ម៉ោង	-8.9987
ជន	-8.99871
ឯកជន	-8.99881
លោកស្រី	-8.99904
ភ័យខ្លាច	-8.99914
លាន	-9.00021
▁Ta	-9.00022
ជិះ	-9.00163
ប្រពៃណី	-9.00169
▁2017	-9.00183
ជោគជ័យ	-9.00236
នៅថ្ងៃនេះ	-9.00544
សម	-9.00576
▁Na	-9.00654
ដកដង្ហើម	-9.00687
កម្ម	-9.00706
មានអាយុ	-9.00752
ប្រធាន	-9.00813
រឿងនោះ	-9.00841
ទាញយក	-9.00906
ការឈឺចាប់	-9.01007
អាយ	-9.01045
ដោយមិន	-9.01065
មានលក្ខណៈ	-9.01081
ប្រាកដ	-9.01169
កំណែ	-9.01182
em	-9.0135
ផឹក	-9.0145
អ្នកមិនអាច	-9.01451
▁Se	-9.01559
កំណត់ត្រា	-9.01616
ផា	-9.01723
▁2014	-9.01803
លើកទី	-9.01816
ve	-9.01963
▁X	-9.01991
គ្រឿង	-9.02024
▁ភាគរយ	-9.02029
សម្រាប់ខ្ញុំ	-9.02295
ខាងក្រៅ	-9.02383
ការស្លាប់	-9.02419
ge	-9.02467
▁Ar	-9.02643
ស្រាល	-9.02644
ផ្ទាំង	-9.02724
ដែរឬទេ	-9.02752
វាល	-9.02781
ចូលរួមក្នុង	-9.02801
▁'	-9.02826
ដែលមានភាព	-9.02866
វ័យក្មេង	-9.02938
ស្រី	-9.03014
លក្ខណៈ	-9.03173
▁តាមពិត	-9.03198
ព្រះអាទិត្យ	-9.03209
អភិវឌ្ឍន៍	-9.03239
រចនាសម្ព័ន្ធ	-9.03346
▁Li	-9.03387
ចាប់ពី	-9.03389
▁2015	-9.03458
▁ថ្ងៃ	-9.03471
បំពង់	-9.03523
នៅពេលដែលខ្ញុំ	-9.03646
▁2012	-9.0367
បងប្រុស	-9.03759
tic	-9.03789
ច្បាស់	-9.03839
▁(19	-9.03911
ើ	-9.0397
si	-9.03998
អត្រា	-9.04006
រួមគ្នា	-9.04018
គួរ	-9.0403
ការសន្ទនា	-9.04073
កញ្ចក់	-9.04283
ក្រៅពី	-9.0431
មន្រ្តី	-9.04418
▁វាមាន	-9.04472
ជួសជុល	-9.04493
អ្វីដែលយើង	-9.04494
បន្ទាប់ពីការ	-9.045
▁ប្រើ	-9.04613
ដៃគូ	-9.04614
មិនស្គាល់	-9.04616
ina	-9.04622
ទទួលស្គាល់	-9.04626
ll	-9.04645
អាល់ប៊ុម	-9.04704
ដើម្បីឱ្យ	-9.04736
ស្រាវជ្រាវ	-9.04791
ជញ្ជាំង	-9.04809
▁ភាគខាងជើងខាងលិច	-9.04822
បាល់	-9.04838
▁Ho	-9.04928
▁2011	-9.05036
បង្អួច	-9.05126
អាជីព	-9.05126
នៅតាម	-9.05294
សមនឹង	-9.05323
សក្តានុពល	-9.05441
ជាក់ស្តែង	-9.05444
ហិរញ្ញវត្ថុ	-9.05444
ដែលធ្វើឱ្យ	-9.05458
pa	-9.0561
យ៉ាងម៉េច	-9.05657
បើ	-9.05755
ទំព័រ	-9.05763
ប្រើប្រាស់	-9.05772
កាន់កាប់	-9.05869
តាំងពី	-9.05953
ទ្រឹស្តី	-9.06297
រង្វាន់	-9.06298
▁Man	-9.06333
ខ្ញុំបានឃើញ	-9.06344
សារធាតុ	-9.06368
ការស្រាវជ្រាវ	-9.06425
កាហ្វេ	-9.06512
yl	-9.06556
បាននិយាយ	-9.06608
ចុង	-9.06611
ត្រូវបានគេហៅថា	-9.06807
រចនា	-9.06808
▁វាត្រូវបាន	-9.0682
ផ្តល់ជូន	-9.06826
សន្តិសុខ	-9.06835
កិច្ចព្រមព្រៀង	-9.06835
បាល់ទាត់	-9.0684
កុហក	-9.06942
នៅក្នុងប្រទេស	-9.07073
ស៊េរី	-9.07266
យុត្តិធម៌	-9.07267
ការធ្វើតេស្ត	-9.07369
▁50	-9.0745
មែន	-9.0762
ver	-9.07654
ភាពតានតឹង	-9.07749
អក្សរ	-9.07912
លោត	-9.07918
ប្រសិនបើយើង	-9.07998
គឺជាការ	-9.08007
លើកលែងតែ	-9.08022
ចម្លើយ	-9.08026
ទៅលើ	-9.08189
នោះទេ	-9.08233
បានផ្លាស់ប្តូរ	-9.08282
ផ្លូវចិត្ត	-9.08335
ide	-9.08352
ent	-9.08474
ស្រដៀងគ្នា	-9.08573
ហ្សា	-9.08667
ធ្លាក់	-9.08677
▁Ga	-9.08687
ប្រមាណ	-9.08773
ដោយសារ	-9.08787
ធ្មេញ	-9.0879
ស្នេហា	-9.08902
▁ក្រុមហ៊ុន	-9.08979
ចែកចាយ	-9.09012
សីតុណ្ហភាព	-9.09012
កាត	-9.09042
មួយដែលមាន	-9.09104
ចាន	-9.09155
សម្ពាធ	-9.09203
ដូចជាការ	-9.0924
អនាគត	-9.09329
ឆ្លង	-9.09334
មានឥទ្ធិពល	-9.09425
ម្តងទៀត។	-9.09429
▁ត្រូវប្រាកដថា	-9.09501
ក្នុងមួយ	-9.09517
ម្ចាស់	-9.09576
លឿន	-9.09603
ជួល	-9.09675
ចំពោះអ្នក	-9.09773
អាកាសធាតុ	-9.0991
យល់ពី	-9.09917
ទៀតទេ។	-9.10086
ប្រឆាំង	-9.10115
អាស្រ័យលើ	-9.10133
ម្ហូប	-9.10179
សោ	-9.10199
ខេ	-9.10214
យន្តហោះ	-9.10224
ផ្ញើ	-9.10288
ដើម្បីជួយ	-9.10355
▁នៅពេលដែលអ្នក	-9.10372
ប្រាប់ខ្ញុំ	-9.10435
ឧ	-9.10453
អេក្រង់	-9.10454
លែង	-9.10508
ន្	-9.10602
សភា	-9.10613
ដូចនេះ	-9.10654
ផ	-9.10676
ត្រង់	-9.10793
ចៀសវាង	-9.10901
រដូវកាល	-9.11022
គោលនយោបាយ	-9.11025
គ្មាននរណាម្នាក់	-9.11045
ដេក	-9.11075
អ្នកណា	-9.11096
អត្ថប្រយោជន៍	-9.11126
សាលារៀន	-9.1118
មា	-9.11182
មានអ្វី	-9.11197
ដើមឈើ	-9.1129
បានដាក់	-9.11317
ហេ	-9.11344
ត្រៀមខ្លួន	-9.11362
ករ	-9.11378
ya	-9.11441
6	-9.11448
▁Lo	-9.11468
តំណាងឱ្យ	-9.11507
តិច	-9.11635
lu	-9.11661
កាលបរិច្ឆេទ	-9.11803
ប្រូតេអ៊ីន	-9.11803
វាជាការ	-9.11837
របស់វា។	-9.11861
ណ្	-9.11914
កាសែត	-9.11916
រំពឹងថា	-9.1195
ក្រណាត់	-9.12029
lin	-9.12049
hi	-9.1219
មានគ្រោះថ្នាក់	-9.1235
ជាមុន	-9.12486
▁ខ្ញុំចង់និយាយថា	-9.12491
▁To	-9.12496
អស់	-9.12556
គូរ	-9.12565
▁មើល	-9.12622
ធ្វើអ្វី	-9.12639
រាងកាយរបស់អ្នក	-9.12653
ster	-9.12682
ជៀសវាង	-9.12818
វាត្រូវបាន	-9.12833
▁តើអ្នកបាន	-9.12854
និស្សិត	-9.12941
ចម្លែក	-9.13055
ខាងជើង	-9.13089
អ្នកត្រូវតែ	-9.1309
អាវុធ	-9.13166
ទុកឱ្យ	-9.13318
ក្នុងនាមជា	-9.13341
ក៏បាន	-9.13423
▁អ្វីដែល	-9.13532
ការយល់ដឹង	-9.13659
▁heard	-9.13674
ថែមទាំង	-9.13836
សក់របស់អ្នក	-9.13842
ព្រំដែន	-9.13846
គេស្គាល់ថាជា	-9.13951
▁ខ្ញុំមិនអាច	-9.1396
ប្រជាធិបតេយ្យ	-9.13977
▁Gu	-9.14078
គួរឱ្យកត់សម្គាល់	-9.14085
លក្ខខណ្ឌ	-9.14092
▁2018	-9.1411
▁Pa	-9.14114
ធ្ងន់	-9.14208
▁ព្យាយាម	-9.14322
គណនី	-9.14324
មធ្យោបាយ	-9.1444
ដោយខ្លួនឯង	-9.14467
ដុត	-9.14548
លាប	-9.14707
ខ្ញុំទេ	-9.14745
ក្នុងអំឡុងពេល	-9.14867
នឹងត្រូវ	-9.14889
ឆ្ងាយពី	-9.14912
ចន	-9.14913
▁2010	-9.14927
រូបថត	-9.15166
មានប្រសិទ្ធិភាព	-9.15257
ម៉ារី	-9.15275
លឺ	-9.15424
ខ្ញុំត្រូវការ	-9.15473
អារ៉ាប់	-9.15492
ទម្លាក់	-9.15492
ដដែល	-9.15495
រំខាន	-9.1556
ស្រា	-9.15567
នៅផ្ទះ	-9.15587
ដែលនឹង	-9.15625
នាទី	-9.15661
នាំឱ្យមាន	-9.1567
bu	-9.15738
ពន្ធ	-9.15784
ពិនិត្យ	-9.15819
មូលហេតុ	-9.15869
គីមី	-9.15924
កំពុងព្យាយាម	-9.15924
▁ដូច	-9.15981
ពិធី	-9.15987
មួយចំនួន។	-9.15991
▁the	-9.16063
កំរិត	-9.16081
ដោះលែង	-9.1609
ហ្សែន	-9.16093
បានបង្ហាញ	-9.16191
ឆ្អឹង	-9.16192
▁2013	-9.1621
ស្មោះត្រង់	-9.16314
អ្វីៗទាំងអស់	-9.16381
ពិធីជប់លៀង	-9.16436
មិនទាន់	-9.16454
អាចធ្វើទៅបាន	-9.16556
ខាងមុខ	-9.16571
ស្នើសុំ	-9.1667
ជ្រៅ	-9.16681
per	-9.16685
ទទួលខុសត្រូវ	-9.16827
ផ្លែឈើ	-9.16918
ិក	-9.16931
ស្លាក	-9.16965
▁Di	-9.16985
ញូវយ៉ក	-9.1703
រួម	-9.17045
ដាក់វា	-9.17065
ពួកគេកំពុង	-9.17119
នេះមាន	-9.17132
សរសៃឈាម	-9.17246
គិតពី	-9.1737
ផ្លូវភេទ	-9.1744
មានប្រយោជន៍	-9.17441
ran	-9.17493
ប្រុងប្រយ័ត្ន	-9.17508
បញ្ជាក់	-9.17512
សេះ	-9.17615
ze	-9.17634
ខ្លាញ់	-9.17939
ឈុត	-9.17989
▁Ne	-9.18167
pi	-9.18198
wi	-9.18234
▁25	-9.18276
▁តើវា	-9.18298
មកទីនេះ	-9.18335
ចាប់យក	-9.1836
គោរព	-9.18363
ការគាំទ្រ	-9.18386
ឡេ	-9.184
ជាច្រើន។	-9.18415
ig	-9.18511
ទាំងអស់នេះ	-9.1852
នូវអ្វីដែល	-9.18536
▁ហើយបន្ទាប់មក	-9.18562
ដំណើរ	-9.18594
ល្	-9.18672
បោះពុម្ពផ្សាយ	-9.18723
អ្នកទាំងអស់គ្នា	-9.18809
▁+	-9.18859
គេ	-9.18861
ឡុង	-9.1888
ចងចាំ	-9.1889
រដូវ	-9.189
សម្អាត	-9.18944
▁ខ្ញុំដឹងថា	-9.18973
តែមួយគត់	-9.19171
បរទេស	-9.1931
វាគឺជា	-9.19397
ប៉ុណ្ណោះទេ	-9.19404
វគ្គ	-9.19418
តែម្នាក់ឯង	-9.19445
ហ្គូ	-9.19524
ពានរង្វាន់	-9.19537
ទស្សនៈ	-9.19566
ជួយសង្គ្រោះ	-9.19593
ភេទ	-9.19822
ប៉ុណ្ណោះ	-9.19836
▁Jo	-9.19872
▁យើងមាន	-9.19886
ពុល	-9.19917
របបអាហារ	-9.19964
ការប្រយុទ្ធ	-9.20032
▁តើអ្នកអាច	-9.20067
សង្ស័យ	-9.20144
ខាងក្នុង	-9.20157
ការសម្រេចចិត្ត	-9.2022
ពេញលេញ	-9.20256
ពិពណ៌នា	-9.20276
ការអនុវត្ត	-9.20316
ម្តង	-9.20319
បានបង្ហាញថា	-9.20323
បាត់	-9.20329
បានសរសេរ	-9.20468
សម្លេង	-9.20493
រូបរាង	-9.20519
របាយការណ៍	-9.2055
គំនូរ	-9.2055
អ្វីខ្លះ	-9.20558
gu	-9.2056
ធ្វើសកម្មភាព	-9.20587
មួយនៃ	-9.20665
ប្រសិទ្ធភាព	-9.20686
មានចំនួន	-9.20694
មេដឹកនាំ	-9.2071
ud	-9.20787
តេ	-9.20818
▁2004	-9.20821
▁Car	-9.20879
ឈ	-9.20887
ដូចគ្នានឹង	-9.20911
មួយនៅ	-9.20922
der	-9.20929
▁អ្នកគឺជា	-9.20929
សុ	-9.20955
ាស់	-9.21101
ប្រពន្ធ	-9.21215
ដែលអ្នកអាច	-9.21273
នៅទូទាំង	-9.2137
ទ្រព្យសម្បត្តិ	-9.21419
ជាន់	-9.21449
ដ៏សំខាន់	-9.21526
▁សូមឱ្យ	-9.21575
ន្ទ	-9.21582
ព្រោះវា	-9.21595
ជាជាង	-9.21657
នៅពេលក្រោយ	-9.21666
ក្រសួង	-9.21668
ហើយពួកគេ	-9.21806
ហានិភ័យ	-9.21835
ស្តេច	-9.21918
នៅពីក្រោយ	-9.21945
ក៏មាន	-9.21963
នាវា	-9.22032
ឹ	-9.22037
ស្តីពី	-9.22043
នេះនឹង	-9.22047
▁In	-9.22098
ប្រភេទនៃ	-9.22151
ដែក	-9.2221
▁វាមិន	-9.22239
ដុំ	-9.22249
សុន	-9.22253
ចា	-9.22256
che	-9.22272
បាក់តេរី	-9.22295
ហោះហើរ	-9.22333
▁Bar	-9.22364
វាមាន	-9.22479
កម្រ	-9.22561
ចំណែក	-9.22627
រសជាតិ	-9.2268
ពាន់	-9.2271
▁Pe	-9.22796
ហៅថា	-9.22797
ដេ	-9.2283
ជួបអ្នក	-9.22966
ការកើនឡើង	-9.23241
ap	-9.23391
ខាងកើត	-9.23404
សុំទោស	-9.23412
សម្គាល់	-9.23432
ឆ្លើយតប	-9.23472
នៅពេលពួកគេ	-9.23559
▁វាក៏	-9.23645
▁Bu	-9.23702
ការភ័យខ្លាច	-9.23761
ត្រួតពិនិត្យ	-9.23802
កាបូប	-9.23816
ពីរបៀបដែល	-9.23826
ពិភាក្សា	-9.23881
ou	-9.23894
ស្រទាប់	-9.23942
▁Sh	-9.24004
▁Da	-9.24094
មាននរណាម្នាក់	-9.24098
▁2009	-9.24214
បទចម្រៀង	-9.2424
អ្វីទាំងអស់	-9.24325
ដែលអ្នកចង់	-9.24369
សំខាន់ៗ	-9.24403
ដ្ឋាន	-9.24453
ទម្ងន់	-9.24455
វិនាទី	-9.24502
រស់	-9.24509
ការសម្តែង	-9.24578
ធនធាន	-9.24584
ទីពីរ	-9.24588
បំផុត។	-9.24609
▁បាទ	-9.24612
ទូក	-9.24638
ត្រឡប់ទៅ	-9.24681
ទទួលបានជោគជ័យ	-9.24705
ja	-9.24746
ថ្មី។	-9.24754
គ្រ	-9.2476
ពន្យល់	-9.24817
លំដាប់	-9.24841
អ្នករាល់គ្នា	-9.24856
បណ្តាលឱ្យ	-9.24885
តារាសម្តែង	-9.24977
ក្នុងកំឡុងពេល	-9.24978
អគ្គិសនី	-9.25099
ចំណាត់ថ្នាក់	-9.25099
ទេហើយ	-9.25146
ស្តង់ដារ	-9.25229
មានផ្ទៃពោះ	-9.25229
ត្រូវបានកំណត់	-9.25241
Q	-9.25284
របស់ស្ត្រី	-9.25334
បានសម្លាប់	-9.25357
បងប្អូន	-9.25432
ខាងក្រោម	-9.25453
ដើម្បីការពារ	-9.25473
ជំនឿ	-9.25488
មនុស្សជាច្រើន	-9.2552
ស្រែក	-9.25618
អ៊ីតាលី	-9.25618
ឱសថ	-9.25618
ការរចនា	-9.25625
ប្រសិនបើវា	-9.25666
ឆ្មា	-9.257
សមាសធាតុ	-9.25748
សំឡេង	-9.25748
រុស្ស៊ី	-9.25771
នៅពេលដែលយើង	-9.25798
▁ខ្ញុំពិតជា	-9.25806
បោះពុម្ព	-9.2607
មករក	-9.2617
បន្ថយ	-9.26231
ស្រស់ស្អាត	-9.26336
ion	-9.26361
នឹងធ្វើឱ្យ	-9.26419
ខ្ញុំបានធ្វើ	-9.26433
លេ	-9.26554
នៅសាកលវិទ្យាល័យ	-9.26576
we	-9.26615
ឯករាជ្យ	-9.26663
ទាមទារ	-9.26663
ong	-9.26704
និ	-9.26771
ប្រើថ្នាំ	-9.26776
អំបិល	-9.26794
ធ្លាក់ទឹកចិត្ត	-9.26794
ប្រាប់អ្នកថា	-9.26839
ធុង	-9.26856
រាល់ថ្ងៃ	-9.26859
ហូរ	-9.26897
មានសារៈសំខាន់	-9.26918
all	-9.26962
អ្នកនឹងមិន	-9.26979
នេះទេ។	-9.26994
បំណែក	-9.27057
▁ខ្ញុំជា	-9.27192
នាយក	-9.27207
ការចំណាយ	-9.27214
ហ្គោ	-9.27257
មុន។	-9.27258
ល្អឥតខ្ចោះ	-9.27291
លាននាក់	-9.27303
វាយប្រហារ	-9.27305
ជម្លោះ	-9.27321
មេធាវី	-9.27321
▁តើខ្ញុំ	-9.27332
▁Ja	-9.27425
មួយឆ្នាំ	-9.27499
នាង។	-9.27517
▁ក្នុងនាមជា	-9.27524
នេះទេ	-9.27589
▁ឆ្នាំ។	-9.27722
អឺរ៉ុប	-9.27824
▁24	-9.27887
ep	-9.27899
រៀបការ	-9.27921
អាកប្បកិរិយា	-9.27985
ស្អប់	-9.27985
បើកបរ	-9.27986
បុគ្គលិក	-9.2799
ស៊	-9.28003
មានប្រសិទ្ធភាព	-9.2811
អាថ៌កំបាំង	-9.28118
មកខ្ញុំ	-9.28245
នេះហើយ	-9.2825
ខ្ញុំចូលចិត្ត	-9.28263
យប់	-9.2831
ផលិតកម្ម	-9.28318
នៅជាមួយ	-9.28366
ឱ្យខ្ញុំ	-9.28398
កត្តា	-9.28652
នៅក្បែរ	-9.28805
ip	-9.28837
យ៉ាងខ្លាំង។	-9.28897
កិត្តិយស	-9.2892
aw	-9.28926
tin	-9.28951
ស្នាម	-9.28964
ob	-9.28972
ag	-9.29015
art	-9.29024
ច្រើនពេក	-9.29049
50	-9.29054
▁Be	-9.2906
ខ្ញុំនឹងមិន	-9.29076
ស្បែកជើង	-9.29117
ធានា	-9.29253
នៅឡើយទេ	-9.29299
នៅក្នុងតំបន់	-9.29384
ព្រឹក	-9.29496
្យ	-9.29525
គោ	-9.29544
ex	-9.29591
ហើយខ្ញុំបាន	-9.29657
ខ្ញុំពិតជា	-9.2967
ចុះក្រោម	-9.29757
គុណភាព	-9.29904
ox	-9.29923
កំពុងកើតឡើង	-9.29944
ប្តី	-9.29991
រងរបួស	-9.30009
បង្	-9.30044
ស្លាប់។	-9.30112
ខ្ញុំដឹងថា	-9.30145
ជូ	-9.30281
ការការពារ	-9.30331
ការធ្វើឱ្យ	-9.30338
ចង់ឱ្យ	-9.30361
អេស្ប៉ាញ	-9.30409
▁តើអ្នកនឹង	-9.30551
ខ្លាច	-9.3065
ត្រលប់ទៅ	-9.30682
បរាជ័យ	-9.30693
ផ្លូវការ	-9.30713
អនុញ្ញាតឱ្យអ្នក	-9.30773
▁=	-9.30789
ny	-9.30799
ប្រវត្តិ	-9.30809
▁2008	-9.30853
ប្រទេសប៉ូឡូញ	-9.30865
ទាំងអស់ដែល	-9.30913
ការចាប់អារម្មណ៍	-9.3094
គ្រូ	-9.3097
ជាផ្នែកមួយនៃ	-9.30992
mon	-9.31017
ដោះ	-9.31041
ចូលមក	-9.31045
ែរ	-9.31083
អ្នកធ្វើ	-9.31122
ចង់អោយ	-9.31233
▁យើងមិន	-9.31263
ទ្វីប	-9.31372
ខាងឆ្វេង	-9.31512
ការព្រួយបារម្ភ	-9.31631
សង្ឃឹមថា	-9.31656
▁ខ្ញុំអាច	-9.31661
▁ម។	-9.318
ការដាក់	-9.31824
hy	-9.31863
ខ្ពស់ជាង	-9.32016
ដង្ហើម	-9.32041
ពហុ	-9.32046
មិនសូវ	-9.32064
ការណែនាំ	-9.32096
នំ	-9.32129
ដំបូងនៃ	-9.32135
ម៉ាក	-9.32149
សន្តិភាព	-9.32197
ចំណាប់អារម្មណ៍	-9.32197
ធ្វើបែបនេះ	-9.32241
ដឹងថាអ្នក	-9.32264
ច្រមុះ	-9.32336
od	-9.32344
ប្រកួតប្រជែង	-9.32372
▁នេះនឹង	-9.32421
ការអប់រំ	-9.32465
so	-9.32483
មើលថាតើ	-9.32516
សរសៃប្រសាទ	-9.32689
បានធ្លាក់ចុះ	-9.32724
▁ដូច្នេះតើ	-9.32763
▁អ្នកត្រូវតែ	-9.3282
ត្រូវបានគេស្គាល់	-9.32882
កៅអី	-9.32893
បានកើនឡើង	-9.32932
.000	-9.32992
ទ្រង់	-9.33033
រិះគន់	-9.33033
ការធ្លាក់ចុះ	-9.33038
ដើម្បីបង្កើត	-9.33072
tra	-9.33105
រាំ	-9.33115
mer	-9.33168
▁Do	-9.33197
ហ្វា	-9.33203
▁អ្នកក៏អាច	-9.33209
សូមមើល	-9.33267
ប្រៀបធៀប	-9.33314
ana	-9.33324
ខ្ញុំត្រូវតែ	-9.33566
អ៊ីនធឺណិត	-9.33595
នៃប្រទេស	-9.33728
ប្រចាំថ្ងៃ	-9.33736
ប្រាប់ខ្ញុំថា	-9.33759
អាង	-9.33771
អ្នកត្រូវការ	-9.33792
រំលាយ	-9.33901
ពូជ	-9.33957
រោងចក្រ	-9.34018
ley	-9.34098
ចំណងជើង	-9.34102
ផល	-9.34389
▁អ្នកកំពុង	-9.34399
ឥរិយាបថ	-9.34443
▁អ្នកមាន	-9.34515
អ្នកចង់បាន	-9.34516
បានបាត់បង់	-9.34526
ren	-9.34539
ប្រសិនបើពួកគេ	-9.34543
ដាក់ឈ្មោះ	-9.34587
ឆ្ពោះទៅរក	-9.34637
ស្រមៃ	-9.3468
ហ៊ី	-9.34727
ប្រាសាទ	-9.34727
ដ៏ធំ	-9.3477
▁Qu	-9.34808
អេឡិចត្រូនិច	-9.3487
dy	-9.34949
ទំនិញ	-9.35006
សមាគម	-9.35012
បន្តិចបន្តួច	-9.35012
សតវត្សរ៍ទី	-9.35025
ដេញ	-9.35192
នាងនឹង	-9.3539
ទោស	-9.35392
អ៊	-9.35439
កំណាព្យ	-9.35442
ក៏ដោយក៏	-9.35538
ធ្វើឱ្យប្រសើរឡើង	-9.35546
នៅទីបំផុត	-9.35591
នៅតំបន់	-9.35648
ខ្សោយ	-9.35692
វេជ្ជសាស្ត្រ	-9.35729
ត្រឡប់មកវិញ។	-9.3575
ដាំ	-9.35807
កិច្ច	-9.35845
▁of	-9.35855
ជ្រុង	-9.35885
ពូ	-9.35968
អង្គភាព	-9.35974
បរិយាកាស	-9.36017
សិស្ស	-9.36017
បានមក	-9.3613
ធ្វើលំហាត់ប្រាណ	-9.36161
ចាប់ខ្លួន	-9.36171
បានផ្តល់	-9.36236
ski	-9.36272
យាយ	-9.36281
ហេតុអ្វី	-9.36381
▁គ្មាននរណាម្នាក់	-9.36444
ទឹកដោះគោ	-9.36595
▁ប្រសិនបើអ្នកមិន	-9.36718
▁So	-9.36755
ខាងស្តាំ	-9.36854
កើតនៅ	-9.36909
▁សូមអរគុណ	-9.3691
យើងត្រូវ	-9.3692
អាចទទួលបាន	-9.36961
ភាគី	-9.36992
ឥទ្ធិពល	-9.37026
មុនពេលអ្នក	-9.37073
tro	-9.37093
ស្ករ	-9.37267
ត្រឹមត្រូវ។	-9.37292
ដែលនៅសល់	-9.37405
ជាមួយខ្ញុំ	-9.37425
សំបុត្រ	-9.37469
តំឡើង	-9.3747
80	-9.37492
lan	-9.37498
រាយការណ៍	-9.37529
ផ្សេងៗ	-9.37567
ភេសជ្ជៈ	-9.37615
▁ម៉ែត្រ	-9.3764
រដ្ឋមន្រ្តី	-9.37711
មធ្យម	-9.37755
ខកខាន	-9.37762
នៅលើពិភពលោក	-9.37811
ការប្រកួតប្រជែង	-9.37874
ត្រូវបានរកឃើញ	-9.37922
▁2019	-9.37924
បញ្ហានេះ	-9.38012
នៅកន្លែង	-9.38035
បញ្ជា	-9.38067
មូ	-9.38093
បានជួប	-9.38113
ជឿជាក់ថា	-9.38127
▁He	-9.38128
ផ្សំ	-9.38131
វិធីដែល	-9.38167
▁ប៉ុន្តែខ្ញុំ	-9.38171
ប៊ឺ	-9.3825
វាយតម្លៃ	-9.38304
ភ្លឺ	-9.38337
ជាច្រើនដែល	-9.38399
វិល	-9.38451
ការចងចាំ	-9.3846
ភព	-9.38499
ក្នុងមួយថ្ងៃ	-9.38577
សំណើម	-9.38577
អប់រំ	-9.38658
ប៉ូ	-9.3872
តាមរយៈការ	-9.38791
ពិភព	-9.38793
ក្នុងជីវិត	-9.38939
មូលនិធិ	-9.38943
▁2007	-9.3911
ចន្លោះ	-9.39131
សាន់	-9.39171
លើស	-9.39209
ស្ថានីយ៍	-9.39246
ជើងឯក	-9.39257
ផ្តល់ឱ្យខ្ញុំនូវ	-9.39258
0	-9.39283
ពា	-9.39284
អនុ	-9.39354
កណ្តុរ	-9.39389
▁Su	-9.3939
ការលំបាក	-9.39468
20	-9.39494
អ្នកឃើញ	-9.39511
ការគោរព	-9.39524
វាទេ។	-9.39706
លើកទឹកចិត្ត	-9.39717
ខែមករាឆ្នាំ	-9.39723
ផ្លាស់ទី	-9.39838
ពែង	-9.39871
ឥណ្ឌា	-9.39885
សម្រេចចិត្ត	-9.39962
បក្សី	-9.39988
ភស្តុតាង	-9.39988
មហាវិទ្យាល័យ	-9.40015
shi	-9.40128
អន្តរកម្ម	-9.40145
ការឆ្លើយតប	-9.40162
ដោយខ្លួនឯង។	-9.40525
ោន	-9.40551
ដឹងអំពី	-9.40585
ឆ្លើយ	-9.4059
ឧទ្យាន	-9.4059
គួរឱ្យអស់សំណើច	-9.4059
ខែវិច្ឆិកាឆ្នាំ	-9.40624
ប្រសើរជាង	-9.40668
បង្កើតឡើងដោយ	-9.40672
ហ្វូ	-9.40696
ត្រូវបានដាក់	-9.40709
សំដៅទៅលើ	-9.40741
អ្នកជំនាញ	-9.40774
ខូច	-9.40792
ទ័រ	-9.4085
សម័យ	-9.4086
អំណោយ	-9.40892
មេរោគ	-9.40906
ជួយឱ្យ	-9.40923
ដែលត្រូវបានប្រើ	-9.40958
ការត្រួតពិនិត្យ	-9.41058
សម្រាប់អ្នក។	-9.41122
រុំ	-9.41196
▁ប្រសិនបើអ្នកមាន	-9.41253
អ្វីទាំងអស់។	-9.41257
ជំរុញឱ្យ	-9.41344
ទំងន់	-9.41347
▁តោះ	-9.41368
ការកំណត់	-9.41395
▁វានឹង	-9.41462
សមរម្យ	-9.415
នៅពេលណា	-9.41503
ដល់ឆ្នាំ	-9.41514
ធ្វើការជាមួយ	-9.41564
ចក្រភពអង់គ្លេស	-9.41626
ការវាយប្រហារ	-9.4167
ល្អណាស់	-9.41703
ហ្គ	-9.4172
ជីវិតរបស់អ្នក	-9.41752
ers	-9.41804
ជម្រះ	-9.41805
ភ្ញាក់ផ្អើល	-9.41826
អញ្ជើញ	-9.41957
បោះបង់ចោល	-9.42113
ងូតទឹក	-9.42264
ដ៏ល្អបំផុត	-9.42305
មួយនៅក្នុង	-9.42417
សហព័ន្ធ	-9.42418
វីរុស	-9.42418
ដែលមានលក្ខណៈ	-9.42435
នៅពេលនោះ	-9.42477
តំណាង	-9.42588
ចម្លង	-9.42684
តុន	-9.42687
សប្បាយ	-9.42688
ឡើងលើ	-9.42689
▁ចាប់តាំងពី	-9.42743
▁2006	-9.42744
▁40	-9.4283
▁Ri	-9.42918
▁ពេលខ្លះ	-9.4298
ទីបី	-9.42984
▁រកមើល	-9.42999
របស់អ្នកទេ	-9.43026
ប្រទេសជប៉ុន	-9.4305
ខែតុលាឆ្នាំ	-9.43072
គ្រី	-9.43152
min	-9.4317
មានទំនោរ	-9.43171
បង្វែរ	-9.43189
លានដុល្លារ	-9.43247
បោះឆ្នោត	-9.43306
▁Ph	-9.43335
tu	-9.43355
▁ខែ	-9.43357
ម៉ាស់	-9.43369
ay	-9.4337
▁តើយើង	-9.4344
អាល្លឺម៉ង់	-9.435
ផ្សាយ	-9.43546
គាត់កំពុង	-9.43602
▁ចាស	-9.43605
?"	-9.43623
អាកាស	-9.43638
ទៀងទាត់	-9.43655
ub	-9.4372
▁ក្នុងអំឡុងពេល	-9.43771
សេរី	-9.43787
រំភើប	-9.43811
ត្រលប់មក	-9.43891
សព្វថ្ងៃនេះ	-9.43963
របស់អ្នកនឹង	-9.43965
សួស្តី	-9.43967
សុទ្ធ	-9.43971
នៅពេលនេះ	-9.4401
ពន្លឺព្រះអាទិត្យ	-9.44011
សុខ	-9.44029
28	-9.44103
ក្រុមប្រឹក្សា	-9.44109
កន្លែងណា	-9.44114
ទម្លាប់	-9.44123
ហៃ	-9.44421
សាធារណរដ្ឋ	-9.44436
លេចធ្លោ	-9.44436
ថតរូប	-9.44474
អាចរកបាន	-9.44475
អ្នកលេង	-9.44518
អ្នកអាចធ្វើបាន	-9.44597
អ្នកនឹងត្រូវ	-9.4465
oc	-9.44667
ឪពុកខ្ញុំ	-9.44697
សើច	-9.4471
គ្រឿងញៀន	-9.4475
ពាក់ព័ន្ធនឹង	-9.44767
វិនិយោគ	-9.44811
រៀងរាល់	-9.44813
▁(20	-9.44825
tor	-9.44835
ដោយផ្អែកលើ	-9.44837
នៅក្នុងបន្ទប់	-9.44907
ស្នើសុំឱ្យ	-9.44918
ុល	-9.44969
26	-9.44991
អស្ចារ្យណាស់	-9.44997
មិនមានអ្វី	-9.45157
ស៊ីវិល	-9.45167
res	-9.45221
ពង្រឹង	-9.45224
រន្ធ	-9.45224
ធ្វើឱ្យប្រាកដថា	-9.45246
លាក់	-9.45256
ai	-9.45266
ប្រឈមមុខនឹង	-9.4533
រោគ	-9.4537
ថើប	-9.45382
សម្ភារៈ	-9.45382
វិទ្យាល័យ	-9.45382
យុទ្ធសាស្ត្រ	-9.45382
ដែលមានសុខភាពល្អ	-9.45415
ជានរណា	-9.45423
ចូលរួមជាមួយ	-9.4544
my	-9.4551
កក	-9.45531
ភារកិច្ច	-9.4554
ដែលអ្នកកំពុង	-9.45559
▁យើងត្រូវ	-9.45575
ភាគច្រើននៃ	-9.45646
▁21	-9.45686
ប្រាស្រ័យទាក់ទង	-9.45699
ស្បែករបស់អ្នក	-9.45727
រៀបការជាមួយ	-9.45775
ដល់អ្នក	-9.45801
លេចឡើង	-9.45858
នាងមិន	-9.45893
▁តើមាន	-9.45958
▁Sp	-9.45982
ចុះហត្ថលេខា	-9.46026
មតិ	-9.46074
អ្នកទាំងពីរ	-9.46167
ធ្វើបាប	-9.46183
គ្រាប់បែក	-9.46194
បុរសដែល	-9.46199
27	-9.46273
ចូ	-9.46289
ហ្ស	-9.46325
ទូ	-9.4639
les	-9.46491
ជាលើកដំបូង	-9.46491
ជម្រុញ	-9.46496
▁យើងកំពុង	-9.46529
មានរយៈពេល	-9.46544
ចម្រៀង	-9.46605
ោង	-9.46639
ណេ	-9.46707
ខ្ញុំមិនអាច	-9.46783
ស្រស់	-9.4679
នរក	-9.46796
ឧស្ម័ន	-9.46805
កែវ	-9.46809
▁លើសពីនេះទៀត	-9.46817
សើម	-9.46818
▁Lu	-9.46833
ឹង	-9.46943
ak	-9.46965
វិនិច្ឆ័យ	-9.46978
ម៉ូដែល	-9.46982
ប្រហែលជាមិន	-9.47083
សង្កត់	-9.47139
សង្កេត	-9.47301
ez	-9.47306
បោះចោល	-9.47311
វត្តមាន	-9.47316
ក្តី	-9.47365
chi	-9.4741
សាល	-9.47414
ថ្មីៗនេះ	-9.47441
សរីរាង្គ	-9.47462
ឌីជីថល	-9.47462
og	-9.47493
អ្វីគ្រប់យ៉ាង	-9.47513
ជាញឹកញាប់	-9.47543
ដែលបានធ្វើ	-9.47711
កត់ត្រា	-9.47786
បន្ទះ	-9.47948
ប្លែក	-9.47948
ថ្	-9.47958
▁Ge	-9.47974
មានទំនាក់ទំនង	-9.47987
កំពុងស្វែងរក	-9.48035
ចូរ	-9.48044
ស្ថិតក្នុង	-9.48107
ផ្សេងទៀតដែល	-9.4817
▁Pi	-9.4819
▁នាងគឺជា	-9.48207
របស់អាមេរិក	-9.4822
លះបង់	-9.48274
az	-9.48274
30	-9.48334
មួយម៉ោង	-9.48351
ឱ្យគាត់	-9.48386
ជនជាតិអាមេរិក	-9.4848
បានយក	-9.48569
▁Go	-9.4862
ខ្ញុំត្រូវ	-9.48758
ប្រាក់ចំណូល	-9.4878
ការរលាក	-9.48843
ថាមាន	-9.4885
▁លាន	-9.48903
▁អ្នកគួរតែ	-9.48913
បែកបាក់	-9.48932
លើកកម្ពស់	-9.48937
ចាញ់	-9.48965
000	-9.48965
▁តើអ្នកណា	-9.49014
និយាយអ្វី	-9.49079
របស់ព្រះ	-9.49086
កាមេរ៉ា	-9.49092
ក្រីក្រ	-9.49092
កញ្ចប់	-9.49092
ការបណ្តុះបណ្តាល	-9.491
ដូចអ្នក	-9.49125
ការបង្ហាញ	-9.49172
មិនស្រួល	-9.49199
អ្វីដែលពួកគេ	-9.49213
▁Wi	-9.49324
▁Ni	-9.49359
រលាយ	-9.4939
ទីមួយ	-9.49392
ជំនាន់	-9.49421
gi	-9.49454
ធ្វើអ្វីដែល	-9.49454
ពិន្ទុ	-9.49586
អាហារពេលល្ងាច	-9.49586
ដឹងថាតើ	-9.49588
បណ្តាលឱ្យមាន	-9.49631
ភា	-9.49674
ជនរងគ្រោះ	-9.49752
ខិតខំប្រឹងប្រែង	-9.49752
ផ្ទេរ	-9.49753
ក្នុងការធ្វើ	-9.49774
របស់រដ្ឋាភិបាល	-9.49804
ពឹងផ្អែកលើ	-9.49818
តំណែង	-9.4999
ហ្សូ	-9.49994
រ៉ែ	-9.50015
ទិសដៅ	-9.50083
យើងត្រូវតែ	-9.50096
បញ្ចប់ការសិក្សា	-9.50234
ក្លាយជាអ្នក	-9.50237
ព្យួរ	-9.50249
សិល្បករ	-9.50249
á	-9.50416
ដ៏ល្អ	-9.50443
▁ភាគខាងជើង	-9.50477
អរគុណ	-9.50504
រឿងមួយ	-9.50547
▁ខ្ញុំសុំទោស	-9.50616
ណាមួយដែល	-9.50617
mp	-9.50619
ហាត់ប្រាណ	-9.50624
ពេលនេះ	-9.50628
អតីតកាល	-9.50632
វិទ្យុ	-9.50667
ស្ថាប័ន	-9.50749
ទឹកដី	-9.50752
មិនឱ្យ	-9.50783
ខ្ញុំបាននិយាយថា	-9.50813
បានរកឃើញថា	-9.50819
ប្រគល់	-9.50916
បេសកកម្ម	-9.50916
សារព័ត៌មាន	-9.50939
▁ខ្ញុំមិនបាន	-9.50989
▁ខ្ញុំគ្រាន់តែ	-9.51017
គណនា	-9.51084
រលក	-9.511
របស់អ្នកគឺ	-9.51136
ក្រពះ	-9.51252
ដូចគ្នា។	-9.51291
ដប	-9.51296
សហការ	-9.51503
gen	-9.51507
អភិបាល	-9.51749
ស្រុករដ្ឋបាល	-9.5175
▁2000	-9.51756
សហ	-9.51836
▁Vi	-9.51906
ជំនួសឱ្យការ	-9.51983
ត្រូវបានបង្ហាញ	-9.52012
ធ្វើតាម	-9.52031
▁Ju	-9.52036
របស់អ្នកឱ្យ	-9.52045
ផ្នែកមួយនៃ	-9.52059
វិស័យ	-9.52067
ប្រកបដោយ	-9.5207
ទន់	-9.52145
រកមើល	-9.522
ty	-9.5223
មហាសមុទ្រ	-9.52264
កាយ	-9.52311
rin	-9.52354
▁ផ្ទុយទៅវិញ	-9.5239
10	-9.52409
កខ្វក់	-9.52434
▁Hu	-9.52458
ដែលទាក់ទងនឹង	-9.52623
wo	-9.52686
ខឹង	-9.52787
សម្រេច	-9.5281
កំពុងធ្វើ	-9.52828
ផ្អែកលើ	-9.52851
រួមបញ្ចូល	-9.52852
ម្នាក់ៗ	-9.52891
ភាពយន្ត	-9.52954
ដែលគាត់បាន	-9.52973
ប្រសិនបើគាត់	-9.53044
ron	-9.53056
ចុចលើ	-9.53097
របស់ចិន	-9.531
គ្រែ	-9.53116
▁ខ្ញុំត្រូវ	-9.53116
ស្លឹក	-9.53116
J	-9.5316
នឹងជួយ	-9.53183
pp	-9.53194
70	-9.53247
ពិបាកក្នុងការ	-9.53273
ចៃដន្យ	-9.53287
រុញ	-9.53287
មានទីតាំងស្ថិតនៅ	-9.53295
ដែលគ្មាន	-9.53302
នាងមាន	-9.53318
ល្បែង	-9.53435
រំលោភ	-9.53459
ation	-9.53513
តូចៗ	-9.53552
ក្រុង	-9.53567
ភរិយា	-9.53631
▁Mu	-9.53687
ពង	-9.5374
បន្តិច។	-9.53755
គឺលោក	-9.53791
ស្រដៀងនឹង	-9.53803
កេ	-9.53814
ដើរតាម	-9.53916
tan	-9.53929
នៅចន្លោះ	-9.53965
របាំ	-9.54061
▁Si	-9.54064
ica	-9.54124
ក៏ជា	-9.54136
ជាទីស្រឡាញ់	-9.54154
យ៉ូ	-9.5416
តារាង	-9.54164
▁The	-9.54191
គ្មានអ្វី	-9.54207
ច្រៀង	-9.54336
រួចហើយ	-9.54342
វេ	-9.54462
រហ័ស	-9.54494
ប្រហោង	-9.54494
▁Gmina	-9.54495
▁នៅភាគខាងជើង	-9.54497
▁Th	-9.54609
ដរាបណា	-9.54668
គោលការណ៍	-9.54668
មិនថា	-9.54714
ខ្ពស់បំផុត	-9.5475
ប៉ះពាល់ដល់	-9.5477
សន្យា	-9.54856
ហូ	-9.5495
ធំជាង	-9.54981
ថែទាំ	-9.54982
ស្ថិតិ	-9.5517
ទៅមុខ	-9.55173
មិនគួរឱ្យជឿ	-9.55184
ស្នាមប្រឡាក់	-9.5519
សណ្តែក	-9.55191
អ្នកផ្សេងទៀត	-9.55195
▁តើមានអ្វីកើតឡើង	-9.5521
ឫស	-9.55323
ជាមួយគ្នា។	-9.55358
សាប៊ូ	-9.554
ឡើងវិញ។	-9.55435
ធានាថា	-9.5547
យ៉ាងច្បាស់	-9.555
▁ខ្ញុំសង្ឃឹមថា	-9.55548
ice	-9.55671
ib	-9.55673
ជំនួសឱ្យ	-9.55683
NA	-9.55736
ung	-9.55805
ពោះ	-9.55812
រើស	-9.55886
zo	-9.5598
មានឱកាស	-9.55987
ប្រមូលផ្តុំ	-9.56001
▁No	-9.56042
ធ្វើរោគវិនិច្ឆ័យ	-9.56068
សួត	-9.56069
ទោះជាយ៉ាងណាក៏ដោយ	-9.56072
ហើយដូច្នេះ	-9.56112
nes	-9.56157
sta	-9.56164
ដ៏ស្រស់ស្អាត	-9.56175
ង្គ	-9.56195
អេម	-9.56222
ជាងគេ	-9.56283
ដោះស្រាយបញ្ហា	-9.56304
ទ្រូង	-9.56373
▁Par	-9.56401
ក្តីសុបិន្ត	-9.56424
អ៊ូ	-9.5644
29	-9.56461
អ្នកដឹងថា	-9.56478
ការបោះឆ្នោត	-9.56499
រ៉	-9.56521
▁តើគាត់	-9.56564
អ្នកប្រើប្រាស់	-9.56597
ប្រធានក្រុម	-9.56604
រីកចម្រើន	-9.56609
ដែលយើងបាន	-9.56637
ពិសោធន៍	-9.56645
អារម្មណ៍របស់អ្នក	-9.56744
ជួបប្រទះ	-9.56775
សំអាត	-9.56775
ធ្វើឱ្យពួកគេ	-9.56776
ដាច់	-9.56789
បណ្ណាល័យ	-9.56953
វិជ្ជាជីវៈ	-9.56953
ដឹងពី	-9.56959
តាមអ៊ិនធរណេត	-9.56966
ត្រូវបានធ្វើឡើង	-9.57084
han	-9.57103
សំរាម	-9.57131
នៅយប់នេះ	-9.57221
លោកម្ចាស់	-9.57313
យើងគួរតែ	-9.57425
យុវជន	-9.57487
ពន្ធនាគារ	-9.57508
រាង	-9.57576
តំលៃ	-9.57593
សំរេច	-9.5764
ការព្យាបាលដោយ	-9.57712
cu	-9.57726
ជាច្រើនទៀត	-9.57748
ev	-9.57777
រាត្រី	-9.57899
yn	-9.57911
គ្នាទៅវិញទៅមក	-9.57912
ភាសាអង់គ្លេស	-9.57915
បានឈ្នះ	-9.57926
▁(1	-9.57957
ជក់បារី	-9.58027
បែក	-9.58048
រាប់បញ្ចូល	-9.58124
▁Ke	-9.58145
របស់អ្នកទេ។	-9.58203
អាជ្ញាធរ	-9.58205
ស្មៅ	-9.58205
ច្រើនតែ	-9.58208
យំ	-9.58263
យ៉ាងណា	-9.58348
ត្រូវប្រាកដថា	-9.58379
ចំណេះដឹង	-9.58385
ថ្ងៃនេះ	-9.58389
▁2005	-9.58409
ដែលនាងបាន	-9.58464
អ្នកគ្រាន់តែ	-9.58465
នឹក	-9.58568
II	-9.58685
ទ្វេដង	-9.58746
នៅពេលដែលគាត់	-9.5875
រួមជាមួយ	-9.58777
នៃជីវិត	-9.58864
មិត្តរបស់អ្នក	-9.58885
យើងមិនអាច	-9.58909
នៅចំពោះមុខ	-9.5893
ist	-9.58933
75	-9.58965
បាត	-9.58983
របស់ប្រជាជន	-9.58991
▁Ko	-9.59007
ការគិត	-9.59101
យុទ្ធនាការ	-9.59109
បងស្រី	-9.59109
ព្រះវិហារ	-9.59134
▁តើអ្នកចង់	-9.59314
ខ្ញុំស្រឡាញ់	-9.59426
í	-9.59472
ចេញមក	-9.5954
ចប់	-9.59545
ជាយូរមកហើយ	-9.59656
សកល	-9.59718
ខ្នង	-9.59828
មួក	-9.59839
▁តើមានអ្វី	-9.59844
ប្រើវា	-9.59923
ប្រវែង	-9.59956
ៀង	-9.60011
អ្វីក៏ដោយ	-9.60021
រូបមន្ត	-9.60021
ហាមឃាត់	-9.60021
វង្វេងស្មារតី	-9.60023
ផែនទី	-9.60115
ខ្លាំងណាស់។	-9.60161
ព្យុះ	-9.60205
នៃទីក្រុង	-9.60255
▁តើខ្ញុំអាច	-9.60261
ក្នុងពេល	-9.60267
ខាំ	-9.60291
ការឆ្លង	-9.60299
ច្នៃប្រឌិត	-9.60347
ផ្លុំ	-9.60389
ដំបូងបង្អស់	-9.60389
ការគំរាមកំហែង	-9.604
សំខាន់បំផុត	-9.60422
▁60	-9.60467
for	-9.60544
នុយក្លេអ៊ែរ	-9.60573
បន្លែ	-9.60573
ថ្លើម	-9.60573
X	-9.60587
ប្រូ	-9.60693
សម្ងាត់	-9.60714
ជាមនុស្ស	-9.60736
▁ជាការប្រសើរណាស់	-9.60757
ការលក់	-9.60788
មានកំហុស	-9.60808
▁អញ្ចឹងខ្ញុំ	-9.60912
នៅពេលខ្ញុំ	-9.60931
ល្ខោន	-9.60942
មីក្រូ	-9.60942
មិនចង់	-9.60985
▁វាមិនមែនជា	-9.60987
បង្កឱ្យមាន	-9.61001
ែង	-9.61128
សប្បាយចិត្ត	-9.61157
ជួយអ្នក	-9.61159
ick	-9.61186
អ្នកបានធ្វើ	-9.61197
▁Pro	-9.61277
បញ្ជាក់ថា	-9.61312
គណៈកម្មាធិការ	-9.61313
អភិរក្ស	-9.61313
ភាគហ៊ុន	-9.61313
ហ្គី	-9.61365
វ៉ាន់	-9.61421
បានធ្វើឱ្យមាន	-9.61466
ទាហាន	-9.61499
រថភ្លើង	-9.61499
ភពផែនដី	-9.61516
zi	-9.61643
ត្រចៀក	-9.61685
▁គាត់ជា	-9.61718
ass	-9.61898
ខោ	-9.62018
គណិតវិទ្យា	-9.62059
សុំ	-9.62072
កម្មករ	-9.62104
អង្	-9.6218
ចោល	-9.62206
នាពេលអនាគត	-9.6227
ក្នុងពេលតែមួយ	-9.62271
▁ខ្ញុំសូម	-9.62386
មួយចំនួនដែល	-9.6239
ដូច្នេះវា	-9.62396
លុប	-9.62423
ប្រែប្រួល	-9.62434
គ្របដណ្តប់	-9.62466
អ៊ីញ	-9.62569
ការចូលរួម	-9.62614
ចម្រុះ	-9.62621
ប្រលោមលោក	-9.62621
រស់រានមានជីវិត	-9.62621
បដិវត្ត	-9.62621
នាំមកនូវ	-9.62623
ជូត	-9.6271
▁We	-9.62721
ការចោទប្រកាន់	-9.62764
នាំអ្នក	-9.62802
ជាសះស្បើយ	-9.6281
ទៅផ្ទះ	-9.62852
▁អ្នកដឹងថា	-9.62855
▁22	-9.62985
ចុះឈ្មោះ	-9.63047
លើកឡើង	-9.63128
sp	-9.6315
40	-9.63161
ទស្សនាវដ្តី	-9.63188
ah	-9.63189
សារមន្ទីរ	-9.63197
ec	-9.6324
យោបល់	-9.63263
បង្ខំឱ្យ	-9.63323
សន្មតថា	-9.63324
ម្សៅ	-9.63377
ស៊ើបអង្កេត	-9.63411
ការថប់បារម្ភ	-9.6352
យើងត្រូវការ	-9.63539
ទឹកឃ្មុំ	-9.63641
នៅសល់	-9.63651
cy	-9.63747
by	-9.63747
ផ្សិត	-9.63762
ពួក	-9.63777
រួចហើយ។	-9.63822
លិច	-9.63834
កែ	-9.63882
fa	-9.63884
▁តើអ្នកមាន	-9.63913
បណ្តុះបណ្តាល	-9.63938
សំលាប់	-9.63947
មហោស្រព	-9.63947
ចេញទៅក្រៅ	-9.63947
គាត់អាច	-9.63949
ភាគខាងជើង	-9.63963
ast	-9.63999
ប្រសិនបើអ្នកមិន	-9.64105
ប្លុក	-9.64138
ទាយ	-9.64312
របស់ខ្ញុំគឺ	-9.64388
ino	-9.64402
មានពេលវេលា	-9.64432
បានប្រាប់	-9.64593
500	-9.64755
ជាបន្តបន្ទាប់	-9.64777
វាមិនមែនជា	-9.64795
អ្វីគ្រប់យ៉ាងដែល	-9.64847
គិតថាអ្នក	-9.64869
មុនពេលដែល	-9.64873
ភ្ញៀវ	-9.64905
ការ៉េ	-9.64945
▁West	-9.64953
យោង	-9.65008
ner	-9.65018
ប្រទេសឥណ្ឌា	-9.65037
ជំហរ	-9.65098
rk	-9.65102
យល់ថា	-9.65134
វាគ្រាន់តែជា	-9.65198
អូស	-9.65232
បាទ	-9.65234
លើកដំបូង	-9.6525
មាតិកា	-9.65291
សង	-9.65355
▁Cor	-9.65473
ព្រ	-9.65504
តវ៉ា	-9.65638
មន្ទីរពិសោធន៍	-9.65681
cz	-9.65744
បន្ទាន់	-9.65772
ស្វែងយល់ពី	-9.6579
ជូនដំណឹង	-9.65872
វិវត្ត	-9.65872
អេសអេស	-9.65981
៊	-9.66046
▁Am	-9.66062
លំនាំ	-9.66067
វិមាន	-9.66082
សត្រូវ	-9.66085
នឹងធ្វើ	-9.66095
បកប្រែ	-9.66108
▁អ្នកគិតថា	-9.66191
ler	-9.66211
របស់ខ្ញុំទេ។	-9.66221
ភ្នែករបស់អ្នក	-9.66228
រោម	-9.66244
ger	-9.66251
ចងចាំថា	-9.66273
ភាគខាងត្បូង	-9.66287
បារ	-9.66441
កក់ក្តៅ	-9.66457
មកលើ	-9.66497
ផលប្រយោជន៍	-9.66559
អត្តសញ្ញាណ	-9.66619
សាហាវ	-9.66653
ចរិត	-9.66653
ម៉ូដ	-9.66683
ការខូចខាត	-9.667
▁23	-9.66772
បានល្អ	-9.66887
48	-9.6691
ham	-9.66911
ជិតស្និទ្ធ	-9.66998
ការកាត់បន្ថយ	-9.67089
cho	-9.6717
បានបង្ហាញខ្លួន	-9.6719
មានរាង	-9.67385
លទ្ធផលនៃ	-9.67412
ពុះ	-9.67439
ដំបូងគេ	-9.67574
មួយថ្ងៃ	-9.67575
វាហាក់ដូចជា	-9.67633
ការឆ្លងមេរោគ	-9.67647
0%	-9.67674
នៅពេលយប់	-9.67689
កំហឹង	-9.67835
ជានិច្ច	-9.67835
សម្របសម្រួល	-9.67835
ប្រភេទសត្វ	-9.67939
គឺជាអ្វី	-9.67969
អាពាហ៍ពិពាហ៍	-9.68033
បរិសុទ្ធ	-9.68036
ពណ៌ខៀវ	-9.68059
អ៊ីន	-9.68141
ដើរលេង	-9.68196
ល្បិច	-9.68232
អស់រយៈពេលជាច្រើន	-9.68236
ចាំបាច់ត្រូវ	-9.68279
ជំងឺរលាក	-9.68293
រាជ	-9.68304
ងាយ	-9.6843
កន្សែង	-9.68431
រាវ	-9.68451
▁ខ្ញុំមិនដែល	-9.68476
ដៃគូរបស់អ្នក	-9.68497
90	-9.68563
.5	-9.68621
ពលរដ្ឋ	-9.68629
កប៉ាល់	-9.68631
ត្រូវបានចេញផ្សាយ	-9.68636
ជុំ	-9.68724
ហើម	-9.68831
ជាម្ចាស់	-9.68853
កង់	-9.68855
ku	-9.68862
ហើយខ្ញុំនឹង	-9.68872
កំប្លែង	-9.68876
qu	-9.68878
សាយ	-9.68926
មានលទ្ធភាព	-9.68969
អ្នកមិនបាន	-9.68986
រាល់ពេល	-9.69007
កូរ៉េ	-9.69017
សន្លឹក	-9.69031
ជាលិកា	-9.69035
ក្លិន	-9.69159
មានសមត្ថភាព	-9.69222
អំពាវនាវ	-9.69232
សាស្រ្តាចារ្យ	-9.69232
វិភាគ	-9.6924
ជាផ្លូវការ	-9.69259
ក្រាស់	-9.69285
ការគេង	-9.69344
▁San	-9.69351
ការធ្វើដំណើរ	-9.69354
ប្រជាប្រិយ	-9.694
ត្រា	-9.69414
ស្រូបយក	-9.69433
លុបបំបាត់	-9.69439
11	-9.69515
ចេតនា	-9.69635
សំលេងទះដៃ	-9.69635
ន្ត	-9.69699
ស៊ូ	-9.69802
ហ្វី	-9.69807
វីនដូ	-9.69837
ric	-9.69883
បានចូលរួម	-9.69919
hu	-9.70022
ផលវិបាក	-9.70039
ដប់	-9.70052
ចង្អុលបង្ហាញ	-9.70054
▁..	-9.70073
តែមួយគត់ដែល	-9.70098
មួយខែ	-9.70206
កីឡាករ	-9.70267
ដោយឥតគិតថ្លៃ	-9.70268
ត្រូវបានគេរកឃើញ	-9.70271
ស្មា	-9.70318
សៀ	-9.70325
នាំយក	-9.70394
ក្បាលរបស់អ្នក	-9.70537
ផ្គត់ផ្គង់	-9.70563
OS	-9.70578
តែងតាំង	-9.70689
ប្រសិនបើអ្នកមាន	-9.70691
ខ្ញុំដឹង	-9.70803
ពាក់ព័ន្ធ	-9.70833
បានរៀបចំ	-9.70838
វិបត្តិ	-9.70838
គ្	-9.70843
កោតសរសើរ	-9.70853
លេងសើច	-9.70906
ធ្វើឱ្យគាត់	-9.70931
ព្	-9.70977
up	-9.70981
យ៉ាងទូលំទូលាយ	-9.71092
មានន័យ	-9.71116
ចាត់ទុក	-9.7116
ខ្ញុំគួរតែ	-9.71291
▁នោះហើយជាអ្វីដែល	-9.71336
រអិល	-9.71405
អេហ្វ	-9.71483
អនុញ្ញាត	-9.7155
ដែន	-9.71563
ek	-9.71584
▁ត្រូវហើយ	-9.71651
យ៉ាងល្អ	-9.71674
បានចាកចេញពី	-9.71724
កត់សម្គាល់	-9.71775
នៅជាប់នឹង	-9.71821
ឥតគិតថ្លៃ	-9.71854
18	-9.719
គួរតែត្រូវបាន	-9.7206
លេខកូដ	-9.72122
▁ខ្ញុំមិនចង់	-9.72149
ម៉ាស	-9.72267
ស្នូល	-9.72294
មនុស្សពេញវ័យ	-9.72296
មិនធម្មតា	-9.72327
ម៉ូលេគុល	-9.72501
វីតាមីន	-9.72501
ណាត់ជួប	-9.72503
លីក	-9.72553
cin	-9.72603
នាងជា	-9.72604
▁El	-9.72639
តឹង	-9.72663
ព្រោះខ្ញុំ	-9.72669
សាខា	-9.72689
របស់ក្រុម	-9.7272
und	-9.72766
លក្ខណៈពិសេស	-9.72771
▁Wal	-9.72806
▁ប្រសិនបើអ្នកចង់	-9.72833
បានបន្ត	-9.72835
ជើងរបស់អ្នក	-9.72854
ការកើនឡើងនៃ	-9.72867
que	-9.72883
uc	-9.72912
ក្រែម	-9.72918
ត្រូវបានអនុវត្ត	-9.72961
បុរសនោះ	-9.72978
ើរ	-9.73003
មានបំណង	-9.73035
ម៉ាយល៍	-9.73126
កាឡូរី	-9.73126
ធូរស្បើយ	-9.73126
ដឹងពីរបៀប	-9.73155
ច្បាស់លាស់	-9.73336
ទ្រី	-9.73378
គេចាត់ទុកថាជា	-9.73408
ចំហៀង	-9.73491
ចោទប្រកាន់	-9.73519
ដែលត្រូវការ	-9.73544
ការបញ្ជាទិញ	-9.73637
ក្រុមតន្រ្តី	-9.73675
សាស្ត្រ	-9.73732
ច្របាច់	-9.73755
វិទ្យាស្ថាន	-9.7376
បាត់ខ្លួន	-9.73813
▁ទេខ្ញុំ	-9.73845
ps	-9.73896
រុករក	-9.73902
ធុញទ្រាន់	-9.73925
បានចូលរួមក្នុង	-9.73959
វដ្ត	-9.73965
ស្ម័គ្រចិត្ត	-9.73966
ដែលបានកំណត់	-9.73966
ដើម្បីរក្សា	-9.74037
របាំង	-9.7407
▁ភាគរយនៃ	-9.7415
មានសុខភាពល្អ	-9.74161
នៅម៉ោង	-9.74176
ដឹក	-9.74228
ថ្នាំប្រឆាំងនឹង	-9.74276
▁តើអ្នកគិតថា	-9.74352
ការភ្ញាក់ផ្អើល	-9.74358
▁Ki	-9.74363
សមាជិកនៃ	-9.74392
ទឹកនោម	-9.74401
ជជែក	-9.7441
▁តើអ្នកកំពុង	-9.74443
fi	-9.74583
កន្លះ	-9.746
សំយោគ	-9.746
▁គឺជាភូមិមួយនៅ	-9.746
au	-9.74639
រីករាលដាល	-9.7466
អាចបណ្តាលឱ្យ	-9.7471
▁ខ្ញុំទើបតែ	-9.74739
31	-9.74748
ye	-9.74812
}	-9.74812
ទ្រង់ទ្រាយ	-9.74812
អ្នកដឹង	-9.74835
ប៉ុន្តែមិន	-9.74911
មហារីក	-9.74953
ទ្	-9.74954
ភ្ញាក់	-9.74966
អ្នកនៅតែ	-9.75027
រដូវក្តៅ	-9.75144
▁1990	-9.75153
▁Pr	-9.75194
▁And	-9.7523
គន្លឹះ	-9.75238
លេចចេញ	-9.75268
ក្រិក	-9.75299
12	-9.75302
េះ	-9.75327
ការចាក់	-9.75384
និយាយទៅកាន់	-9.75386
ខាងក្រោយ	-9.75387
សង្គ្រាមលោកលើកទី	-9.75452
កសាង	-9.75521
នៅពាក់កណ្តាល	-9.75581
អះអាងថា	-9.75627
ចរចា	-9.75666
ស្របច្បាប់	-9.75666
ខ្ញុំចង់បាន	-9.75696
ស្ងប់ស្ងាត់	-9.75696
ការផលិត	-9.75716
កូដ	-9.75758
ត្រលប់មកវិញ	-9.7577
ស្ថាន	-9.75868
ន័យ	-9.75906
មានទំហំ	-9.75939
▁នេះអាច	-9.75954
ភ័យ	-9.76086
សិប	-9.76099
ឃី	-9.76191
របស់បុរស	-9.7626
▁Ad	-9.76298
▁សូមអញ្ជើញមក	-9.76311
ជាមធ្យម	-9.76322
មកវិញ	-9.76379
នៅខាងក្រោយ	-9.76426
ប្រទេសរុស្ស៊ី	-9.76488
ហួ	-9.76489
ម៉ែត្រ	-9.76491
ដែលអ្នកមាន	-9.76499
ចំពោះខ្ញុំ	-9.76591
yo	-9.7674
ess	-9.76742
ឧក្រិដ្ឋកម្ម	-9.76743
អនុម័ត	-9.76767
សិទ្ធិមនុស្ស	-9.76818
លូតលាស់	-9.7691
ខ្វះ	-9.7696
បែងចែក	-9.77119
▁ឆ្នាំមុន	-9.77163
ផ្សារភ្ជាប់	-9.77212
នៅសតវត្សរ៍ទី	-9.77229
ពណ៌ក្រហម	-9.77249
វាស់	-9.77275
▁ទោះយ៉ាងណាក៏ដោយ	-9.77284
អវកាស	-9.77392
លិខិត	-9.77396
តុបតែង	-9.77396
▁ខែមិថុនាឆ្នាំ	-9.77401
លុបចោល	-9.77403
ពីរដង	-9.77404
ពណ៌បៃតង	-9.77418
▁As	-9.77423
សត្វចិញ្ចឹម	-9.77435
ភ្	-9.77491
ទស្សនិកជន	-9.77614
ក្រចក	-9.77615
ឃ្លា	-9.77751
ឆ្លាត	-9.77833
ជម្ងឺ	-9.77833
គំនិតរបស់អ្នក	-9.77868
ប្រែ	-9.77991
ួន	-9.78075
ចាំថា	-9.78154
com	-9.78272
អ្នកមិនចង់	-9.78321
ឪពុករបស់អ្នក	-9.784
ដែលមានអាយុ	-9.78532
if	-9.78599
រូបតំណាង	-9.78604
.0	-9.78617
បានផ្តល់ឱ្យ	-9.78617
សកលលោក	-9.78635
▁ស។	-9.78639
វ៉ែនតា	-9.78713
ប្រជុំ	-9.78715
ស្លៀកពាក់	-9.78726
32	-9.78733
ប្រឹក្សា	-9.78733
▁Her	-9.78774
ម្រាមដៃ	-9.78807
17	-9.78863
មានគោលបំណង	-9.78904
យ៉	-9.78925
កំពង់ផែ	-9.78934
លំហូរ	-9.78934
នាយកដ្ឋាន	-9.7895
ខៀវ	-9.79128
បានឆ្លងកាត់	-9.7916
បណ្	-9.7919
ហានិភ័យនៃ	-9.7921
ឱ្យពួកគេ	-9.79287
គិតថាវា	-9.79301
ផ្សេងគ្នា	-9.79419
ស៊ីន	-9.795
មិនដំណើរការ	-9.7952
ខ្ញុំមិនមាន	-9.79545
iz	-9.79597
ឈី	-9.79605
ប្រយោជន៍	-9.7961
ដូចនោះ	-9.79668
លាក់ខ្លួន	-9.79701
ការវះកាត់	-9.79781
មានវិធី	-9.79853
car	-9.79895
អាចត្រូវបានប្រើ	-9.79929
អ្នកគឺជាអ្នក	-9.79955
ផ្សារ	-9.79966
ធូ	-9.79991
ស្តារ	-9.79994
ប៊ូតុង	-9.80031
សណ្ឋាគារ	-9.80048
កំពុងធ្វើអ្វី	-9.80085
ការច្នៃប្រឌិត	-9.80097
ដោយដៃ	-9.80197
រេ	-9.80219
មានសិទ្ធិ	-9.80236
នៅអាយុ	-9.80256
ចៅក្រម	-9.80272
ទស្សនា	-9.80272
ដែលពួកគេបាន	-9.80278
▁ខែមីនាឆ្នាំ	-9.80279
35	-9.80283
▁2003	-9.80347
ឆ្កែរបស់អ្នក	-9.80371
នាំមុខ	-9.8041
ព្រមាន	-9.80426
មិនត្រឹមត្រូវ	-9.80429
អ្វីផ្សេងទៀត	-9.80495
▁For	-9.80519
ល្អសម្រាប់	-9.80534
ការសរសេរ	-9.80563
អ្នកគាំទ្រ	-9.80574
គិតថាខ្ញុំ	-9.80684
▁យោងតាម	-9.80709
q	-9.80718
សត្វល្អិត	-9.80722
av	-9.80731
ធ្វើការលើ	-9.80779
មួយរយៈ	-9.80805
មានកូន	-9.80835
ប្រភេទនៃការ	-9.80907
អាហ្រ្វិក	-9.80948
65	-9.80985
ទំនាក់ទំនងជាមួយ	-9.81028
ដែលជាអ្នក	-9.81058
ies	-9.81062
ដែលជាកន្លែងដែល	-9.81107
នៅសាលា	-9.81132
ភាពខុសគ្នា	-9.81135
ថេរ	-9.81157
់	-9.81243
pro	-9.81327
ដួលរលំ	-9.81401
គែម	-9.81404
ប្រចាំឆ្នាំ	-9.81467
len	-9.81475
វិធីសាស្ត្រ	-9.81567
កំណើន	-9.81628
ឋានៈ	-9.81628
ពោះវៀន	-9.81628
វេទិកា	-9.81628
បញ្ចុះបញ្ចូល	-9.8165
ដឹកជញ្ជូន	-9.81667
កំណត់អត្តសញ្ញាណ	-9.81667
សេចក្តីស្រឡាញ់	-9.81701
ដើរតួជា	-9.81705
គួរឱ្យស្រឡាញ់	-9.81818
ហែលទឹក	-9.81847
អាសយដ្ឋាន	-9.81856
វេជ្ជសាស្រ្ត	-9.81856
cl	-9.81926
str	-9.81948
ធម៌	-9.8208
កង្វះ	-9.82084
ស្វាគមន៍	-9.82084
ជម្រៅ	-9.82084
ចក្ខុវិស័យ	-9.82084
45	-9.82092
land	-9.82101
ត្រូវបានសម្លាប់	-9.82167
▁ដូច្នេះយើង	-9.82171
ក្លូ	-9.82172
ក្តីសង្ឃឹម	-9.82207
នាំឱ្យ	-9.82263
បឋម	-9.82315
old	-9.82319
នេះក៏	-9.82357
vo	-9.82381
ស្ពាន	-9.82396
ជីវិតរបស់ខ្ញុំ	-9.82433
ជាអ្វី	-9.82471
នៅក្មេង	-9.82504
កាតព្វកិច្ច	-9.82542
ឥ	-9.82542
សិន	-9.82583
រលាក	-9.82592
ងាក	-9.82713
សរសើរ	-9.82772
លាតសន្ធឹង	-9.82773
លំបាក	-9.82802
អាចបណ្តាលឱ្យមាន	-9.82827
លទ្ធភាព	-9.82844
lic	-9.82932
មុខរបស់អ្នក	-9.82992
វិក័យប័ត្រ	-9.83003
ផោន	-9.83019
ការលូតលាស់	-9.83056
នៅកណ្តាល	-9.83208
▁អង្សាសេ	-9.83233
ស្រវឹង	-9.83234
មានគំនិត	-9.83237
con	-9.8328
ចាប់បាន	-9.83296
ការបរាជ័យ	-9.83446
ខ្ញុំមិនបាន	-9.83451
វេន	-9.83469
▁Je	-9.8349
នោះហើយជា	-9.83507
ដ៏ល្អមួយ	-9.8363
ការប្រណាំង	-9.83675
េចក្តីថ្លែងការណ៍	-9.83697
ដែលមានទំហំ	-9.83722
ចម្ងាយប្រមាណ	-9.83737
ការរួមបញ្ចូលគ្នា	-9.8374
ó	-9.83772
តាមពិត	-9.83772
មានអ្វីកើតឡើង	-9.83861
▁Sch	-9.83863
រង្វង់	-9.83929
▁ខែកក្កដាឆ្នាំ	-9.83936
ជាក់លាក់មួយ	-9.84061
សាន	-9.84095
គឺជាផ្នែកមួយនៃ	-9.84144
អធិរាជ	-9.84163
ខកចិត្ត	-9.84163
sis	-9.84168
IS	-9.8422
ក្នុងមួយសប្តាហ៍	-9.84348
▁1980	-9.84352
ប្រេស៊ីល	-9.84396
ស្លាបព្រា	-9.84396
ចោរ	-9.84397
ក្នុងមួយឆ្នាំ	-9.84402
កិច្ចសន្យា	-9.84408
រួមបញ្ចូលទាំង	-9.845
នៅទីនេះទេ។	-9.84639
អ្នកអាចប្រើ	-9.84675
ក្រា	-9.84694
ឆ្មារបស់អ្នក	-9.84803
កិច្ចការ	-9.84861
សមស្រប	-9.84867
85	-9.84917
▁Mac	-9.84923
មិនត្រូវ	-9.84956
វីស	-9.85043
រាងពងក្រពើ	-9.85101
សោកស្តាយ	-9.85101
ការរំខាន	-9.85152
ត្រូវបានសាងសង់	-9.85169
ទៀតទេ	-9.85197
ធ្វើពី	-9.85302
ប្រសិនបើមាន	-9.85331
សុន្ទរកថា	-9.85336
ប័ណ្ណ	-9.85336
របស់របរ	-9.85336
សន្សំ	-9.85336
ដំឡើង	-9.85338
ប្រាប់ខ្ញុំពី	-9.85448
88	-9.85463
នីតិវិធី	-9.85573
ឌូ	-9.8561
ការផ្តោតអារម្មណ៍	-9.85663
ជីក	-9.85677
នៅថ្ងៃស្អែក	-9.85698
ត្រូវបានគេប្រើ	-9.85712
ប្រសើរឡើងនូវ	-9.85733
សាជីវកម្ម	-9.8581
ń	-9.8581
ពេទ្យ	-9.86011
អ្នកផលិត	-9.86045
ឧបសគ្គ	-9.86047
ទណ្ឌកម្ម	-9.86047
អំពើហឹង្សា	-9.86047
នៅលើផែនដី	-9.86125
gan	-9.86137
ug	-9.86195
និយាយជាមួយអ្នក	-9.86284
កាំរស្មី	-9.86285
ទិដ្ឋភាព	-9.86285
ស្ត្រេស	-9.86285
កាបូន	-9.86286
នៅឆ្ងាយពី	-9.8633
amp	-9.86343
ów	-9.86367
តាមវិធី	-9.86402
ធូលី	-9.86428
ស្ថិតនៅ	-9.86453
មិនចេះ	-9.86527
តម្រូវឱ្យមាន	-9.86538
នៅតែបន្ត	-9.8654
ace	-9.86623
ទៅឆ្ងាយ	-9.86703
ខ្ញុំសូម	-9.86724
មរណភាព	-9.86726
par	-9.868
ប្រតិបត្តិ	-9.86817
គ្រាប់ពូជ	-9.86818
39	-9.8682
បញ្ហាប្រឈម	-9.86833
ការថយចុះ	-9.86862
ប៉ុណ្ណោះដែល	-9.86897
បឹង	-9.86962
ប្រដាប់ប្រដា	-9.87003
រញ៉េរញ៉ៃ	-9.87003
កែលម្អ	-9.87003
អ៊ីមែល	-9.87003
បំបាត់	-9.87039
ប្រាប់យើង	-9.87045
ផ្លែ	-9.87052
▁Bra	-9.87094
▁Ber	-9.87129
អ្វីដែលបានកើតឡើង	-9.87139
pr	-9.87145
សូមព្យាយាម	-9.87155
ព្រួយបារម្ភអំពី	-9.87157
mm	-9.87162
បានចេញផ្សាយ	-9.87167
កាន់តែខ្លាំងឡើង	-9.87177
▁Con	-9.87203
ទេពកោសល្យ	-9.87244
អូឡាំពិក	-9.87244
▁អេ។	-9.87363
ខិតខំ	-9.87483
ផ្ទុយ	-9.8749
សំណាង	-9.87539
ហ្សី	-9.87546
្យា	-9.87558
បានមកដល់	-9.87596
កើតមក	-9.87634
ព្រះអម្ចាស់	-9.87726
▁ខែធ្នូឆ្នាំ	-9.87731
ដូច្នេះអ្នកអាច	-9.87781
របស់រដ្ឋ	-9.87848
ខ្លួនខ្ញុំ	-9.87951
គាត់បាននិយាយថា	-9.87953
ម៉ិកស៊ិក	-9.87968
បង់ប្រាក់	-9.88043
ញឹកញាប់	-9.88072
ជួយខ្ញុំ	-9.88095
Z	-9.88152
របប	-9.88156
ក្បែរ	-9.88177
នីហ្សេរីយ៉ា	-9.88211
ឃ្លាំមើល	-9.88211
អត់ធ្មត់	-9.88211
រាប់ពាន់	-9.8823
ឆ្លុះបញ្ចាំងពី	-9.8829
ជាតិខ្លាញ់	-9.88313
អាចរកឃើញ	-9.88339
នៅតាមផ្លូវ	-9.88376
ទ្ធ	-9.88438
▁John	-9.88455
ថោក	-9.88457
ក្រឡា	-9.88476
ធ្វើចលនា	-9.88514
▁200	-9.88523
86	-9.88558
DA	-9.88686
ខ្មាស់អៀន	-9.88698
សម្តែង	-9.88737
ការប្រជុំ	-9.88839
ថវិកា	-9.88943
សំបក	-9.88943
tes	-9.88997
ការរៀបចំ	-9.89095
ach	-9.89134
អំពីវា	-9.89174
ដែលបណ្តាលឱ្យ	-9.89342
42	-9.89376
72	-9.89391
ō	-9.89433
កំពស់	-9.89442
ជាមួយគាត់	-9.89451
cha	-9.89535
នេះពិតជា	-9.8959
ដែលមិនធ្លាប់មាន	-9.89597
មួយនាទី	-9.89652
▁2002	-9.89721
ផ្លា	-9.89723
គេស្គាល់ថា	-9.89749
ខ្ញុំតែងតែ	-9.89749
សារភាព	-9.89814
ដើម្បីមើល	-9.89861
ធ្វើឱ្យខូច	-9.89874
កសិកម្ម	-9.89927
0.000	-9.89958
បានមកពី	-9.89999
ទទួលទាន	-9.90169
បង្ក្រាប	-9.90174
គ្រឿងផ្សំ	-9.90194
រដ្ឋធម្មនុញ្ញ	-9.90195
ឃាតករ	-9.90225
MA	-9.9029
របៀបដែលអ្នក	-9.90352
មិនដូច	-9.90394
អាជ្ញាប័ណ្ណ	-9.90422
តើវា	-9.90436
យើងទទួលបាន	-9.90437
AN	-9.90481
នៅភាគខាងជើង	-9.90563
វ៉ាក់សាំង	-9.90671
ក្រូចឆ្មា	-9.90686
រីករាយនឹង	-9.90694
ការវិភាគ	-9.90713
▁តើអ្នកមិន	-9.90805
ខ្ញុំនៅទីនេះ	-9.90807
ji	-9.90842
មីន	-9.90885
របារ	-9.90887
មិនចូលចិត្ត	-9.90904
នាឡិកា	-9.9092
▁ខែឧសភាឆ្នាំ	-9.90926
ចង់ធ្វើ	-9.90985
ណាស់ក្នុងការ	-9.91022
នៅឆ្ងាយ	-9.91046
ទទេ	-9.91047
សារ៉ា	-9.91097
ការរំលោភបំពាន	-9.91157
ពួកគេទាំងអស់	-9.91276
ទៅដល់	-9.91362
ញញឹម	-9.91412
ព័ទ្ធជុំវិញ	-9.91421
▁2001	-9.91461
ក្នុងវិស័យ	-9.91462
អិល	-9.91498
pl	-9.91529
អាចនិយាយបាន	-9.91551
អត្ថន័យ	-9.91572
យ៉ាងងាយស្រួល	-9.91638
យុគសម័យ	-9.91672
យោងទៅតាម	-9.91672
កម្ចាត់	-9.91672
«	-9.91672
ដុល្លារ	-9.91732
អង្គ	-9.91743
អ្វីដែលត្រូវធ្វើ	-9.91854
ធ្វើឱ្យយើង	-9.91875
ធ្វើអ្វីមួយ	-9.91888
បណ្តោះអាសន្ន	-9.91924
គ្លីនិក	-9.91924
ផ្ទះល្វែង	-9.91924
ភាពស្មោះត្រង់	-9.91931
ពណ៌លឿង	-9.91935
ទាត់	-9.91942
នៅក្នុងទីក្រុង	-9.91986
ហើយគាត់បាន	-9.92044
នរណា	-9.92125
នៅក្នុងផ្ទះ	-9.92176
អន្ទាក់	-9.92177
កូនរបស់អ្នក	-9.9222
តើយើង	-9.92238
ការរកឃើញ	-9.92243
បញ្ឈប់ការ	-9.92268
រយៈពេលវែង	-9.92308
បានចំណាយពេល	-9.92327
38	-9.92358
រួចរាល់	-9.9236
ប្រទេសបារាំង	-9.92373
ទន់ភ្លន់	-9.9243
ប្រាំមួយ	-9.92449
បណ្តេញចេញ	-9.92515
ប៉ូល	-9.92572
អាណា	-9.92646
ខែមីនា	-9.92675
ក្បត់	-9.92712
ខ្ញុំធ្លាប់	-9.92717
នៅពេលដែលវា	-9.92854
ត្រូវបានផលិត	-9.92912
រលោង	-9.92939
ប្រាក់ចំណេញ	-9.92949
ធំបំផុត	-9.92976
បង្ហាញខ្លួន	-9.92991
អ្នកបានឃើញ	-9.93003
ជែល	-9.93092
តាំង	-9.93141
អាក់អន់ចិត្ត	-9.93193
រូបវិទ្យា	-9.9321
វិទូ	-9.93215
ជឿជាក់	-9.93348
មានប្រតិកម្ម	-9.93373
ម្ជុល	-9.93449
អុកស៊ីសែន	-9.93449
ប៉ាន់ស្មាន	-9.93449
▁Sha	-9.93454
▁ហ្វីត	-9.9346
tri	-9.93491
dia	-9.93493
▁តើពួកគេ	-9.93523
អ្នកនឹងទទួលបាន	-9.93559
ជ្រ	-9.93658
ការស៊ើបអង្កេត	-9.93659
ប៉ុស្តិ៍	-9.93705
សាកសព	-9.93705
យើងពិតជា	-9.93733
ស៍	-9.93734
ហាងលក់	-9.93783
las	-9.93819
ស្តា	-9.93839
ល្មម	-9.93963
ប៉ារីស	-9.93964
កំពុងធ្វើការ	-9.93968
▁ខែកញ្ញាឆ្នាំ	-9.93968
គួរតែមាន	-9.93992
ជំនួយការ	-9.94001
ពិពណ៌នាអំពី	-9.94019
▁Mor	-9.94104
មួយសប្តាហ៍	-9.9414
ការស្វែងរក	-9.94167
ft	-9.94179
ចិញ្ចៀន	-9.9422
ពពក	-9.94221
ពេញមួយថ្ងៃ	-9.94239
▁Ku	-9.94257
ស្មើគ្នា	-9.94429
ខែសីហា	-9.94471
នៅភាគខាងត្បូង	-9.94525
ឃ្លាន	-9.94575
គ្រប់ពេល	-9.94608
ឥដ្ឋ	-9.94668
ខ្លួនវា	-9.94681
ព្រះច័ន្ទ	-9.94738
ich	-9.94766
ស្ថិតនៅក្រោម	-9.94874
របស់អង្គការ	-9.94874
ចៅ	-9.94958
សញ្ញានៃ	-9.94964
ប្រយ័ត្ន	-9.94997
សន្និសីទ	-9.94997
ś	-9.94998
ការរួមភេទ	-9.95016
ឡែ	-9.95022
ផ្សាយពាណិជ្ជកម្ម	-9.95129
ខ្ញុំបានរកឃើញ	-9.95152
ដឹកនាំដោយ	-9.95224
សោកសៅ	-9.95258
និយោជិក	-9.95258
ហ៊ូ	-9.95258
បកស្រាយ	-9.95258
ចាប់តាំងពីឆ្នាំ	-9.95261
នៅអឺរ៉ុប	-9.95312
បុរសនេះ	-9.95334
ចំណង់ចំណូលចិត្ត	-9.95519
កំទេច	-9.9552
▁នាងក៏	-9.95547
RA	-9.95555
សកម្មជន	-9.95556
▁ឧទាហរណ៍ប្រសិនបើ	-9.9556
អ្នកនឹងឃើញ	-9.95687
វ័យ	-9.95739
ឥរិយាបទ	-9.95781
▁ខែមេសាឆ្នាំ	-9.95787
អន្តរ	-9.95791
ធាត់	-9.95795
ជាន់ខ្ពស់	-9.95814
ស្ទីល	-9.95817
▁2020	-9.95833
តាមផ្លូវ	-9.95877
the	-9.95905
ហ្ស៊ី	-9.95957
គណៈ	-9.96043
អូស្ត្រាលី	-9.96043
ល្អប្រសើរ	-9.96067
99	-9.96091
អនុប្រធាន	-9.96099
សំរេចចិត្ត	-9.96114
ផ្ទុះឡើង	-9.96146
អ្វីដែលអ្នកចង់	-9.96152
ade	-9.96202
បុ	-9.96206
▁Du	-9.96219
ដែលមានមូលដ្ឋានលើ	-9.9631
ប្រណាំង	-9.96331
ដែលគេហៅថា	-9.96332
ដែលអាចធ្វើបាន	-9.96347
ថល	-9.96358
82	-9.96365
ការបាត់បង់	-9.96551
ការផ្ទុះ	-9.96562
លក្ខណៈសម្បត្តិ	-9.9657
វិធាន	-9.9657
ជំរុំ	-9.9657
បំពង់ក	-9.96639
36	-9.96694
មិនច្បាស់	-9.96708
gg	-9.96761
▁hear	-9.96776
ក្រាម	-9.96811
យ៉ាងច្រើន	-9.96843
▁ខែសីហាឆ្នាំ	-9.96843
ថ្មីមួយ	-9.96919
កាណាដា	-9.96939
ដូចខាងក្រោម	-9.9697
ថយចុះ	-9.9699
ទាំងបី	-9.97027
ខូចខាត	-9.97043
ជ្រូក	-9.97082
ជំរើស	-9.971
ចុះចត	-9.97101
មេឃ	-9.97164
▁Ru	-9.97231
ទូរស័ព្ទមក	-9.97304
ដាច់ដោយឡែក	-9.97324
ជាមួយមនុស្ស	-9.97329
រឿងធម្មតា	-9.97354
ស្ថាបត្យកម្ម	-9.97366
វិញ្ញាណ	-9.97366
សំណើ	-9.97368
64	-9.97372
បូម	-9.97462
ជាប្រធាន	-9.97476
ទសវត្ស	-9.97508
អ្នកឈ្នះ	-9.9751
របស់កុមារ	-9.97527
អភ័យទោស	-9.976
ស្លាប	-9.976
ភាពស៊ាំ	-9.97633
ភោជនីយដ្ឋាន	-9.979
លួងលោម	-9.979
▁Har	-9.98036
នៅយប់	-9.98081
របស់ប្រទេសចិន	-9.98129
សុភមង្គល	-9.98168
ker	-9.98207
ការពិតដែលថា	-9.98213
▁War	-9.98252
ដែលអ្នកចូលចិត្ត	-9.98266
ស្ត្រីម្នាក់	-9.98331
អឹម	-9.98369
លោកខាងលិច	-9.98387
យីហោ	-9.98435
គន្លង	-9.98437
ស្បថ	-9.98438
25	-9.9844
លាយបញ្ចូលគ្នា	-9.9845
▁Bro	-9.98451
កាន់តែប្រសើរ	-9.98463
▁Cha	-9.98493
អ្នកទោស	-9.98555
ខ្សែសង្វាក់	-9.98706
បេក្ខជន	-9.98706
ដុន	-9.98722
end	-9.98765
ella	-9.98788
អេល	-9.98822
ត្រូវតែមាន	-9.98881
78	-9.9894
របួស	-9.98957
មណ្ឌល	-9.98977
ome	-9.99025
ura	-9.99039
ការហៅ	-9.99063
ប៉ុន្តែពួកគេ	-9.99071
ក្តារ	-9.99113
ការលើកទឹកចិត្ត	-9.99196
កោង	-9.99201
ធ្វើដូចម្តេច	-9.99248
កត់សំគាល់	-9.99248
រត់គេចខ្លួន	-9.9929
បញ្ចូលគ្នា	-9.99328
បាក់	-9.99442
60	-9.99457
ដឹងខ្លួន	-9.99468
សន្យាថា	-9.99484
ហ្វីលីពីន	-9.9952
តម្រង	-9.99522
76	-9.99527
មានសំណាង	-9.9963
ការផ្គត់ផ្គង់	-9.99634
នៅខាងក្រោម	-9.99663
មានមោទនភាព	-9.997
ព្យាយាមធ្វើឱ្យ	-9.99705
des	-9.99728
ស៊ីស៊ី	-9.99746
ទេពីព្រោះ	-9.9975
ឆ្នេរ	-9.99771
មនុស្សជាតិ	-9.99794
ផ្ទះរបស់អ្នក	-9.99809
ឆេះ	-9.9981
នៅគ្រប់ទីកន្លែង	-9.99829
ពេញនិយម	-9.99837
បៀ	-9.99882
ផ្ញើសារ	-9.99948
អាក្រក់បំផុត	-9.99981
ធ័រ	-9.99993
ភូ	-10.0001
បានប្រកាស	-10.0004
ដំបូន្មាន	-10.0007
ឧបត្ថម្ភ	-10.0007
មានអ្វីមួយ	-10.0008
វិទ្យា	-10.0026
ប្រសិនបើអ្នកចង់	-10.0026
▁Nintendo	-10.0034
ជំពាក់	-10.0034
▁មីលីក្រាម	-10.0034
AR	-10.0037
យើងបានធ្វើ	-10.0038
គឺត្រូវ	-10.004
15	-10.0045
មនុស្សផ្សេងទៀត	-10.0047
សាក	-10.0051
ទោះយ៉ាងណា	-10.0056
ធំមួយ	-10.0056
ប្រឌិត	-10.0061
46	-10.0066
កំពុងដំណើរការ	-10.0066
នៅទូទាំងពិភពលោក	-10.0067
ល្អប្រសើរជាងមុន	-10.0068
ដែនកំណត់	-10.0068
▁Ben	-10.0069
ឈប់សម្រាក	-10.0069
បានសំរេចចិត្ត	-10.0086
ខ្ជះខ្ជាយ	-10.0089
ភ្នាល់	-10.0089
កែប្រែ	-10.009
ជាកម្មសិទ្ធិរបស់	-10.009
▁Hy	-10.0095
ឃាតកម្ម	-10.01
ព្រួយបារម្ភ	-10.0101
55	-10.0108
ចូលទៅកាន់	-10.0109
បណ្តាលមកពី	-10.0115
ព្យាករណ៍	-10.0117
▁Min	-10.0129
ប្រែក្លាយ	-10.0129
នៅលើដី	-10.013
ត្រូវបានគេមើលឃើញ	-10.013
kin	-10.0135
បីនាក់	-10.0136
ther	-10.0136
ការងារធ្វើ	-10.0139
រទេះ	-10.0142
មានទីតាំងនៅ	-10.0142
ចម្អិន	-10.0144
ប៉ុណ្ណា	-10.0144
តួលេខ	-10.0144
តង់	-10.0149
ដោយមិនចាំបាច់	-10.0155
៉	-10.0165
ឡែន	-10.0169
បុព្វហេតុ	-10.0172
សន្លប់	-10.0172
បិសាច	-10.0172
សហប្រជាជាតិ	-10.0172
សូមឱ្យ	-10.0175
ប៉ុន្តែខ្ញុំមិន	-10.0176
43	-10.0184
ប៊ូ	-10.0199
មួយភ្លែត	-10.02
នៅម្នាក់ឯង	-10.02
ស្តុក	-10.02
ទឹកក្តៅ	-10.0206
រាយ	-10.0215
16	-10.022
នៅលើផ្លូវ	-10.022
line	-10.0227
វេទមន្ត	-10.0228
អណ្តូងរ៉ែ	-10.0228
នារី	-10.0234
ium	-10.0236
អ្នកប្រហែលជាចង់	-10.0238
នៅចុងបញ្ចប់នៃ	-10.0241
មានស្ថេរភាព	-10.0255
សូន្យ	-10.0256
ស្ទះ	-10.0256
ble	-10.0263
act	-10.0268
អ្នកទទួល	-10.0271
មានចំណងជើងថា	-10.0273
នេះគឺជាអ្វីដែល	-10.0278
ទូលំទូលាយ	-10.0279
បានមានប្រសាសន៍ថា	-10.028
ជាប់ពន្ធនាគារ	-10.0281
សុដន់	-10.0284
ទាល់តែសោះ	-10.0284
▁szczecin	-10.0284
ពណ៌ត្នោត	-10.0284
ាញ់	-10.03
ក្រោមដី	-10.0307
ភ័ស្តុតាង	-10.0312
ថៅកែ	-10.0312
អនុសាសន៍	-10.0312
វ៉ាស៊ីនតោន	-10.0312
ano	-10.0316
▁Ver	-10.0318
បានបម្រើការជា	-10.0322
ការប្រមូលផ្តុំ	-10.0323
▁1960	-10.0324
ខុសច្បាប់	-10.0329
នៅតែជា	-10.033
កាន់តែខ្លាំង	-10.0331
ត្រឡប់មក	-10.0332
ឆន្ទៈ	-10.0336
សម្លឹងមើល	-10.034
កាំបិត	-10.034
បបូរមាត់	-10.034
មិត្តស្រី	-10.0345
ផងដែរថា	-10.0347
44	-10.0355
ងាយនឹង	-10.0358
ភ្ជាប់ទៅនឹង	-10.0362
ធំជាងគេ	-10.0364
រដូវរងារ	-10.0367
ព្រលឹង	-10.0369
អាណានិគម	-10.0369
នាយករដ្ឋមន្រ្តី	-10.037
ភាពសប្បាយរីករាយ	-10.0371
ett	-10.0372
វះកាត់	-10.0374
ផ្លូវដែក	-10.0376
ដែលបានផ្តល់ឱ្យ	-10.0392
ook	-10.0394
បៃតង	-10.0394
ជារៀងរហូត	-10.0397
ល្ងាច	-10.0397
ស៊ុត	-10.0397
ទូទាត់	-10.0398
▁Cap	-10.0414
33	-10.0416
ធ្វើអត្តឃាត	-10.0426
ប្រព្រឹត្ដ	-10.0426
ការទូត	-10.0427
ទេសភាព	-10.0431
ម្ចាស់ផ្ទះ	-10.0434
41	-10.0443
.1	-10.0444
ផ្តាច់	-10.0446
ផ្ទុយពី	-10.0453
សង្កាត់	-10.0454
អ៊ឺរ៉ុប	-10.0454
កសិករ	-10.0454
ប្រហាក់ប្រហែល	-10.0454
ចរាចរណ៍	-10.0454
សូដ្យូម	-10.0454
អាមេរិកាំង	-10.0456
ល្អជាង	-10.0462
▁ដូច្នេះខ្ញុំបាន	-10.047
នាម	-10.0473
សូវៀត	-10.0483
ដកស្រង់	-10.0483
ជាតិអាល់កុល	-10.0483
▁Voivodeship	-10.0483
រលួយ	-10.0483
▁Wo	-10.049
ពួកវា	-10.049
ធ្វើតេស្ត	-10.0494
កាន់តែងាយស្រួល	-10.0495
▁1999	-10.0496
កូនសោ	-10.0499
ឆាក	-10.0508
តួអង្គ	-10.0512
សីលធម៌	-10.0512
ដាំដុះ	-10.0512
មិត្តប្រុស	-10.0513
បង្វិល	-10.0513
▁Mon	-10.0514
នឹងកើតឡើង	-10.0515
វគ្គសិក្សា	-10.0518
▁Mc	-10.0521
nie	-10.0522
▁Nor	-10.0526
ដើរតួ	-10.0539
សន្និដ្ឋាន	-10.054
ស្ថាបនិក	-10.054
សួនច្បារ	-10.054
គុ	-10.0542
បុគ្គលិកលក្ខណៈ	-10.0543
បូក	-10.0543
▁Serie	-10.0544
ថ្ងៃស្អែក	-10.0554
ចំណាំ	-10.0564
ជង្គង់	-10.0569
នេសាទ	-10.0569
ប្រមាញ់	-10.0569
អាកាសចរណ៍	-10.0569
ខ្ចី	-10.0569
និទាឃរដូវ	-10.0569
សមាមាត្រ	-10.0569
ថ្លែង	-10.0571
វិធីនេះ	-10.0573
បន្ទុក	-10.0577
ជីតា	-10.0588
ឆ្លុះបញ្ចាំង	-10.0589
▁Per	-10.0594
មិនពិត	-10.0598
អំពូល	-10.0598
អាមេរិច	-10.0598
ទីក្រុងប៉េកាំង	-10.0598
IN	-10.06
ជាសាធារណៈ	-10.0606
មានឥទ្ធិពលលើ	-10.0607
ធ្នូ	-10.0621
ចំអិន	-10.0628
ការចេញផ្សាយ	-10.0629
ភាគខាងកើត	-10.0631
ត្រាំ	-10.0632
ក្មេងៗ	-10.0636
ដឹងពីអ្វីដែល	-10.0642
គេសន្មត់ថា	-10.0653
ប្លន់	-10.0656
ប្លាស្ទិច	-10.0656
ដែលមានសក្តានុពល	-10.0657
ដើម្បីកាត់បន្ថយ	-10.0665
ធា	-10.0667
នាយកប្រតិបត្តិ	-10.0668
តស៊ូ	-10.0668
សំណុំ	-10.0686
ផ្អែម	-10.0686
គោល	-10.0687
ដុតនំ	-10.0688
ទេមែនទេ	-10.0693
ឯ	-10.0693
អញ្ចឹង	-10.0696
ឆា	-10.07
បានប្រកាសថា	-10.0703
ផលប៉ះពាល់នៃ	-10.0703
ដែលបានបង្កើតឡើង	-10.0706
63	-10.0712
កងទ័ពជើងទឹក	-10.0715
▁Tri	-10.0715
មុំ	-10.0715
ងាយរងគ្រោះ	-10.0715
fr	-10.0718
បំភ្លឺ	-10.0719
MI	-10.0721
ចូលគេង	-10.073
បន្ថែមលើ	-10.0732
ត្រូវបានតែងតាំង	-10.0739
បញ្ចុះ	-10.0742
ច្រឡំ	-10.0744
ដួល	-10.0744
កិច្ចប្រជុំ	-10.0746
វាស់វែង	-10.0747
age	-10.0748
បញ្ជាក់ពី	-10.0749
ការវិនិយោគ	-10.0763
ប្រទេសស៊ីរី	-10.0771
ព្រិល	-10.0774
គម្រប	-10.0774
មិនយូរប៉ុន្មាន	-10.0774
វាមានសារៈសំខាន់	-10.0774
ម៉ឺនុយ	-10.0775
68	-10.0777
ចក្រភព	-10.0777
បានឈានដល់	-10.0778
ដកហូត	-10.0804
ការទទួលទាន	-10.0804
សន្មត់ថា	-10.0807
លេងល្បែង	-10.0808
ចាប់ពីឆ្នាំ	-10.0809
មូល	-10.0816
កន្លងមក	-10.0825
ជាប្រចាំ	-10.0825
ពីរបីថ្ងៃ	-10.0826
ហុង	-10.0828
រាប់រយ	-10.0829
ត្រូវបានណែនាំ	-10.0829
ចាត់	-10.0833
ការប៉ះទង្គិច	-10.0833
បំណុល	-10.0833
នំប៉័ង	-10.0833
មូលដ្ឋានគ្រឹះ	-10.0836
កោស	-10.0839
▁ហើយតើ	-10.0844
នាគ	-10.0846
សួរសំណួរ	-10.0854
លំហាត់	-10.0856
▁គាត់គឺជា	-10.0856
បណ្ឌិត	-10.0862
ទិនានុប្បវត្តិ	-10.0863
អតិបរមា	-10.0863
បរិបទ	-10.0864
fl	-10.0864
សមត្ថភាពក្នុងការ	-10.0865
មានប្រជាប្រិយភាព	-10.0868
ពន្យល់ពី	-10.0869
ការសម្លាប់	-10.0873
ឆ្នាំមកហើយ	-10.0874
មានភាពខុសគ្នា	-10.0883
ចូលនិវត្តន៍	-10.0893
អប្បបរមា	-10.0893
ប៉ុន្មានឆ្នាំ	-10.0893
អក្សរសាស្ត្រ	-10.0894
ខ្ញុំអាចធ្វើបាន	-10.0897
62	-10.0897
មិនត្រូវបានគេ	-10.0901
ហើយពួកគេបាន	-10.0914
57	-10.092
វាអាចជា	-10.092
ការហៅទូរស័ព្ទ	-10.0921
អាតូម	-10.0923
ថ្មីៗ	-10.0929
បង្ខំ	-10.0931
អ្នកអាចមើលឃើញ	-10.0934
អាចជួយអ្នក	-10.0935
ស្ទី	-10.0951
ឬអត់	-10.0951
ប្រាក់កម្ចី	-10.0953
ប្រហែលជាត្រូវ	-10.0953
34	-10.0956
19	-10.0959
ថៃ	-10.0965
នៅរស់	-10.0974
ខែកក្កដា	-10.0982
SA	-10.1012
បញ្ញា	-10.1013
ប៉ាស៊ីហ្វិក	-10.1013
កាឡាក់ស៊ី	-10.1013
កម្រិតខ្ពស់	-10.1014
77	-10.1018
ម្នាក់ក្នុងចំណោម	-10.1032
មិនសមហេតុផល	-10.1038
ការមើលឃើញ	-10.1038
kh	-10.1041
ទទួលស្គាល់ថា	-10.1042
ដុះ	-10.1043
បទប្បញ្ញត្តិ	-10.1043
ងាយស្រួលក្នុងការ	-10.1045
កូរ៉េខាងត្បូង	-10.1047
men	-10.1049
សមហេតុផល	-10.1053
52	-10.1054
ugh	-10.1058
jo	-10.1059
AT	-10.1067
វ៉	-10.1073
សញ្ញាប័ត្រ	-10.1074
អបអរសាទរ	-10.1074
ឥណទាន	-10.1074
▁Super	-10.1076
67	-10.1089
oid	-10.1091
អ្នកដឹកនាំ	-10.1099
មេតា	-10.1101
ខ្ញុំខ្លាច	-10.1101
ក្នុងការស្វែងរក	-10.1101
ផុត	-10.1101
ជក់	-10.1103
ចរន្ត	-10.1104
gh	-10.1108
ឱ្យបានច្រើន	-10.1119
ដើម្បីព្យាបាល	-10.112
ទំនុកចិត្ត	-10.112
ដ៏សំខាន់មួយ	-10.1123
▁វាស្ថិតនៅ	-10.1126
អាចជួយអ្នកឱ្យ	-10.1131
ស្មារតី	-10.1135
ចំនុច	-10.1135
បំផុសគំនិត	-10.1135
ឈឺក្បាល	-10.1139
ព្រះមហាក្សត្រ	-10.1143
▁1997	-10.1143
មាន់	-10.1147
ជួបគ្នា	-10.115
ថ្នាំលាប	-10.1159
អុក	-10.1162
iv	-10.1165
ចំលែក	-10.1166
ស្នាដៃ	-10.1166
ទីភ្នាក់ងារ	-10.1171
តើមានអ្វី	-10.1186
ឧត្តម	-10.1196
»	-10.1196
មេដាយ	-10.1196
រវល់	-10.1196
ជាងនេះទៅទៀត	-10.1196
ស្នើ	-10.1204
ប្រទេសអង់គ្លេស	-10.1212
ood	-10.1213
ការអះអាង	-10.1215
យន្តការ	-10.1219
សួន	-10.1224
ហុងកុង	-10.1227
អធិស្ឋាន	-10.1227
ឡើយ	-10.1232
បុក	-10.1233
47	-10.124
▁1970	-10.1249
យ៉ាងខ្លាំងចំពោះ	-10.1251
ប្រសើរឡើង	-10.1255
មិត្តភាព	-10.1256
ហូឡង់	-10.1258
តុល្យភាព	-10.1258
56	-10.1262
ធានីក្នុងតំបន់	-10.1265
ប្រកួត	-10.1269
ម្នាក់ទៀត	-10.127
ការប៉ុនប៉ង	-10.1273
ការកសាង	-10.1274
មួយដែលមានឈ្មោះថា	-10.1276
49	-10.1276
នៅទីណា	-10.1277
amine	-10.1284
ការរីកចម្រើន	-10.1287
រ៉ូម៉ាំង	-10.1289
ហ្វេសប៊ុក	-10.1289
បណ្តឹង	-10.129
ភូមិសាស្ត្រ	-10.1291
ពាក្យបញ្ជា	-10.1298
នៅតាមបណ្តោយ	-10.1306
កូនឆ្កែ	-10.1309
ase	-10.1314
គ្របដណ្តប់លើ	-10.1315
▁Ac	-10.1315
ធ្វើខុស	-10.1317
ដំបង	-10.132
ទ្រនាប់	-10.132
សំដែង	-10.132
ចំហាយ	-10.1322
ដែលបណ្តាលមកពី	-10.1322
រណ៍	-10.1322
ចង់ឱ្យខ្ញុំ	-10.1325
ជះឥទ្ធិពលដល់	-10.1332
សុំឱ្យ	-10.1342
ឈ្លានពាន	-10.1352
មានផាសុកភាព	-10.1352
អចលនទ្រព្យ	-10.1352
រាលដាល	-10.1352
ទីបញ្ចប់	-10.1359
ការបែងចែក	-10.136
ខ្ញុំចង់និយាយ	-10.137
ធ្វើឃាត	-10.137
cal	-10.1377
បានសម្តែង	-10.1378
ទាបជាង	-10.1381
លេខាធិការ	-10.1383
បំណងប្រាថ្នា	-10.1387
66	-10.1388
ចូលរៀន	-10.1393
▁ខាងកើតនៃ	-10.1398
ត្រូវបានជ្រើសរើស	-10.1402
5%	-10.1411
យានយន្ត	-10.1415
តូចតាច	-10.1415
▁ជៀសវាងការ	-10.1417
លីលី	-10.142
បត់	-10.1437
រឿងកំប្លែង	-10.1439
ឈីស	-10.1445
ស្រមៃមើល	-10.1456
នៅពេលព្រឹក	-10.1467
សរសៃ	-10.147
ផ្សេង	-10.1476
ខែមេសា	-10.1477
ជំនួញ	-10.1478
បម្រុងទុក	-10.1478
ត្រូវបានរចនាឡើង	-10.1479
▁Ros	-10.1483
ត្រូវការជំនួយ	-10.1496
រ៉េ	-10.1505
អាកាសយានដ្ឋាន	-10.1509
អ៊ុំ	-10.1509
ឌីអិនអេ	-10.1509
ស្រមោល	-10.1509
ប្រាំបី	-10.151
មានក្លិន	-10.1521
ឥឡូវ	-10.1528
គ្មានអ្វីដែល	-10.1531
បញ្ជាទិញ	-10.1534
ចង់ឃើញ	-10.1536
អំពើ	-10.1538
បន្ធូរ	-10.154
ចំណី	-10.1541
រ៉ាំរ៉ៃ	-10.1541
នៅពេលនាង	-10.1545
ធ្វើរឿង	-10.1547
ឈីលី	-10.1552
ហាយ	-10.1552
រយៈពេលប៉ុន្មាន	-10.1559
ity	-10.1566
គ្រោង	-10.1569
គឺជាវិធី	-10.1569
បរិវេណ	-10.1573
ចែក	-10.1573
វីរបុរស	-10.1574
កំណត់ថាតើ	-10.1574
មានភាពងាយស្រួល	-10.1582
ការតស៊ូ	-10.1586
71	-10.1593
ម៉ាស្សា	-10.16
ថែមទៀត	-10.1605
ពិគ្រោះជាមួយ	-10.1605
សមរភូមិ	-10.1605
រាតត្បាត	-10.1605
បញ្ចុះសព	-10.1605
លោកប្រធានាធិបតី	-10.1616
bro	-10.1622
ខ្ញុំជាអ្នក	-10.1627
ការទទួលខុសត្រូវ	-10.1629
ផ្តោតអារម្មណ៍	-10.1632
qui	-10.1636
ស្នង	-10.1638
13	-10.1648
ខ្លាំងពេក	-10.1649
តន្រ្តី	-10.165
យើងមិនមាន	-10.1651
រួច	-10.1659
ជ្រលក់	-10.1664
ស្ថិតនៅលើ	-10.1665
មានវត្តមាន	-10.1666
ការប្តេជ្ញាចិត្ត	-10.167
ដែលមានស្រាប់	-10.167
អ្នកជិតខាង	-10.1673
ចំនួនប្រជាជន	-10.1677
នៅខាងស្តាំ	-10.1678
▁1998	-10.1682
ជាតិពុល	-10.1683
ណែនាំឱ្យ	-10.1685
ឡាំង	-10.1686
ទម្រង់នៃ	-10.1686
zz	-10.1688
រហូតដល់ឆ្នាំ	-10.1699
នៅស្រុក	-10.17
គុយបា	-10.1701
▁1994	-10.1702
សមីការ	-10.1704
ជាតិទឹក	-10.1708
ដឹងច្បាស់	-10.171
កុម្មុយនិស្ត	-10.1734
ឧប្បត្តិហេតុ	-10.1734
ស្រាបៀរ	-10.1735
សារធាតុគីមី	-10.1738
ism	-10.1742
ភាពខុសគ្នានៃ	-10.1744
ស្វែងយល់	-10.1748
ភ្លៀង	-10.1757
ជាចម្បង	-10.1767
ទសវត្សរ៍	-10.177
លេងហ្គេម	-10.1792
កញ្ញា	-10.1792
ល្បាយ	-10.18
53	-10.1801
បច្ចុប្បន្ននេះ	-10.1805
យ៉ាងលឿន	-10.1805
ធំឡើង	-10.1807
កុំបារម្ភ	-10.1812
81	-10.1823
ect	-10.1824
▁Vo	-10.1824
មនុស្សល្ងីល្ងើ	-10.1824
ត្រៀម	-10.1829
ការតភ្ជាប់	-10.1832
ខែមិថុនា	-10.1834
RI	-10.1841
▁Mer	-10.1847
នឹងធ្វើឱ្យអ្នក	-10.1851
ប្រដាប់	-10.1864
ي	-10.1865
អ៊ីដ្រូសែន	-10.1865
អកុសល	-10.1865
កូឡុំប៊ី	-10.1865
ទន្សាយ	-10.1865
អង្ករ	-10.1867
ព័ត៌មានលម្អិត	-10.1868
burg	-10.187
ចេញពីទីនេះ	-10.1872
73	-10.1878
សាច់ប្រាក់	-10.1882
អេលី	-10.1887
សតវត្សរ៍	-10.1888
ក្លែងក្លាយ	-10.1898
សំលៀកបំពាក់	-10.1898
កម្សាន្ត	-10.1916
LA	-10.1919
ការរំពឹងទុក	-10.1923
អ្នកជំនាញខាង	-10.1929
ទស្សន៍	-10.1931
វិស្វកម្ម	-10.1931
ផ្តួចផ្តើម	-10.1931
ផ្លែប៉ោម	-10.1931
ពេលនោះមក	-10.1932
61	-10.1934
អាន់	-10.194
ស្មើនឹង	-10.1945
មេរៀន	-10.195
នៅមហាវិទ្យាល័យ	-10.1959
ស្លៀក	-10.1963
ឧត្តមសេនីយ៍	-10.1965
កាលវិភាគ	-10.1965
រមាស់	-10.1965
រហូតមកដល់ពេលនេះ	-10.1965
ចេញវេជ្ជបញ្ជា	-10.1972
▁Bri	-10.1974
ចែង	-10.1976
▁Za	-10.1984
01	-10.1986
37	-10.1992
កាន់តែប្រសើរឡើង	-10.1996
យាន	-10.1996
can	-10.1997
មន្ត្រី	-10.1998
អេហ្ស៊ីប	-10.1998
ថ្នមៗ	-10.1998
អង់ស៊ីម	-10.1998
មីង	-10.2008
គាំទ្រដល់	-10.2011
van	-10.2017
គាត់មិនបាន	-10.2028
ផ្កាយរណប	-10.2031
odeship	-10.2031
ក្រឡុក	-10.2031
ក្លែងបន្លំ	-10.2031
រំលង	-10.2033
ដឺ	-10.2033
និយមន័យ	-10.2034
កាក់	-10.2047
.2	-10.205
ផ្ទៃដី	-10.2051
0,000	-10.2057
ទីធ្លា	-10.2065
សត្វឆ្មា	-10.2067
សូមអរគុណ	-10.2075
រំខានដល់	-10.2092
▁Pan	-10.2096
59	-10.2097
ឡាក់	-10.2097
សាក្សី	-10.2099
▁Apple	-10.2099
អ៊ិនធឺរណែត	-10.2099
គូប្រជែង	-10.2099
ហ៊ាន	-10.21
កម្មសិទ្ធិ	-10.2105
នៅចក្រភពអង់គ្លេស	-10.2106
PS	-10.2114
ចំណាយពេលច្រើន	-10.2121
ច្បាស់ជា	-10.2122
ទំនេរ	-10.2125
cor	-10.2125
ខោនធី	-10.2132
▁Google	-10.2132
សង្ខេប	-10.2132
98	-10.2136
oph	-10.2139
បទចំរៀង	-10.2146
ive	-10.215
▁Val	-10.216
*	-10.2166
បារម្ភ	-10.2187
សម្រាប់ហេតុផល	-10.2189
ល្បីល្បាញ	-10.2192
CO	-10.2195
កសិដ្ឋាន	-10.22
និមិត្តសញ្ញា	-10.22
ធ្វើម្តងទៀត	-10.2206
ខែកញ្ញា	-10.2207
58	-10.2209
សង្គ្រោះ	-10.2209
54	-10.2214
សត្វឆ្កែ	-10.222
បះបោរ	-10.2235
ស្ទូឌីយោ	-10.2235
ស្នាមញញឹម	-10.2236
មានដើមកំណើត	-10.2237
នានា	-10.2239
ដេកលក់	-10.2246
បានកត់សម្គាល់	-10.2249
ប្រាក់ខែ	-10.2253
ខ្មោច	-10.2269
បវរកញ្ញា	-10.2269
&	-10.2269
អាហារថ្ងៃត្រង់	-10.2269
សម្ប	-10.2274
ដ៏លំបាក	-10.2281
តោន	-10.2289
ច្បាស់ណាស់	-10.2292
បានផ្ញើ	-10.23
ធ្វើបានល្អ	-10.2301
សប្បុរស	-10.2303
សហគ្រាស	-10.2303
ស្តើង	-10.2303
ផ្ទះបាយ	-10.2304
ពូកែ	-10.2305
ត្ដ	-10.2306
ឆ្នេរសមុទ្រ	-10.2306
បានអះអាងថា	-10.2308
វូ	-10.231
▁1995	-10.2313
កាំ	-10.2314
ដិន	-10.2315
▁you	-10.2317
ឡើងវិញនូវ	-10.2326
ការដឹកជញ្ជូន	-10.2332
ជឿលើ	-10.2336
អាទិភាព	-10.2338
▁NGC	-10.2338
▁ពាន់លានដុល្លារ	-10.2338
▁យោងតាមការិយាល័យ	-10.234
ពន្យារពេល	-10.2342
ស្នើឱ្យ	-10.2362
▁Gar	-10.237
ដំបូល	-10.2372
កាលពីយប់មិញ	-10.2372
មេបញ្ជាការ	-10.2372
ស្កេន	-10.2372
ដុសធ្មេញ	-10.2373
កម្ពស់	-10.2405
ផ្នូរ	-10.2407
ក្រោកឡើង	-10.2407
ព្រីន	-10.2407
ការបោះពុម្ព	-10.2423
ដាវ	-10.2428
ង្វៀន	-10.2442
ប្រារព្ធ	-10.2442
ចាត់ថ្នាក់	-10.2445
សារធាតុចិញ្ចឹម	-10.2447
នៅជុំវិញពិភពលោក	-10.2452
ment	-10.2452
ស្រួល	-10.2453
យប់នេះ	-10.2459
ម្ខាង	-10.2461
69	-10.2462
▁Ya	-10.2468
ខែឧសភា	-10.2476
ប្រញាប់	-10.2477
អនាម័យ	-10.2477
ឆ្អឹងខ្នង	-10.2479
ស៊ុល	-10.2479
ត្រឡប់	-10.2483
ជាថ្មីម្តងទៀត	-10.2484
អាចទទួលយកបាន	-10.2488
ប្រទេសអាឡឺម៉ង់	-10.2489
នោះទេប៉ុន្តែ	-10.2494
ការហោះហើរ	-10.2501
ក្មេងលេង	-10.2501
ភាគរយ	-10.2506
អ្នកចំរៀង	-10.2506
កាតូលិក	-10.2512
រំញោច	-10.2512
▁ជាការពិតណាស់	-10.2515
ឋ	-10.2516
ven	-10.2519
ហ្គីតា	-10.252
គួរឱ្យខ្លាច	-10.2522
អំពីរបៀបដែល	-10.2535
ចន្លោះពី	-10.254
ត្រូវបានអនុម័ត	-10.2543
ជំទាស់	-10.2547
ជ្រាលជ្រៅ	-10.2547
អាណិតអាសូរ	-10.2547
ចៀម	-10.2547
សាស្រ្ត	-10.2554
ជាតិស្ករ	-10.2559
អនុវត្តតាម	-10.2566
អេសអេសអេសអេសអេស	-10.2569
ឆ្ងល់	-10.2579
អណ្តូង	-10.2582
ប្តេជ្ញា	-10.2582
ផ្តាច់ព្រ័ត្រ	-10.2582
រាជវង្ស	-10.2582
berg	-10.2586
គាត់បានធ្វើ	-10.2594
អះអាង	-10.2597
ភាគល្អិត	-10.2618
ស្រូវ	-10.2618
▁Yo	-10.2621
uck	-10.2633
ថម	-10.2635
មួយវិនាទី	-10.2644
ខ្ញុំគ្រាន់តែចង់	-10.2662
នាវិក	-10.2676
តែម្នាក់គត់	-10.2689
វាយលុក	-10.2689
វឌ្ឍនភាព	-10.2689
ពោត	-10.2689
សំណង់	-10.269
អារក្ស	-10.269
ចុះខ្សោយ	-10.2698
ចុងបញ្ចប់នៃ	-10.2709
អាចជួយឱ្យ	-10.2719
▁1950	-10.2721
▁មីលីមីត	-10.2725
ខ្ញុំសង្ឃឹមថា	-10.2727
ផ្តល់ជូននូវ	-10.2728
14	-10.2741
បីដង	-10.2743
អ្នកកំពុងធ្វើ	-10.2745
វេជ្ជបញ្ជា	-10.2753
ប្រាំពីរ	-10.2757
អណ្តាត	-10.2759
ព្រះវរបិតា	-10.2761
បន្តទៅមុខទៀត	-10.2761
ត្រូវបានផ្តល់ឱ្យ	-10.2763
▁uh	-10.277
ប្រឈមមុខ	-10.2778
រំកិល	-10.2797
កែច្នៃ	-10.2797
អន្តោប្រវេសន៍	-10.2797
ជីដូន	-10.2797
រ៉ុក	-10.28
មិត្តរួម	-10.2801
▁Jim	-10.2803
ឈ្នះពានរង្វាន់	-10.2806
21	-10.2815
បណ្តេញ	-10.2821
បន្ទប់ទឹក	-10.2821
កំពុងរង់ចាំ	-10.2829
សុបិន	-10.2833
ព្រះអង្គម្ចាស់	-10.2833
កែសម្រួល	-10.2833
តឹងរឹង	-10.2836
មានលក្ខណៈពិសេស	-10.2838
.3	-10.2843
មានទំនុកចិត្ត	-10.2851
ឱ	-10.2855
តូចចិត្ត	-10.2862
05	-10.2869
ច្រណែន	-10.287
មុជទឹក	-10.287
ហាណូយ	-10.287
យូរអង្វែង	-10.287
ទេសចរណ៍	-10.287
រសៀល	-10.287
អគ្គ	-10.2871
ស្រអាប់	-10.2872
ER	-10.2873
ON	-10.2893
▁តើយើងអាច	-10.2897
ដងក្នុងមួយថ្ងៃ	-10.29
▁County	-10.2906
តួអក្សរ	-10.2906
ថយក្រោយ	-10.2906
រាបស្មើ	-10.2906
ម្តងហើយម្តងទៀត	-10.2906
ទាន់សម័យ	-10.2911
ប្រកាន់ខ្ជាប់នូវ	-10.2914
យ៉ាងជិតស្និទ្ធ	-10.2915
ឱប	-10.292
មានទំហំធំ	-10.2929
កែសំរួល	-10.2943
ស្នេហ៍	-10.2943
វិមាត្រ	-10.2943
គណៈកម្មការ	-10.2943
វិទ្យាសាស្រ្ត	-10.2954
ឆ្នោត	-10.2978
ü	-10.298
ę	-10.298
ដំបៅ	-10.298
ដោត	-10.298
ទទួលរងនូវ	-10.2982
គួរឱ្យធុញទ្រាន់	-10.2987
បានណែនាំ	-10.2991
▁400	-10.2992
បច្ចុប្បន្នភាព	-10.2994
ស៊ីឌី	-10.2995
PA	-10.3001
ការប៉ះពាល់	-10.3006
ជួយអ្នកឱ្យ	-10.301
ស្តូ	-10.301
ផ្កាឈូក	-10.3014
ទីក្រុងឡុងដ៍	-10.3016
អ៊ីរ៉ង់	-10.3016
សហជីព	-10.3016
អង់ទីប៊ីយោទិច	-10.3016
យើងបានរកឃើញ	-10.3019
ម្ខាងទៀត	-10.3023
បើកដំណើរការ	-10.3024
យើងអាចធ្វើបាន	-10.3026
ទឹកភ្លៀង	-10.3028
AP	-10.3035
ម្រាមដៃរបស់អ្នក	-10.3038
ស្រលាញ់	-10.3053
អក្ខរាវិរុទ្ធ	-10.3053
ញើស	-10.3061
ប្រឈមនឹង	-10.3074
លេប	-10.3085
អូស្រ្តាលី	-10.3091
កប្បាស	-10.3091
ដំឡូង	-10.3091
51	-10.3098
ដែលមានមូលដ្ឋាននៅ	-10.3101
ផ្តោត	-10.3103
04	-10.3106
មួយយប់	-10.3108
ដំណើរកម្សាន្ត	-10.3108
ពិភាក្សាអំពី	-10.3109
ធ្វើអ្វីៗ	-10.3113
itz	-10.312
លុះត្រាតែ	-10.3128
បានទទួលមរណភាព	-10.3134
ក្រុមហ៊ុនផលិត	-10.3136
បដិសេធមិន	-10.3141
មានប្រជាជនចំនួន	-10.3143
និពន្ធ	-10.3151
cro	-10.3161
ប្រែទៅជា	-10.3162
ទប់ស្កាត់	-10.3165
អត្ថាធិប្បាយ	-10.3165
វិស្វករ	-10.3165
អើយ	-10.3165
▁James	-10.3166
អាស៊ីអាគ្នេយ៍	-10.3166
លាងសម្អាត	-10.3169
ឡានក្រុង	-10.3174
អាចនាំឱ្យមាន	-10.3175
ឃ្មុំ	-10.3188
សុបិន្ត	-10.3202
សមិទ្ធិផល	-10.3203
អែល	-10.3204
ចាក់ផ្សាយ	-10.322
ឆ្ពោះទៅ	-10.3224
▁ខ្ញុំដឹងថាអ្នក	-10.3235
ពស់	-10.3237
ប្រុស	-10.3239
ធ្វើពុត	-10.3241
លទ្ធិ	-10.3241
និន្នាការ	-10.3241
អេកូឡូស៊ី	-10.3241
ផ្តល់ឱ្យយើងនូវ	-10.3242
ក្អួត	-10.3243
ប្រកាន់	-10.3244
ឱ្យបានត្រឹមត្រូវ	-10.3244
ទូទៅបំផុត	-10.3247
ម៉ៃ	-10.325
ក្នុងអំឡុង	-10.3261
តម្រូវឱ្យ	-10.3266
បង្កើតបានជា	-10.3271
▁300	-10.3271
а	-10.3279
ធានារ៉ាប់រង	-10.3279
បូព៌ា	-10.3279
អ័រម៉ូន	-10.3279
ចចក	-10.328
បំផ្ទុះ	-10.3294
ចាក់សោ	-10.3307
ក្នុងចំនោម	-10.3317
សមាធិ	-10.3317
ចម្បង	-10.3317
ចង្វាក់	-10.3353
▁Louis	-10.3355
រកវិធី	-10.3355
បទបញ្ជា	-10.3358
ជនបរទេស	-10.3359
ជនបទ	-10.336
នៅកន្លែងណាមួយ	-10.336
ត្រីមាស	-10.3364
ផ្ទុះ	-10.3364
89	-10.3365
▁Star	-10.3378
អាយុកាល	-10.3393
គ្រោះមហន្តរាយ	-10.3393
ទំរង់	-10.3393
អំណរ	-10.3393
ធំទូលាយ	-10.3393
សំបុក	-10.3396
ជាសមាជិក	-10.3426
គ្រប់រូប	-10.3429
អំពើពុករលួយ	-10.3432
រូបចម្លាក់	-10.3432
គ្រឿងទេស	-10.3432
បញ្ចាំង	-10.3435
ខ្ញុំមិនចង់	-10.3444
ឆ្លើយតបទៅនឹង	-10.3452
▁Pat	-10.3457
ាច់	-10.3458
គម្ពីរ	-10.347
អាក្រាត	-10.347
ES	-10.3474
ចិត្តសាស្ត្រ	-10.3486
vir	-10.3491
ñ	-10.3509
ការស្ទង់មតិ	-10.3509
]	-10.3509
ជ័យជំនះ	-10.3509
ផ្តន្ទាទោស	-10.3509
សំងាត់	-10.3509
ប្រាប់គាត់ថា	-10.3512
សង្ស័យថា	-10.352
ដោយស្វ័យប្រវត្តិ	-10.3525
បិទទ្វារ	-10.3531
ចាក់សោរ	-10.3539
រដ្ឋធានី	-10.3541
គ្រឹះ	-10.3545
សំណង	-10.3547
ប្រឹក្សាភិបាល	-10.3548
យន្ដហោះ	-10.3548
រងទុក្ខ	-10.3549
កូរ៉េខាងជើង	-10.355
បង្ហូរទឹក	-10.3552
ឆៅ	-10.3555
អាប់	-10.3556
នៅលើគ្រែ	-10.3557
ប្រា	-10.3558
US	-10.356
ចល័ត	-10.3563
ខ្នាតតូច	-10.3566
រើ	-10.3571
ប៉ះពាល់	-10.3574
លេចចេញមក	-10.3582
កិច្ចសហ	-10.3583
បញ្ច្រាស	-10.3586
ខួប	-10.3587
ផ្អាក	-10.3587
ក្អក	-10.3587
▁Peter	-10.3593
ón	-10.36
មានអត្ថន័យ	-10.3603
ប្រទេសកាណាដា	-10.361
គ្រប់ពេលវេលា	-10.3621
ច្រើនទៀត	-10.3624
ស្តីបន្ទោស	-10.3626
ជំងឺទឹកនោមផ្អែម	-10.3626
ដុសខាត់	-10.3626
ពោរពេញទៅដោយ	-10.3626
លុកលុយ	-10.3626
អភិបាលក្រុង	-10.3628
ហែក	-10.363
អ្នកផ្សេង	-10.3633
ជនជាតិចិន	-10.3641
លឿនជាងមុន	-10.3649
បញ្ឈរ	-10.3666
បរិច្ចាគ	-10.3666
▁1993	-10.3666
ខ្លាំងក្លា	-10.3666
▁Shi	-10.367
▁ខាងកើតនៃរដ្ឋ	-10.3672
បារី	-10.3689
គ្រា	-10.369
ម៉ឺន	-10.3704
មានតុល្យភាព	-10.3705
អ៊ីម៉ែល	-10.3705
ទស្សនវិជ្ជា	-10.3705
ទួរគី	-10.3705
ឆាប់ខឹង	-10.3708
ខែធ្នូ	-10.3713
លីត្រ	-10.3716
ហៅវាថា	-10.3721
កំពុងធ្វើដំណើរ	-10.373
កម្ពុជា	-10.3745
ក្លិនក្រអូប	-10.3745
តៃវ៉ាន់	-10.3745
ជម្រក	-10.3745
នៅពីមុខ	-10.3751
បានរាយការណ៍ថា	-10.3754
ឪពុករបស់នាង	-10.376
ពួកយើង	-10.3767
មហាក្សត្រី	-10.3774
ឃោរឃៅ	-10.3785
[	-10.3785
ស្ថិតស្ថេរ	-10.3785
កំពុងកើនឡើង	-10.3792
ម៉ុន	-10.3797
មើលងាយ	-10.3799
ប្រាំបួន	-10.3822
ខ្វះខាត	-10.3825
ទិស	-10.3825
▁សូមអភ័យទោស	-10.383
ខ្ញុំមានអាយុ	-10.3841
ស៊ីរីនៃស្ថិតិ	-10.3851
យកឈ្នះ	-10.3853
បន្តិចម្តង	-10.3857
ជែក	-10.3863
យក្ស	-10.3863
បរិញ្ញាបត្រ	-10.3865
ប្រាជ្ញា	-10.3865
ទាសករ	-10.3865
មានឆន្ទៈក្នុងការ	-10.3871
រំពឹងទុក	-10.3876
រដូវក្តៅឆ្នាំ	-10.3888
95	-10.3898
ជ្រើស	-10.3904
ពិធីមង្គលការ	-10.3905
ឆោតល្ងង់	-10.3905
ពណ៌ប្រផេះ	-10.3905
ជំងឺផ្តាសាយ	-10.3905
អស់សង្ឃឹម	-10.3906
ទិក	-10.391
បង្រួម	-10.3912
pho	-10.3913
ដ៏ល្បីល្បាញ	-10.3914
នៅកន្លែងធ្វើការ	-10.3925
ប្អូនស្រី	-10.3932
ធ្វើទារុណកម្ម	-10.3946
ភាពច្របូកច្របល់	-10.3947
▁1996	-10.3955
ដ៏ធំបំផុត	-10.3958
ម្ទេស	-10.3959
ផឹកទឹក	-10.3961
ឆ្មាំ	-10.3966
22	-10.3971
▁New	-10.3973
02	-10.3982
ឿ	-10.3982
យុទ្ធសាស្រ្ត	-10.3986
អ្វីៗគ្រប់យ៉ាង	-10.3986
ស្វាមី	-10.3987
កត់សម្គាល់ថា	-10.3992
គ្រាប់បាល់	-10.3992
សូមពិចារណា	-10.4001
មនុស្សម្នាក់ទៀត	-10.4015
ette	-10.4017
គ្រោងនឹង	-10.4018
គុណសម្បត្តិ	-10.4027
ដាក់ពាក្យសុំ	-10.4027
គួរឱ្យស្អប់ខ្ពើម	-10.4029
នឹងធ្វើអ្វី	-10.4038
ance	-10.404
dge	-10.4049
ស្តាំ	-10.4063
តេស្ត	-10.4067
អ៊ីរ៉ាក់	-10.4068
ជ្រលងភ្នំ	-10.4068
ដែលអាចកើតមាន	-10.4068
សមាជិកគ្រួសារ	-10.4075
ថែទាំសុខភាព	-10.4076
ជួយកាត់បន្ថយ	-10.4078
រៀបចំផែនការ	-10.409
ឡើងភ្នំ	-10.4098
អ៊ីយ៉ុង	-10.4109
គ្រីស្តាល់	-10.4109
ចងក្រង	-10.4109
ឧទាហរណ៏	-10.4109
▁1992	-10.4109
សុភាពបុរស	-10.411
តើមានអ្វីកើតឡើង	-10.4116
កំណត់ចំណាំ	-10.4116
អិន	-10.4117
06	-10.4117
បំលែង	-10.4117
ឃុំខ្លួន	-10.4118
អេសអេសអេស	-10.4119
កាន់តែច្បាស់	-10.4122
ក្រពេញ	-10.4124
ជារៀងរាល់ថ្ងៃ	-10.4134
PD	-10.415
ប្រព្រឹត្ត	-10.415
ផ្សែង	-10.415
សម្ព័ន្ធមិត្ត	-10.4154
រយៈពេលខ្លី	-10.4156
▁Jan	-10.4163
ប៊ែល	-10.4168
24	-10.417
ខ្ញុំបានព្យាយាម	-10.4181
យ៉ាងធ្ងន់ធ្ងរ	-10.4184
ស្ងាត់	-10.4192
ឈានមុខគេ	-10.4192
មេត្តា	-10.4192
វណ្ណៈ	-10.4192
អនុស្សាវរីយ៍	-10.4192
អាស៊ាន	-10.4192
▁Franc	-10.4194
ឆ្ងល់ថាតើ	-10.4196
សាកសួរ	-10.4198
មិនអើពើនឹង	-10.4199
ពឹងផ្អែក	-10.4217
▁Microsoft	-10.4234
ផ្នែកខាងក្រោមនៃ	-10.4234
vel	-10.4239
ight	-10.4241
ជំងឺបេះដូង	-10.427
ទុក្ខ	-10.4274
ធ្វើត្រាប់តាម	-10.4275
សងសឹក	-10.4275
សូកូឡា	-10.4275
្រៀមខ្លួនជាស្រេច	-10.4275
រួចផុតពី	-10.4275
កាលពីម្សិលមិញ	-10.4276
08	-10.4279
ទូទាំងពិភពលោក	-10.4284
ជាតិសរសៃ	-10.4294
បានផ្លាស់ទៅ	-10.4304
អូលីវ	-10.431
ខូ	-10.4316
ពិព័រណ៍	-10.4317
ស្និទ្ធស្នាល	-10.4317
រហូតទាល់តែ	-10.4317
អាសន្ន	-10.4317
កាកសំណល់	-10.4317
កាល់ស្យូម	-10.4317
គ្រូបង្វឹក	-10.4317
▁1991	-10.4318
ផ្តល់ឱ្យពួកគេនូវ	-10.4318
ពេញមួយជីវិត	-10.4319
ដាច់ពីគ្នា	-10.432
ពីរបីនាទី	-10.4324
▁1987	-10.4328
នឹងជួយអ្នកឱ្យ	-10.4329
ជំពូក	-10.436
ផ្សងព្រេង	-10.436
គ្រុនក្តៅ	-10.436
អោយ	-10.4364
គេចាត់ទុកថា	-10.4369
បើកឡាន	-10.4379
កែតម្រូវ	-10.4381
លក់រាយ	-10.439
បោះឆ្នោតជ្រើសរើស	-10.4395
ល្បឿនលឿន	-10.4397
ជួនកាល	-10.4402
នេះបើយោងតាម	-10.4402
អ៊ីស្រាអែល	-10.4402
អចិន្រ្តៃយ៍	-10.4402
ចុះយ៉ាងណាចំពោះ	-10.4402
ចំនួនទឹកប្រាក់	-10.4402
ជ្រាប	-10.4403
ជួរឈរ	-10.4411
កន្លែងទំនេរ	-10.4411
បានគ្រោងទុក	-10.442
ធ្វើឱ្យសកម្ម	-10.442
បើគ្មាន	-10.4428
មិត្តម្នាក់	-10.4429
មិនខ្វល់	-10.443
បិទភ្ជាប់	-10.4441
រួមបញ្ចូលគ្នា	-10.4443
រញ្ជួយ	-10.4444
ហោប៉ៅ	-10.4445
ឡានដឹកទំនិញ	-10.4448
07	-10.4474
ر	-10.4487
ខ្លាឃ្មុំ	-10.4487
ម្រាមជើង	-10.4487
ប្រថុយ	-10.4487
ខ្សែក្រវ៉ាត់	-10.449
ចំណង	-10.4497
ដែលគេស្គាល់	-10.4502
ពត់	-10.4511
នៅសេសសល់	-10.453
លាតត្រដាង	-10.453
ក្មេងជំទង់	-10.453
ដ្រាយ	-10.453
វាលខ្សាច់	-10.453
ស៊ុប	-10.453
ផូ	-10.4536
▁Joe	-10.4538
ក្លាហាន	-10.4564
គីមីវិទ្យា	-10.4565
ö	-10.4573
វិវឌ្ឍន៍	-10.4573
α	-10.4575
▁Harry	-10.4577
ធ្វើកិច្ចការ	-10.4583
បំផុតនៅលើពិភពលោក	-10.4586
សំលេងរំខាន	-10.459
ព្វ	-10.46
អត់	-10.4607
▁Tim	-10.4614
ថេប្លេត	-10.4617
មិនចេះរីងស្ងួត	-10.4617
ប្រដាប់អាវុធ	-10.4618
រាប់ពាន់នាក់	-10.4619
ចុចប៊ូតុង	-10.462
▁មីលី	-10.4635
ជះឥទ្ធិពល	-10.4643
គ្រាប់កាំភ្លើង	-10.4644
ជណ្តើរ	-10.4659
ឋាននរក	-10.466
ប្តឹង	-10.466
កាលពីឆ្នាំមុន	-10.466
ប្រវត្តិសាស្រ្ត	-10.4661
▁1000	-10.4663
ធ្វើដំណើរទៅកាន់	-10.4669
▁Mont	-10.4688
ឡាតាំង	-10.4701
គុក	-10.4701
អ័ក្ស	-10.4704
មាត្រដ្ឋាន	-10.4704
អាបធ្មប់	-10.4704
្ញា	-10.4704
ទឹកជ្រលក់	-10.4718
ឌា	-10.4721
វិទ្យុសកម្ម	-10.4725
នោម	-10.4745
AL	-10.4748
រឹតត្បិត	-10.4748
កុលសម្ព័ន្ធ	-10.4748
តុក្កតា	-10.4748
លែងលះ	-10.4748
មិនអាចទៅរួចទេ	-10.4748
វាយដំ	-10.4748
ធ្វើកូដកម្ម	-10.4748
ឯកទេស	-10.4748
ការហូរឈាម	-10.4748
ស្ថេរភាព	-10.4749
▁Mus	-10.4752
ល្ងីល្ងើ	-10.4758
ម្ហូបអាហារ	-10.4768
ថ្នាំគ្រាប់	-10.4786
ភាពស្ងប់ស្ងាត់	-10.4786
ឆ្វេង	-10.479
សន្ធិសញ្ញា	-10.4792
កន្ទុយ	-10.4792
ដំណក់	-10.4792
ទុំ	-10.4792
ជិះកង់	-10.4794
វត្ថុរាវ	-10.4797
មិត្តរួមការងារ	-10.48
ញ័រ	-10.4811
បទបង្ហាញ	-10.4818
ចៀន	-10.4825
គ្រប់ទីកន្លែង	-10.483
ឃុំឃាំង	-10.4836
កោរសក់	-10.4836
គិលានុបដ្ឋាយិកា	-10.4836
អាហារសម្រន់	-10.4836
រ៉ូបូត	-10.4836
ហ្មត់ចត់	-10.4836
ហាន់	-10.4871
ប្រហារជីវិត	-10.488
អាហារពេលព្រឹក	-10.488
ជឿនលឿន	-10.4881
នៅភាគខាងលិច	-10.4881
តែប៉ុណ្ណោះ	-10.4889
មុខតំណែង	-10.4906
ឥន្ធនៈ	-10.4922
អ៊ីដ្រូ	-10.4925
▁Android	-10.4925
ចង្អោរ	-10.4925
ផ្តល់ឱ្យគាត់នូវ	-10.4927
ជីវសាស្ត្រ	-10.4928
វ៉េ	-10.4929
សឺរ	-10.4934
▁Paul	-10.4939
ទៅទីនោះ	-10.4941
▁1945	-10.4949
ម៉ាស៊ីនមេ	-10.4953
អាមេរិកខាងជើង	-10.4967
ا	-10.497
អក្សរសិល្ប៍	-10.497
បាតុភូត	-10.497
គ្រឿងបន្លាស់	-10.497
ដង់ស៊ីតេ	-10.497
ដំណាំ	-10.497
អាឡែរហ្សី	-10.497
ż	-10.497
សម្មតិកម្ម	-10.497
ស៊ុម	-10.497
chlor	-10.4979
លើសពីនេះទៅទៀត	-10.5015
ជាប់គាំង	-10.5015
រៀងៗខ្លួន	-10.5015
នៅព្រឹកនេះ	-10.5017
ឡិន	-10.5031
សម្ព័ន្ធភាព	-10.5035
ទីប្រជុំជន	-10.5037
សត្វព្រៃ	-10.5039
ដំណឹងល្អ	-10.5043
ដូច្នោះ	-10.5047
ថ្ងៃអាទិត្យ	-10.506
សិប្បនិម្មិត	-10.506
ដង្កូវ	-10.506
ដំរី	-10.506
ន្ដ	-10.5061
ពេញមួយយប់	-10.5062
ជីវវិទ្យា	-10.5062
ជីវឧស្ម័ន	-10.5064
ភាពក្លាហាន	-10.507
ភ្ញាក់ឡើង	-10.5073
យ៉ាងតិច	-10.5081
ថ្លៃដើម	-10.5086
វិហារ	-10.5099
រុញច្រាន	-10.5106
សំណល់	-10.5106
▁ទន្ទឹមនឹង	-10.5106
ជួញដូរ	-10.5106
ការយល់ឃើញ	-10.5121
លម្អិត	-10.5147
ទទឹង	-10.5151
ក្រអឺតក្រទម	-10.5151
ត្រគាក	-10.5151
ទប់ទល់នឹង	-10.5151
អណ្តែត	-10.5151
▁ត្រឹមត្រូវហើយ	-10.5153
គ្រប់ប្រភេទ	-10.5153
ថេ	-10.5163
យ៉ាងពេញលេញ	-10.5169
សិទ្ធិអំណាច	-10.5171
ផ្តល់យោបល់	-10.5179
អរម៉ូន	-10.5197
ត្រកូល	-10.5197
ទេវតា	-10.5197
គ្រាប់ចុច	-10.5205
▁1989	-10.5212
ឌុ	-10.5226
ក្រូច	-10.524
ឆ្លាតវៃ	-10.5243
បើប្រៀបធៀបទៅនឹង	-10.5243
គីឡូក្រាម	-10.5243
បង្រួបបង្រួម	-10.5243
អន្តរាគមន៍	-10.5243
បានវិលត្រឡប់មក	-10.5247
ឡៃ	-10.5258
ជំងឺសរសៃប្រសាទ	-10.5265
ដប់ប្រាំ	-10.5276
មានឈ្មោះថា	-10.5285
ជ្រៀតជ្រែក	-10.529
គណនេយ្យ	-10.529
ទ្រុង	-10.529
រអាក់រអួល	-10.529
កាន់តែអាក្រក់ទៅ	-10.529
មិនសប្បាយចិត្ត	-10.529
លេបថ្នាំ	-10.5298
ផ្ទុយទៅវិញ	-10.5302
កាលៈទេសៈ	-10.5336
ចង្កោម	-10.5336
អត្ថិភាព	-10.5336
ខណៈពេល	-10.5339
ភាពខុសគ្នារវាង	-10.5372
09	-10.5378
កំណត់ហេតុ	-10.5381
ម្តងម្កាល	-10.5383
និមិត្តរូប	-10.5383
វ៉ូ	-10.5385
ប៉េ	-10.5396
ជាតិដែក	-10.5402
សារៈសំខាន់	-10.5404
ចំណាយប្រាក់	-10.5406
03	-10.5418
ភេរវកម្ម	-10.543
ចៅហ្វាយ	-10.543
ស្ងាត់ស្ងៀម	-10.543
ខិតជិត	-10.543
រៀបរាប់	-10.543
ជនភៀសខ្លួន	-10.5431
▁Mike	-10.5439
ប៉ុន្មាននាក់	-10.544
កម្មវិធីរុករក	-10.5444
អថេរ	-10.5445
ទូរស័ព្ទចល័ត	-10.5459
▁Carl	-10.5467
600	-10.5476
▁William	-10.5477
ព្រហ្មទណ្ឌ	-10.5477
សារពាង្គកាយ	-10.5477
មាត្រា	-10.548
កាត់ផ្តាច់	-10.5483
មួយរយ	-10.5486
លឺសំលេង	-10.5489
សន្មត	-10.549
ឆ្ងាញ់	-10.5524
បង្ហោះ	-10.5524
មុខរបួស	-10.5538
rzy	-10.5563
ប្រជាជាតិ	-10.5571
ចំណិត	-10.5572
ភាពវៃឆ្លាត	-10.5572
▁1979	-10.5572
ពិការភ្នែក	-10.5572
ពិធីបុណ្យ	-10.5572
តូចជាងមុន	-10.5585
មានរយៈពេលយូរ	-10.5589
ដុំសាច់	-10.5608
គ្រឿងអលង្ការ	-10.562
លំនៅដ្ឋាន	-10.562
អាហ្សង់ទីន	-10.562
▁iPhone	-10.562
អង្វរ	-10.562
បឺត	-10.562
ពណ៌ផ្កាឈូក	-10.5623
អ៊ីស្លាម	-10.5636
ពីទីនោះ	-10.565
សេចក្ដី	-10.5668
អព្យាក្រឹត	-10.5668
បង្គោល	-10.5669
រំលោភបំពាន	-10.567
បោះបង់	-10.5676
ប្រសើរ	-10.5699
97	-10.5701
កៅស៊ូ	-10.5716
ទឹកជំនន់	-10.5716
ą	-10.5716
▁George	-10.5716
CBS	-10.5716
វិន័យ	-10.5719
ប្រសើរជាងមុន	-10.5726
សំណាងល្អ	-10.5734
កម្លាំងពលកម្ម	-10.5765
មរតក	-10.5765
ពិន័យ	-10.5768
ដោយមិនគិតពី	-10.5771
▁Jack	-10.5773
87	-10.5776
ឌឺ	-10.5778
អត្តពលិក	-10.5813
ភាពធន់ទ្រាំ	-10.5813
ជនជាតិយូដា	-10.5813
គ្រាប់ធញ្ញជាតិ	-10.5816
សេចក្តីពិត	-10.5826
សម្ព័ន្ធ	-10.5835
ប្រាថ្នា	-10.5856
កុំព្យូទ័រយួរដៃ	-10.5863
ស្គរ	-10.5863
ព្រួញ	-10.5863
ការបញ្ចេញមតិ	-10.5863
ច្បាប់ចម្លង	-10.5876
អនុសញ្ញា	-10.5876
សំគាល់	-10.5912
ក្រាហ្វិច	-10.5912
សហភាពសូវៀត	-10.5912
សាធារណជន	-10.5912
បុរសចំណាស់	-10.5912
ជំនួសវិញ។	-10.5921
រួចទៅហើយ	-10.5923
ពាក្យសម្ងាត់	-10.5923
ប៉ូតាស្យូម	-10.5961
អ៊ូហ្គង់ដា	-10.5961
ខ្នើយ	-10.5961
ទុក្ខព្រួយ	-10.5961
ម៉ូតូ	-10.5964
ប្រាប់ពួកគេថា	-10.5966
▁Luc	-10.6007
800	-10.6008
នាពេលថ្មីៗនេះ	-10.6011
បន្សល់ទុក	-10.6011
សតវត្ស	-10.6011
ស្រមោច	-10.6011
#	-10.6011
បរបាញ់	-10.6011
ត្រូវបានបញ្ជូនទៅ	-10.6013
រលូន	-10.6023
ហេហេ	-10.6024
▁ដូចគ្នានេះផងដែរ	-10.6061
រមៀល	-10.6061
ទស្សនវិស័យ	-10.6061
ជារៀងរាល់ឆ្នាំ	-10.6061
ប្រមូលផល	-10.6066
សង្ឃឹម	-10.607
ព្រះពុទ្ធ	-10.6111
ស៊ុយអែត	-10.6111
បោសសំអាត	-10.6111
ឧទ្ទិស	-10.6111
បង្គន់	-10.6111
ហួសប្រមាណ	-10.6111
៌	-10.6111
បំផ្លិចបំផ្លាញ	-10.6111
សម័យទំនើប	-10.6116
សម្ពាធឈាម	-10.6125
មិនដែលឃើញ	-10.6129
រួមចំណែកដល់	-10.613
កំសាន្ត	-10.6162
ចាប់ពង្រត់	-10.6162
ទទូច	-10.6162
ក្រសួងការបរទេស	-10.6162
បោក	-10.6162
ពីទីនេះ	-10.6164
ប៉ាតង់	-10.6166
ផ្តាច់មុខ	-10.617
សមាជិកសភា	-10.6178
បានទទួលជោគជ័យ	-10.6182
ខែតុលា	-10.6206
សាច់មាន់	-10.6211
م	-10.6213
សង្រ្គោះ	-10.6213
ពិគ្រោះយោបល់	-10.6213
ពេជ្រ	-10.6213
វ័យចំណាស់	-10.6213
លំអិត	-10.6213
ប្តីប្រពន្ធ	-10.6216
រំដោះ	-10.6219
គ្រូបង្រៀន	-10.6219
បាល់បោះ	-10.6247
ទំពាំងបាយជូរ	-10.6264
ឧទ្ធរណ៍	-10.6264
▁Steve	-10.6266
បង្ហូរឈាម	-10.6266
អស់កម្លាំង	-10.6269
ដុស	-10.6298
អ៊ីនធឺណេត	-10.6315
ទេវកថា	-10.6315
ជនជាតិភាគតិច	-10.6315
ហ្វូងមនុស្ស	-10.6315
ល្បី	-10.6326
កុំអោយ	-10.6361
ខ្សែអាត់	-10.6366
នៅខែមីនាឆ្នាំ	-10.6367
ចំណូលចិត្ត	-10.6368
ខែកុម្ភៈ	-10.6371
ទុកចោល	-10.6372
អំពើអាក្រក់	-10.6372
(	-10.6403
96	-10.6416
ថ្ពាល់	-10.6418
អង្កេត	-10.6418
ក្រពើ	-10.6418
វេចខ្ចប់	-10.6418
ចាត់វិធានការ	-10.6418
ទឹករំអិល	-10.6418
ស្គ្រីប	-10.6418
ស្បូន	-10.6418
ប៉ុប	-10.6418
▁Grand	-10.6419
ខណៈ	-10.6462
ចង្អុល	-10.6466
គំរាមកំហែង	-10.6467
សន្លាក់	-10.647
វង្វេង	-10.647
▁Galaxy	-10.647
ដ្រាយវ៍	-10.647
ភាពធន់	-10.6471
ហួសពី	-10.6471
ជ្រុល	-10.6472
គុណវិបត្តិ	-10.6474
▁Miss	-10.6474
ឆ្ពោះទៅមុខ	-10.6475
▁wh	-10.6505
បែកញើស	-10.6511
បង្ហូរ	-10.6518
ចិញ្ចើម	-10.6523
សន្ទស្សន៍	-10.6523
តម្រៀប	-10.6523
អូទ្រីស	-10.6523
ស្តាប់ទៅដូចជា	-10.6523
ដ៏ធំធេង	-10.6529
ជំរឿន	-10.6561
ក្រមសីលធម៌	-10.6575
កម្តៅ	-10.6575
▁បើមិនដូច្នោះទេ	-10.6575
មុខវិជ្ជា	-10.6575
ឆ្លាក់	-10.6575
រីកដុះដាល	-10.6575
អៀរឡង់	-10.6575
នាពេលបច្ចុប្បន្ន	-10.6575
នៅជិតព្រំដែន	-10.6583
ដំណើរទស្សនកិច្ច	-10.6628
បោកគក់	-10.6628
ដាវីឌ	-10.6628
ត្រីកោណ	-10.6628
ហួសកំរិត	-10.6628
មនោសញ្ចេតនា	-10.6628
អង្កត់ផ្ចិត	-10.6628
ឃ្លាំង	-10.6628
អូបាម៉ា	-10.6628
ផ្នែកខ្លះនៃ	-10.6633
ដីឥដ្ឋ	-10.6643
តស៊ូមតិ	-10.6654
អារម្មណ៍យ៉ាងណា	-10.6663
រស់ឡើងវិញ	-10.6667
មន្ទីរ	-10.6672
សៀគ្វី	-10.6681
អាគារ	-10.6681
ឯកអគ្គរដ្ឋទូត	-10.6681
កំប៉ុង	-10.6681
សមាហរណកម្ម	-10.6681
ងាប់	-10.6681
ចង្វាក់បេះដូង	-10.6684
រដ្ឋកាលីហ្វ័រញ៉ា	-10.6686
ខែមករា	-10.6722
រត់គេច	-10.6727
ប៉ាន់ប្រមាណ	-10.6735
ប្រេកង់	-10.6735
ស្ទាក់ស្ទើរ	-10.6735
ខ្ទះ	-10.6735
តូចចង្អៀត	-10.6735
ថ្នាំបំប៉ន	-10.6735
ថ្លែងអំណរគុណ	-10.6735
មេកានិច	-10.6735
ال	-10.6735
អមដោយ	-10.6739
ប្រសព្វ	-10.6788
និរទេស	-10.6789
ពាសពេញ	-10.6789
ខែវិច្ឆិកា	-10.683
ស្មើ	-10.6831
បរិ	-10.6841
ن	-10.6843
ដ្ឋារចនាសម្ព័ន្ធ	-10.6843
ពន្លក	-10.6843
វិសាលភាព	-10.6843
មូលធន	-10.6845
ដែលមានរាងដូច	-10.6861
តំណ	-10.6883
សំភារៈ	-10.6897
លេចធ្លាយ	-10.6897
ជ្វីហ្វ	-10.6897
រចនាប័ទ្ម	-10.6897
ស្រោមដៃ	-10.6897
សាច់អាំង	-10.6897
ថ្ងៃសុក្រ	-10.6897
ត្រឹមតែ	-10.6907
▁អត់ទេ	-10.691
owski	-10.6916
ប្រាក់ឈ្នួល	-10.6952
កុងសូល	-10.6952
វ៉ារស្សាវ៉ា	-10.6952
សង្សារ	-10.6952
ហ្វ្រេន	-10.6952
ផ្លាស់ទីលំនៅ	-10.6952
ស៊ូទ្រាំ	-10.6952
ស្មរបន្ទាល់	-10.6952
ឆានែល	-10.6952
▁Robert	-10.6953
ផ្ទៃខាងក្រោយ	-10.6957
សមាជិកព្រឹទ្ធសភា	-10.6958
បានបញ្ជាឱ្យ	-10.6959
▁ខែកុម្ភៈឆ្នាំ	-10.7001
ទទួលបន្ទុក	-10.7005
ម៉ៃឃើល	-10.7007
លំអៀង	-10.7007
អព្ភូតហេតុ	-10.7007
បងប្អូនជីដូនមួយ	-10.7007
រ៉ាឌីកាល់	-10.7007
សូហ្វវែរ	-10.7007
ជិះស្គី	-10.7007
ឡាស៊ែរ	-10.7007
port	-10.7009
អណ្តាតភ្លើង	-10.7009
បន្ទាយ	-10.7011
ក្តារចុច	-10.7034
ការកាត់ទោស	-10.7048
ة	-10.7062
ល្បួង	-10.7062
ចេក	-10.7062
▁Saint	-10.7062
តាមដងផ្លូវ	-10.7063
មួយណាដែល	-10.708
ត្រូវបានរៀបចំឡើង	-10.7099
ចិត្តវិទ្យា	-10.7115
រហូតមកដល់	-10.7117
ធ្វើកោសល្យវិច័យ	-10.7117
មិត្តភក្ដិ	-10.7117
▁Chris	-10.7121
សម្រស់	-10.7145
ស្ថានីយ	-10.7171
សហគ្រិន	-10.7173
ភាគពាយព្យ	-10.7173
កុំព្យួទ័រ	-10.7173
ជញ្ជក់	-10.7173
អាហ្វហ្គានីស្ថាន	-10.7173
អាឡិច	-10.7173
អតិសុខុមប្រាណ	-10.7173
រលុង	-10.7174
លំហ	-10.7229
ធ្យូងថ្ម	-10.7229
អ៊ុយក្រែន	-10.7229
អាហារូបត្ថម្ភ	-10.7229
ភួយ	-10.723
ទៅដល់ទីនោះ	-10.723
ពេញវ័យ	-10.7232
តំណភ្ជាប់	-10.7242
5.000	-10.7278
ម៉ាទីន	-10.7281
ខ្ពង់រាប	-10.7286
ដឺក្រេ	-10.7286
ភ័យស្លន់ស្លោ	-10.7286
ម្ភៃ	-10.7286
ទិន្នផល	-10.7286
ព្រះយេហូវ៉ា	-10.7286
អុកស៊ីតកម្ម	-10.7286
រសាត់	-10.7286
ស្មានថា	-10.7299
អាចធ្វើវាបាន	-10.7309
នគរ	-10.7319
ប្រកាន់ខ្ជាប់	-10.733
បានធ្វើរួច	-10.7342
គម្លាត	-10.7343
ប្រតិបត្ដិការ	-10.7343
ផ្អែមល្ហែម	-10.7343
ផ្តួល	-10.7343
បុណ្យណូអែល	-10.7343
នៅខែមិថុនាឆ្នាំ	-10.7343
ប៊ែក	-10.7343
អាចគ្រប់គ្រងបាន	-10.7344
អាងហែលទឹក	-10.7345
រៀនពីរបៀប	-10.7384
ដឹកទំនិញ	-10.7398
ចំណុចប្រទាក់	-10.74
ទ្រព្យ	-10.74
បានកន្លងផុតទៅ	-10.74
ភេរវករ	-10.74
អេឡិចត្រូ	-10.74
ខ្យល់បក់	-10.74
ស្រោមជើង	-10.7401
សប្បុរសធម៌	-10.7401
ម្រេច	-10.7451
រីកលូតលាស់	-10.7457
ប្រឡាយ	-10.7457
មើលមិនឃើញ	-10.7458
សវនាការ	-10.7458
ចង់ដឹងចង់ឃើញ	-10.7458
ពងមាន់	-10.7459
អនុបណ្ឌិត	-10.7459
បន្ធូរបន្ថយ	-10.7459
...	-10.7492
ការរីករាលដាលនៃ	-10.7499
សម្របខ្លួន	-10.7515
ដើមទុន	-10.7515
ហត់នឿយ	-10.7515
ក្របខ័ណ្ឌ	-10.7515
ទំនប់	-10.7515
ប្រេងឥន្ធនៈ	-10.7519
iyah	-10.7537
ការបំភាយ	-10.7573
ហ្វឹកហាត់	-10.7573
ត្រួសត្រាយ	-10.7573
ផ្កាកុលាប	-10.7573
ពណ៌ទឹកក្រូច	-10.7573
អញ្ចាញធ្មេញ	-10.7573
អណ្តើក	-10.7573
តំរងនោម	-10.7573
ស្ពឹក	-10.7573
វត្ថុធាតុដើម	-10.7573
អិម	-10.7574
ផេះ	-10.7576
ប៉េងប៉ោះ	-10.7632
▁Coronavirus	-10.7632
ត្រលប់មកផ្ទះវិញ	-10.7632
មនសិការ	-10.7632
▁ម៉្យាងវិញទៀត	-10.7632
កងកម្លាំង	-10.7632
នៅខែមេសាឆ្នាំ	-10.7632
ជំងឺរលាកសន្លាក់	-10.7632
ាក់ក្នុងការជំរឿន	-10.7647
ការពិនិត្យឡើងវិញ	-10.7674
រស់រវើក	-10.7691
ឈ្ងុយឆ្ងាញ់	-10.7691
អរូបី	-10.7691
អូលីវើរ	-10.7691
ក្រវ៉ាត់	-10.7747
សិក្ខាសាលា	-10.775
កន្ទួល	-10.775
ទំនាញផែនដី	-10.775
លោហៈ	-10.775
ផ្ទាល់មាត់	-10.7751
ផ្ទៀងផ្ទាត់	-10.7809
ភ្នាស	-10.7809
ធ្វើចំណាកស្រុក	-10.7809
ប្រក្រតី	-10.7809
ទ្រទ្រង់	-10.7809
សញ្ញាបត្រ	-10.7809
ផុតពូជ	-10.7811
អុបទិក	-10.7869
ឆ្នើម	-10.7869
ទំលាប់	-10.7869
សាច់ជ្រូក	-10.7873
ឱ្យបានញឹកញាប់	-10.7873
ទំនោរ	-10.7876
ឆ្នាំចុងក្រោយនេះ	-10.7912
ព្រឹទ្ធសភា	-10.7923
ធញ្ញជាតិ	-10.7926
ដួងចិត្ត	-10.7929
ថនិកសត្វ	-10.7929
ព្រះរាជាណាចក្រ	-10.7929
ដីធ្លី	-10.7929
រង្វិលជុំ	-10.7929
រណ្តៅ	-10.7929
រឹបអូស	-10.7929
សង្គ្រោះបន្ទាន់	-10.7961
តានតឹង	-10.7963
លីនុច	-10.799
បំរែបំរួល	-10.799
ល្ងង់ខ្លៅ	-10.799
▁តើអ្នកដឹងទេថា	-10.7995
ភៀសខ្លួន	-10.805
បើមិនដូច្នេះទេ	-10.805
ម្ចាស់ក្សត្រី	-10.8051
ជំងឺលើសឈាម	-10.8051
នៅខែធ្នូឆ្នាំ	-10.8051
ជណ្តើរយន្ត	-10.8053
ពន្យារ	-10.8104
វីអ៊ីធី	-10.8112
ហ្វ្រង់	-10.8112
ជោគវាសនា	-10.8112
បំណះ	-10.8112
ព្រះយេស៊ូវ	-10.8112
វិស្សមកាល	-10.8112
ភាពជាដៃគូ	-10.8113
សារៈសំខាន់ណាស់	-10.8149
ត្រូពិក	-10.8174
អារម្មណ៍ធូរស្រាល	-10.8174
و	-10.8174
stein	-10.8186
ធ្វើវិសោធនកម្ម	-10.8236
ឆ្នេរខ្សាច់	-10.8236
បូជាចារ្យ	-10.8236
ស្ថានទូត	-10.8236
បទឧក្រិដ្ឋ	-10.8236
ភ្លោះ	-10.8236
អ្នកបំរើ	-10.8237
ជំងឺដាច់សរសៃឈាម	-10.8299
រោទិ៍	-10.8299
ខ្សែពួរ	-10.8299
°	-10.8299
មេរោគអេដស៍	-10.8299
ស្ថាបត្យករ	-10.8299
សាច់ញាតិ	-10.8299
ការជជែកវែកញែក	-10.8299
ភាពជាអ្នកដឹកនាំ	-10.8299
ទទួលរងពី	-10.8305
បទភ្លេង	-10.831
ជម្រាល	-10.8362
វរសេនីយ៍ឯក	-10.8362
អាហារូបករណ៍	-10.8362
▁Charles	-10.8362
ទោល	-10.8362
ការរញ្ជួយដី	-10.8362
ville	-10.8369
ត្រូវបានជំនួសដោយ	-10.837
កញ្ជ្រោង	-10.8425
ក្លិប	-10.8425
អាប់អួ	-10.8425
ព្យញ្ជនៈ	-10.8425
ស្វាហាប់	-10.8425
ឯកសណ្ឋាន	-10.8425
វ៉ុល	-10.8427
វឺរ	-10.8431
នៅលីវ	-10.8457
ញាក់	-10.8488
ពេត្រុស	-10.8489
ចិត្ដ	-10.8489
ដែកថែប	-10.8489
ភាគនិរតី	-10.8489
▁damn	-10.8489
សិចស៊ី	-10.8489
▁Sky	-10.8491
ប្រយោគ	-10.8553
រ៉ូមែនទិក	-10.8553
ខ្លឹមសារ	-10.8553
ម្ដាយ	-10.8553
គ្រាមភាសា	-10.8553
លឿង	-10.8614
យេនឌ័រ	-10.8617
បណ្ឌិត្យសភា	-10.8617
ស្បៀងអាហារ	-10.8617
ឧកញ៉ា	-10.8617
ប្រកែក	-10.8617
▁Frank	-10.8617
បទសម្ភាសន៍	-10.8618
សាឡាត់	-10.8628
អាចធ្វើអ្វីបាន	-10.8669
н	-10.8682
សុភាពរាបសា	-10.8682
ញ៉ូម	-10.8682
ធរណីមាត្រ	-10.8682
ក្រោកឈរឡើង	-10.8682
ព័រទុយហ្កាល់	-10.8682
រដុប	-10.8682
អធិការ	-10.8682
ការតាំងទីលំនៅ	-10.8682
ការតាំងពិព័រណ៍	-10.8682
ដោយរបៀបណា	-10.8683
មើម	-10.8683
អមដំណើរ	-10.8684
ផ្លាស់ទៅ	-10.8703
គេរាយការណ៍ថា	-10.8706
អាគុយម៉ង់	-10.8747
មិនប្រាកដប្រជា	-10.8748
ឈើឆ្កាង	-10.8748
ម៉ាឡេស៊ី	-10.8748
field	-10.8748
នៅខែឧសភាឆ្នាំ	-10.8748
បែបផែន	-10.876
ដាក់ពង្រាយ	-10.8813
អបអរ	-10.8813
ក្រមួន	-10.8813
ភាពវឹកវរ	-10.8813
វិកលចរិក	-10.8813
បំបៅ	-10.8813
▁1/2	-10.8814
មកុដ	-10.8814
ب	-10.8879
អ័ព្ទ	-10.888
ហិង្សា	-10.888
ឈូងសមុទ្រ	-10.888
លាក់បាំង	-10.888
អភិជន	-10.888
រសើប	-10.888
▁FBI	-10.888
លំពែង	-10.888
មនុស្សយន្ត	-10.888
យានអវកាស	-10.8881
នៅសមុទ្រចិន	-10.8898
បណ្តាសា	-10.8946
ម៉ាញេទិក	-10.8946
គេងលក់ស្រួល	-10.8946
សញ្ជាតិ	-10.8946
▁Covid	-10.8946
ស្ទ្រីម	-10.8946
៏	-10.897
មូស្លីម	-10.9013
о	-10.9013
កំរាលព្រំ	-10.9013
និរន្តរភាព	-10.9013
ហ្គ្រេ	-10.9013
សម្លុត	-10.9013
បង្កាត់ពូជ	-10.9013
ប្រញាប់ប្រញាល់	-10.9013
ពិធីបុណ្យសព	-10.9013
ទំនួលខុសត្រូវ	-10.9013
ចែចង់	-10.9013
ធំធេង	-10.9073
ទីលំនៅ	-10.908
គំនរ	-10.9081
សុទិដ្ឋិនិយម	-10.9081
សុពលភាព	-10.9081
ភពព្រះអង្គារ	-10.9081
អនីតិជន	-10.9081
▁Twitter	-10.9081
អស់ពីសមត្ថភាព	-10.9081
▁ឧសភា	-10.9081
ត្រឡប់ទៅផ្ទះវិញ	-10.9083
កាប៊ីន	-10.9093
នៅផ្នែកខាងលើនៃ	-10.9148
ស្ថិរភាព	-10.9148
និទានកថា	-10.9149
កុងតឺន័រ	-10.9149
តម្រុយ	-10.9149
ខែកុម្ភះឆ្នាំ	-10.9149
ជាប់លាប់	-10.9149
▁Michael	-10.9149
ដាច់ខាត	-10.9149
នៅខែកក្កដាឆ្នាំ	-10.9149
ប្រកប	-10.916
ខ្នាត	-10.9186
ទើប	-10.9213
ស្ងប់	-10.9217
ឈ្លោះប្រកែកគ្នា	-10.9217
ថ្ងៃច័ន្ទ	-10.9217
ភាពចម្រូងចម្រាស	-10.9217
ធ្វើទស្សនកិច្ច	-10.9217
រំលឹក	-10.9217
ស្នាក់ការកណ្តាល	-10.9217
ឌីវីឌី	-10.9217
ធ្នើ	-10.9217
ឃោសនា	-10.9217
្យូម	-10.9238
ហត្ថលេខា	-10.9283
ប៉ាគីស្ថាន	-10.9286
ទីក្រុងតូក្យូ	-10.9286
è	-10.9286
វិសាលគម	-10.9286
ត្រូវបានផ្ស	-10.932
ភ្ញៀវទេសចរ	-10.9356
បាតុកម្ម	-10.9356
ក្រៀមក្រំ	-10.9356
ថ្កោលទោស	-10.9356
មីក្រូវ៉េវ	-10.9356
ឥលូវនេះ	-10.9356
កាំរស្មីអ៊ិច	-10.9356
ក្តាប់	-10.9356
រមួល	-10.9356
មានហានិភ័យខ្ពស់	-10.9387
ប្រតិទិន	-10.9426
ú	-10.9426
គ្របដណ្ដប់	-10.9426
ព្យាណូ	-10.9426
កាតាឡុក	-10.9426
សំណាញ់	-10.9426
ថូម៉ាស	-10.9426
ឆែក	-10.9426
ស្របគ្នា	-10.9426
ស្អិត	-10.9426
ជាយក្រុង	-10.9426
ethyl	-10.9446
×	-10.9496
មែកធាង	-10.9496
រឿងព្រេងនិទាន	-10.9496
សំភាសន៍	-10.9496
ឥស្សរជន	-10.9567
ប្រតិភូ	-10.9567
ប្រមាថ	-10.9567
បន្ទះឈីប	-10.9567
សិង្ហបុរី	-10.9567
អនាមិក	-10.9567
ស្មាតហ្វូន	-10.9567
អន្ដរជាតិ	-10.9567
អំពើបាប	-10.9567
សមូហភាព	-10.9567
▁Arthur	-10.9567
វាអាចទៅរួច	-10.9567
▁David	-10.9567
បានលើកឡើងពី	-10.9586
បានលើកឡើងថា	-10.9635
គំរាម	-10.9638
ហ្វ្រេស	-10.9638
ការភាន់ច្រលំ	-10.9639
ឧក្រិដ្ឋជន	-10.9639
បែលហ្ស៊ិក	-10.9639
បោះជំហានទៅមុខ	-10.9639
ស្ថាបនា	-10.9639
កាយវិការ	-10.9639
វាសនា	-10.9644
и	-10.971
ឧត្ដម	-10.971
ចង្កេះ	-10.971
មហាក្សត្រិយានី	-10.971
ឥណ្ឌូនេស៊ី	-10.971
ខ្ទឹមស	-10.971
អាមេរិកឡាទីន	-10.971
សន្ទុះ	-10.971
ភាពទន់ខ្សោយ	-10.9711
▁poly	-10.9712
ធ្វេសប្រហែស	-10.9783
គួរឱ្យរន្ធត់	-10.9783
ផ្លាស្ទិច	-10.9783
ញែក	-10.9783
វួដ	-10.9784
អ្នកបើកយន្តហោះ	-10.9787
ឱ្យបានឆាប់តាម	-10.9795
ឃុំ	-10.984
▁គឺជាភូមិស៊ីរី	-10.9856
ច្រានចោល	-10.9856
រួចជាស្រេច	-10.9856
ស៊ើបការណ៍	-10.9856
បន្លំ	-10.9856
▁Marshal	-10.9858
ទៀតផង។	-10.9927
ទីក្រុងមូស្គូ	-10.9929
អាំងតង់ស៊ីតេ	-10.9929
នៅខែកញ្ញាឆ្នាំ	-10.993
្រលាញ់ភេទដូចគ្នា	-10.993
ព្រំប្រទល់	-11.0003
តម្លាភាព	-11.0003
អាំងស៊ុយលីន	-11.0003
រថក្រោះ	-11.0003
សម្តេចប៉ាប	-11.0004
▁Victoria	-11.0004
ខ្ទឹមបារាំង	-11.0004
សហភាពអឺរ៉ុប	-11.0004
ក្លិនស្អុយ	-11.0004
អំឡុង	-11.0008
ដំណឹង	-11.0032
នៅដើមទសវត្ស	-11.0062
ដណ្តើម	-11.0078
ភ័យរន្ធត់	-11.0078
យូអេសប៊ី	-11.0078
សេណារីយ៉ូ	-11.0078
អចិន្ត្រៃយ៍	-11.0078
β	-11.0078
ការ៉ុត	-11.0078
ជំងឺអេដស៍	-11.0078
ត្អូញត្អែរ	-11.0078
និម្មិត	-11.0078
ហិកតា	-11.0078
▁Trump	-11.0078
មេតាណុល	-11.0078
លើសលប់	-11.0078
អត្រាការប្រាក់	-11.0078
វែកញែក	-11.0153
ងងុយគេង	-11.0153
ថ្លៃថ្នូ	-11.0153
ជញ្ជីង	-11.0153
រូបិយប័ណ្ណ	-11.0153
បោកបញ្ឆោត	-11.0153
ព្រឹកព្រលឹម	-11.0154
ដកខ្លួនចេញ	-11.0157
អួត	-11.0226
ជាតិកាហ្វេអ៊ីន	-11.0229
លិខិតឆ្លងដែន	-11.0229
ហិណ្ឌូ	-11.0229
បញ្ចោញ	-11.0229
ស្រូវសាលី	-11.0229
ខួង	-11.0229
ថ្នាំកូត	-11.023
ារភ្ជាប់ជាមួយនឹង	-11.0289
ជម្លៀស	-11.0305
ជម្រុះ	-11.0305
សុខុមាលភាព	-11.0305
ខ្ញី	-11.0305
ម្លប់	-11.0305
លេងភ្លេង	-11.0343
ក្នុងកំឡុង	-11.0378
មិនយល់ស្រប	-11.0382
ខុសៗគ្នា	-11.0382
ចុះយ៉ាងណាបើ	-11.0382
ដ្យាក្រាម	-11.0382
ចារកម្ម	-11.0382
មគ្គុទេសក៍	-11.0382
ស្រួចស្រាវ	-11.0382
អូឌីយ៉ូ	-11.0382
មហាអំណាច	-11.0382
រនាំង	-11.0384
អាគុយ	-11.0385
ចោទប្រកាន់ពីបទ	-11.0411
កាបូអ៊ីដ្រាត	-11.046
ជ័យជម្នះ	-11.046
រដូវស្លឹកឈើជ្រុះ	-11.046
កំព្រា	-11.046
ភ្លៅ	-11.046
ប្រទេសប៉េរូ	-11.046
សព្វថ្ងៃ	-11.0462
ឆ្នាំកន្លងមកនេះ	-11.0482
ខ្វល់	-11.0487
មុទ្រចិនខាងត្បូង	-11.0519
ស្អប់ខ្ពើម	-11.0534
ត្រួតត្រា	-11.0538
មហាសន្និបាត	-11.0538
ថ្ងៃអង្គារ	-11.0538
អង្គបដិប្រាណ	-11.0538
ប្រទេសកេនយ៉ា	-11.0538
វាយឆ្មក់	-11.0538
មានភាពចាស់ទុំ	-11.0538
▁dude	-11.0538
р	-11.0617
ដេរីវេ	-11.0617
ណឺរ៉ូន	-11.0617
អធ្រាត្រ	-11.0617
ចូលរួមវិភាគទាន	-11.0617
ថ្គាម	-11.0617
សើចចំអក	-11.0617
▁Group	-11.0617
សំរាក	-11.0617
មានប្រសាសន៍ថា	-11.0627
គ្រីស្ទាន	-11.0696
កូនក្រមុំ	-11.0696
បល្ល័ង្ក	-11.0696
សេចក្តីព្រាង	-11.0696
អង្គហេតុ	-11.0696
ផ្តេក	-11.0696
សមាជ	-11.0748
ម៉ូឌុល	-11.0776
លីនេអ៊ែរ	-11.0776
អេឡិចត្រុង	-11.0776
គំរប	-11.0776
ឌ្រី	-11.0776
ដាច់ដោយឡែកពីគ្នា	-11.0789
ការវិលត្រឡប់	-11.082
ស្វយ័ត	-11.0857
ឧទ្ធម្ភាគចក្រ	-11.0857
រ៉ោតទ័រ	-11.0857
អង់ទីប៊ីយ៉ូទិក	-11.0857
ទឹកខ្មេះ	-11.0857
ទឹកខ្មះ	-11.0857
ផូស្វ័រ	-11.0857
សោកនាដកម្ម	-11.0857
ទឹកដោះគោជូរ	-11.0857
ប៉ារ៉ាស៊ីត	-11.0857
ស្នាមប្រេះ	-11.0857
▁Richard	-11.0857
ពន្លឿន	-11.0857
រីឆាត	-11.0857
▁Black	-11.0857
ə	-11.1186
ū	-11.1526
ل	-11.1613
е	-11.1613
~	-11.1701
س	-11.2152
в	-11.2244
>	-11.2338
ä	-11.2432
د	-11.2623
ç	-11.3221
с	-11.3428
→	-11.3533
ã	-11.3533
à	-11.3747
ā	-11.4303
л	-11.4771
ː	-11.4771
μ	-11.5137
ت	-11.5646
ឍ	-11.5646
д	-11.5778
т	-11.6322
ê	-11.6322
±	-11.6898
π	-11.7047
к	-11.7047
+	-11.7169
ឪ	-11.7199
ɪ	-11.7199
γ	-11.7352
ć	-11.7352
ط	-11.7509
|	-11.7509
ν	-11.7667
м	-11.7829
τ	-11.7993
ج	-11.7993
š	-11.8329
ī	-11.8501
ز	-11.8501
ρ	-11.8677
ش	-11.9037
ع	-11.9037
δ	-11.9222
ô	-11.9603
σ	-11.9603
<	-11.9799
ź	-11.9799
ε	-11.9799
ك	-12.0203
ë	-12.0624
ï	-12.0842
λ	-12.0842
κ	-12.1064
æ	-12.1064
^	-12.1064
ف	-12.1291
ς	-12.1291
ص	-12.1291
ı	-12.1762
č	-12.1762
η	-12.1762
_	-12.1762
ʊ	-12.1762
ι	-12.2006
า	-12.2006
·	-12.2256
$	-12.2256
у	-12.2256
ح	-12.2512
å	-12.2512
ɛ	-12.2512
ß	-12.2775
θ	-12.3046
–	-12.3324
ه	-12.3609
я	-12.3903
子	-12.3903
ø	-12.3903
خ	-12.3903
â	-12.4206
⌘	-12.4841
♪	-12.4841
đ	-12.4841
ឫ	-12.4921
ь	-12.5175
ы	-12.5519
ч	-12.552
ί	-12.552
й	-12.5877
ì	-12.5877
î	-12.6247
ệ	-12.6247
`	-12.6247
्	-12.6247
ş	-12.6632
ー	-12.6632
@	-12.6632
φ	-12.6632
ق	-12.7032
®	-12.7032
大	-12.7032
ω	-12.7032
أ	-12.7032
☉	-12.7032
غ	-12.7448
ɑ	-12.7448
ý	-12.7448
г	-12.7448
п	-12.7883
ン	-12.7883
ร	-12.7884
ē	-12.8338
з	-12.8338
อ	-12.8338
ò	-12.8814
어	-12.8814
ラ	-12.8814
ˌ	-12.9314
ù	-12.9314
ɒ	-12.9314
⊞	-12.9314
동	-12.9314
£	-12.9314
เ	-12.9314
ル	-12.984
ό	-12.984
イ	-12.984
υ	-13.0396
ʃ	-13.0396
≤	-13.0396
ŏ	-13.0396
น	-13.0396
ม	-13.0396
б	-13.0984
ả	-13.0984
•	-13.0984
ɡ	-13.0984
र	-13.0984
ă	-13.0984
ф	-13.0984
έ	-13.1609
美	-13.1609
語	-13.1609
ш	-13.2276
ǎ	-13.2276
ト	-13.2276
ى	-13.2276
€	-13.2276
이	-13.2276
ά	-13.2276
저	-13.299
の	-13.299
∈	-13.299
ž	-13.299
ě	-13.299
中	-13.299
ย	-13.299
ָ	-13.3759
ạ	-13.3759
क	-13.3759
☰	-13.3759
÷	-13.3759
⋮	-13.3759
냐	-13.3759
õ	-13.3759
ύ	-13.3759
전	-13.3759
⊕	-13.3759
ท	-13.3759
ส	-13.376
=	-13.3933
і	-13.4592
藤	-13.4593
성	-13.4593
⇧	-13.4593
√	-13.4593
タ	-13.4593
대	-13.4593
้	-13.4593
ि	-13.4593
ἀ	-13.4593
म	-13.5501
ζ	-13.5502
§	-13.5502
장	-13.5502
国	-13.5502
ḥ	-13.5502
학	-13.5502
ว	-13.5502
ץ	-13.5502
ή	-13.6502
ư	-13.6502
か	-13.6502
ա	-13.6502
ア	-13.6502
ス	-13.6502
天	-13.6502
ض	-13.6502
♠	-13.6502
ム	-13.6502
ğ	-13.6502
ั	-13.6502
교	-13.6502
ی	-13.6502
ा	-13.6502
ิ	-13.6502
ล	-13.6502
פ	-13.7612
ж	-13.7612
ֿ	-13.7612
х	-13.7613
小	-13.7613
¿	-13.7613
公	-13.7613
本	-13.7613
\	-13.7613
ŋ	-13.7613
ξ	-13.7613
¥	-13.7613
ɔ	-13.7613
長	-13.7613
문	-13.7613
氏	-13.7613
χ	-13.7613
ц	-13.7613
भ	-13.7613
ง	-13.7613
ṭ	-13.7613
ุ	-13.7613
ग	-13.8863
ễ	-13.8863
ř	-13.8863
∞	-13.8863
ッ	-13.8863
ė	-13.8863
法	-13.8863
화	-13.8863
ʒ	-13.8863
ث	-13.8863
⌥	-13.8863
真	-13.8863
제	-13.8863
พ	-13.8863
ロ	-13.8863
と	-13.8863
ი	-13.8863
þ	-13.8863
ế	-13.8863
ข	-13.8863
त	-13.8863
ี	-13.8863
प	-13.8863
ต	-13.8863
ก	-13.8863
会	-14.0291
原	-14.0291
東	-14.0291
ด	-14.0291
李	-14.0291
ψ	-14.0291
∇	-14.0291
京	-14.0291
明	-14.0291
ơ	-14.0291
˧	-14.0291
†	-14.0291
⟩	-14.0291
的	-14.0291
ħ	-14.0291
日	-14.0291
ĩ	-14.0291
田	-14.0291
神	-14.0291
จ	-14.0291
物	-14.0291
่	-14.0291
ी	-14.0291
บ	-14.0292
न	-14.1958
ジ	-14.1958
주	-14.1958
テ	-14.1958
城	-14.1958
海	-14.1958
ذ	-14.1958
ṣ	-14.1958
一	-14.1958
家	-14.1958
文	-14.1958
方	-14.1958
道	-14.1958
龍	-14.1958
사	-14.1958
≥	-14.1958
高	-14.1958
́	-14.1958
ị	-14.1958
⋯	-14.1958
こ	-14.1958
我	-14.1958
王	-14.1958
学	-14.1958
ိ	-14.1958
ა	-14.1958
國	-14.1958
원	-14.1958
ウ	-14.1958
マ	-14.1958
ọ	-14.1958
ガ	-14.1958
ũ	-14.1958
ช	-14.1958
ะ	-14.1958
ע	-14.3958
ё	-14.3958
ṇ	-14.3958
株	-14.3958
由	-14.3958
Ś	-14.3958
り	-14.3958
カ	-14.3958
ク	-14.3958
四	-14.3958
學	-14.3958
社	-14.3958
비	-14.3958
서	-14.3958
ǐ	-14.3958
ǒ	-14.3958
़	-14.3958
你	-14.3958
宮	-14.3958
生	-14.3958
여	-14.3958
왕	-14.3958
ὑ	-14.3958
み	-14.3958
山	-14.3958
會	-14.3958
ǝ	-14.3958
∘	-14.3958
⊆	-14.3958
⊙	-14.3958
⋅	-14.3958
主	-14.3958
人	-14.3958
張	-14.3958
나	-14.3958
일	-14.3958
鶴	-14.3958
아	-14.3958
プ	-14.3958
내	-14.3958
부	-14.3958
理	-14.3958
軍	-14.3958
의	-14.3958
ツ	-14.3958
陈	-14.3958
ู	-14.3958
세	-14.3958
န	-14.3958
ภ	-14.3958
แ	-14.3958
♭	-14.3958
ป	-14.3958
च	-14.3959
摸	-14.6458
ố	-14.6458
ể	-14.6458
ồ	-14.6458
김	-14.6458
林	-14.6458
ṅ	-14.6458
إ	-14.6458
ไ	-14.6458
式	-14.6458
ỉ	-14.6458
な	-14.6458
コ	-14.6458
シ	-14.6458
ミ	-14.6458
伊	-14.6458
光	-14.6458
太	-14.6458
義	-14.6458
기	-14.6458
데	-14.6458
ṃ	-14.6458
ナ	-14.6458
川	-14.6458
ɯ	-14.6458
ʌ	-14.6458
ַ	-14.6458
ঙ	-14.6458
ὐ	-14.6458
う	-14.6458
不	-14.6458
世	-14.6458
十	-14.6458
花	-14.6458
野	-14.6458
경	-14.6458
리	-14.6458
명	-14.6458
산	-14.6458
조	-14.6458
파	-14.6458
全	-14.6458
千	-14.6458
実	-14.6458
赤	-14.6458
그	-14.6458
네	-14.6458
자	-14.6458
ʔ	-14.6458
ֹ	-14.6458
♯	-14.6458
お	-14.6458
ん	-14.6458
代	-14.6458
嘉	-14.6458
夫	-14.6458
守	-14.6458
宿	-14.6458
派	-14.6458
立	-14.6458
線	-14.6458
마	-14.6458
수	-14.6458
신	-14.6458
정	-14.6458
처	-14.6458
하	-14.6458
û	-14.6458
В	-14.6458
ъ	-14.6458
ῖ	-14.6458
正	-14.6458
赵	-14.6458
롯	-14.6458
만	-14.6458
қ	-14.6458
ो	-14.6458
バ	-14.6458
校	-14.6458
死	-14.6458
車	-14.6458
고	-14.6458
스	-14.6458
회	-14.6458
エ	-14.6458
あ	-14.6458
内	-14.6458
가	-14.6458
국	-14.6458
是	-14.6458
द	-14.6458
य	-14.6458
ु	-14.6458
ผ	-14.6458
ő	-14.6458
종	-14.6458
ာ	-14.6458
グ	-14.6458
ὸ	-14.6458
ห	-14.6458
स	-14.6458
ट	-14.6459
ฟ	-14.6459
制	-14.9791
ֵ	-14.9791
श	-14.9791
̄	-14.9791
ḍ	-14.9791
ṛ	-14.9791
ử	-14.9791
ὠ	-14.9791
安	-14.9791
홍	-14.9791
˥	-14.9791
ὶ	-14.9791
つ	-14.9791
ゼ	-14.9791
ブ	-14.9791
作	-14.9791
商	-14.9791
欢	-14.9791
港	-14.9791
皇	-14.9791
見	-14.9791
香	-14.9791
미	-14.9791
봉	-14.9791
안	-14.9791
ふ	-14.9791
ņ	-14.9791
ӏ	-14.9791
յ	-14.9791
آ	-14.9791
व	-14.9791
া	-14.9791
ถ	-14.9791
ắ	-14.9791
⁄	-14.9791
⏎	-14.9791
い	-14.9791
ち	-14.9791
も	-14.9791
ド	-14.9791
メ	-14.9791
ュ	-14.9791
レ	-14.9791
之	-14.9791
先	-14.9791
名	-14.9791
回	-14.9791
团	-14.9791
外	-14.9791
女	-14.9791
室	-14.9791
島	-14.9791
市	-14.9791
水	-14.9791
焼	-14.9791
电	-14.9791
结	-14.9791
行	-14.9791
賀	-14.9791
起	-14.9791
黒	-14.9791
라	-14.9791
법	-14.9791
차	-14.9791
く	-14.9791
モ	-14.9791
孟	-14.9791
朱	-14.9791
紅	-14.9791
韓	-14.9791
{	-14.9791
©	-14.9791
ġ	-14.9791
ų	-14.9791
ɜ	-14.9791
ɲ	-14.9791
ο	-14.9791
ն	-14.9791
ء	-14.9791
ब	-14.9791
ื	-14.9791
ấ	-14.9791
ầ	-14.9791
ộ	-14.9791
‰	-14.9791
←	-14.9791
⇒	-14.9791
≈	-14.9791
≡	-14.9791
ノ	-14.9791
ポ	-14.9791
上	-14.9791
党	-14.9791
前	-14.9791
号	-14.9791
司	-14.9791
向	-14.9791
園	-14.9791
姫	-14.9791
孫	-14.9791
揚	-14.9791
星	-14.9791
有	-14.9791
木	-14.9791
札	-14.9791
橋	-14.9791
瀬	-14.9791
白	-14.9791
第	-14.9791
納	-14.9791
組	-14.9791
羅	-14.9791
艇	-14.9791
藍	-14.9791
言	-14.9791
輝	-14.9791
阿	-14.9791
雄	-14.9791
馬	-14.9791
鳳	-14.9791
구	-14.9791
방	-14.9791
보	-14.9791
시	-14.9791
유	-14.9791
윤	-14.9791
있	-14.9791
후	-14.9791
ώ	-14.9791
三	-14.9791
八	-14.9791
友	-14.9791
寧	-14.9791
석	-14.9791
영	-14.9791
월	-14.9791
œ	-14.9791
հ	-14.9791
ח	-14.9791
छ	-14.9791
が	-14.9791
た	-14.9791
吉	-14.9791
渡	-14.9791
西	-14.9791
貴	-14.9791
살	-14.9791
에	-14.9791
양	-14.9791
ю	-14.9791
ẵ	-14.9791
‧	-14.9791
キ	-14.9791
リ	-14.9791
机	-14.9791
등	-14.9791
ू	-14.9791
フ	-14.9791
ခ	-14.9791
ἄ	-14.9791
事	-14.9791
秀	-14.9791
ヒ	-14.9792
云	-14.9792
რ	-14.9792
မ	-14.9792
造	-15.4791
̣	-15.4791
щ	-15.4791
ḷ	-15.4791
力	-15.4791
欧	-15.4791
혁	-15.4791
ἅ	-15.4791
仔	-15.4791
致	-15.4791
ं	-15.4791
し	-15.4791
레	-15.4791
İ	-15.4791
ս	-15.4791
ש	-15.4791
ظ	-15.4791
ܣ	-15.4791
आ	-15.4791
ज	-15.4791
ड	-15.4791
き	-15.4791
信	-15.4791
奇	-15.4791
悠	-15.4791
曲	-15.4791
猎	-15.4791
盗	-15.4791
金	-15.4791
뛰	-15.4791
상	-15.4791
육	-15.4791
东	-15.4791
常	-15.4791
結	-15.4791
ր	-15.4791
ܕ	-15.4791
ै	-15.4791
র	-15.4791
ổ	-15.4791
ぼ	-15.4791
ま	-15.4791
や	-15.4791
る	-15.4791
ワ	-15.4791
乐	-15.4791
勞	-15.4791
化	-15.4791
在	-15.4791
宗	-15.4791
尾	-15.4791
持	-15.4791
未	-15.4791
横	-15.4791
次	-15.4791
民	-15.4791
沙	-15.4791
目	-15.4791
眼	-15.4791
竹	-15.4791
粥	-15.4791
翻	-15.4791
臣	-15.4791
近	-15.4791
過	-15.4791
邪	-15.4791
須	-15.4791
魔	-15.4791
걸	-15.4791
선	-15.4791
쇼	-15.4791
울	-15.4791
쳐	-15.4791
해	-15.4791
ゴ	-15.4791
歌	-15.4791
知	-15.4791
祐	-15.4791
蘇	-15.4791
豆	-15.4791
丸	-15.4791
¡	-15.4791
¢	-15.4791
¬	-15.4791
ð	-15.4791
ċ	-15.4791
Ł	-15.4791
ţ	-15.4791
˩	-15.4791
̊	-15.4791
ר	-15.4791
ٴ	-15.4791
ۇ	-15.4791
ष	-15.4791
ಠ	-15.4791
ธ	-15.4791
์	-15.4791
ཟ	-15.4791
ླ	-15.4791
ပ	-15.4791
အ	-15.4791
ု	-15.4791
ျ	-15.4791
დ	-15.4791
ვ	-15.4791
ლ	-15.4791
ნ	-15.4791
ቅ	-15.4791
ờ	-15.4791
ỡ	-15.4791
ἕ	-15.4791
ὕ	-15.4791
ὰ	-15.4791
℞	-15.4791
↹	-15.4791
−	-15.4791
∓	-15.4791
∗	-15.4791
⎙	-15.4791
☆	-15.4791
け	-15.4791
め	-15.4791
よ	-15.4791
ェ	-15.4791
ギ	-15.4791
ネ	-15.4791
九	-15.4791
仁	-15.4791
介	-15.4791
他	-15.4791
位	-15.4791
佳	-15.4791
便	-15.4791
保	-15.4791
僕	-15.4791
利	-15.4791
勇	-15.4791
双	-15.4791
吸	-15.4791
員	-15.4791
喜	-15.4791
土	-15.4791
坂	-15.4791
均	-15.4791
場	-15.4791
夏	-15.4791
央	-15.4791
奖	-15.4791
姐	-15.4791
媛	-15.4791
寒	-15.4791
寺	-15.4791
尹	-15.4791
崇	-15.4791
巾	-15.4791
平	-15.4791
府	-15.4791
弘	-15.4791
心	-15.4791
志	-15.4791
想	-15.4791
憲	-15.4791
成	-15.4791
托	-15.4791
拓	-15.4791
政	-15.4791
敏	-15.4791
斬	-15.4791
早	-15.4791
春	-15.4791
景	-15.4791
朔	-15.4791
望	-15.4791
村	-15.4791
来	-15.4791
梦	-15.4791
榮	-15.4791
構	-15.4791
槍	-15.4791
機	-15.4791
河	-15.4791
治	-15.4791
洞	-15.4791
灣	-15.4791
烏	-15.4791
煮	-15.4791
牧	-15.4791
男	-15.4791
畢	-15.4791
百	-15.4791
看	-15.4791
空	-15.4791
筒	-15.4791
荘	-15.4791
葉	-15.4791
術	-15.4791
街	-15.4791
親	-15.4791
视	-15.4791
話	-15.4791
谢	-15.4791
豊	-15.4791
賢	-15.4791
赛	-15.4791
越	-15.4791
身	-15.4791
通	-15.4791
速	-15.4791
郡	-15.4791
酢	-15.4791
鎮	-15.4791
雨	-15.4791
雷	-15.4791
鞠	-15.4791
飛	-15.4791
餅	-15.4791
餘	-15.4791
魚	-15.4791
같	-15.4791
과	-15.4791
관	-15.4791
녀	-15.4791
덕	-15.4791
두	-15.4791
들	-15.4791
락	-15.4791
랑	-15.4791
러	-15.4791
림	-15.4791
무	-15.4791
백	-15.4791
블	-15.4791
빵	-15.4791
쁜	-15.4791
송	-15.4791
실	-15.4791
씨	-15.4791
암	-15.4791
앙	-15.4791
연	-15.4791
은	-15.4791
잘	-15.4791
중	-15.4791
즈	-15.4791
지	-15.4791
진	-15.4791
치	-15.4791
터	-15.4791
트	-15.4791
피	-15.4791
한	-15.4791
현	-15.4791
パ	-15.4791
弓	-15.4791
忠	-15.4791
最	-15.4791
独	-15.4791
翔	-15.4791
박	-15.4791
호	-15.4791
ɣ	-15.4791
મ	-15.4791
ํ	-15.4791
ḃ	-15.4791
げ	-15.4791
冬	-15.4791
森	-15.4791
永	-15.4791
濱	-15.4791
肉	-15.4791
辺	-15.4791
예	-15.4791
ỳ	-15.4791
ո	-15.4791
ल	-15.4791
း	-15.4791
ủ	-15.4791
ỹ	-15.4791
ら	-15.4791
ケ	-15.4791
デ	-15.4791
丽	-15.4791
委	-15.4791
州	-15.4791
帝	-15.4791
戦	-15.4791
样	-15.4791
楽	-15.4791
武	-15.4791
沢	-15.4791
清	-15.4791
濟	-15.4791
蔵	-15.4791
足	-15.4791
없	-15.4791
큼	-15.4791
福	-15.4791
ह	-15.4791
ニ	-15.4791
洋	-15.4791
너	-15.4791
초	-15.4791
ů	-15.4792
ւ	-15.4792
ו	-15.4792
י	-15.4792
တ	-15.4792
ေ	-15.4792
თ	-15.4792
ứ	-15.4792
ἐ	-15.4792
ἑ	-15.4792
伽	-15.4792
实	-15.4792
求	-15.4792
耶	-15.4792
위	-15.4792
품	-15.4792
ြ	-15.4792
โ	-15.4793
瓦	-16.479
ậ	-16.4791
ק	-16.4791
ợ	-16.4791
柱	-16.4791
赫	-16.4791
ÿ	-16.4791
ĝ	-16.4791
ű	-16.4791
լ	-16.4791
կ	-16.4791
ֆ	-16.4791
ֶ	-16.4791
ܪ	-16.4791
ओ	-16.4791
ษ	-16.4791
ბ	-16.4791
※	-16.4791
ャ	-16.4791
伏	-16.4791
偵	-16.4791
初	-16.4791
峰	-16.4791
恋	-16.4791
桂	-16.4791
洪	-16.4791
禄	-16.4791
체	-16.4791
텔	-16.4791
ƒ	-16.4791
̧	-16.4791
տ	-16.4791
ִ	-16.4791
ܐ	-16.4791
ܚ	-16.4791
ܠ	-16.4791
ܦ	-16.4791
ܬ	-16.4791
औ	-16.4791
ौ	-16.4791
ᾱ	-16.4791
ず	-16.4791
そ	-16.4791
だ	-16.4791
て	-16.4791
ぷ	-16.4791
ゆ	-16.4791
れ	-16.4791
セ	-16.4791
ペ	-16.4791
业	-16.4791
二	-16.4791
伤	-16.4791
伴	-16.4791
侯	-16.4791
傘	-16.4791
兄	-16.4791
军	-16.4791
办	-16.4791
华	-16.4791
口	-16.4791
史	-16.4791
后	-16.4791
呈	-16.4791
哥	-16.4791
問	-16.4791
塘	-16.4791
壬	-16.4791
奈	-16.4791
妹	-16.4791
姉	-16.4791
字	-16.4791
幹	-16.4791
幽	-16.4791
建	-16.4791
弦	-16.4791
恩	-16.4791
探	-16.4791
敌	-16.4791
時	-16.4791
曬	-16.4791
月	-16.4791
树	-16.4791
栗	-16.4791
椎	-16.4791
油	-16.4791
温	-16.4791
玉	-16.4791
班	-16.4791
町	-16.4791
监	-16.4791
秋	-16.4791
章	-16.4791
竺	-16.4791
糖	-16.4791
紓	-16.4791
纾	-16.4791
网	-16.4791
者	-16.4791
舜	-16.4791
諸	-16.4791
財	-16.4791
趩	-16.4791
運	-16.4791
郊	-16.4791
酱	-16.4791
陛	-16.4791
霊	-16.4791
青	-16.4791
鞍	-16.4791
音	-16.4791
飲	-16.4791
ꠎ	-16.4791
ꠟ	-16.4791
ꠣ	-16.4791
남	-16.4791
렬	-16.4791
령	-16.4791
물	-16.4791
별	-16.4791
브	-16.4791
손	-16.4791
엠	-16.4791
웃	-16.4791
죤	-16.4791
통	-16.4791
특	-16.4791
페	-16.4791
혜	-16.4791
흥	-16.4791
⇔	-16.4791
▼	-16.4791
余	-16.4791
度	-16.4791
战	-16.4791
泱	-16.4791
淵	-16.4791
漪	-16.4791
玄	-16.4791
磐	-16.4791
萬	-16.4791
蕭	-16.4791
강	-16.4791
길	-16.4791
불	-16.4791
잖	-16.4791
¶	-16.4791
Đ	-16.4791
ň	-16.4791
ŭ	-16.4791
ŷ	-16.4791
ȫ	-16.4791
ɖ	-16.4791
ʂ	-16.4791
ʈ	-16.4791
ʐ	-16.4791
ʕ	-16.4791
̅	-16.4791
̇	-16.4791
̋	-16.4791
ϊ	-16.4791
И	-16.4791
М	-16.4791
Н	-16.4791
С	-16.4791
є	-16.4791
խ	-16.4791
א	-16.4791
ئ	-16.4791
پ	-16.4791
ङ	-16.4791
ठ	-16.4791
ण	-16.4791
এ	-16.4791
ণ	-16.4791
ফ	-16.4791
ব	-16.4791
ল	-16.4791
ী	-16.4791
ৌ	-16.4791
દ	-16.4791
ଣ	-16.4791
ଫ	-16.4791
ି	-16.4791
ಕ	-16.4791
ฆ	-16.4791
ฉ	-16.4791
ญ	-16.4791
ฐ	-16.4791
ฮ	-16.4791
ใ	-16.4791
བ	-16.4791
င	-16.4791
ဇ	-16.4791
ဒ	-16.4791
ရ	-16.4791
ဝ	-16.4791
მ	-16.4791
ს	-16.4791
შ	-16.4791
ხ	-16.4791
ሃ	-16.4791
ል	-16.4791
ሪ	-16.4791
ር	-16.4791
ቤ	-16.4791
ታ	-16.4791
ና	-16.4791
ን	-16.4791
ዋ	-16.4791
ዕ	-16.4791
ፍ	-16.4791
ḗ	-16.4791
ḩ	-16.4791
ḳ	-16.4791
ẹ	-16.4791
ẻ	-16.4791
ẽ	-16.4791
ỏ	-16.4791
ữ	-16.4791
ἡ	-16.4791
ἰ	-16.4791
ᾶ	-16.4791
ῶ	-16.4791
‘	-16.4791
‿	-16.4791
₹	-16.4791
₽	-16.4791
↓	-16.4791
↠	-16.4791
↵	-16.4791
⇌	-16.4791
∀	-16.4791
∂	-16.4791
∤	-16.4791
∧	-16.4791
∨	-16.4791
≃	-16.4791
≅	-16.4791
≠	-16.4791
⊂	-16.4791
⊇	-16.4791
⏭	-16.4791
■	-16.4791
▲	-16.4791
▴	-16.4791
○	-16.4791
☺	-16.4791
☿	-16.4791
⟨	-16.4791
⟼	-16.4791
」	-16.4791
ぐ	-16.4791
さ	-16.4791
っ	-16.4791
に	-16.4791
は	-16.4791
ば	-16.4791
ぴ	-16.4791
ほ	-16.4791
ゥ	-16.4791
ォ	-16.4791
ゲ	-16.4791
ズ	-16.4791
ソ	-16.4791
ゾ	-16.4791
ダ	-16.4791
ヌ	-16.4791
ヶ	-16.4791
下	-16.4791
与	-16.4791
两	-16.4791
串	-16.4791
为	-16.4791
也	-16.4791
亚	-16.4791
交	-16.4791
令	-16.4791
仰	-16.4791
众	-16.4791
优	-16.4791
佃	-16.4791
但	-16.4791
住	-16.4791
佑	-16.4791
侍	-16.4791
倫	-16.4791
偉	-16.4791
傳	-16.4791
像	-16.4791
儀	-16.4791
元	-16.4791
克	-16.4791
內	-16.4791
六	-16.4791
兴	-16.4791
円	-16.4791
冠	-16.4791
凶	-16.4791
到	-16.4791
刺	-16.4791
則	-16.4791
割	-16.4791
劉	-16.4791
勁	-16.4791
動	-16.4791
務	-16.4791
北	-16.4791
協	-16.4791
单	-16.4791
南	-16.4791
単	-16.4791
博	-16.4791
卯	-16.4791
厂	-16.4791
収	-16.4791
受	-16.4791
句	-16.4791
右	-16.4791
同	-16.4791
吧	-16.4791
吳	-16.4791
周	-16.4791
味	-16.4791
命	-16.4791
和	-16.4791
咲	-16.4791
哲	-16.4791
啟	-16.4791
喝	-16.4791
図	-16.4791
囷	-16.4791
圾	-16.4791
垂	-16.4791
垃	-16.4791
垣	-16.4791
墟	-16.4791
士	-16.4791
壹	-16.4791
夕	-16.4791
失	-16.4791
奭	-16.4791
好	-16.4791
妙	-16.4791
娘	-16.4791
婧	-16.4791
嫌	-16.4791
孔	-16.4791
宏	-16.4791
官	-16.4791
定	-16.4791
宝	-16.4791
宠	-16.4791
宣	-16.4791
富	-16.4791
專	-16.4791
少	-16.4791
尚	-16.4791
尽	-16.4791
屋	-16.4791
岡	-16.4791
岭	-16.4791
岸	-16.4791
崎	-16.4791
嶋	-16.4791
工	-16.4791
差	-16.4791
希	-16.4791
帥	-16.4791
席	-16.4791
帮	-16.4791
帽	-16.4791
年	-16.4791
幸	-16.4791
庁	-16.4791
庚	-16.4791
庫	-16.4791
庭	-16.4791
庵	-16.4791
廉	-16.4791
廠	-16.4791
廣	-16.4791
开	-16.4791
引	-16.4791
弟	-16.4791
张	-16.4791
強	-16.4791
彙	-16.4791
形	-16.4791
影	-16.4791
役	-16.4791
律	-16.4791
徐	-16.4791
微	-16.4791
德	-16.4791
徹	-16.4791
快	-16.4791
忽	-16.4791
思	-16.4791
性	-16.4791
怪	-16.4791
恵	-16.4791
悟	-16.4791
情	-16.4791
惣	-16.4791
愛	-16.4791
愿	-16.4791
慘	-16.4791
慧	-16.4791
懦	-16.4791
戸	-16.4791
所	-16.4791
手	-16.4791
承	-16.4791
技	-16.4791
抗	-16.4791
拉	-16.4791
搵	-16.4791
摩	-16.4791
撮	-16.4791
斎	-16.4791
新	-16.4791
施	-16.4791
旅	-16.4791
族	-16.4791
无	-16.4791
易	-16.4791
晋	-16.4791
晓	-16.4791
晚	-16.4791
晶	-16.4791
智	-16.4791
書	-16.4791
曾	-16.4791
朝	-16.4791
期	-16.4791
末	-16.4791
杂	-16.4791
杉	-16.4791
束	-16.4791
极	-16.4791
柑	-16.4791
染	-16.4791
查	-16.4791
柴	-16.4791
标	-16.4791
案	-16.4791
桜	-16.4791
業	-16.4791
榜	-16.4791
樓	-16.4791
標	-16.4791
橘	-16.4791
歳	-16.4791
歸	-16.4791
殷	-16.4791
母	-16.4791
毓	-16.4791
汁	-16.4791
江	-16.4791
泉	-16.4791
泊	-16.4791
泰	-16.4791
流	-16.4791
浦	-16.4791
淚	-16.4791
湯	-16.4791
源	-16.4791
溥	-16.4791
漢	-16.4791
潜	-16.4791
濊	-16.4791
火	-16.4791
為	-16.4791
烈	-16.4791
無	-16.4791
然	-16.4791
照	-16.4791
熊	-16.4791
燮	-16.4791
版	-16.4791
牛	-16.4791
特	-16.4791
犬	-16.4791
狩	-16.4791
狱	-16.4791
琊	-16.4791
琦	-16.4791
瑞	-16.4791
瑯	-16.4791
産	-16.4791
用	-16.4791
画	-16.4791
登	-16.4791
益	-16.4791
盟	-16.4791
盾	-16.4791
省	-16.4791
瞿	-16.4791
石	-16.4791
碈	-16.4791
碎	-16.4791
碩	-16.4791
祎	-16.4791
科	-16.4791
竜	-16.4791
笹	-16.4791
简	-16.4791
箭	-16.4791
篠	-16.4791
簡	-16.4791
簪	-16.4791
粉	-16.4791
粕	-16.4791
粹	-16.4791
精	-16.4791
紀	-16.4791
紗	-16.4791
終	-16.4791
經	-16.4791
總	-16.4791
纪	-16.4791
缘	-16.4791
罩	-16.4791
置	-16.4791
羊	-16.4791
羘	-16.4791
群	-16.4791
羹	-16.4791
羽	-16.4791
耀	-16.4791
耿	-16.4791
聲	-16.4791
肖	-16.4791
育	-16.4791
胆	-16.4791
膝	-16.4791
臺	-16.4791
舉	-16.4791
舞	-16.4791
船	-16.4791
良	-16.4791
芋	-16.4791
芸	-16.4791
苔	-16.4791
英	-16.4791
茅	-16.4791
茜	-16.4791
茶	-16.4791
草	-16.4791
荒	-16.4791
莊	-16.4791
莽	-16.4791
菜	-16.4791
華	-16.4791
蔽	-16.4791
薩	-16.4791
藥	-16.4791
虚	-16.4791
虫	-16.4791
蜜	-16.4791
衫	-16.4791
裂	-16.4791
裕	-16.4791
裳	-16.4791
角	-16.4791
記	-16.4791
詩	-16.4791
調	-16.4791
論	-16.4791
諭	-16.4791
證	-16.4791
譚	-16.4791
譯	-16.4791
議	-16.4791
護	-16.4791
譽	-16.4791
译	-16.4791
诗	-16.4791
语	-16.4791
谶	-16.4791
豚	-16.4791
貊	-16.4791
貞	-16.4791
賴	-16.4791
贝	-16.4791
贞	-16.4791
走	-16.4791
赱	-16.4791
赿	-16.4791
趙	-16.4791
趪	-16.4791
趫	-16.4791
趬	-16.4791
趭	-16.4791
趯	-16.4791
趰	-16.4791
路	-16.4791
躰	-16.4791
輪	-16.4791
车	-16.4791
込	-16.4791
迎	-16.4791
这	-16.4791
週	-16.4791
遊	-16.4791
選	-16.4791
郁	-16.4791
郎	-16.4791
部	-16.4791
都	-16.4791
酒	-16.4791
采	-16.4791
里	-16.4791
重	-16.4791
釗	-16.4791
鈴	-16.4791
鋒	-16.4791
钟	-16.4791
钦	-16.4791
钱	-16.4791
锋	-16.4791
镇	-16.4791
长	-16.4791
開	-16.4791
間	-16.4791
间	-16.4791
队	-16.4791
限	-16.4791
院	-16.4791
陰	-16.4791
陳	-16.4791
陵	-16.4791
隊	-16.4791
随	-16.4791
集	-16.4791
雪	-16.4791
電	-16.4791
靖	-16.4791
革	-16.4791
韆	-16.4791
順	-16.4791
願	-16.4791
類	-16.4791
颂	-16.4791
频	-16.4791
飞	-16.4791
食	-16.4791
飥	-16.4791
飴	-16.4791
餺	-16.4791
駆	-16.4791
髪	-16.4791
鬼	-16.4791
鮮	-16.4791
麗	-16.4791
麻	-16.4791
黃	-16.4791
ꠋ	-16.4791
ꠚ	-16.4791
간	-16.4791
갈	-16.4791
겨	-16.4791
격	-16.4791
공	-16.4791
광	-16.4791
군	-16.4791
꽃	-16.4791
꾸	-16.4791
끝	-16.4791
날	-16.4791
납	-16.4791
넙	-16.4791
넷	-16.4791
녕	-16.4791
노	-16.4791
농	-16.4791
느	-16.4791
는	-16.4791
늘	-16.4791
다	-16.4791
당	-16.4791
더	-16.4791
돌	-16.4791
드	-16.4791
따	-16.4791
딴	-16.4791
람	-16.4791
랜	-16.4791
럼	-16.4791
려	-16.4791
로	-16.4791
루	-16.4791
를	-16.4791
막	-16.4791
맥	-16.4791
면	-16.4791
몬	-16.4791
민	-16.4791
바	-16.4791
반	-16.4791
밤	-16.4791
뱅	-16.4791
버	-16.4791
번	-16.4791
범	-16.4791
변	-16.4791
봄	-16.4791
뷰	-16.4791
생	-16.4791
소	-16.4791
쉬	-16.4791
슈	-16.4791
싫	-16.4791
싶	-16.4791
약	-16.4791
언	-16.4791
업	-16.4791
열	-16.4791
오	-16.4791
완	-16.4791
요	-16.4791
웨	-16.4791
읍	-16.4791
작	-16.4791
재	-16.4791
좋	-16.4791
죠	-16.4791
줘	-16.4791
째	-16.4791
충	-16.4791
콜	-16.4791
키	-16.4791
타	-16.4791
탄	-16.4791
탓	-16.4791
퍼	-16.4791
플	-16.4791
핑	-16.4791
행	-16.4791
헌	-16.4791
험	-16.4791
훈	-16.4791
Á	-16.4791
É	-16.4791
ጋ	-16.4791
⊗	-16.4791
ⱬ	-16.4791
万	-16.4791
习	-16.4791
伟	-16.4791
品	-16.4791
弾	-16.4791
彗	-16.4791
昭	-16.4791
枳	-16.4791
爆	-16.4791
祥	-16.4791
許	-16.4791
郷	-16.4791
감	-16.4791
골	-16.4791
낮	-16.4791
돈	-16.4791
옥	-16.4791
크	-16.4791
Б	-16.4791
మ	-16.4791
⚙	-16.4791
え	-16.4791
じ	-16.4791
ゃ	-16.4791
佐	-16.4791
橫	-16.4791
游	-16.4791
葱	-16.4791
遠	-16.4791
静	-16.4791
马	-16.4791
낭	-16.4791
못	-16.4791
순	-16.4791
최	-16.4791
평	-16.4791
합	-16.4791
ǁ	-16.4792
թ	-16.4792
ת	-16.4792
े	-16.4792
က	-16.4792
ဖ	-16.4792
ီ	-16.4792
∫	-16.4792
「	-16.4792
ぶ	-16.4792
ィ	-16.4792
チ	-16.4792
ハ	-16.4792
ホ	-16.4792
争	-16.4792
可	-16.4792
场	-16.4792
基	-16.4792
姚	-16.4792
専	-16.4792
放	-16.4792
杯	-16.4792
球	-16.4792
琵	-16.4792
琶	-16.4792
秘	-16.4792
能	-16.4792
航	-16.4792
赹	-16.4792
赺	-16.4792
赻	-16.4792
赼	-16.4792
赽	-16.4792
赾	-16.4792
退	-16.4792
送	-16.4792
锦	-16.4792
际	-16.4792
陸	-16.4792
금	-16.4792
땅	-16.4792
먼	-16.4792
설	-16.4792
식	-16.4792
야	-16.4792
엔	-16.4792
윙	-16.4792
융	-16.4792
인	-16.4792
테	-16.4792
¤	-16.4792
စ	-16.4792
ံ	-16.4792
ე	-16.4792
უ	-16.4792
休	-16.4792
卹	-16.4792
撫	-16.4792
監	-16.4792
ி	-16.4792
ค	-16.4792
ฬ	-16.4792
步	-16.4792
漫	-16.4792
