<unk>	0
<s>	0
</s>	0
▁	-2.62263
។	-3.76001
.	-3.87724
,	-3.93672
▁និង	-4.78277
▁-	-4.97524
នៃ	-5.08451
?	-5.08539
s	-5.14579
ការ	-5.20456
ដែល	-5.21283
អ្នក	-5.31885
នៅក្នុង	-5.4282
▁ហើយ	-5.48322
បាន	-5.49361
វា	-5.50444
មាន	-5.52251
របស់អ្នក	-5.53381
)	-5.59014
នេះ	-5.60517
▁(	-5.68076
ដើម្បី	-5.68512
នៅ	-5.7187
របស់	-5.72902
សម្រាប់	-5.76479
មួយ	-5.77578
ខ្ញុំ	-5.78374
ដោយ	-5.79098
ជា	-5.80422
▁ឬ	-5.8241
ទៅ	-5.87202
ទេ	-5.89249
▁"	-5.9204
ត្រូវបាន	-5.92534
ពី	-5.9479
y	-5.97904
និង	-5.97949
"	-5.99095
នឹង	-6.01473
▁។	-6.06676
t	-6.07215
គឺ	-6.09662
គាត់	-6.09896
មិន	-6.10558
e	-6.1332
ថា	-6.16509
n	-6.17346
▁ប៉ុន្តែ	-6.18965
ទេ។	-6.1971
ពួកគេ	-6.21009
▁អ្នក	-6.21734
ជាមួយ	-6.22605
▁ខ្ញុំ	-6.23879
អាច	-6.24679
របស់ខ្ញុំ	-6.2757
នៅលើ	-6.35003
នាង	-6.36495
!	-6.37508
ក្នុង	-6.39358
o	-6.47233
យើង	-6.47287
a	-6.5126
d	-6.51578
...	-6.52725
ទទួលបាន	-6.54985
នោះ	-6.5709
្	-6.5753
r	-6.58692
មនុស្ស	-6.61663
ធ្វើ	-6.61725
លើ	-6.65121
ភាព	-6.65481
▁ដូច្នេះ	-6.67036
▁ការ	-6.67211
▁A	-6.67921
▁ឆ្នាំ	-6.70586
al	-6.71021
▁វា	-6.71056
▁ដែល	-6.72058
របស់គាត់	-6.72129
ឱ្យ	-6.72687
អំពី	-6.7334
ស	-6.73955
l	-6.74256
ន	-6.76134
▁19	-6.76159
ក្នុងការ	-6.76649
គឺជា	-6.80069
an	-6.80127
re	-6.80604
er	-6.80605
ឆ្នាំ	-6.80694
ដែលមាន	-6.81563
ហើយ	-6.81982
:	-6.82108
ទាំងអស់	-6.82185
le	-6.82186
▁S	-6.82501
i	-6.83615
ផ្សេងទៀត	-6.87107
រឿង	-6.87194
មួយចំនួន	-6.87326
▁C	-6.87431
▁គឺជា	-6.88254
▁តើអ្នក	-6.8872
របស់ពួកគេ	-6.88925
ទាំងនេះ	-6.88984
នៅទីនេះ	-6.89795
ទឹក	-6.91357
'	-6.92166
ra	-6.93376
ri	-6.93496
ដូចជា	-6.93915
▁បាន	-6.94187
or	-6.94538
ត	-6.95943
របស់យើង	-6.9631
អ្វីដែល	-6.96506
ជាច្រើន	-6.96783
របស់នាង	-6.97002
on	-6.9725
in	-6.98279
ក	-6.9876
នៃការ	-6.9924
ចំពោះ	-6.99496
ចេញ	-6.99721
រ	-6.99919
▁យើង	-7.00305
ត្រូវ	-7.01091
ប	-7.01176
ប្រើ	-7.0164
la	-7.02032
u	-7.03965
▁--	-7.04312
▁I	-7.04386
របស់អ្នក។	-7.05328
m	-7.06158
ល្អ	-7.06506
កំពុង	-7.06973
ចាប់ផ្តើម	-7.07132
g	-7.0746
k	-7.08745
ing	-7.09125
▁G	-7.1027
b	-7.10947
ផ្នែក	-7.11066
ពិតជា	-7.1119
ខ្លួនឯង	-7.11244
z	-7.1214
▁ប្រសិនបើអ្នក	-7.12771
តាម	-7.12931
ដំបូង	-7.12963
▁B	-7.13825
▁the	-7.14127
▁ខ្ញុំបាន	-7.14231
បំផុត	-7.14502
▁ពួកគេ	-7.1483
ឡើង	-7.1532
▁E	-7.1702
p	-7.17621
ង	-7.17671
ថ្មី	-7.17964
និយាយ	-7.18643
ឬ	-7.1881
▁តើ	-7.19313
ពីរ	-7.19509
ដល់	-7.19695
x	-7.20701
c	-7.2128
h	-7.21813
ល	-7.21903
▁សូម	-7.22247
▁គាត់	-7.22274
ជាមួយនឹង	-7.22277
ដែលបាន	-7.22509
ma	-7.22912
ch	-7.23682
en	-7.23842
▁លោក	-7.24019
យក	-7.24443
ក្រុម	-7.2464
mi	-7.24835
ចង់	-7.25462
ដំណើរការ	-7.25534
មក	-7.26376
f	-7.28028
li	-7.28646
▁ខ្ញុំនឹង	-7.28701
▁P	-7.28897
បង្កើត	-7.28991
ម	-7.29163
មិនអាច	-7.2929
lo	-7.29639
គ្រាន់តែ	-7.29716
ne	-7.30619
ស្	-7.30839
ស្ត្រី	-7.30948
▁មាន	-7.31543
ដាក់	-7.31683
ជាង	-7.32007
C	-7.3217
w	-7.32191
ឥឡូវនេះ	-7.32212
▁នាង	-7.32851
ពេលវេលា	-7.32894
និយាយថា	-7.3295
▁F	-7.33
th	-7.33033
ត្រូវការ	-7.33272
▁ប្រសិនបើ	-7.33404
ចេញពី	-7.34377
ថ្នាំ	-7.35068
ធ្វើការ	-7.35787
ជំងឺ	-7.36643
▁a	-7.37163
▁នៅ	-7.37427
ទី	-7.37436
el	-7.37834
S	-7.38163
▁T	-7.38198
ច្រើន	-7.38484
ប្រព័ន្ធ	-7.38831
ar	-7.39237
កន្លែង	-7.39793
ដែលអ្នក	-7.4016
;	-7.40627
es	-7.40767
មើល	-7.4093
▁to	-7.41024
កម្មវិធី	-7.41038
គំនិត	-7.41195
P	-7.41984
ឈ្មោះ	-7.42363
ta	-7.43674
te	-7.43804
មិនមាន	-7.44148
ic	-7.44292
មិនមែនជា	-7.4432
na	-7.44724
▁O	-7.44748
ព្យាយាម	-7.45024
▁វាជា	-7.45219
ការងារ	-7.45429
ទ	-7.45645
នៅទីនោះ	-7.4625
ទីក្រុង	-7.46527
គួរតែ	-7.46867
ប្រទេស	-7.47129
យ	-7.47304
ក៏	-7.47345
ថ្ងៃ	-7.47503
នរណាម្នាក់	-7.47589
ដូច	-7.47608
ro	-7.47691
ចូលទៅក្នុង	-7.47703
ia	-7.48526
▁1	-7.48612
អ្វី	-7.48639
▁ឥឡូវនេះ	-7.48719
ផ្តល់	-7.49813
se	-7.50016
បន្ត	-7.50357
▁នៅក្នុង	-7.50627
ឃើញ	-7.50942
ដឹងថា	-7.50966
st	-7.50973
▁you	-7.52202
us	-7.52403
បុរស	-7.52608
ur	-7.52676
▁K	-7.53019
ជីវិត	-7.53105
រក្សា	-7.53272
▁ដែលជា	-7.53493
ធ្វើឱ្យ	-7.53597
▁2	-7.5411
វិធី	-7.54458
A	-7.55026
ណាមួយ	-7.55352
▁of	-7.5634
ិ	-7.56542
D	-7.56578
▁Ma	-7.56609
បន្ថែម	-7.56702
ប្រភេទ	-7.56709
▁បាទ	-7.57341
រហូតដល់	-7.57404
នៅតែ	-7.5855
អនុញ្ញាតឱ្យ	-7.59081
ll	-7.59387
បញ្ហា	-7.59523
▁បន្ទាប់មក	-7.60182
សម្រាប់ការ	-7.60274
to	-7.60344
▁D	-7.60449
I	-7.60512
8	-7.60647
ផ្លូវ	-7.6084
ពាក្យ	-7.60859
▁M	-7.60942
ផងដែរ។	-7.61287
▁ដោយ	-7.61545
ដ៏	-7.61598
ប្រហែល	-7.61614
ដឹង	-7.61692
1	-7.62384
ol	-7.62497
ា	-7.62712
អាហារ	-7.63334
ក្លាយជា	-7.6372
ច	-7.63838
ផ្ទះ	-7.64305
ណាស់	-7.64436
ed	-7.64771
បន្ទាប់ពី	-7.64994
អ	-7.65049
▁នាងបាន	-7.65721
M	-7.65901
ូ	-7.66061
ស្វែងរក	-7.66121
លោក	-7.66206
ពេល	-7.66316
ឆ្លងកាត់	-7.66528
ក្រុមហ៊ុន	-7.66571
កំណត់	-7.66884
ចូល	-7.67592
▁3	-7.67593
ជ្រើសរើស	-7.67746
ដូចគ្នា	-7.67867
ស្លាប់	-7.68179
មុនពេល	-7.6839
ប្រហែលជា	-7.68883
2	-7.68978
៖	-7.69815
មានអារម្មណ៍	-7.701
ដៃ	-7.70344
ck	-7.70488
តំបន់	-7.70529
▁នេះគឺជា	-7.70548
អាក្រក់	-7.70689
ត្រឹមត្រូវ	-7.70981
បង្ហាញ	-7.7102
da	-7.71049
ប្រាប់	-7.71359
at	-7.71583
is	-7.71722
រកឃើញ	-7.71906
ំ	-7.72088
រឿងនេះ	-7.72472
កើតឡើង	-7.72485
សម្លាប់	-7.73273
ពិភពលោក	-7.73422
ទំនាក់ទំនង	-7.73537
ឧបករណ៍	-7.73659
▁អ្នកអាច	-7.73661
ចុះ	-7.74193
▁N	-7.74479
▁p	-7.74823
▁ព្រោះ	-7.749
ធំ	-7.75121
នៅពេល	-7.75391
ហៅ	-7.75479
គ្រួសារ	-7.75525
▁and	-7.75608
លេង	-7.75821
il	-7.76213
សត្វ	-7.76625
ប្រសិនបើអ្នក	-7.76633
me	-7.76876
ជាតិ	-7.77224
E	-7.77707
▁ដើម្បី	-7.77707
ti	-7.7782
បើក	-7.78185
ad	-7.78207
ត្រឡប់មកវិញ	-7.78235
ណា	-7.78797
co	-7.78888
▁ទោះបីជា	-7.79324
ni	-7.79803
លក់	-7.80305
បិទ	-7.80329
▁អូ	-7.80335
am	-7.80368
មិនបាន	-7.80999
ចំនួន	-7.81174
មុខ	-7.81368
ry	-7.81767
បញ្ចប់	-7.81903
et	-7.82235
v	-7.82459
ែ	-7.82786
គិត	-7.82793
កុមារ	-7.83104
គ្រប់គ្រង	-7.8319
វ	-7.8334
ជួយ	-7.83413
ុ	-7.83518
ក្នុងឆ្នាំ	-7.83525
ច្បាប់	-7.83551
ផងដែរ	-7.83589
no	-7.84231
▁ត្រូវបាន	-7.84286
mo	-7.84763
ត្រូវតែ	-7.85234
T	-7.85315
▁ហើយខ្ញុំ	-7.85571
ho	-7.86288
ម្នាក់	-7.86379
េ	-7.86621
▁V	-7.86952
សួរ	-7.86978
បី	-7.87306
មានន័យថា	-7.87574
តាមរយៈ	-7.87908
វាជា	-7.88067
ចុងក្រោយ	-7.88165
ចូលចិត្ត	-7.8819
សូម្បីតែ	-7.88236
ce	-7.88241
មានការ	-7.88331
▁កុំ	-7.88331
4	-7.88502
ដែលយើង	-7.88781
គ្រប់គ្រាន់	-7.89152
មិត្តភក្តិ	-7.89213
ឡើងវិញ	-7.89441
ខ្ពស់	-7.90169
កម្រិត	-7.90215
R	-7.90596
▁ខ្ញុំមិន	-7.90598
របស់វា	-7.91048
នេះ។	-7.91121
▁/	-7.91162
ចង់បាន	-7.9127
ba	-7.91362
ពិតប្រាកដ	-7.91385
ផ្លាស់ប្តូរ	-7.91442
ve	-7.91612
បានធ្វើ	-7.91706
អាមេរិក	-7.91849
▁ក្នុង	-7.91909
សង្គម	-7.91954
ទិញ	-7.91955
តែ	-7.92004
សំខាន់	-7.92054
sh	-7.92359
▁10	-7.92432
▁n	-7.92522
កាត់បន្ថយ	-7.92553
ដី	-7.92559
de	-7.9258
អារម្មណ៍	-7.9268
យ៉ាង	-7.92761
ព	-7.92819
▁f	-7.9293
sa	-7.93063
▁គាត់បាន	-7.93658
▁អ្នកនឹង	-7.93783
▁H	-7.93991
▁នៅពេលដែល	-7.94284
ស្តាប់	-7.9431
មុន	-7.94401
ដែលខ្ញុំ	-7.94647
មកពី	-7.94907
ម្តងទៀត	-7.95093
9	-7.95233
ដើម	-7.9543
ដោយសារតែ	-7.95671
រវាង	-7.95675
▁in	-7.95817
▁ក្នុងឆ្នាំ	-7.95946
គិតថា	-7.96058
ម៉ោង	-7.96218
បានទេ	-7.96575
គ្មាន	-7.96672
▁Ca	-7.96683
▁ជាការប្រសើរណាស់	-7.96757
ke	-7.96854
ទៅកាន់	-7.97158
ភ្ជាប់	-7.97194
ទាំង	-7.97659
ir	-7.97934
▁មិនអីទេ	-7.98237
ភាគច្រើន	-7.98322
ប្រឆាំងនឹង	-7.98398
ត្រូវបានគេ	-7.98595
ly	-7.98706
▁ហេតុអ្វីបានជា	-7.98941
3	-7.99109
ទាំងនោះ	-7.99111
ធ្លាប់	-7.99115
vi	-7.99212
ការពារ	-7.9969
▁R	-7.99724
រាងកាយ	-8.00002
រដ្ឋ	-8.00131
ine	-8.0025
ប្រសិនបើ	-8.00346
ី	-8.00509
វិញ	-8.00597
ter	-8.00626
តែងតែ	-8.0066
សរសេរ	-8.00899
0	-8.01232
▁U	-8.01328
សម្រាប់អ្នក	-8.01563
ដែលត្រូវបាន	-8.01583
បន្តិច	-8.01669
នៅពេលដែល	-8.01727
▁គ្រាន់តែ	-8.01793
រស់នៅ	-8.01981
ការផ្លាស់ប្តូរ	-8.02115
ម៉ាស៊ីន	-8.02317
▁ប្រហែលជា	-8.02645
▁Ro	-8.02781
ម៉ា	-8.02831
គ	-8.02879
▁La	-8.03145
ie	-8.03173
ha	-8.03406
គ្នា	-8.0348
ga	-8.03564
ul	-8.03681
▁បន្ទាប់ពី	-8.0373
និយាយអំពី	-8.03856
កូន	-8.03918
តូច	-8.04161
N	-8.04184
មិនមែន	-8.04185
រថយន្ត	-8.04318
man	-8.04505
▁ទេ	-8.04864
សកម្មភាព	-8.05019
ka	-8.05127
ព័ត៌មាន	-8.05275
តម្លៃ	-8.05537
អ្វីមួយ	-8.05586
ទៅនឹង	-8.05603
នាំ	-8.05644
it	-8.06176
សំឡេង	-8.06269
▁ឧទាហរណ៍	-8.06393
ព្រះ	-8.06563
ផលិត	-8.06565
▁de	-8.06703
▁18	-8.06814
bo	-8.07089
ល្អបំផុត	-8.07114
▁4	-8.07215
ោ	-8.07363
▁គីឡូម៉ែត្រ	-8.07495
F	-8.07512
ng	-8.07567
ក៏ដោយ	-8.07869
ទាំងពីរ	-8.08116
ជាធម្មតា	-8.08267
di	-8.08415
▁នេះ	-8.08432
pe	-8.08626
ផ្តល់ឱ្យ	-8.08793
▁Mar	-8.0883
L	-8.08866
អនុវត្ត	-8.08872
▁W	-8.08949
ផ្ទាល់ខ្លួន	-8.09244
តិចតួច	-8.09399
សើច	-8.09443
▁be	-8.10031
ដែលអាច	-8.10121
go	-8.10186
កាត់	-8.1019
ខែ	-8.10553
វត្ថុ	-8.10608
B	-8.1061
▁ដូចជា	-8.1072
បែបនេះ	-8.10728
មើលទៅ	-8.10877
ow	-8.10881
រៀន	-8.1093
នូវ	-8.11156
កាន់តែ	-8.11381
un	-8.1141
as	-8.1185
▁និងការ	-8.11985
យ៉ាងខ្លាំង	-8.12545
ទៅជា	-8.12742
លេខ	-8.13015
ទោះជាយ៉ាងណាក៏ដោយ	-8.13115
ដ៏អស្ចារ្យ	-8.13306
ក្នុងរយៈពេល	-8.13351
ខ្លាំង	-8.13466
អ្វីដែលអ្នក	-8.13502
មើលឃើញ	-8.13738
សៀវភៅ	-8.1386
ក្មេងស្រី	-8.14079
▁L	-8.14101
ចំណុច	-8.14107
ច្រើនជាង	-8.14199
សិក្សា	-8.14276
▁ប៉ុន្តែខ្ញុំ	-8.14507
ដើរ	-8.14534
ក្នុងអំឡុងពេល	-8.14635
ព្យាបាល	-8.14685
សញ្ញា	-8.14712
-	-8.1473
wa	-8.1532
បាននិយាយថា	-8.15487
ca	-8.15539
ជម្រើស	-8.15615
ខ្លាំងណាស់	-8.16094
os	-8.16172
son	-8.16516
ហាក់ដូចជា	-8.16544
រូបភាព	-8.16553
ធម្មតា	-8.16665
ភាសា	-8.1678
ទម្រង់	-8.16782
ge	-8.16826
ពេក	-8.16837
ការព្យាបាល	-8.16932
នៅជុំវិញ	-8.1702
ជាញឹកញាប់	-8.17137
▁ហើយបន្ទាប់មក	-8.17174
▁Ba	-8.17408
ប្រជាជន	-8.17622
nd	-8.17765
▁សម្រាប់	-8.17902
va	-8.17912
O	-8.18086
នឹងមិន	-8.18424
រួមមាន	-8.18474
ph	-8.18639
គួរឱ្យ	-8.18769
▁b	-8.1878
ទាំងមូល	-8.18963
ជនជាតិ	-8.19019
បាញ់	-8.19281
សប្តាហ៍	-8.19309
▁J	-8.19638
ru	-8.19841
ភ្នែក	-8.19899
ប្រ	-8.20123
លា	-8.20162
រត់	-8.20216
ឈាម	-8.20518
រដ្ឋាភិបាល	-8.20637
▁do	-8.21001
id	-8.21407
ស្ថានភាព	-8.2153
បំបែក	-8.21823
ស្បែក	-8.21949
H	-8.22442
បង្កើន	-8.22545
ភ្លាមៗ	-8.22558
ផ្លាស់ទី	-8.226
បន្ថែមទៀត	-8.22624
ង់	-8.22863
▁យើងនឹង	-8.23243
▁St	-8.23268
▁20	-8.23429
មានអារម្មណ៍ថា	-8.23435
do	-8.23454
ដោះស្រាយ	-8.23678
ក្បាល	-8.23703
ឯកសារ	-8.24045
ចាប់អារម្មណ៍	-8.2411
អាល្លឺម៉ង់	-8.24474
ចាស់	-8.24496
G	-8.24743
▁Mi	-8.24865
ដ	-8.24996
one	-8.24997
mp	-8.25077
វា។	-8.25214
ខ្លះ	-8.2526
▁Mo	-8.2537
▁Re	-8.25405
▁Al	-8.25546
00	-8.25563
ទាប	-8.25863
ខ្ញុំនឹង	-8.25981
ពណ៌	-8.25982
រៀបចំ	-8.26239
ថាមពល	-8.26362
tic	-8.26623
hi	-8.27026
នីមួយៗ	-8.27065
ៗ	-8.27557
ដូច្នេះ	-8.2756
▁ហើយវា	-8.27578
ស្រឡាញ់	-8.27645
▁ហើយអ្នក	-8.27766
6	-8.2781
▁Bo	-8.281
im	-8.28205
ate	-8.28295
ឪពុក	-8.28618
▁5	-8.28736
ខ្សែ	-8.28742
ទទួលយក	-8.28764
▁អ្នកបាន	-8.28772
នេះគឺជា	-8.2894
គាំទ្រ	-8.2898
▁ខ្ញុំគិតថា	-8.29014
ci	-8.29094
ធម្មជាតិ	-8.29341
▁យើងបាន	-8.29349
សហរដ្ឋអាមេរិក	-8.2944
អាន	-8.29596
ថាតើ	-8.29613
អ្នកនឹង	-8.29681
យល់	-8.29745
▁ជាមួយនឹង	-8.29938
ian	-8.29995
ត្រជាក់	-8.3002
▁បុរស	-8.30071
▁–	-8.30072
កំពូល	-8.30681
ពីការ	-8.30718
រង់ចាំ	-8.31087
ជាអ្នក	-8.31163
ation	-8.31342
អ្នកអាច	-8.31428
bi	-8.31553
▁Le	-8.31612
▁The	-8.31641
op	-8.3185
po	-8.31925
រីករាយ	-8.31984
អាចត្រូវបាន	-8.32014
▁De	-8.32027
▁that	-8.32094
ton	-8.32157
នៅក្នុងប្រទេស	-8.32746
ម្តាយ	-8.32892
បន្ទប់	-8.32934
ក្រោយមក	-8.3297
ជើង	-8.33084
ថ្នាក់	-8.33108
មូលដ្ឋាន	-8.33112
▁can	-8.33118
កណ្តាល	-8.33354
▁Ha	-8.336
របស់ខ្លួន	-8.33648
ចិន	-8.34026
▁មិនមែន	-8.3417
ជុំវិញ	-8.34177
អំណាច	-8.34196
si	-8.3459
ជៀសវាង	-8.34647
កាន់តែច្រើន	-8.34657
ចុច	-8.34657
៉	-8.35019
7	-8.35044
ខ្ញុំបាន	-8.35135
ut	-8.35452
បានឃើញ	-8.35456
ហេតុផល	-8.35656
វាយ	-8.35874
ចិត្ត	-8.35912
រយៈពេល	-8.36159
▁Ho	-8.36197
ទូទៅ	-8.36316
▁Ch	-8.36587
▁នាក់	-8.36607
ការប្រកួត	-8.36809
បម្រើ	-8.3686
ប្រេង	-8.36958
កា	-8.3697
នេះត្រូវបាន	-8.37108
ក្នុងចំណោម	-8.37332
ធ្វើវា	-8.37355
មួយទៀត	-8.37539
សំណួរ	-8.37555
លុយ	-8.37814
ជំនួយ	-8.37838
នយោបាយ	-8.37887
▁8	-8.37912
ការប្រើប្រាស់	-8.38124
ក្រោម	-8.38136
ធ្ងន់ធ្ងរ	-8.38221
បញ្ឈប់	-8.38257
គាត់បាន	-8.38303
កន្លែងដែល	-8.38315
ស្ថិតនៅក្នុង	-8.38316
▁ខ្ញុំចង់	-8.38492
▁ទៅ	-8.38521
មែនទេ	-8.38576
▁your	-8.39097
ទាំងស្រុង	-8.39124
ទីពីរ	-8.3916
យប់	-8.39209
ផលិតផល	-8.39403
នេះគឺ	-8.39483
ខួរក្បាល	-8.39498
▁នោះ	-8.39634
អ្វីដែលខ្ញុំ	-8.40043
▁Li	-8.40138
▁ខណៈពេលដែល	-8.40255
អ្នកមិន	-8.40593
ត្រឡប់ទៅ	-8.41027
ot	-8.41101
បច្ចុប្បន្ន	-8.41142
ថាជា	-8.413
▁Na	-8.41318
ស្គាល់	-8.41397
សង្គ្រាម	-8.41644
ជាមួយនឹងការ	-8.41675
កុំព្យូទ័រ	-8.41772
កោសិកា	-8.42023
ខុស	-8.42035
ជិត	-8.42062
បានចាប់ផ្តើម	-8.42086
កំហុស	-8.42156
និយាយជាមួយ	-8.42165
▁Do	-8.42465
▁Ka	-8.42554
បំផ្លាញ	-8.43109
▁ខ្ញុំមាន	-8.43417
▁c	-8.43456
របស់ពួកគេ។	-8.43517
ខ្លួន	-8.43796
ide	-8.43884
តន្ត្រី	-8.43967
ការពិត	-8.44001
ួ	-8.44079
ទីតាំង	-8.44419
សុខភាព	-8.44721
សាកល្បង	-8.44754
វេជ្ជបណ្ឌិត	-8.44886
ឈប់	-8.44931
អាជីវកម្ម	-8.44939
um	-8.45118
ផលប៉ះពាល់	-8.4513
▁6	-8.45162
គំរូ	-8.45282
ver	-8.4534
ត្រូវបានប្រើ	-8.45377
▁គឺ	-8.45824
ផ្ទៃ	-8.45839
នៅពេលដែលខ្ញុំ	-8.46167
ជ	-8.46203
ទូរស័ព្ទ	-8.46295
ប៉ុណ្ណោះ។	-8.46593
របៀប	-8.46598
ពិត	-8.46625
ជួប	-8.46713
ពាក់កណ្តាល	-8.46747
ហាង	-8.46778
▁Me	-8.46928
▁Co	-8.46974
ក្រ	-8.47078
សាលា	-8.47317
ប្រាក់	-8.47454
▁15	-8.47814
អង្គុយ	-8.47828
បញ្ជូន	-8.47954
បេះដូង	-8.48097
▁ជា	-8.48205
ប្រយុទ្ធ	-8.48483
សិទ្ធិ	-8.48546
▁Ra	-8.48622
lu	-8.4863
សក់	-8.48733
ខ្សែភាពយន្ត	-8.48745
លើក	-8.48769
មួយដែល	-8.48832
មិត្ត	-8.49043
មកដល់	-8.49267
បួន	-8.49293
ac	-8.49365
ករណី	-8.4942
មាត់	-8.49443
▁Z	-8.49577
ទៀត	-8.49605
នៅពេលដែលអ្នក	-8.4969
ឈរ	-8.49743
បន្ទាប់	-8.49769
ឱកាស	-8.49808
សាងសង់	-8.50005
ប៉ុន្មាន	-8.50005
▁Ja	-8.50033
ស្ទើរតែ	-8.50135
ទៅក្នុង	-8.50205
ដែលមិន	-8.50229
ជាប់	-8.50241
my	-8.50286
ki	-8.50358
▁ប៉ុន្តែវា	-8.50476
សា	-8.50504
▁Pa	-8.50582
ចំណាយពេល	-8.50606
j	-8.50755
ster	-8.50854
ជាមួយគ្នា	-8.51099
អា	-8.51159
ក្រោយ	-8.51205
▁Lo	-8.51243
បញ្ជី	-8.51603
ក្មេងប្រុស	-8.51707
▁Be	-8.51743
ណ	-8.5183
ប្រាប់អ្នក	-8.519
សិល្បៈ	-8.51901
ថ្ម	-8.52065
ជាមួយអ្នក	-8.52095
ដោយគ្មាន	-8.52137
ang	-8.5217
នោះទេ	-8.52423
នៅថ្ងៃទី	-8.52623
od	-8.5265
▁Se	-8.52701
ប្រាំ	-8.52744
ទារក	-8.52847
ពីរបី	-8.52948
▁Sa	-8.52996
▁អ្នកមិន	-8.53027
គោលដៅ	-8.53074
▁Da	-8.53221
ណែនាំ	-8.53258
ប់	-8.53285
យ៉ាងហោចណាស់	-8.53325
ថាអ្នក	-8.53343
ផ	-8.53502
ដោយរបៀបណា	-8.53529
បញ្ចេញ	-8.53612
é	-8.53929
ទើបតែ	-8.54008
បាត់បង់	-8.54042
▁An	-8.54053
ប៉ូលីស	-8.54108
សម្រាក	-8.54119
▁g	-8.54242
▁12	-8.54299
ពន្លឺ	-8.54379
ញ៉ាំ	-8.54474
ant	-8.54567
▁Jo	-8.54628
ខាងក្រោម	-8.54635
បានក្លាយជា	-8.54697
ជឿថា	-8.54824
ហៅថា	-8.54881
ផ្សព្វផ្សាយ	-8.54886
ឧទាហរណ៍	-8.55004
លី	-8.55026
របៀបដែល	-8.55113
ជាលើកដំបូង	-8.55151
up	-8.55175
បច្ចេកវិទ្យា	-8.55353
ក់	-8.55569
be	-8.55824
រក	-8.55837
គេង	-8.55858
កូនប្រុស	-8.55932
ចូលរួម	-8.55945
មេ	-8.56061
អាយុ	-8.5618
វិធីសាស្រ្ត	-8.56264
ដង	-8.56398
ខ្យល់	-8.56447
គ្រូពេទ្យ	-8.5686
ថ្ងៃទី	-8.569
▁នោះជា	-8.57085
វិទ្យាសាស្ត្រ	-8.57098
ចន្លោះ	-8.57185
សម	-8.57271
គិតអំពី	-8.57276
V	-8.57281
ចលនា	-8.57304
ទិន្នន័យ	-8.57633
អង្គការ	-8.57752
សេដ្ឋកិច្ច	-8.57842
ចាក់	-8.57998
ប្រធានាធិបតី	-8.58053
នឹងមាន	-8.58093
ឆ្ងាយ	-8.58185
ld	-8.58214
tt	-8.58318
បទចម្រៀង	-8.58356
▁'	-8.58402
▁ខ្ញុំគ្រាន់តែ	-8.58488
▁7	-8.58583
កើនឡើង	-8.58698
មានភាព	-8.58702
នាងបាន	-8.58733
ent	-8.59127
ភ្លើង	-8.59172
ard	-8.59308
bu	-8.59391
ដែលពួកគេ	-8.59392
កើត	-8.59415
យឺត	-8.59537
ពិសេស	-8.59546
▁ហើយយើង	-8.59756
តាមដាន	-8.59843
ហ្គេម	-8.59907
អាចជា	-8.59957
▁ខ្ញុំកំពុង	-8.6013
យូរ	-8.60302
្រ	-8.60305
io	-8.60384
សារ	-8.60435
ជំនួស	-8.60453
ទូរទស្សន៍	-8.60519
បានទេ។	-8.60573
▁In	-8.60599
ដោយខ្លួនឯង	-8.60621
ប្រតិបត្តិការ	-8.60674
▁it	-8.60747
អ្នកកំពុង	-8.60873
ចម្លែក	-8.61075
បង្ហាញពី	-8.61737
ក្មេង	-8.61949
មានតម្លៃ	-8.61967
ko	-8.62206
សារធាតុ	-8.62315
▁30	-8.62428
ស៊ី	-8.6247
▁មនុស្ស	-8.62519
បង្កើតឡើង	-8.62601
អ្វីៗ	-8.62604
▁Po	-8.62604
▁Ta	-8.6262
បន្ទាត់	-8.62764
រោគសញ្ញា	-8.62798
▁ពួកគេបាន	-8.62826
he	-8.62876
ការសិក្សា	-8.63066
ត់	-8.63096
ហេតុអ្វីបានជា	-8.63123
pa	-8.63218
▁តើវា	-8.63232
កាំភ្លើង	-8.63314
មនុស្សដែល	-8.63383
ក្	-8.63491
មិនចាំបាច់	-8.63623
▁វានឹង	-8.63653
che	-8.63698
គឺថា	-8.637
pi	-8.63757
ថត	-8.63802
ឈ្នះ	-8.64221
របស់គាត់។	-8.64271
tra	-8.64336
ផ្សេងៗគ្នា	-8.6434
សូម	-8.64499
ធ្វើអ្វី	-8.64509
ធ	-8.64729
ពិចារណា	-8.64833
ប្រភព	-8.64879
om	-8.64894
អ្នកដទៃ	-8.64916
មានបញ្ហា	-8.64945
មិនដែល	-8.65005
តុ	-8.65135
ទសវត្សរ៍	-8.6546
▁ដោយសារតែ	-8.65593
បញ្ចូល	-8.65624
សមាជិក	-8.65654
នៅឯណា	-8.65673
ជំរុញ	-8.65692
លឿន	-8.65827
គ្រាប់	-8.65839
ion	-8.65858
dy	-8.65909
ទីផ្សារ	-8.65967
តែមួយ	-8.65985
▁9	-8.66015
les	-8.66224
អ្នកនិពន្ធ	-8.66239
នៅឆ្នាំ	-8.66257
ឡា	-8.66391
បានទទួល	-8.66432
▁re	-8.66533
▁មិន	-8.66698
ុក	-8.6671
ff	-8.66893
បានបង្កើត	-8.6699
វប្បធម៌	-8.67375
កាលពី	-8.67419
នោះទេ។	-8.67511
ៀ	-8.67606
▁me	-8.67718
បំពេញ	-8.67773
អ្នកមាន	-8.67859
ហានិភ័យ	-8.67971
ញ	-8.68069
ភាគខាងត្បូង	-8.68411
ការគ្រប់គ្រង	-8.6845
ធ្វើឱ្យវា	-8.68744
%	-8.68811
▁រួមទាំង	-8.68848
អ្វីដែលយើង	-8.6887
គម្រោង	-8.68905
ដោយសារ	-8.68942
នោះ។	-8.68961
លើសពី	-8.69045
▁មិនមាន	-8.69218
ផែនដី	-8.69299
▁ហេ	-8.6945
ផ្សេងទៀត។	-8.69639
ដឹកនាំ	-8.69658
▁Vi	-8.69695
▁Te	-8.69704
ឆ្មា	-8.6987
mina	-8.69897
per	-8.69989
ya	-8.70117
ers	-8.7014
ក្តៅ	-8.7015
▁នៅថ្ងៃទី	-8.70153
គោលបំណង	-8.70493
នៅកន្លែង	-8.70584
▁Ar	-8.70619
ពាក់	-8.70637
បង្រៀន	-8.70864
វីដេអូ	-8.70884
ចែករំលែក	-8.70902
អន្តរជាតិ	-8.70944
អឺរ៉ុប	-8.70971
គ្រាន់តែជា	-8.71235
អ្នកបាន	-8.7125
ចាកចេញពី	-8.71272
បង្ហាញថា	-8.7131
▁ជាពិសេស	-8.71467
gi	-8.71512
កាន់	-8.71539
ខ្លី	-8.71567
បានរកឃើញ	-8.71699
មានអាយុ	-8.71744
ច្បាស់លាស់	-8.7177
ពេញលេញ	-8.71795
គេ	-8.71961
សមត្ថភាព	-8.71965
ឆ្កែ	-8.7197
គេហទំព័រ	-8.72037
ផ្កាយ	-8.7242
yl	-8.72473
ep	-8.72619
ព្រឹត្តិការណ៍	-8.72662
សម្តែង	-8.72776
បទពិសោធន៍	-8.7292
ដោយប្រើ	-8.73106
គ្របដណ្តប់	-8.73115
កុំ	-8.73192
ab	-8.73402
រំខាន	-8.73452
សាកលវិទ្យាល័យ	-8.7353
ចងចាំ	-8.73554
ក្លឹប	-8.73711
យល់ព្រម	-8.73784
មានតែ	-8.73818
▁ខ្ញុំមានន័យថា	-8.73834
ខុសគ្នា	-8.739
ផ្ទាល់	-8.73921
ប្រវត្តិសាស្រ្ត	-8.7396
ជាទូទៅ	-8.74021
សាមញ្ញ	-8.74028
ស្ងួត	-8.74098
ផឹក	-8.74099
ភ្នំ	-8.74205
ក្នុងស្រុក	-8.74223
U	-8.74325
បដិសេធ	-8.74346
លក្ខខណ្ឌ	-8.74488
អត្ថបទ	-8.74488
ទុក	-8.746
ដកដង្ហើម	-8.74633
ពិនិត្យមើល	-8.74719
ទំនងជា	-8.7477
ខ្	-8.74794
ចាប់តាំងពី	-8.75058
សហគមន៍	-8.75199
បោះពុម្ព	-8.75351
ធ្លាក់ចុះ	-8.75379
សមុទ្រ	-8.75408
K	-8.75445
▁វាគឺជា	-8.75484
សាច់	-8.75689
វគ្គ	-8.75773
យើងអាច	-8.75802
▁ខ្ញុំជា	-8.76098
ដុត	-8.76132
ជឿ	-8.7624
▁គ្មាន	-8.76316
5	-8.76488
▁វាត្រូវបាន	-8.76596
ł	-8.76637
ឆ្កួត	-8.76782
លទ្ធផល	-8.76783
▁To	-8.76801
ពង្រីក	-8.76927
ber	-8.77036
▁ប៉ុន្តែអ្នក	-8.77108
នៅក្រោម	-8.77466
គ្រប់	-8.77563
Y	-8.77623
វាយប្រហារ	-8.77651
សុវត្ថិភាព	-8.77742
ធ្វើឱ្យអ្នក	-8.78182
យើងទាំងអស់គ្នា	-8.78182
ជាក់លាក់	-8.78192
▁អ្នកប្រហែលជា	-8.78244
▁អ្វីដែល	-8.78319
កងទ័ព	-8.78538
ហ្	-8.78603
មនុស្សម្នាក់	-8.78719
▁អ្នកដឹងថា	-8.78793
ទាញ	-8.78832
ងាយស្រួល	-8.7884
រឹង	-8.78871
ts	-8.78886
▁តើខ្ញុំ	-8.78956
lin	-8.79026
ចិញ្ចឹម	-8.79066
ភាពខុសគ្នា	-8.79133
ឹ	-8.79177
រុក្ខជាតិ	-8.79205
ប៉ះ	-8.79465
ប្រាកដថា	-8.79582
▁យើងមាន	-8.79659
ចាំបាច់	-8.79726
បុគ្គល	-8.79913
ទាក់ទាញ	-8.79951
and	-8.80049
ចាប់	-8.80061
ប្រុងប្រយ័ត្ន	-8.80063
ជួយសង្គ្រោះ	-8.80135
▁ខ្ញុំមិនអាច	-8.8016
tro	-8.80197
បុរាណ	-8.80251
▁នៅពេលដែលអ្នក	-8.8032
▁is	-8.80494
របស់មនុស្ស	-8.80561
mon	-8.80675
ឪពុកម្តាយ	-8.80785
ចាកចេញ	-8.80861
មនុស្សគ្រប់គ្នា	-8.80967
សម្រាប់ខ្ញុំ	-8.80995
អ្វីគ្រប់យ៉ាង	-8.8104
ការឈឺចាប់	-8.81062
▁យើងត្រូវ	-8.81111
ice	-8.81143
▁នាទី	-8.81208
▁So	-8.81248
ត្រី	-8.813
ជំនាញ	-8.81306
gu	-8.81339
លួច	-8.81459
ដេក	-8.81459
▁for	-8.8146
អំពីការ	-8.81478
ឡ	-8.81516
ប្រើប្រាស់	-8.81558
▁wo	-8.8157
der	-8.81609
/	-8.81848
ហ	-8.81898
ផែនការ	-8.81944
ប្រអប់	-8.82146
អាចមាន	-8.82481
tu	-8.82613
យន្តហោះ	-8.82718
នៅពេលអ្នក	-8.82787
បងប្រុស	-8.82798
lan	-8.82936
▁មើល	-8.82955
▁នោះហើយជា	-8.82969
▁17	-8.83002
em	-8.83101
អាចធ្វើបាន	-8.83114
យកចិត្តទុកដាក់	-8.83184
ខាងលើ	-8.83226
ភ	-8.83348
ist	-8.83453
▁Wi	-8.83576
ឆ្នាំមុន	-8.83596
កំដៅ	-8.83688
▁Go	-8.8377
▁He	-8.83852
ទំហំ	-8.83868
ឮ	-8.83954
chi	-8.8402
ដប់	-8.84038
បញ្ជា	-8.84078
យើងនឹង	-8.84163
ព្រៃ	-8.84227
ud	-8.84373
▁អ្នកមាន	-8.84468
តែមួយគត់	-8.84519
ធ្វើដំណើរ	-8.84559
បារាំង	-8.84606
ប្រពន្ធ	-8.84718
ទទួលស្គាល់	-8.84738
ជាការ	-8.84758
▁not	-8.84857
ប្រាប់ខ្ញុំ	-8.85092
មិនអីទេ	-8.85169
តា	-8.8526
ដែលត្រូវ	-8.85365
បញ្ជាក់	-8.85385
តិចជាង	-8.85417
តម្រូវការ	-8.85452
បោះ	-8.85553
មួយ។	-8.85585
ក្លិន	-8.8561
សម្អាត	-8.85643
មិនត្រូវបាន	-8.85649
សម្លៀកបំពាក់	-8.8569
ប្រាំមួយ	-8.8569
▁West	-8.85742
ran	-8.858
អាជីព	-8.85809
គ្រោះថ្នាក់	-8.85861
រួចហើយ	-8.85979
za	-8.86054
នៅក្នុងការ	-8.86098
ទ្វារ	-8.86114
▁Di	-8.86122
ដុល្លារ	-8.8632
▁នៅលើ	-8.86348
▁អ្នកគួរតែ	-8.86466
ស្អាត	-8.86482
ការិយាល័យ	-8.86528
▁តោះ	-8.86566
អគារ	-8.86686
ផ្ញើ	-8.86693
ty	-8.86761
កាសែត	-8.86926
ពាណិជ្ជកម្ម	-8.8703
▁Th	-8.87079
រចនាសម្ព័ន្ធ	-8.87211
ធាតុ	-8.87219
ភាពយន្ត	-8.87223
ខ្ញុំអាច	-8.87334
han	-8.87335
បណ្តាញ	-8.87449
▁Ju	-8.87455
ដើម្បីទទួលបាន	-8.87466
pp	-8.87535
អតីត	-8.87748
▁អ្នកត្រូវតែ	-8.87811
▁16	-8.8795
មេរោគ	-8.87971
ទៅលើ	-8.87989
នាទី	-8.88091
ill	-8.88223
ប្រឆាំង	-8.88426
ភ័យខ្លាច	-8.88497
ត្រៀមខ្លួន	-8.88586
tri	-8.88686
ព្រោះ	-8.88737
យ៉ាងឆាប់រហ័ស	-8.8879
▁វាជាការ	-8.88862
រួមបញ្ចូល	-8.88872
▁co	-8.88888
ក្រហម	-8.88928
ស្នាក់នៅ	-8.88953
mb	-8.89019
ជាពិសេស	-8.89084
▁di	-8.89101
សកម្ម	-8.89192
ខាងក្រោយ	-8.89259
អ្នកណា	-8.89393
ប៉ូឡូញ	-8.89434
បែងចែក	-8.89529
ther	-8.8954
រក្សាទុក	-8.89736
ម្តង	-8.89849
ប្រសិនបើយើង	-8.89858
ពួកវា	-8.89994
ប្រធានបទ	-8.90012
ធ្លាក់	-8.90119
បានស្លាប់	-8.90227
W	-8.90303
▁Bu	-8.90317
ជិះ	-8.90356
ទាក់ទងនឹង	-8.90383
40	-8.90508
ពន្យល់	-8.90561
នឹងត្រូវបាន	-8.90921
ប្រភេទនៃ	-8.90985
របស់យើង។	-8.91026
សភា	-8.91041
កំណែ	-8.91106
ធ្វើដូច្នេះ	-8.9117
អាកប្បកិរិយា	-8.9119
ជប៉ុន	-8.91362
អាវ	-8.91417
▁he	-8.9149
រន្ធ	-8.91526
ដោយការ	-8.91679
ជន	-8.9172
ចម្ងាយ	-8.91778
▁ព្យាយាម	-8.91862
នឹងក្លាយជា	-8.91891
ផ្តោតលើ	-8.91977
ឈឺចាប់	-8.92003
សុំទោស	-8.92071
មានប្រសិទ្ធភាព	-8.92086
កម្លាំង	-8.92149
ពួកគេបាន	-8.92157
សម្ភារៈ	-8.92158
ស្រ	-8.92209
តើ	-8.92313
ភាពតានតឹង	-8.9239
ខឹង	-8.92412
ទម្ងន់	-8.92412
ley	-8.92437
▁Ne	-8.92576
ស្មុគស្មាញ	-8.92582
▁with	-8.92587
▁ហើយពួកគេ	-8.92603
ទាមទារ	-8.92667
ល្បឿន	-8.92683
mu	-8.92707
▁Voivodeship	-8.92709
ស្ថិតនៅ	-8.92745
0,000	-8.92748
▁ត្រូវប្រាកដថា	-8.92759
ដើម្បីជួយ	-8.92826
ជំងឺមហារីក	-8.92857
▁ចាប់តាំងពី	-8.92929
ong	-8.93014
ទៀតទេ	-8.93037
សេវាកម្ម	-8.93241
ana	-8.9326
គណបក្ស	-8.93264
រាប់	-8.93264
សតវត្សទី	-8.93386
ក៏ដោយ។	-8.93411
អាចជួយ	-8.93499
សិស្ស	-8.93521
ចាំ	-8.9357
ខ្មៅ	-8.93622
ទម្លាក់	-8.93649
អតិថិជន	-8.93692
ron	-8.93719
រី	-8.9373
▁ខ្ញុំដឹងថា	-8.93818
ប៉ុណ្ណោះទេ	-8.93878
ity	-8.94036
ពិនិត្យ	-8.94057
សាធារណៈ	-8.94089
▁but	-8.94223
មានសារៈសំខាន់	-8.9429
ថ្ងៃនេះ	-8.94364
ឈានដល់	-8.94369
▁Car	-8.9458
មិនគួរ	-8.94602
ទឹកកក	-8.94638
ក៏បាន	-8.94662
ja	-8.94711
▁តាមពិត	-8.94741
▁Pi	-8.94772
នៅពេលដែលយើង	-8.9503
មួយក្នុងចំណោម	-8.95034
នៅទីក្រុង	-8.95059
▁X	-8.95123
▁(19	-8.95142
លក្ខណៈ	-8.95176
វិជ្ជមាន	-8.95203
▁តើយើង	-8.95214
ដក	-8.95376
បើកចំហ	-8.95381
ភូមិ	-8.95775
wi	-8.95794
ច្រើនពេក	-8.9583
ដោយផ្ទាល់	-8.95882
ះ	-8.95926
រឹងមាំ	-8.95951
▁Je	-8.9608
▁ដូចដែល	-8.96116
II	-8.96126
ណាស់។	-8.96433
ហោះហើរ	-8.96435
ល្ងង់	-8.96479
របស់ខ្ញុំ។	-8.96625
▁និងជា	-8.96665
ឈឺ	-8.96707
វាល	-8.96736
cy	-8.96819
ឧស្សាហកម្ម	-8.96878
ថ្លៃ	-8.96922
ag	-8.96978
សុំ	-8.97004
នេះជា	-8.97058
▁No	-8.9709
ភ្លេច	-8.97188
▁st	-8.97403
ស្មោះត្រង់	-8.97411
លំដាប់	-8.975
គោ	-8.97503
ពិបាក	-8.97563
ជួរ	-8.97589
▁ដូច្នេះអ្នក	-8.97602
សរុប	-8.97634
ទទួល	-8.97793
ដឹកជញ្ជូន	-8.97903
ស៊េរី	-8.98127
▁វាមិន	-8.98177
មិនចង់	-8.98264
សម្លឹងមើល	-8.98293
ace	-8.98302
អ្នកជំងឺ	-8.98321
តូចមួយ	-8.98327
gen	-8.98352
▁នៅភាគខាងជើង	-8.98405
50	-8.98469
▁តើអ្នកអាច	-8.98501
សាច់ដុំ	-8.98513
សាសនា	-8.98552
ដៃគូ	-8.98613
បរិមាណ	-8.98622
វិនាទី	-8.98667
សម្រេចចិត្ត	-8.98678
▁San	-8.98716
ខាងក្នុង	-8.98719
ប្តូរ	-8.98757
រីកចម្រើន	-8.9876
ub	-8.98782
ព្រះអាទិត្យ	-8.98783
ជារៀងរាល់ថ្ងៃ	-8.98829
អូ	-8.98838
▁Su	-8.99084
កោតសរសើរ	-8.9921
មិនត្រឹមតែ	-8.99223
ny	-8.99283
ទាំងអស់នេះ	-8.99312
▁11	-8.99336
ជំហាន	-8.99574
▁Bar	-8.99611
ប្រមូលផ្តុំ	-8.99619
ខាងក្រៅ	-8.99675
អត្ថប្រយោជន៍	-8.99756
com	-8.99761
ប្រតិកម្ម	-8.99802
ដ៏ធំ	-8.99827
ត្រូវធ្វើ	-8.99873
ដែលកំពុង	-8.99883
បើកបរ	-8.99939
ជួបប្រទះ	-8.99985
របស់នាង។	-9.00046
យោធា	-9.00214
ពីរនាក់	-9.00335
▁យើងមិន	-9.0043
មុខងារ	-9.00443
បានបញ្ចប់	-9.00447
ដា	-9.00454
នេះបាន	-9.00644
▁pro	-9.00681
បណ្តាលឱ្យ	-9.00682
ina	-9.00707
ហ្សែន	-9.00765
មី	-9.00856
ភាគរយ	-9.0097
ក៏អាច	-9.01035
▁Ni	-9.01041
បាល់	-9.01083
ដំណោះស្រាយ	-9.0132
បច្ចេកទេស	-9.01366
តូចៗ	-9.01433
ass	-9.01485
▁100	-9.01545
នាក់	-9.01595
sta	-9.01669
mer	-9.01686
▁Ga	-9.01723
ស្រដៀងគ្នា	-9.01831
ទីបំផុត	-9.01892
▁សូមមើល	-9.01895
បុគ្គលិក	-9.01941
តាមវិធី	-9.02142
su	-9.02238
ខាងមុខ	-9.02277
ox	-9.02325
សម័យ	-9.02352
▁សូមអរគុណ	-9.02353
ក្នុងនាមជា	-9.02397
ler	-9.02405
ពេលខ្លះ	-9.02475
ពួកគេកំពុង	-9.02493
សង្ស័យ	-9.02532
▁វាអាច	-9.02548
ect	-9.02565
▁14	-9.02656
បទ	-9.02659
មើលទៅដូចជា	-9.02723
ទុកឱ្យ	-9.02798
▁អ្នកកំពុង	-9.02838
ប្រធាន	-9.02855
ឆ្អឹង	-9.02996
▁13	-9.03045
▁Si	-9.03051
បានកើតឡើង	-9.03074
las	-9.03086
សក្តានុពល	-9.03144
ប្រមូល	-9.03259
ប្តី	-9.0338
រុស្ស៊ី	-9.0338
▁ប្រើ	-9.03421
លោត	-9.03514
អនុ	-9.03517
fi	-9.03544
shi	-9.03562
ប៉ុណ្ណា	-9.03617
ren	-9.03658
ធំជាង	-9.03826
របួស	-9.03926
ទន្លេ	-9.03997
ap	-9.04041
▁ខ្ញុំអាច	-9.04072
au	-9.04125
▁Pe	-9.04136
អស់រយៈពេល	-9.04193
តារាសម្តែង	-9.042
ok	-9.04222
ភស្តុតាង	-9.04236
រាងកាយរបស់អ្នក	-9.04236
by	-9.04461
ប៉ុណ្ណោះ	-9.04486
អាចមើលឃើញ	-9.04518
រដូវកាល	-9.04672
ប្រទេសប៉ូឡូញ	-9.04699
ការអនុវត្ត	-9.047
ight	-9.04755
▁El	-9.04759
yn	-9.04776
use	-9.04807
នៅក្នុងតំបន់	-9.0483
ig	-9.04933
ឱ្យអ្នក	-9.04947
លូតលាស់	-9.04954
ទទួលខុសត្រូវ	-9.04954
▁ប្រទេស	-9.05004
ស្នើសុំ	-9.05057
តុលាការ	-9.05147
ភាគ	-9.05155
ត្រូវបានគេហៅថា	-9.05233
អាស្រ័យលើ	-9.05259
ប៉ា	-9.05291
មជ្ឈមណ្ឌល	-9.05387
ងងឹត	-9.05387
ai	-9.05388
នៅខាងក្រៅ	-9.05392
▁នេះជា	-9.05396
រូប	-9.05498
វ័យក្មេង	-9.05507
ពីរបៀបដែល	-9.05638
ដែលខ្ញុំបាន	-9.05695
ពួកគេអាច	-9.05744
▁con	-9.05782
ជាងនេះ	-9.05787
អវិជ្ជមាន	-9.05924
ចង់ឱ្យ	-9.06005
ចេញផ្សាយ	-9.06064
▁យក	-9.06074
ou	-9.06144
way	-9.06166
ជាមូលដ្ឋាន	-9.06206
hu	-9.06396
art	-9.06464
du	-9.06468
មានសុវត្ថិភាព	-9.06488
▁ខ្ញុំពិតជា	-9.06498
ទៅដល់	-9.06643
ដែលគាត់	-9.06695
ដែក	-9.06699
ផ្សេងគ្នា	-9.06712
ប្រទេសចិន	-9.06915
▁Gu	-9.06922
▁អ្នកដឹង	-9.06923
ស្រុក	-9.06987
សរសៃប្រសាទ	-9.06993
▁We	-9.07001
tin	-9.07007
cho	-9.07044
សហ	-9.07056
ប្រសិនបើវា	-9.0706
អាហ្រ្វិក	-9.07092
រៀងរាល់	-9.07108
រចនា	-9.07152
ell	-9.0717
មាស	-9.07178
▁2016	-9.07201
▁នៅឆ្នាំ	-9.07238
fa	-9.07273
ដែលនឹង	-9.07386
ព្រឹក	-9.07392
min	-9.07403
ផ្សេងៗ	-9.07413
▁ដូច្នេះខ្ញុំ	-9.07414
ការឆ្លងមេរោគ	-9.07524
ob	-9.07625
▁ភាគខាងលិច	-9.07714
រស់រានមានជីវិត	-9.07781
លើកទឹកចិត្ត	-9.07781
កោះ	-9.07782
▁ខ្ញុំត្រូវ	-9.07831
ប្រាប់ខ្ញុំថា	-9.07873
we	-9.07884
ភ្ញាក់ផ្អើល	-9.0797
មន្ទីរពេទ្យ	-9.07979
ner	-9.08019
ដោយមិន	-9.0807
land	-9.08105
▁មែនទេ	-9.0815
ស្រាវជ្រាវ	-9.08279
▁ca	-9.08341
នៅខាងក្នុង	-9.08372
រង្វាន់	-9.08376
កិច្ចព្រមព្រៀង	-9.08526
អនាគត	-9.0856
▁sp	-9.08685
នៅជិត	-9.088
ល្អឥតខ្ចោះ	-9.08925
ជួសជុល	-9.08975
តួនាទី	-9.08996
ទ្រព្យសម្បត្តិ	-9.09075
រាល់	-9.09151
ផ្តល់ជូន	-9.09226
សរីរាង្គ	-9.09376
កត់សម្គាល់	-9.09394
if	-9.09395
លើកឡើង	-9.09417
មិនដឹង	-9.09456
ធ្មេញ	-9.09473
ខ្លាច	-9.09525
បំណែក	-9.09527
យ៉ាងដូចម្តេច	-9.09595
កញ្ចក់	-9.09628
▁Pomeranian	-9.09628
ជាមនុស្ស	-9.0964
ព្រំដែន	-9.0988
▁we	-9.09962
ើ	-9.09993
ស្ងប់ស្ងាត់	-9.10016
ទំនិញ	-9.10031
សំណាង	-9.10031
▁Mu	-9.10058
វៀតណាម	-9.10082
▁Wa	-9.10137
ការយល់ដឹង	-9.10171
នៅពីក្រោយ	-9.10192
▁Ri	-9.10402
្យ	-9.10474
▁អ្នកដឹងទេ	-9.10495
ខាងត្បូង	-9.10584
▁You	-9.1059
បង្ក	-9.10629
រូបថត	-9.10641
រស់នៅក្នុង	-9.10698
ដំណាក់កាល	-9.10742
រាំ	-9.1081
ទីបី	-9.11042
ខណៈពេលដែល	-9.11073
▁2015	-9.11368
▁ក៏ដូចជា	-9.11453
គុណ	-9.11528
ភ្នាក់ងារ	-9.11549
ស្រស់ស្អាត	-9.11568
វាយតម្លៃ	-9.11578
សំបុត្រ	-9.11579
រុករក	-9.11611
car	-9.11638
ជ្រៅ	-9.11714
យើងមាន	-9.11765
សព្វថ្ងៃនេះ	-9.11766
សកល	-9.11771
ពានរង្វាន់	-9.11792
គួរ	-9.11793
▁ពេលខ្លះ	-9.11861
est	-9.11936
▁ពួកគេនឹង	-9.12135
បរិភោគ	-9.12178
ផ្ទុក	-9.12178
▁ព្រោះវា	-9.12219
ment	-9.12359
បរទេស	-9.12385
បង់ប្រាក់	-9.124
សម្ងាត់	-9.12489
ក្រដាស	-9.12541
អភិវឌ្ឍន៍	-9.12574
នាំឱ្យមាន	-9.1259
fe	-9.12653
អ្នកប្រើប្រាស់	-9.12686
ew	-9.12758
ការសន្ទនា	-9.12817
▁លាន	-9.12854
នៅសហរដ្ឋអាមេរិក	-9.12936
ec	-9.12959
▁វាមិនមែនជា	-9.13057
នៅពេលដែលពួកគេ	-9.13079
ស្រាល	-9.13106
នៃប្រទេស	-9.13113
រូបរាង	-9.13156
▁John	-9.13222
អេក្រង់	-9.13269
ចែកចាយ	-9.13321
អាវុធ	-9.13374
ខែមីនា	-9.13426
សីតុណ្ហភាព	-9.13635
ដៃរបស់អ្នក	-9.13666
រារាំង	-9.13688
gr	-9.13709
res	-9.13796
រួមគ្នា	-9.13831
ដើម្បីបង្កើត	-9.13868
tion	-9.13879
ស្រុករដ្ឋបាលនៃ	-9.13898
60	-9.13929
ហាត់ប្រាណ	-9.14003
កីឡា	-9.14003
▁so	-9.1404
ជួល	-9.14056
ការចំណាយ	-9.14061
▁តើអ្នកនឹង	-9.14102
▁2014	-9.14119
បណ្តាលឱ្យមាន	-9.14386
mm	-9.14417
វេជ្ជសាស្រ្ត	-9.14425
ដូចជាការ	-9.14554
បាត់	-9.14568
ការវាយប្រហារ	-9.14594
ps	-9.14659
▁50	-9.14673
▁(20	-9.14756
nk	-9.14893
ខិតខំប្រឹងប្រែង	-9.14902
សប្បាយចិត្ត	-9.14904
ess	-9.14932
ak	-9.14981
កិត្តិយស	-9.15008
គ្មានអ្វី	-9.15163
ជញ្ជាំង	-9.15167
ប៉ុន្តែ	-9.15208
ការភ័យខ្លាច	-9.15239
រីករាលដាល	-9.15325
ដើមឈើ	-9.15351
មកទីនេះ	-9.15367
សំ	-9.15393
បាននិយាយ	-9.15512
ការធ្វើតេស្ត	-9.15606
ចាត់ទុក	-9.15606
ick	-9.1562
ផ្តល់ឱ្យខ្ញុំ	-9.15623
ចូលរួមក្នុង	-9.15633
ឡើយ	-9.15688
ផ្កា	-9.15698
ត្រូវបានរកឃើញ	-9.1575
▁as	-9.15775
▁យើងកំពុង	-9.16034
▁យើងអាច	-9.16041
ជីវ	-9.16077
ជាក់ស្តែង	-9.1613
គាត់កំពុង	-9.16191
លាយ	-9.16284
កំណើត	-9.16289
ក្រៅ	-9.16315
ទ្រឹស្តី	-9.16399
ដំឡើង	-9.16399
មហាវិទ្យាល័យ	-9.16399
ប្រកាស	-9.16423
tal	-9.16479
សេរីភាព	-9.16493
រស់	-9.16504
តួអង្គ	-9.16615
មិនទាន់	-9.16788
▁រដ្ឋ	-9.16924
ze	-9.16962
ពាក់ព័ន្ធនឹង	-9.17024
ស្តេច	-9.17102
អក្សរ	-9.17106
ត្រង់	-9.17119
របបអាហារ	-9.17218
▁2012	-9.17282
វែង	-9.17347
អាកាសធាតុ	-9.17439
▁2017	-9.17496
▁+	-9.17535
នៅតែមាន	-9.17614
ដឹងពី	-9.17662
គំនូរ	-9.17701
ដែលអ្នកបាន	-9.17704
ច្បាស់	-9.17915
▁គឺជាភូមិមួយ	-9.17975
យកវា	-9.18007
so	-9.18162
កៅអី	-9.18194
vo	-9.1823
▁Ko	-9.18339
ឱ្យខ្ញុំ	-9.18507
កាត	-9.18525
ting	-9.18564
▁Har	-9.18641
ដែលអាចធ្វើទៅបាន	-9.18735
lic	-9.18736
ដែរ	-9.18799
gg	-9.18959
ចាប់ខ្លួន	-9.18997
▁have	-9.19174
▁2011	-9.19204
ance	-9.19248
បរិស្ថាន	-9.19297
rin	-9.19405
ski	-9.19463
អស្ចារ្យ	-9.19553
$	-9.19575
រាយការណ៍	-9.19595
ការលំបាក	-9.19623
អាល់ប៊ុម	-9.19742
ឯកជន	-9.19742
ប្រសិនបើខ្ញុំ	-9.19777
បង្អួច	-9.19798
អនុញ្ញាតឱ្យខ្ញុំ	-9.19806
ven	-9.19882
បន្ទាប់ពីការ	-9.19883
que	-9.19922
lar	-9.19937
កិច្ច	-9.2002
▁Fi	-9.20096
sk	-9.20196
បុរសម្នាក់	-9.20207
វិញ។	-9.20267
នៅក្នុងបន្ទប់	-9.20334
ចូលរួមជាមួយ	-9.20337
▁សូមអញ្ជើញមក	-9.20357
act	-9.20367
ពីមុន	-9.20368
នោះគឺ	-9.20403
អត្រា	-9.20438
ម៉ែត្រ	-9.20467
នៅផ្ទះ	-9.20503
ចុង	-9.20555
កាន់កាប់	-9.20638
ពេញចិត្ត	-9.2071
ចំណាយ	-9.2075
ចាន	-9.20751
យើងកំពុង	-9.2085
▁គ្មាននរណាម្នាក់	-9.20874
ដែលអ្នកអាច	-9.20903
ចង់ឱ្យអ្នក	-9.2092
កំណត់ត្រា	-9.20944
អាស៊ីត	-9.20985
ចំណងជើង	-9.21041
អ្វីខ្លះ	-9.21085
ដ៏ល្អ	-9.21095
▁គាត់នឹង	-9.21139
ខែកញ្ញា	-9.21164
តែម្នាក់ឯង	-9.21202
មួយឆ្នាំ	-9.21272
▁វាក៏	-9.21292
▁2010	-9.21396
ខែតុលា	-9.21428
▁ភាគខាងជើង	-9.21488
ប៉ះពាល់ដល់	-9.21743
ger	-9.21784
ham	-9.21817
í	-9.21882
បរិយាកាស	-9.21882
▁Man	-9.21912
អនុញ្ញាតឱ្យអ្នក	-9.21936
ស្បែកជើង	-9.21939
សន្តិសុខ	-9.21996
ច្រមុះ	-9.22053
កុហក	-9.22053
នៅឡើយទេ	-9.22069
ដើម្បីធ្វើ	-9.22089
បាល់ទាត់	-9.22231
ការកើនឡើង	-9.22317
ល់	-9.22385
នាំយក	-9.22459
វត្តមាន	-9.22468
អ្នកជំនាញ	-9.22513
រួម	-9.22533
▁25	-9.22572
ការសម្រេចចិត្ត	-9.22579
តើអ្នក	-9.22656
▁ដូច្នេះតើ	-9.22795
á	-9.22798
តំណាងឱ្យ	-9.22907
គណនី	-9.22913
មូលហេតុ	-9.22932
ការព្រួយបារម្ភ	-9.22954
▁Hi	-9.22955
ខែមិថុនា	-9.22973
ប្រកួតប្រជែង	-9.23044
លើស	-9.23156
អភិវឌ្ឍ	-9.23158
ថ	-9.23204
ការបង្កើត	-9.2324
ស្រី	-9.23353
▁Ke	-9.23363
ផ្ទុយទៅវិញ	-9.23374
វិស័យ	-9.23663
ពណ៌ស	-9.23664
ខ្ញុំកំពុង	-9.23753
និយម	-9.23767
ផ្គត់ផ្គង់	-9.23837
ast	-9.2386
គេស្គាល់ថាជា	-9.23872
មានប្រយោជន៍	-9.23944
▁អញ្ចឹង	-9.24016
ុង	-9.24022
ចំពោះអ្នក	-9.24057
អ៊ីនធឺណិត	-9.2407
ការស្រាវជ្រាវ	-9.24125
ky	-9.24144
អង់គ្លេស	-9.24178
ផ្លែឈើ	-9.24186
ជាការពិតណាស់	-9.24243
យុត្តិធម៌	-9.24244
សរសៃឈាម	-9.2426
ជាផ្នែកមួយនៃ	-9.24339
លេចឡើង	-9.24419
ផ្លូវភេទ	-9.24519
ib	-9.24531
ខែកក្កដា	-9.24536
រំពឹងថា	-9.24712
▁2013	-9.24724
ive	-9.24859
មិនធ្លាប់	-9.24941
ពួកគេនឹង	-9.24973
គូរ	-9.25075
មនុស្សជាច្រើន	-9.25091
▁Sh	-9.25121
លែង	-9.25179
ចម្លើយ	-9.25299
លំនាំ	-9.25299
▁អ្នកមិនអាច	-9.25304
អាហ្វ្រិក	-9.25417
ទាក់ទង	-9.2553
ខ្ញុំចង់	-9.25588
ប្រឈមមុខនឹង	-9.25594
?"	-9.25644
ក្រីក្រ	-9.25772
សម្ពាធ	-9.25803
▁Cha	-9.25841
uc	-9.25855
▁ដូច្នេះយើង	-9.2593
ខែមករា	-9.25949
នី	-9.26002
▁New	-9.26043
កាហ្វេ	-9.26068
ការរចនា	-9.2607
▁Gra	-9.26087
មានឥទ្ធិពល	-9.26146
កាលបរិច្ឆេទ	-9.26246
នាវា	-9.26293
តំណែង	-9.26317
មិនដឹងថា	-9.26336
ដើម្បីការពារ	-9.26345
នរណាម្នាក់ដែល	-9.26368
ដែលប្រើ	-9.26413
អះអាងថា	-9.26466
▁Lu	-9.26484
គ្នាទៅវិញទៅមក	-9.26602
▁ex	-9.26605
ធុង	-9.26621
ទំព័រ	-9.26663
ប្អូនស្រី	-9.26672
▁=	-9.2669
ដើម្បីធ្វើឱ្យ	-9.26827
រិះគន់	-9.26902
000	-9.26964
នៅក្បែរ	-9.2702
បានយក	-9.27077
គីមី	-9.27124
សង្ឃឹមថា	-9.2722
▁ខ្ញុំមិនបាន	-9.2723
មធ្យម	-9.27266
ការណែនាំ	-9.27307
Q	-9.27373
បោះឆ្នោត	-9.27391
zi	-9.27498
ចម្លង	-9.27503
ku	-9.27557
បាក់តេរី	-9.27563
ទទួលទាន	-9.27563
ផ្លូវចិត្ត	-9.27567
ម៉ូ	-9.27571
ឪពុករបស់ខ្ញុំ	-9.27604
▁Ad	-9.27687
▁2018	-9.27702
ដាច់ដោយឡែក	-9.27804
▁Sp	-9.2784
យល់ពី	-9.27907
▁Con	-9.27971
មតិ	-9.28131
zo	-9.28198
ខ្ញុំគិតថា	-9.28295
▁Pro	-9.28377
យោង	-9.28525
ដាក់វា	-9.2857
កំពុងព្យាយាម	-9.28598
ជានរណា	-9.28681
ore	-9.28732
ខូច	-9.28776
ចក្រភពអង់គ្លេស	-9.28779
ខែសីហា	-9.28837
យ៉ាងណា	-9.28848
ជាមួយខ្ញុំ	-9.28873
▁នាងគឺជា	-9.28984
គូ	-9.2905
គាត់នឹង	-9.29144
សំខាន់ៗ	-9.29181
ភព	-9.29207
ឆាប់	-9.29265
ភ្លឺ	-9.29326
▁ប្រសិនបើអ្នកមាន	-9.2936
ros	-9.29387
ចាប់យក	-9.29444
▁Szczecin	-9.29572
ប្រូតេអ៊ីន	-9.29633
ឱសថ	-9.29633
▁តើអ្នកណា	-9.29714
បង្វិល	-9.29756
▁Ben	-9.29795
អាពាហ៍ពិពាហ៍	-9.29818
qui	-9.29856
ខែមេសា	-9.29941
ពិពណ៌នា	-9.29961
នៅពេលណា	-9.29982
ស្លាក	-9.30003
អ្នកទាំងអស់គ្នា	-9.30025
បានល្អ	-9.30046
អនុម័ត	-9.30127
លំបាក	-9.30147
កំពុងធ្វើ	-9.30208
ដើម្បីរក្សា	-9.30236
កសាង	-9.3025
មូលនិធិ	-9.30312
កិច្ចការ	-9.30364
ត្រូវបានដាក់	-9.30372
សម្រេចបាន	-9.30385
របស់វា។	-9.30385
នាយក	-9.30414
den	-9.30597
ric	-9.30606
▁ប្រសិនបើខ្ញុំ	-9.30737
អ៊ីតាលី	-9.30747
តារា	-9.30753
end	-9.30777
▁Ge	-9.30801
ទំនុកចិត្ត	-9.30809
ism	-9.30852
ទុកចិត្ត	-9.30876
str	-9.3103
ធនាគារ	-9.31058
សោកស្តាយ	-9.31058
▁2009	-9.31139
oc	-9.31285
ស្តង់ដារ	-9.31293
ដ៏សំខាន់	-9.31296
ថេរ	-9.31308
ប្រវត្តិ	-9.31359
ស្នេហា	-9.31433
មេដឹកនាំ	-9.31469
កត្តា	-9.31684
សមាគម	-9.31684
ម្ចាស់	-9.31763
ល្អណាស់	-9.31944
អរគុណ	-9.32113
ឧស្ម័ន	-9.32125
ណាមួយដែល	-9.32206
10	-9.32238
ឆ្លាតវៃ	-9.32251
ខែវិច្ឆិកា	-9.32251
អ្នករាល់គ្នា	-9.3227
▁are	-9.32273
ក្រៅពី	-9.32339
ភាគច្រើននៃ	-9.32522
▁24	-9.32608
▁2004	-9.32651
នៅថ្ងៃ	-9.32741
ម្រាមដៃ	-9.32757
ជាអ្វី	-9.32882
ទីមួយ	-9.32951
ទប់ស្កាត់	-9.33012
ជនរងគ្រោះ	-9.33268
▁ម៉ែត្រ	-9.33397
ផ្តល់ឱ្យអ្នកនូវ	-9.33478
▁វាមាន	-9.33535
our	-9.33587
ling	-9.33944
ទាញយក	-9.33988
▁Col	-9.34093
គោរព	-9.34107
បង្ហាញខ្លួន	-9.3412
នៅពេលដែលវា	-9.34179
ហិរញ្ញវត្ថុ	-9.34293
ins	-9.34324
▁Fa	-9.34338
ប្រសិនបើពួកគេ	-9.3437
tan	-9.34402
អ្វីដែលពួកគេ	-9.34405
កើតថ្ងៃទី	-9.34462
▁2008	-9.34522
ពែង	-9.34615
សមនឹង	-9.3475
ប្រាំបី	-9.34786
ធ្វើឲ្យ	-9.34822
សហការ	-9.3486
សមាសធាតុ	-9.34939
ជាជាង	-9.35001
ការស្លាប់	-9.35048
ការបោះឆ្នោត	-9.35198
មើលថាតើ	-9.35268
▁អ្នកចង់	-9.35412
ត្រូវបានកំណត់	-9.35426
រសជាតិ	-9.35463
ពិធី	-9.35585
អាចធ្វើឱ្យ	-9.35586
អស់	-9.35601
គោលនយោបាយ	-9.35786
ធានីក្នុងតំបន់	-9.35793
ប្រាំពីរ	-9.35804
▁ហើយគាត់	-9.35844
22	-9.35875
ឯករាជ្យ	-9.36048
ដាក់ឈ្មោះ	-9.36188
hy	-9.36257
ជឿជាក់	-9.36399
ការប្រយុទ្ធ	-9.36441
ខែឧសភា	-9.36442
វិទ្យា	-9.36485
តាមអ៊ីនធឺណិត	-9.3664
ដែលអ្នកចង់	-9.36701
ក្នុងមួយថ្ងៃ	-9.36829
ខាងស្តាំ	-9.36844
lly	-9.36887
ek	-9.36908
ផ្ទុះ	-9.36924
ទៅមុខ	-9.36977
ថែទាំ	-9.3699
ឆ	-9.37032
ខែធ្នូ	-9.37045
ភាសាអង់គ្លេស	-9.37136
ium	-9.37192
ធ្វើឱ្យប្រាកដថា	-9.37202
ten	-9.37269
ក្រណាត់	-9.37302
▁ក្នុងករណី	-9.37356
len	-9.37391
q	-9.37544
ដើម្បីឱ្យ	-9.37551
▁ប៉ុន្តែយើង	-9.37656
har	-9.37733
ស្រទាប់	-9.37835
nder	-9.37843
ស្រា	-9.37845
សេចក្តី	-9.37852
គ្រែ	-9.38036
ទូក	-9.38094
រដ្ឋមន្ត្រី	-9.38139
cr	-9.38153
23	-9.38153
▁តើគាត់	-9.38231
ធនធាន	-9.38237
ជម្លោះ	-9.38371
ដំណើរ	-9.38427
មុនពេលអ្នក	-9.38479
អញ្ជើញ	-9.38505
ឆ្ពោះទៅរក	-9.38517
30	-9.38569
អគ្គិសនី	-9.38572
អន្តរកម្ម	-9.38642
នៅចុង	-9.38654
តំណាង	-9.3868
▁វាស្ថិតនៅចម្ងាយ	-9.38707
▁តើមានអ្វីកើតឡើង	-9.38805
ឆ្ងាយពី	-9.38881
អាង	-9.38891
ការលក់	-9.38894
ពួកយើង	-9.38938
ដោយផ្អែកលើ	-9.38957
ជាងមុន	-9.38965
គ្មាននរណាម្នាក់	-9.38977
ហ្គា	-9.38977
រង	-9.3899
កង់	-9.39099
វិទ្យាសាស្រ្ត	-9.39184
▁គាត់ជា	-9.39191
▁ដូច្នេះវា	-9.39215
▁នោះគឺជា	-9.39239
▁(1	-9.39299
រងរបួស	-9.3935
គ្រោង	-9.39383
សម្របសម្រួល	-9.39383
▁Qu	-9.39394
អាថ៌កំបាំង	-9.39451
ប្រាប់អ្នកថា	-9.39523
▁Ed	-9.3954
ពិភាក្សា	-9.39556
▁ខ្ញុំត្រូវការ	-9.3957
បាត	-9.39577
pl	-9.39613
ov	-9.39656
ទោះបីជា	-9.39656
ៃ	-9.40208
ហា	-9.40242
ah	-9.4025
ខ	-9.40293
mar	-9.40293
ឥទ្ធិពល	-9.40327
ទិដ្ឋភាព	-9.40337
បា	-9.40412
កាមេរ៉ា	-9.40474
មេធាវី	-9.40474
28	-9.40485
20	-9.40521
មានផ្ទៃពោះ	-9.40543
តឹង	-9.4068
កម្ម	-9.40681
des	-9.4079
▁នេះនឹង	-9.40806
ពាក់ព័ន្ធ	-9.40821
ក៏មាន	-9.40881
រលក	-9.40889
ប្រជាធិបតេយ្យ	-9.41024
▁តើខ្ញុំអាច	-9.41068
ស៊ើបអង្កេត	-9.41153
▁ខ្ញុំមិនដឹងថា	-9.41171
លក្ខណៈសម្បត្តិ	-9.41231
សន្តិភាព	-9.41231
នៅក្នុងទីក្រុង	-9.41299
រាវ	-9.41375
▁ហើយខ្ញុំបាន	-9.41396
គុណភាព	-9.41481
▁Ki	-9.41517
បានផ្តល់	-9.41525
ប្រសិនបើគាត់	-9.41554
ចាប់ពី	-9.41558
មិនល្អ	-9.41582
ក្រសួង	-9.41646
ការអប់រំ	-9.41672
▁For	-9.41682
របស់លោក	-9.41717
▁Wo	-9.41733
នៅទូទាំង	-9.41774
ជាទីស្រឡាញ់	-9.41855
ចំណាត់ថ្នាក់	-9.41865
ធ្វើឱ្យខ្ញុំ	-9.41878
ដឹងថាអ្នក	-9.41903
ហេ	-9.41911
ឃ្មុំ	-9.41924
ការគាំទ្រ	-9.41927
▁ខ្ញុំសង្ឃឹមថា	-9.41964
age	-9.42078
▁Hu	-9.4222
▁2007	-9.42227
▁get	-9.42295
cal	-9.42315
ធានា	-9.42467
▁Bi	-9.42509
ward	-9.42543
ឥណ្ឌា	-9.42562
ខាងឆ្វេង	-9.42626
▁ខ្ញុំសុំទោស	-9.42627
ឌី	-9.42639
ies	-9.42709
រកមើល	-9.42741
ប្រសិទ្ធភាព	-9.42742
៍	-9.42761
ខេត្ត	-9.42833
▁2006	-9.42932
ប្រពៃណី	-9.4304
ប្រៀបធៀប	-9.43114
ft	-9.43201
▁លោកស្រី	-9.43248
ខែកុម្ភៈ	-9.43255
ប៉ះពាល់	-9.43278
ភាគី	-9.43304
រ៉ា	-9.43379
ប៊ី	-9.43396
រចនាប័ទ្ម	-9.43396
មានទំនោរ	-9.43454
បើ	-9.43458
អេស្ប៉ាញ	-9.43466
អំបិល	-9.43467
ជីវិតរបស់អ្នក	-9.43561
ó	-9.43659
ផ្នែកមួយនៃ	-9.43669
ភេទ	-9.43674
ផ្លូវការ	-9.43681
ថ្មីៗនេះ	-9.43785
▁ខ្ញុំនឹងមិន	-9.43869
មកជាមួយ	-9.43907
បានដាក់	-9.43917
ខ្លាញ់	-9.43992
រំលឹក	-9.44033
បារ	-9.4408
ធ្វើការជាមួយ	-9.44099
▁ហើយដូច្នេះ	-9.44189
ous	-9.44239
នឹងធ្វើឱ្យ	-9.44253
សក់របស់អ្នក	-9.44325
រដូវក្តៅ	-9.44471
▁Ru	-9.44527
aw	-9.44578
cha	-9.44679
ទម្លាប់	-9.44746
សេះ	-9.44758
cu	-9.44872
ខាង	-9.4498
unt	-9.45043
SA	-9.45075
▁°	-9.45097
ker	-9.45101
វិនិយោគ	-9.45105
រៀបការជាមួយ	-9.45146
ence	-9.45176
▁គាត់មិន	-9.45282
តាំងពី	-9.45318
កីឡាករ	-9.4532
យុទ្ធសាស្រ្ត	-9.4532
45	-9.45329
រំភើប	-9.45537
រលាយ	-9.4559
រកឃើញថា	-9.45725
ភេសជ្ជៈ	-9.45753
ពិភព	-9.45949
គិតពី	-9.46085
គ្រឿង	-9.46105
អាចរកបាន	-9.46108
រួមបញ្ចូលគ្នា	-9.46142
សាលារៀន	-9.46148
របាយការណ៍	-9.46188
ឆ្លង	-9.46216
ធ្លាក់ទឹកចិត្ត	-9.4626
▁Jack	-9.46306
រំលាយ	-9.46479
tor	-9.46509
ញឹកញាប់	-9.46639
បានបង្ហាញ	-9.46648
តម្រូវឱ្យ	-9.46697
សម្គាល់	-9.46697
យកឈ្នះ	-9.46778
ase	-9.46789
គិតថាអ្នក	-9.46798
ជំងឺរលាក	-9.4681
gan	-9.46927
ome	-9.46962
លាននាក់	-9.47005
ផ្អែកលើ	-9.47011
ផ្តល់នូវ	-9.47018
ជ្រុង	-9.47063
ji	-9.47132
ត្រូវបានគេស្គាល់	-9.47172
▁Du	-9.47246
ភាគខាងជើង	-9.47348
X	-9.4735
80	-9.47361
▁will	-9.4747
ជាន់	-9.47528
បានឮ	-9.47573
ស្ថានីយ៍	-9.47579
តែមួយគត់ដែល	-9.47632
ការ៉េ	-9.47653
មិនមានអ្វី	-9.47664
មូលហេតុដែល	-9.47834
ពន្ធ	-9.47992
សេរី	-9.48051
វិទ្យាល័យ	-9.48093
▁out	-9.48282
ino	-9.48335
នៅពេលនោះ	-9.48489
បន្ទាប់មក	-9.4852
លទ្ធភាព	-9.48538
ស្អប់	-9.48538
ប្រភេទសត្វ	-9.48755
▁Sha	-9.48764
line	-9.48769
ឪពុករបស់អ្នក	-9.48782
អ្នកទាំងពីរ	-9.48788
បណ្តុះបណ្តាល	-9.4881
លើកទី	-9.48977
ប្រើថ្នាំ	-9.48979
ផែនទី	-9.48985
26	-9.48988
ផ្សារ	-9.4899
▁Wal	-9.4904
អ៊ីមែល	-9.49135
ពេញ	-9.49282
អាចជួយអ្នក	-9.49288
សមហេតុផល	-9.49344
កំណត់អត្តសញ្ញាណ	-9.49522
នៅសល់	-9.49535
ម្សៅ	-9.49584
របស់ខ្ញុំគឺ	-9.49602
រៀបការ	-9.49616
ការឆ្លើយតប	-9.49698
cz	-9.49751
ប្រែប្រួល	-9.49759
រឿងមួយ	-9.49845
កូ	-9.49883
27	-9.49967
rus	-9.50048
con	-9.50082
ទឹកដោះគោ	-9.50091
ចម្បង	-9.50092
ជំនាន់	-9.50111
គ្រាប់បែក	-9.50122
J	-9.50133
ក៏ជា	-9.50228
ctor	-9.50235
tter	-9.50307
សិល្បករ	-9.50338
សមរម្យ	-9.50414
▁Or	-9.50478
លាប	-9.50617
សាស្ត្រ	-9.50624
ព្យួរ	-9.50641
ឧក្រិដ្ឋកម្ម	-9.50641
រដ្ឋបាល	-9.50652
ទទួលបានជោគជ័យ	-9.50691
លាង	-9.50691
មន្រ្តី	-9.50717
គួរឱ្យកត់សម្គាល់	-9.50741
jo	-9.50789
dia	-9.50953
និយាយអ្វី	-9.50961
នៅពេលដែលគាត់	-9.50994
គ្រប់ទីកន្លែង	-9.51022
▁ហើយឥឡូវនេះ	-9.51035
បំពង់	-9.51082
ការការពារ	-9.51093
នៃទីក្រុង	-9.51168
ប្រាសាទ	-9.51174
ថែមទាំង	-9.51324
the	-9.51391
▁មិនថា	-9.51419
អ្វីទេ	-9.51515
អាកាស	-9.51542
ថ្លើម	-9.51709
ប្រចាំថ្ងៃ	-9.51791
ធ្វើតាម	-9.51828
មួយចំនួននៃ	-9.51843
sen	-9.51855
ពង្រឹង	-9.5194
អ័រម៉ូន	-9.52094
អាហារពេលល្ងាច	-9.52094
ជួបអ្នក	-9.52147
រួចរាល់	-9.52216
ពណ៌ខៀវ	-9.52253
ចង	-9.52325
វ៉ា	-9.52325
សេ	-9.52387
ស្ករ	-9.52439
វាជាការ	-9.52441
qua	-9.52442
រាង	-9.52485
បងប្អូន	-9.52545
កូនស្រីរបស់	-9.5257
▁ភាគខាងកើតនៃរដ្ឋ	-9.5259
មានអ្វីកើតឡើង	-9.52674
ដូ	-9.52814
ទាហាន	-9.52867
កំពុងស្វែងរក	-9.52997
មានជីវិត	-9.53022
ទីនោះ	-9.53151
កូនស្រី	-9.53237
ចូលមក	-9.53297
មិនចូលចិត្ត	-9.53307
ង្គ	-9.53308
▁And	-9.53324
តិច	-9.53338
ជោគជ័យ	-9.53341
អប់រំ	-9.53617
នៅសាកលវិទ្យាល័យ	-9.53659
ung	-9.5373
▁0.	-9.5395
ឆ្លើយ	-9.53959
▁Ya	-9.54066
លើកលែងតែ	-9.54112
បានមក	-9.54115
ជំនឿ	-9.54195
ឫស	-9.54197
វិវត្តន៍	-9.54274
កម្ពស់	-9.54411
▁Bro	-9.54417
អំណោយ	-9.54431
kin	-9.54504
▁ខ្ញុំមិនដែល	-9.54662
ប្រាក់ចំណូល	-9.54665
ជានិច្ច	-9.54668
នឹងធ្វើ	-9.54708
នៅថ្ងៃនេះ	-9.54734
អ៊ី	-9.54888
បានសម្លាប់	-9.54899
មន្ទីរពិសោធន៍	-9.54905
បានសរសេរ	-9.54914
ទា	-9.55011
ត្រូវបានសម្លាប់	-9.55057
បញ្ចប់ការសិក្សា	-9.55137
លុះត្រាតែ	-9.55143
ure	-9.55171
ជីវិតរបស់ខ្ញុំ	-9.5521
ជាការពិត	-9.55218
កង្វះ	-9.55223
▁Fe	-9.55224
ការថែទាំ	-9.55279
yo	-9.55293
ប្រទេសប៉ូឡូញ។	-9.55431
ដល់អ្នក	-9.55468
អាស៊ី	-9.55548
សោ	-9.55582
រ៉ូ	-9.55652
ជាមុន	-9.55725
បន្ថយ	-9.55746
មិនធ្វើ	-9.55793
ការកំណត់	-9.55819
ដូចនេះ	-9.55834
ន់	-9.5586
ស៊ុត	-9.5586
ស្លឹក	-9.5586
zz	-9.55865
កាបូប	-9.5602
ចុះក្រោម	-9.56086
bra	-9.56092
ហែលទឹក	-9.56101
អ្នកលេង	-9.5613
net	-9.56152
▁តើមាន	-9.56289
▁may	-9.56293
ចំហៀង	-9.56341
ជាបុរស	-9.56354
▁ខ្ញុំគិតថាអ្នក	-9.56425
▁នាងត្រូវបាន	-9.56443
ស្វែងយល់ពី	-9.56494
ឬអត់	-9.56502
បានបង្ហាញខ្លួន	-9.56544
បានជួប	-9.5655
king	-9.56573
រោងចក្រ	-9.56583
ណាត់ជួប	-9.56583
ction	-9.56587
70	-9.56708
តុល្យភាព	-9.56744
ឈុត	-9.5682
បាទ	-9.56847
▁Ph	-9.56895
ស្រែក	-9.56905
បោះពុម្ពផ្សាយ	-9.56952
.5	-9.5696
យើងត្រូវ	-9.56999
បោះបង់ចោល	-9.57069
▁Bra	-9.57144
ញញឹម	-9.57229
តារាង	-9.57262
ប្រើវា	-9.57282
oid	-9.57296
ចម្រុះ	-9.57391
មិនសូវ	-9.57473
ជំនួសឱ្យ	-9.57528
ពូជ	-9.57555
គ្រូបង្រៀន	-9.57565
▁ក្នុងខោនធី	-9.57565
ចៅក្រម	-9.57635
ដែលនៅសល់	-9.57693
មិនធម្មតា	-9.57716
សមាជិកនៃ	-9.57732
▁Uni	-9.57741
ដែលមានសុខភាពល្អ	-9.57888
ការចងចាំ	-9.57948
ក្លាហាន	-9.57961
សួស្តី	-9.57962
លាងសម្អាត	-9.57977
គិតថាខ្ញុំ	-9.57982
▁ភាគខាងកើតនៃ	-9.57982
នឹងត្រូវ	-9.58004
បុរសនេះ	-9.58026
រំពឹងទុក	-9.58043
ក្នុងករណី	-9.58044
ងូតទឹក	-9.58066
បង់	-9.58084
▁Am	-9.58113
ស្នាដៃ	-9.58125
▁អ្នកនឹងត្រូវ	-9.58232
បញ្ចុះ	-9.58271
men	-9.5828
gh	-9.58416
ពីរដង	-9.58482
អតីតកាល	-9.58502
នៅលើពិភពលោក	-9.58576
ឈ្លានពាន	-9.58699
ប្លុក	-9.58699
សង	-9.58705
ច្រៀង	-9.58782
nie	-9.58829
▁វាពិតជា	-9.58843
ក្រុមប្រឹក្សា	-9.58868
ឈើ	-9.58901
រង្វង់	-9.58946
យ៉ា	-9.58953
បានផ្លាស់ប្តូរ	-9.59012
ទំនើប	-9.59025
បានបង្ហាញថា	-9.59032
កូដ	-9.59276
row	-9.59327
វេជ្ជបញ្ជា	-9.5936
លើកកម្ពស់	-9.59381
យល់ថា	-9.59429
បំប្លែង	-9.59691
ឆ្លុះបញ្ចាំង	-9.59691
រថភ្លើង	-9.59692
បុរសដែល	-9.59778
ុន	-9.59784
នៅដើម	-9.59814
29	-9.59838
75	-9.59856
ខ្នង	-9.60013
able	-9.60023
រ៉ែ	-9.60035
ខូចខាត	-9.60044
ple	-9.60074
▁Ti	-9.60097
ជើងឯក	-9.60108
cin	-9.60226
់	-9.60235
ទស្សនៈ	-9.60275
ខាងជើង	-9.60369
ជូនដំណឹង	-9.60442
ចូលប្រើ	-9.6055
ត្រ	-9.60561
tar	-9.60604
ជុំ	-9.60617
pen	-9.60618
យ៉ាងទូលំទូលាយ	-9.60719
មានន័យ	-9.60856
ត្រូវបានបង្ហាញ	-9.60869
មហាសមុទ្រ	-9.6103
បន្ទះ	-9.61032
ធ្វើបែបនេះ	-9.61107
អស្ចារ្យណាស់	-9.61125
0%	-9.61133
នៅពេលក្រោយ	-9.61169
ភ្ញៀវ	-9.61198
លិច	-9.61275
ក្នុងជីវិត	-9.61384
▁all	-9.6144
ដ៏ល្អបំផុត	-9.61463
ចំណាប់អារម្មណ៍	-9.61706
បណ្តាលមកពី	-9.61706
វិនិច្ឆ័យ	-9.61875
ម្តាយរបស់ខ្ញុំ	-9.61954
សាកសព	-9.62045
vers	-9.62108
អស់កម្លាំង	-9.62233
ស៊ីវិល	-9.62251
ខ្ញុំបានធ្វើ	-9.62263
ផលិតកម្ម	-9.62333
សហព័ន្ធ	-9.62386
rom	-9.62419
▁She	-9.62453
▁make	-9.62465
សំណើម	-9.62503
ō	-9.62557
សួត	-9.62558
សេវា	-9.62558
កិច្ចប្រជុំ	-9.62563
ទៅផ្ទះ	-9.62605
▁2019	-9.62661
ដ៏ស្រស់ស្អាត	-9.62725
បញ្ជាក់ថា	-9.62743
ពីឆ្នាំ	-9.62755
ល្អប្រសើរជាងមុន	-9.62791
ចៃដន្យ	-9.62814
សង្កេត	-9.62845
ក្នុងតំបន់	-9.62929
ella	-9.62942
ទន់	-9.62966
ត្រលប់មកវិញ	-9.63021
tz	-9.63027
▁this	-9.63039
ក្រពះ	-9.63072
ក្នុងពេលតែមួយ	-9.63158
ការកាត់	-9.63174
បារម្ភ	-9.63205
សន្យា	-9.63264
ពោះវៀន	-9.6333
ស្នើ	-9.63373
90	-9.63378
ពន្លឺព្រះអាទិត្យ	-9.6354
ជាលទ្ធផល	-9.63586
បដិវត្តន៍	-9.63589
ប្រហែលជាមិន	-9.63604
សាស្រ្តាចារ្យ	-9.63675
ឃ្លា	-9.63761
&	-9.63762
ការគំរាមកំហែង	-9.6381
▁Frank	-9.63849
ក្រុង	-9.63899
អស់រយៈពេលជាច្រើន	-9.63933
រូបមន្ត	-9.63935
11	-9.63993
ជើងរបស់អ្នក	-9.63997
sha	-9.64228
បណ្ឌិត	-9.64282
ស្ថាប័ន	-9.64282
ថាតើអ្នក	-9.64294
ចេតនា	-9.64369
ផ្ទាំង	-9.64371
ឥរិយាបថ	-9.64456
កម្រ	-9.64456
បានធ្វើឱ្យ	-9.64495
បង្កើតឡើងដោយ	-9.64505
បំផុសគំនិត	-9.64631
កញ្ចប់	-9.64718
នំ	-9.64723
ath	-9.64795
ដែលទាក់ទងនឹង	-9.64843
▁អ្នកក៏អាច	-9.64854
បានបាត់បង់	-9.64921
ការអភិវឌ្ឍ	-9.64957
ប្រែក្លាយ	-9.64981
ដ៏ធំបំផុត	-9.65077
កប៉ាល់	-9.65156
ឆ្នេរសមុទ្រ	-9.65188
គាត់អាច	-9.65238
បន្លែ	-9.65244
វីតាមីន	-9.65332
គូស្នេហ៍	-9.65419
ត្រួតពិនិត្យ	-9.6546
ពលរដ្ឋ	-9.65507
មានសមត្ថភាព	-9.65515
ប្រលោមលោក	-9.65596
ទីក្រុងឡុងដ៍	-9.65596
sis	-9.65669
័រ	-9.65675
ទ្រូង	-9.65684
សុបិន្ត	-9.65767
ប្លាស្ទិក	-9.65772
▁ខ្ញុំគិតថាខ្ញុំ	-9.65885
នៅទីបំផុត	-9.65937
▁2005	-9.65974
លុបបំបាត់	-9.66042
កំពុងធ្វើអ្វី	-9.66088
12	-9.66094
វិទ្យុ	-9.66112
វីរបុរស	-9.66126
ជាបន្តបន្ទាប់	-9.66132
ខោ	-9.66166
ម៉ាក	-9.66268
ការខូចខាត	-9.66271
លាក់	-9.66273
ហាមឃាត់	-9.66303
▁ខណៈដែល	-9.66303
▁Per	-9.66319
▁Sam	-9.66453
ប្រាំបួន	-9.6656
ត្រចៀក	-9.6657
ite	-9.66801
▁Her	-9.66913
ស្បែករបស់អ្នក	-9.67011
ហ្វីត	-9.67016
▁អ្នកគឺជា	-9.67097
ឃាតករ	-9.67105
ដោះស្រាយបញ្ហា	-9.67117
ដ៏គួរឱ្យ	-9.67177
ដាំ	-9.67192
▁ខ្ញុំមិនចង់	-9.67271
ound	-9.67346
រួចទៅហើយ	-9.67374
vis	-9.674
នាំអ្នក	-9.67443
▁Mc	-9.67493
fer	-9.67497
ឧត្តមសេនីយ៍	-9.67554
គិតថាវា	-9.67636
សារមន្ទីរ	-9.67644
មិនឃើញ	-9.67651
ធំឡើង	-9.67731
ទស្សនាវដ្តី	-9.67734
ផ្សិត	-9.67734
ការភ្ញាក់ផ្អើល	-9.67751
ការរលាក	-9.67764
របៀបដែលអ្នក	-9.67769
rop	-9.67816
រោម	-9.67838
បេសកកម្ម	-9.67914
ឃើញអ្នក	-9.67959
អ្វីគ្រប់យ៉ាងដែល	-9.681
ទឹកដី	-9.68129
▁អ្នកពិតជា	-9.68152
ជាមធ្យម	-9.6827
ប្រាកដណាស់	-9.68436
ted	-9.68504
ចម្អិន	-9.68548
ត្រូវបានតែងតាំង	-9.68772
មនុស្សនោះ	-9.68805
ជាភាសា	-9.68809
ក្លែងក្លាយ	-9.6882
បីនាក់	-9.68895
បរាជ័យ	-9.68909
តុបតែង	-9.69002
នាពេលអនាគត	-9.69031
ដើម្បីស្វែងរក	-9.69071
នុយក្លេអ៊ែរ	-9.69094
▁យោងតាម	-9.69111
ជាលិកា	-9.69185
▁what	-9.69185
ពូ	-9.69255
▁Cor	-9.69283
▁ព្រោះខ្ញុំ	-9.69375
▁ហើយខ្ញុំនឹង	-9.69381
ការរៀបចំ	-9.6945
គណនា	-9.6946
គ្លីនិក	-9.6946
ដើរតួជា	-9.69507
បង្ហាញអ្នក	-9.69739
កំពុងកើតឡើង	-9.69782
ជិតស្និទ្ធ	-9.6979
ថតរូប	-9.69808
ដោះ	-9.69934
អធិរាជ	-9.70011
ៈ	-9.70011
ភពផែនដី	-9.70036
ចំណេះដឹង	-9.70103
មាន់	-9.70141
រួមជាមួយ	-9.70184
ów	-9.70202
ការធ្លាក់ចុះ	-9.70258
អក្សរសិល្ប៍	-9.7038
ជួបគ្នា	-9.70381
bar	-9.70385
លំហូរ	-9.704
អង្គភាព	-9.70472
ធ្វើម្តងទៀត	-9.70485
▁ខ្ញុំសូម	-9.70517
▁sc	-9.70519
▁Star	-9.70531
កញ្ញា	-9.70535
18	-9.70561
គ្រឿងញៀន	-9.70571
▁2000	-9.70574
ដ៏ល្បីល្បាញ	-9.70607
វិបត្តិ	-9.7066
▁តើមានអ្វី	-9.70669
ney	-9.70669
សំណុំ	-9.7075
ស្តាំ	-9.70835
▁កើតនៅ	-9.70906
កម្រិតខ្ពស់	-9.70935
ត្រូវបានចេញផ្សាយ	-9.71029
កាបូន	-9.71029
ល្ខោន	-9.71029
▁ភាគរយនៃ	-9.7108
ព្រួយបារម្ភ	-9.71148
កាន់តែខ្លាំង	-9.71174
បានប្រកាស	-9.71175
ពួកគេទាំងអស់	-9.71197
កខ្វក់	-9.71309
កូនរបស់អ្នក	-9.7143
នោះគឺជា	-9.71474
គណៈកម្មាធិការ	-9.71496
ដំណឹង	-9.71496
កាន់តែប្រសើរ	-9.71546
ត្រូវបានផ្តល់	-9.71577
គណិតវិទ្យា	-9.71589
ផ្ទេរ	-9.71589
ដប	-9.71603
ប្រឹក្សា	-9.71772
នាយកដ្ឋាន	-9.71777
ចំណង់ចំណូលចិត្ត	-9.7187
ហើម	-9.71964
ខ្សាច់	-9.72006
ស្រមៃ	-9.72071
▁នោះហើយជាមូលហេតុ	-9.72079
បង្ហោះ	-9.72152
មានកូន	-9.72191
អភ័យទោស	-9.72341
គួរឱ្យអស់សំណើច	-9.72435
ប្រកបដោយ	-9.72435
▁Chi	-9.72475
ការរីកចម្រើន	-9.72523
លុបចោល	-9.72533
អេ	-9.72551
ចំនួនប្រាំ	-9.7259
ពិធីជប់លៀង	-9.72624
▁ខ្ញុំបានឃើញ	-9.72702
ដែរឬទេ។	-9.7272
អាម៉ាស់	-9.72738
មានអ្វីមួយ	-9.72753
ឺ	-9.72814
សាខា	-9.72815
▁តើពួកគេ	-9.72837
មិនគួរឱ្យជឿ	-9.72887
កែលម្អ	-9.72908
ធំមួយ	-9.73112
បកប្រែ	-9.73112
ភ្នែករបស់អ្នក	-9.73149
សុទ្ធ	-9.73193
ដោះលែង	-9.73203
ស្មៅ	-9.73288
អូស្ត្រាលី	-9.73288
សាធារណរដ្ឋ	-9.73384
32	-9.73433
សប្បាយរីករាយ	-9.73434
បៃតង	-9.73453
ត្រូវបានធ្វើឡើង	-9.73474
pan	-9.735
▁តើអ្នកគិតថា	-9.73533
សំរាម	-9.73574
par	-9.73605
មាតិកា	-9.7367
គោលការណ៍	-9.7367
ចង់ឱ្យខ្ញុំ	-9.73673
ខ្សែសង្វាក់	-9.73765
នឹងជួយ	-9.73801
▁Mac	-9.73842
មនុស្សមួយចំនួន	-9.73886
មិនខ្វល់	-9.74031
ទស្សនា	-9.74053
ឆ្លើយតប	-9.74079
វិទូ	-9.74156
ម៉ាស់	-9.74224
ក្នុងអំឡុង	-9.74313
ជាចម្បង	-9.74366
សត្រូវ	-9.74369
ish	-9.74411
▁Ber	-9.7445
នៅលើផ្លូវ	-9.74477
បញ្ហាប្រឈម	-9.74588
ពាន់	-9.74594
48	-9.74617
កន្សែង	-9.7463
▁Com	-9.74723
ធ្វើរោគវិនិច្ឆ័យ	-9.74726
ពិន្ទុ	-9.74726
អនុញ្ញាត	-9.74778
lip	-9.74854
ស្ថិត	-9.74983
រឿងកំប្លែង	-9.75013
កម្ចាត់	-9.75113
amine	-9.75139
មន្ត្រី	-9.75158
វិល	-9.7517
pro	-9.75179
ប្រាកដ	-9.753
អំពើហិង្សា	-9.75307
ប៉ុន្មានឆ្នាំ	-9.75527
ដែលអ្នកកំពុង	-9.75614
ពាន់លាន	-9.75626
ជាប់គាំង	-9.75697
ឋាននរក	-9.75697
ថើប	-9.75697
ព័ត៌មានលម្អិត	-9.75714
គន្លង	-9.75794
ប្តេជ្ញាចិត្ត	-9.75794
យំ	-9.75799
ring	-9.75806
បានសម្រេចចិត្ត	-9.75872
ព្យុះ	-9.75892
35	-9.75923
ពិបាកក្នុងការ	-9.76048
ធ្វើសកម្មភាព	-9.76126
▁អ្នកគ្រាន់តែ	-9.76152
ក្នុងទសវត្សរ៍	-9.76155
តារាចម្រៀង	-9.76191
ល្អប្រសើរ	-9.76253
ទទេ	-9.76268
ជាម្ចាស់	-9.76286
ស្ម័គ្រចិត្ត	-9.76382
កងកម្លាំង	-9.76382
ទ្វេដង	-9.76386
កំណាព្យ	-9.7648
មានសុខភាពល្អ	-9.76497
ការផ្ទុះ	-9.7655
លុប	-9.7657
លំហាត់ប្រាណ	-9.76578
▁Mor	-9.76625
▁about	-9.76677
ធានាថា	-9.76698
▁វាត្រូវបានគេ	-9.76748
ń	-9.76775
គែម	-9.76775
▁ហើយតើ	-9.76792
ល្អជាង	-9.77003
ភាគខាងកើត	-9.77015
ដាច់	-9.77071
រញ៉េរញ៉ៃ	-9.77071
ព្រះច័ន្ទ	-9.7717
▁War	-9.77171
ការបាត់បង់	-9.77172
ធ្វើអ្វីដែល	-9.7722
ការប្រកួតប្រជែង	-9.77241
ក្រុមតន្រ្តី	-9.77269
ttle	-9.77286
ការចាប់អារម្មណ៍	-9.77293
កែសម្រួល	-9.77368
bin	-9.77373
ខាំ	-9.77401
កាណាដា	-9.77468
ប្រេស៊ីល	-9.77567
កសិកម្ម	-9.77567
ប្រាប់យើង	-9.7758
នាំឱ្យ	-9.77618
▁Ste	-9.77619
cus	-9.77656
បានរកឃើញថា	-9.77686
ស្ថិតនៅលើ	-9.77751
គំរាមកំហែង	-9.77809
ស្តីពី	-9.77865
នៅអាយុ	-9.77902
▁time	-9.77985
អត្តសញ្ញាណ	-9.78048
▁Yo	-9.78057
ដៃគូរបស់អ្នក	-9.78087
ផ្លាស់ទៅ	-9.78165
អាចបណ្តាលឱ្យ	-9.7821
gar	-9.78213
និយាយជាមួយអ្នក	-9.78264
▁know	-9.78265
▁Tom	-9.78266
cia	-9.78286
រុញ	-9.78365
មួយម៉ោង	-9.78383
ពីមុនមក	-9.78418
គន្លឹះ	-9.78565
ខាងកើត	-9.78724
មិនស្គាល់	-9.7876
ព្យាករណ៍	-9.78867
ស្វាគមន៍	-9.78968
គ្រាប់ពូជ	-9.78989
បុរសនោះ	-9.7901
កាតព្វកិច្ច	-9.79068
ចរចា	-9.79068
ទំនាក់ទំនងជាមួយ	-9.79114
▁Shi	-9.79138
មធ្យោបាយ	-9.79169
ប្រណាំង	-9.7927
ឌីជីថល	-9.79371
រហ័ស	-9.79371
រួមទាំង	-9.79421
ភ្លៀង	-9.79473
ture	-9.79505
វិជ្ជាជីវៈ	-9.79574
ដ៏ធំមួយ	-9.79659
ក្លែងបន្លំ	-9.79675
ជក់បារី	-9.79675
គ្រឿងស្រវឹង	-9.7968
▁DNA	-9.79817
ប្រវែង	-9.79828
ត្រឹមតែ	-9.79851
មូល	-9.79907
ផ្សាយពាណិជ្ជកម្ម	-9.79921
ពោះ	-9.79978
រញ្ជួយ	-9.7998
ទៅទីនោះ	-9.80021
ជំរុញឱ្យ	-9.80023
ជក់	-9.80051
មិនច្បាស់លាស់	-9.80056
កាល	-9.80082
ម្តាយរបស់អ្នក	-9.80112
▁អ្នកគិតថា	-9.80134
burg	-9.8014
មិនដូច	-9.80144
សង្គ្រោះ	-9.80171
សំបក	-9.80184
ចុចលើ	-9.80223
ugh	-9.80236
ការសរសេរ	-9.80269
សកលលោក	-9.80277
▁Windows	-9.80286
ដែលមានឈ្មោះថា	-9.80289
▁Kar	-9.80296
ម្នាក់ក្នុងចំណោម	-9.80336
ត្រូវបានណែនាំ	-9.80353
អ្វីផ្សេងទៀត	-9.80386
ផ្តល់ឱ្យអ្នក	-9.80394
ងាក	-9.80476
ចាញ់	-9.8049
ធ្វើការលើ	-9.80622
▁Sch	-9.80649
ការបង្ហាញ	-9.80653
ទង្វើ	-9.80695
អាសយដ្ឋាន	-9.80695
ការតភ្ជាប់	-9.80743
សុដន់	-9.80798
ស្ថិតក្នុង	-9.81101
▁Bill	-9.81106
▁like	-9.81138
ខ្សោយ	-9.81203
ju	-9.81203
អ្នកគ្រប់គ្រង	-9.8126
នៅថ្ងៃស្អែក	-9.81314
េចក្តីថ្លែងការណ៍	-9.81415
ស្វែងយល់	-9.81529
▁2003	-9.81549
ទស្សនិកជន	-9.81622
ស្មើគ្នា	-9.81638
ចាក់សោ	-9.81647
ដូចម្តេច	-9.81683
ខ្ញុំបានឮ	-9.81746
ការប្រែប្រួល	-9.81795
បក្សី	-9.81829
មានទំហំ	-9.81868
ការរំខាន	-9.82076
មនុស្សពេញវ័យ	-9.82138
មោទនភាព	-9.82141
ប្រទេសជប៉ុន	-9.82338
វិមាន	-9.82351
អ៊ីញ	-9.82371
ពន្ធនាគារ	-9.82433
យុទ្ធនាការ	-9.82453
នាងកំពុង	-9.82471
មានគ្រោះថ្នាក់	-9.82512
បានចំណាយពេល	-9.82569
មានរយៈពេល	-9.8257
ការធ្វើដំណើរ	-9.82617
ខកចិត្ត	-9.82662
ទេពកោសល្យ	-9.82662
ខកខាន	-9.82662
ស្តើង	-9.82662
រៀបចំផែនការ	-9.82796
ច្នៃប្រឌិត	-9.82818
សរសៃ	-9.82844
សំដៅទៅលើ	-9.82877
ដឹងពីរបៀប	-9.82881
ire	-9.82925
ម៉ូលេគុល	-9.82976
ស្រូបយក	-9.82977
រំលោភ	-9.8308
ដូចដែលអ្នក	-9.83081
ឧទ្យាន	-9.83081
ព្រមាន	-9.83082
ស្នាម	-9.83137
ជំរុំ	-9.83186
មួយរយៈ	-9.8327
កូរ៉េ	-9.83274
លះបង់	-9.83292
ក្បាលរបស់អ្នក	-9.83342
មាត្រដ្ឋាន	-9.83397
នាម	-9.83427
កាឡូរី	-9.83502
បណ្ណាល័យ	-9.83502
▁Tu	-9.83603
▁Par	-9.83615
CO	-9.8366
ទិសដៅ	-9.83713
ជាផ្លូវការ	-9.83729
នាំមុខ	-9.83741
ដែនកំណត់	-9.83741
off	-9.83747
▁Miss	-9.83773
ឥដ្ឋ	-9.83819
▁Val	-9.83819
នៅពេលដែលនាង	-9.83821
ពឹងផ្អែកលើ	-9.8387
យុវជន	-9.83925
▁World	-9.83925
លាតសន្ធឹង	-9.84031
▁Nintendo	-9.84031
សំខាន់បំផុត	-9.84047
▁ខ្ញុំដឹងថាអ្នក	-9.84148
und	-9.84224
កណ្តុរ	-9.84276
កត់សម្គាល់ឃើញ	-9.84278
15	-9.84324
គម្រប	-9.84349
ទាត់	-9.84355
▁ដូច្នេះខ្ញុំបាន	-9.84413
បំបាត់	-9.8445
អ្នកដឹកនាំ	-9.84495
មានឱកាស	-9.84542
ចូលទៅកាន់	-9.8455
ម៉ឺនុយ	-9.84562
វិទ្យាស្ថាន	-9.84562
បង្ហូរ	-9.84562
port	-9.84567
សត្វចិញ្ចឹម	-9.84588
អ្វីៗគ្រប់យ៉ាង	-9.84669
phen	-9.84771
ងាយស្រួលក្នុងការ	-9.84772
ទាល់តែសោះ	-9.84775
សើម	-9.84775
វេទិកា	-9.84882
រត់គេចខ្លួន	-9.84892
ត្រា	-9.84914
▁នៅក្នុងខោនធី	-9.85016
ហូរឈាម	-9.85098
សេចក្តីស្រឡាញ់	-9.85244
ដុំ	-9.85279
ធ្វើអ្វីមួយ	-9.85284
ដល់ឆ្នាំ	-9.85303
និមិត្តសញ្ញា	-9.85311
មានបំណង	-9.85392
ជម្រក	-9.85418
បង្កឱ្យមាន	-9.85442
ទូ	-9.85453
ការសម្តែង	-9.85467
កំប្លែង	-9.85529
នៅចំណុច	-9.85551
បង្ខំឱ្យ	-9.85557
uck	-9.85627
សង្កាត់	-9.85633
▁George	-9.85633
▁more	-9.85701
ness	-9.85728
បណ្តោះអាសន្ន	-9.85741
ប្រាក់ចំណេញ	-9.85741
ប៉ូល	-9.85829
ខ្ពស់បំផុត	-9.85897
▁ដែលជាកន្លែងដែល	-9.85905
ក្រិក	-9.85957
ប្រយោជន៍	-9.85957
ទៅរក	-9.86003
ជនជាតិអាមេរិក	-9.86042
បានឈ្នះ	-9.86115
umb	-9.86162
ការផលិត	-9.86195
ល្បីល្បាញ	-9.86232
ត្រឡប់មក	-9.86264
សម្រេច	-9.86271
top	-9.86282
ត្រូវចំណាយពេល	-9.86378
អ្នកអាចធ្វើបាន	-9.86409
សន្មត់ថា	-9.86435
ក្រចក	-9.86499
អារម្មណ៍របស់អ្នក	-9.86582
វេទមន្ត	-9.86607
ស្នូល	-9.86607
បញ្ចុះបញ្ចូល	-9.8663
▁ភាគខាងលិចនៃ	-9.8671
ពេញមួយ	-9.86824
ការស្លាប់របស់	-9.86856
ឆ្ពោះទៅ	-9.86915
▁David	-9.86934
ក្តីសុបិន្ត	-9.8694
កន្លះ	-9.87043
▁Fu	-9.87067
ស្នើឱ្យ	-9.87082
សតវត្សរ៍	-9.87152
ជាយូរមកហើយ	-9.87204
▁Za	-9.87256
je	-9.87292
សាប៊ូ	-9.87372
▁1990	-9.87416
pol	-9.87428
ស្របច្បាប់	-9.87481
វីស	-9.8752
ការរួមបញ្ចូលគ្នា	-9.87528
ពុល	-9.8755
flu	-9.8757
ដំបូងគេ	-9.8765
ize	-9.87665
សម្រកទម្ងន់	-9.87811
OS	-9.87818
▁Dar	-9.87837
ដឹងអំពី	-9.87906
រដូវ	-9.88
សំយោគ	-9.88031
កម្សាន្ត	-9.88107
▁វាគ្រាន់តែជា	-9.88139
កត់ត្រា	-9.88142
ថង់	-9.88192
បំណងប្រាថ្នា	-9.8828
អះអាង	-9.88286
val	-9.8833
ការគោរព	-9.88349
សម័យទំនើប	-9.88379
39	-9.88513
បានរៀបចំ	-9.88525
ស្ថិតនៅក្រោម	-9.88558
ក្រាស់	-9.88584
ជំនួសឱ្យការ	-9.887
ព្រះអង្គម្ចាស់	-9.88751
រាប់ពាន់	-9.88905
cent	-9.88966
ចោទប្រកាន់	-9.88968
នៅពាក់កណ្តាល	-9.89003
CA	-9.89114
ថៅកែ	-9.89141
សណ្ឋាគារ	-9.89141
ខាងលិច	-9.89217
អូស	-9.89219
វដ្ត	-9.89252
▁Pri	-9.89291
អ្នកអាចមើលឃើញ	-9.893
ចេញមក	-9.89305
វាស់	-9.89355
វាស់វែង	-9.89374
និពន្ធ	-9.89543
ដំបូល	-9.89588
ភ្ញាក់	-9.89588
DS	-9.89668
ធំៗ	-9.89754
និស្សិត	-9.89812
ដ៏មានឥទ្ធិពល	-9.89906
រយៈពេលវែង	-9.89913
ប្រគល់	-9.89924
clo	-9.8998
vel	-9.90021
ម៉ូដ	-9.90022
ដោះស្រាយជាមួយ	-9.90045
ក្រោមដី	-9.90075
▁pre	-9.90122
▁them	-9.90424
▁see	-9.90559
ភាគហ៊ុន	-9.90601
សន្និសីទ	-9.90601
64	-9.90615
ប្រធានក្រុម	-9.90642
ក្តីសង្ឃឹម	-9.90745
សុភមង្គល	-9.90828
▁Google	-9.90828
▁ក្នុងទីក្រុង	-9.90936
នៅយប់នេះ	-9.91126
ឆាក	-9.91162
ឃាតកម្ម	-9.91171
ស្ទះ	-9.91214
មិនស្រួល	-9.91246
កាំបិត	-9.91283
ត្រូវបានគេមើលឃើញ	-9.91361
ភ្នាល់	-9.91397
▁Min	-9.91433
ទាយ	-9.91476
ដំបូងគេដែល	-9.91486
អ្នកទទួល	-9.91517
វះកាត់	-9.9154
▁just	-9.91631
ដួលរលំ	-9.9174
អាចត្រូវបានប្រើ	-9.91744
ច្រក	-9.9184
បរិសុទ្ធ	-9.91854
សន្និដ្ឋាន	-9.91854
ហ្វឹកហាត់	-9.91854
ជ្រលក់	-9.91969
សរសើរ	-9.91969
▁Tim	-9.91976
ប្រកួត	-9.91982
bol	-9.91997
កំហឹង	-9.92084
ចិញ្ចៀន	-9.92084
ផលវិបាក	-9.92084
17	-9.92121
ស្រស់	-9.92124
▁ខ្ញុំមិនគិតថា	-9.9218
ម្ចាស់ក្សត្រី	-9.92256
ថយចុះ	-9.92306
នរណា	-9.92384
berg	-9.92413
▁អ្នកមិនចាំបាច់	-9.92415
▁200	-9.92421
▁Ku	-9.92469
ឈ្នះពានរង្វាន់	-9.92485
ការត្រួតពិនិត្យ	-9.92491
កំពុងធ្វើការ	-9.92515
សង្គ្រាមលោកលើកទី	-9.92544
សណ្តែក	-9.9266
65	-9.92751
cul	-9.92755
នោះជាអ្វីដែល	-9.92763
ទុក្ខ	-9.92767
ស្ពាន	-9.92783
▁Han	-9.92784
ផលប្រយោជន៍	-9.92793
ត្រូវបានរចនាឡើង	-9.92851
ពហុ	-9.92891
▁1980	-9.92966
▁Serie	-9.93132
▁នោះហើយជាអ្វីដែល	-9.93144
gue	-9.93173
កន្លែងណា	-9.93186
ការវះកាត់	-9.93209
ពោរពេញទៅដោយ	-9.93239
ចំណាំ	-9.93308
ទ្វីប	-9.93355
នីតិវិធី	-9.93355
មានសិទ្ធិ	-9.93395
ជ្រូក	-9.93472
ជីក	-9.93514
កែតម្រូវ	-9.93589
ជាក់លាក់មួយ	-9.93635
កាឡាក់ស៊ី	-9.93822
▁ខ្ញុំចូលចិត្ត	-9.93855
បញ្ជាទិញ	-9.93931
25	-9.93943
ចេញពីទីនេះ	-9.93944
ទាំងបី	-9.93952
ពេញនិយម	-9.94022
78	-9.94085
▁Che	-9.94142
38	-9.94148
▁ប៉ុន្តែតើ	-9.94169
ផ្ទះល្វែង	-9.94173
ការអភិវឌ្ឍន៍	-9.94215
pha	-9.94427
illa	-9.9445
លេចធ្លោ	-9.94526
▁James	-9.94528
DA	-9.94611
ę	-9.94643
របារ	-9.94727
ស្លៀកពាក់	-9.94769
ធ្វើការងារ	-9.94775
រាជវង្ស	-9.94879
work	-9.94935
រឹតបន្តឹង	-9.95116
ឡូ	-9.95143
ស្គាល់ផងដែរថាជា	-9.95158
សំណើ	-9.95191
នៅសាលា	-9.95254
ប្រជាប្រិយ	-9.95353
ឆ្លើយតបទៅនឹង	-9.95378
ហូរ	-9.95386
ការរំលោភបំពាន	-9.95457
ភាគខាងលិច	-9.95533
▁Pre	-9.95576
ម៉ិកស៊ិក	-9.95591
សន្យាថា	-9.95668
ឧបសគ្គ	-9.9571
ខ្វល់	-9.95737
▁ខ្ញុំបាននិយាយថា	-9.95759
ទូលំទូលាយ	-9.95793
ចំនួនប្រជាជន	-9.95833
លាក់ខ្លួន	-9.95857
▁Don	-9.95859
ត្រូវបានផលិត	-9.95916
ភាសាអារ៉ាប់	-9.95918
សាក្សី	-9.95948
ស៊ីរី	-9.96013
ចុះឈ្មោះ	-9.96138
ខណៈពេលដែលអ្នក	-9.96202
ដរាបណា	-9.96307
គ្រាប់ធញ្ញជាតិ	-9.96427
ធូលី	-9.96427
owo	-9.96542
វិញ្ញាណ	-9.96667
ស្លាបព្រា	-9.96667
▁when	-9.96788
បន្ទុក	-9.96803
▁Mer	-9.96828
បន្	-9.96866
tsu	-9.96966
ស្រមោល	-9.97029
ភាពសប្បាយរីករាយ	-9.9709
ត្រលប់ទៅ	-9.97149
ប្រវត្តិសាស្ត្រ	-9.97164
▁Game	-9.97242
បែក	-9.9728
គ្រប់ពេល	-9.97305
យ៉ាងងាយស្រួល	-9.97351
សត្វស្លាប	-9.97368
win	-9.97385
យូរប៉ុន្មាន	-9.97399
▁uh	-9.97489
សត្វកណ្តុរ	-9.97718
ស្មា	-9.97756
លក្ខណៈពិសេស	-9.97762
របាំង	-9.97793
▁Ver	-9.97823
ខ្ពស់ជាង	-9.97825
ផ្ញើសារ	-9.97856
កូឡុំប៊ី	-9.97877
កែប្រែ	-9.97877
ក្តារ	-9.97877
រាប់រយ	-9.97997
កងទ័ពជើងទឹក	-9.97999
ជាតិពុល	-9.98044
▁cor	-9.9811
uff	-9.98216
អំពីរបៀបដែល	-9.9823
ប៉ុណ្ណោះដែល	-9.98337
ផោន	-9.98365
▁2002	-9.98413
អ្វីដែលបានកើតឡើង	-9.98418
ដឹងថាតើ	-9.98423
ចង្អុលបង្ហាញ	-9.98444
ច្រឡំ	-9.98488
▁feel	-9.98501
បាត់ខ្លួន	-9.98538
▁នេះមិនមែនជា	-9.98571
អូឡាំពិក	-9.9861
nny	-9.98615
36	-9.98625
▁Tra	-9.98836
ទទួលរង	-9.98838
័	-9.98845
អ្វីទាំងអស់	-9.98905
សាស្រ្ត	-9.98953
ទស្សន៍ទាយ	-9.98981
ណូ	-9.9906
ធុញទ្រាន់	-9.99102
ការវិភាគ	-9.99138
▁other	-9.99261
ន័យ	-9.99318
ញើស	-9.99349
គួរឱ្យស្រឡាញ់	-9.99385
▁វាមិនមែន	-9.99393
ដែលមានទីតាំងនៅ	-9.99689
ឆ្នោត	-9.99706
ចង្កេះ	-9.9972
ស្ត្រីម្នាក់	-9.99745
ការបោះពុម្ព	-9.9975
16	-9.9976
ញៀន	-9.99836
ខ្ញុំបានរកឃើញ	-9.99864
nica	-9.99876
លេងសើច	-9.9992
76	-9.99998
AR	-10
▁2001	-10.0004
ផ្ល	-10.0007
នេសាទ	-10.0009
លំហ	-10.0011
55	-10.0021
ទល់នឹង	-10.0022
កន្លងមក	-10.0034
ប្រតិបត្តិ	-10.0041
ត្រឡប់ទៅផ្ទះ	-10.0058
យប់នេះ	-10.0067
ជាកម្មសិទ្ធិរបស់	-10.0068
ប្រចាំឆ្នាំ	-10.0077
▁Park	-10.0083
រលាក	-10.0089
▁Sara	-10.0091
42	-10.0095
ហួស	-10.0097
អត្ថន័យ	-10.0097
ស្ថេរភាព	-10.0097
ការបណ្តុះបណ្តាល	-10.0101
និយាយទៅកាន់	-10.0116
បឋម	-10.0122
លទ្ធិ	-10.0122
ស្រមៃមើល	-10.0128
គ្រូ	-10.0132
▁some	-10.0143
ក្តី	-10.0143
ភាពស៊ាំ	-10.0147
ជាសាធារណៈ	-10.0157
ដង្ហើម	-10.0158
ចល័ត	-10.016
▁Kim	-10.0165
វិភាគ	-10.0168
មួយនាទី	-10.0169
ត្រូវបានសាងសង់	-10.0181
ប៉ាន់ប្រមាណ	-10.0185
▁Mont	-10.0192
នឹងជួយអ្នក	-10.0194
wood	-10.0204
រុំ	-10.0204
ប៉ុស្តិ៍	-10.021
▁ជាកន្លែងដែលនាង	-10.022
មនុស្សយន្ត	-10.0223
ឈាន	-10.0227
▁Lin	-10.0227
ជុំវិញពិភពលោក	-10.0229
AS	-10.0232
ប្រមាញ់	-10.0236
ផ្កាឈូក	-10.0236
អាជ្ញាធរ	-10.0236
បីដង	-10.0237
ស្ថាបនិក	-10.0249
អាជ្ញាប័ណ្ណ	-10.0249
ឧបត្ថម្ភ	-10.0249
▁Michael	-10.0249
សម្ព័ន្ធ	-10.0254
កិច្ចសន្យា	-10.0263
▁was	-10.0265
កម្មករ	-10.0274
មេឃ	-10.0275
រូបតំណាង	-10.028
សុន្ទរកថា	-10.0287
មួក	-10.0287
ភ្ជាប់ទៅនឹង	-10.0297
រៀបរាប់	-10.03
អុកស៊ីសែន	-10.03
ជាប្រធាន	-10.03
99	-10.0302
ចាំថា	-10.0305
cur	-10.0306
ចប់	-10.0308
ថែរក្សា	-10.0313
វិទ្យុសកម្ម	-10.0327
ការចោទប្រកាន់	-10.0332
ទីក្រុងញូវយ៉ក	-10.0335
នៅចំពោះមុខ	-10.0339
ទទួលស្គាល់ថា	-10.0339
រយៈពេលប៉ុន្មាន	-10.0341
ផ្សេង	-10.0347
37	-10.0351
អ្នកទោស	-10.0351
រងផលប៉ះពាល់	-10.0358
ល្បាយ	-10.039
សន្លាក់	-10.0403
នាំមកនូវ	-10.0403
▁តើយើងអាច	-10.0403
បង្ខំ	-10.0412
ប្រទេសឥណ្ឌា	-10.0414
នាឡិកា	-10.0416
អធិស្ឋាន	-10.0416
តែប៉ុណ្ណោះ	-10.0422
▁from	-10.0422
ü	-10.0429
ពពក	-10.0442
របៀបដែលយើង	-10.0443
ការថប់បារម្ភ	-10.0452
ប្រុស	-10.0454
▁yourself	-10.0455
បែកបាក់	-10.0455
បន្ធូរបន្ថយ	-10.0455
▁Yu	-10.0462
form	-10.0473
កាន់តំណែង	-10.0478
▁Gar	-10.049
ប្រឌិត	-10.0494
ជារឿងធម្មតា	-10.05
ការពិតដែលថា	-10.0521
ញ៉ាំអាហារ	-10.0522
ទឹកក្តៅ	-10.0532
ទឹកនោម	-10.0537
ឈឺក្បាល	-10.0566
រួមចំណែក	-10.0569
68	-10.0572
ហ្វូង	-10.0572
អេហ្ស៊ីប	-10.0572
យ៉ាងល្អ	-10.0585
ល្ងាច	-10.0586
ខ្វះ	-10.0586
▁លើសពីនេះទៀត	-10.0586
ពិភាក្សាអំពី	-10.059
ឆន្ទៈ	-10.0597
ចរាចរណ៍	-10.0599
itch	-10.0609
]	-10.0612
នៅម្នាក់ឯង	-10.0612
លេងហ្គេម	-10.0617
▁ខ្ញុំប្រាកដថា	-10.0622
ភាគល្អិត	-10.0625
ឆ្ងល់	-10.0631
ងាយរងគ្រោះ	-10.0638
ងាយ	-10.0638
ស្រាបៀរ	-10.0638
ón	-10.0641
អាឡែហ្ស៊ី	-10.0665
▁ហើយគាត់បាន	-10.0673
ៅ	-10.0692
ជួញដូរ	-10.0692
នីហ្សេរីយ៉ា	-10.0692
ការស៊ើបអង្កេត	-10.0693
ឆ្អឹងខ្នង	-10.0694
44	-10.0699
ទេសចរណ៍	-10.0705
នៅទូទាំងពិភពលោក	-10.0709
តាមផ្លូវ	-10.0722
ប្រឈម	-10.0724
បូម	-10.0732
The	-10.0737
14	-10.0739
សិប	-10.0744
▁William	-10.0745
បឹង	-10.0745
ការច្នៃប្រឌិត	-10.0752
ទីក្រុងប៉ារីស	-10.0758
ព្រលឹង	-10.0758
34	-10.076
19	-10.0762
ខា	-10.0771
រមៀល	-10.0772
▁Francis	-10.0772
សួន	-10.0772
▁សូមចងចាំថា	-10.0772
ច្រើនទៀត	-10.0778
ជាតិស្ករ	-10.0792
តាំងទីលំនៅ	-10.0799
រាត្រី	-10.0799
បោះចោល	-10.08
▁Angel	-10.0803
កសិករ	-10.0812
ក្រែម	-10.0812
77	-10.0822
បេក្ខជន	-10.0826
ជារៀងរហូត	-10.0826
សួរសំណួរ	-10.0847
13	-10.085
ម្ហូប	-10.0853
[	-10.0853
១	-10.0866
ម្ជុល	-10.0866
សង្ខេប	-10.088
73	-10.0886
សារព័ត៌មាន	-10.0888
ធំបំផុត	-10.0889
ខ្មោច	-10.0894
សាជីវកម្ម	-10.0894
សាល	-10.0898
ated	-10.0902
ឈីលី	-10.0907
លោកខាងលិច	-10.0911
ការពិសោធន៍	-10.0933
ដែរឬទេ	-10.0934
អភិរក្ស	-10.0934
72	-10.094
ឧត្តម	-10.0948
ពិធីបុណ្យ	-10.0959
ដំបូន្មាន	-10.0962
ផ្គូផ្គង	-10.0962
ទីបួន	-10.0962
pper	-10.0966
33	-10.0973
កាលពីយប់មិញ	-10.0975
តម្រងនោម	-10.0976
ចំនួនបួន	-10.0978
ពេញមួយថ្ងៃ	-10.0984
ធ្វើអត្តឃាត	-10.0989
មនោសញ្ចេតនា	-10.0989
វិស្វកម្ម	-10.0989
▁meta	-10.0996
BC	-10.0996
សមស្រប	-10.1003
ឯកោ	-10.1005
ភាពជោគជ័យ	-10.1006
47	-10.1011
ឌ	-10.1013
តែងតាំង	-10.1027
ទន់ភ្លន់	-10.1027
មហោស្រព	-10.103
ពិព័រណ៍	-10.103
ជ័យជម្នះ	-10.1044
សត្វល្អិត	-10.1044
បកស្រាយ	-10.1058
កំពុងរង់ចាំ	-10.1062
ឈ	-10.107
NA	-10.108
ដោយឥតគិតថ្លៃ	-10.1082
52	-10.1084
ដំបង	-10.1086
នឹក	-10.1086
យល់ស្រប	-10.1097
ការរួមភេទ	-10.1099
ប្រទេសបារាំង	-10.1106
ការតស៊ូ	-10.111
មានផាសុកភាព	-10.1133
ចំណែក	-10.1136
តម្រង	-10.1141
ខ្ជះខ្ជាយ	-10.1141
បំភ្លឺ	-10.1141
មេបញ្ជាការ	-10.1141
មិត្តភាព	-10.1145
67	-10.1146
ជំនួសវិញ	-10.1147
ជង្គង់	-10.1155
ភោជនីយដ្ឋាន	-10.1155
អង់ទីប៊ីយ៉ូទិក	-10.1155
ក្នុងមួយសប្តាហ៍	-10.117
ជាទៀងទាត់	-10.1182
សូន្យ	-10.1183
ការបរាជ័យ	-10.1184
អចលនទ្រព្យ	-10.1197
អាហ្សង់ទីន	-10.1197
ford	-10.1213
ពិពណ៌នាអំពី	-10.1221
លើកដំបូង	-10.1223
ប៊ូតុង	-10.1223
ជាមុនសិន	-10.1225
ច្បាស់ណាស់	-10.1231
ជាច្រើនទៀត	-10.1235
យ៉ាងធ្ងន់ធ្ងរ	-10.1246
បូក	-10.125
ចរន្ត	-10.1253
▁1970	-10.126
ចក្ខុវិស័យ	-10.1268
សន្លឹក	-10.1268
ឆ្មាំ	-10.1272
ប្រសើរជាង	-10.1285
វ៉ាក់សាំង	-10.1296
ö	-10.1296
កាន់តែប្រសើរឡើង	-10.1296
ការផ្តោតអារម្មណ៍	-10.1302
ថោក	-10.131
បំណុល	-10.131
▁Robert	-10.1311
តស៊ូ	-10.1319
ធ្ងន់	-10.1324
នៅជាប់នឹង	-10.1333
ល្បែង	-10.1338
ស្ថាបត្យកម្ម	-10.1338
62	-10.1351
រដូវរងា	-10.1353
លើកលែងទោស	-10.1353
អាណានិគម	-10.1367
ចំនួនបី	-10.1369
ប្រារព្ធ	-10.1377
ធ្វើតេស្ត	-10.1378
ស្លាប	-10.1378
អចិន្ត្រៃយ៍	-10.1381
46	-10.139
ator	-10.1391
កម្មសិទ្ធិ	-10.1404
▁Paul	-10.1405
56	-10.1408
សាហាវ	-10.141
ត្នោត	-10.141
43	-10.142
ñ	-10.1438
កុម្មុយនិស្ត	-10.1438
បើប្រៀបធៀបទៅនឹង	-10.1438
មេដាយ	-10.1438
▁Black	-10.1438
អាហារថ្ងៃត្រង់	-10.1439
osis	-10.1442
▁តើអ្នកដឹងទេថា	-10.1453
កោណ	-10.1467
អ្វីដែលអ្នកកំពុង	-10.1474
ខុសច្បាប់	-10.1475
នៅចុងបញ្ចប់នៃ	-10.1481
បំពុល	-10.1482
ទីភ្នាក់ងារ	-10.1485
សមាមាត្រ	-10.1496
ផ្អែម	-10.1496
សម្របខ្លួន	-10.151
ត្រឡប់	-10.1512
រូបវិទ្យា	-10.1513
ដឹក	-10.152
58	-10.1528
ដុស	-10.1538
ការប៉ុនប៉ង	-10.1539
រអិល	-10.1539
▁វាជារឿងសំខាន់	-10.1539
អាចទៅរួច	-10.1546
អន្ទាក់	-10.1554
ឧ	-10.1554
ចៅ	-10.1559
▁ខ្ញុំគិតថាយើង	-10.1567
ប្រញាប់ប្រញាល់	-10.1568
ចង្អុល	-10.1574
BA	-10.1578
ឆ្វេង	-10.1582
ព្រះវិហារ	-10.1585
នាយកប្រតិបត្តិ	-10.1588
ជជែក	-10.1595
49	-10.1596
ថ្ងៃស្អែក	-10.1597
បរិបទ	-10.1598
ព្រឹទ្ធសភា	-10.1598
ម្តងហើយម្តងទៀត	-10.1598
ស្រដៀងទៅនឹង	-10.1598
ម្ខាងទៀត	-10.16
បញ្ចាំ	-10.1612
ផ្សាយ	-10.1619
▁Luc	-10.1621
ដាំដុះ	-10.1627
▁ជាកន្លែងដែល	-10.163
ឥតគិតថ្លៃ	-10.1631
▁poly	-10.1633
rze	-10.1633
ក្បែរ	-10.1642
▁តើនោះជា	-10.1648
កម្រាល	-10.1656
ជីតា	-10.1656
កោង	-10.1656
លំនៅដ្ឋាន	-10.1671
សន្សំ	-10.1671
ស្កេន	-10.1671
ចេញទៅក្រៅ	-10.1671
▁1960	-10.1673
▁how	-10.1685
ឆ្លងមេរោគ	-10.1691
ម្នាក់ទៀត	-10.1692
71	-10.1697
ស្មើនឹង	-10.1702
សម្ពាធឈាម	-10.1707
57	-10.1716
មិត្តប្រុស	-10.1717
ដើរលេង	-10.1718
មិត្តរួមការងារ	-10.172
ព្រះអម្ចាស់	-10.173
ឯកទេស	-10.173
គឺជាផ្នែកមួយនៃ	-10.1737
ប្រាំឆ្នាំ	-10.1738
យ៉ាងច្បាស់	-10.1739
សម្បូរបែប	-10.1744
សូត្រ	-10.1759
អកុសល	-10.1759
យក្ស	-10.176
ទីប្រាំ	-10.1779
គូប្រជែង	-10.1804
ign	-10.1813
រ៉ូម៉ាំង	-10.1819
សារធាតុគីមី	-10.1823
▁hydro	-10.1829
កំពង់ផែ	-10.1834
បណ្តោយ	-10.1834
កាលវិភាគ	-10.1834
កំពុងសម្លឹងមើល	-10.1838
ology	-10.1849
អភិបាល	-10.1878
នៅពេលយប់	-10.1884
អាតូម	-10.1894
▁1998	-10.1894
ហើយបន្ទាប់មក	-10.19
▁Peter	-10.1905
well	-10.1911
សហប្រជាជាតិ	-10.1924
បែប	-10.1933
អាចបណ្តាលឱ្យមាន	-10.194
វេន	-10.194
ful	-10.195
ចំណាត់ថ្នាក់ទី	-10.1952
▁1999	-10.1953
ពាន់លានដុល្លារ	-10.1956
ចាត់ទុកថាជា	-10.1956
យ៉ាងណាក៏ដោយ	-10.1959
▁also	-10.196
ពន្យារពេល	-10.1969
អតិបរមា	-10.1969
លោកស្រី	-10.1969
ដែលធ្វើឡើង	-10.1973
ផ្កាយរណប	-10.1984
ចង្កោម	-10.1984
ដោយស្វ័យប្រវត្តិ	-10.1986
ពណ៌ក្រហម	-10.1994
ប្រជុំ	-10.2003
▁Carl	-10.2004
ធ្វើបានល្អ	-10.2014
right	-10.2026
ថយក្រោយ	-10.203
បរិច្ចាគ	-10.203
ផ្នូរ	-10.203
បញ្ច្រាស	-10.2045
បុព្វបុរស	-10.2045
▁បើទោះបីជា	-10.2045
ដូចដែលខ្ញុំ	-10.2048
rzy	-10.2054
ម្ខាង	-10.2058
វ័យ	-10.2058
ល្បិច	-10.206
ប៉ះទង្គិច	-10.206
មានដើមកំណើត	-10.2061
TV	-10.2061
▁want	-10.2063
ភាពស្ងប់ស្ងាត់	-10.2065
ខ្ចី	-10.2076
ចូលនិវត្តន៍	-10.2076
ជំពាក់	-10.2076
បោកគក់	-10.2076
វេចខ្ចប់	-10.2076
គ្រឿងផ្សំ	-10.2076
ពណ៌លឿង	-10.2077
យន្តការ	-10.2091
*	-10.2091
សីលធម៌	-10.2091
ចោរ	-10.2106
▁2020	-10.2113
កំណើន	-10.2122
ផ្អាក	-10.2122
លិខិត	-10.2122
ស្រមៃថា	-10.2127
តើអ្វីជា	-10.2135
ឥន្ធនៈ	-10.2137
មតិយោបល់	-10.2137
ពិការភ្នែក	-10.2141
រួចរាល់ហើយ	-10.2143
ច្របូកច្របល់	-10.2152
កូរ៉េខាងត្បូង	-10.2154
▁help	-10.2168
01	-10.2175
ផ្តាសាយ	-10.2183
ពណ៌បៃតង	-10.2188
59	-10.2193
បណ្តេញចេញ	-10.2205
ត្រឹម	-10.2211
ចូលរៀននៅ	-10.222
ដុំសាច់	-10.2225
ហូឡង់	-10.223
ក្បត់	-10.2232
បុគ្គលិកលក្ខណៈ	-10.224
ចោល	-10.2243
ឃោរឃៅ	-10.2245
66	-10.2246
ពេលនោះមក	-10.2246
រំលោភបំពាន	-10.2247
ណាមួយឡើយ	-10.2261
មានន័យដូចម្តេច	-10.2262
ដើរតួនាទី	-10.227
chlor	-10.2276
ស្តារ	-10.2277
សមីការ	-10.2277
វង្វេង	-10.2292
អាចធ្វើទៅបាន	-10.2295
▁Super	-10.2299
ដោត	-10.2308
ដ៏ពេញនិយម	-10.2314
ដ៏គួរឱ្យភ័យខ្លាច	-10.2315
គេសន្មត់ថា	-10.2317
រ៉ូប	-10.2319
ស្តុក	-10.2324
សង្គ្រោះបន្ទាន់	-10.2327
រាល់ពេលដែល	-10.2328
5%	-10.2333
54	-10.2333
បរិវេណ	-10.2339
សកម្មជន	-10.2344
ហេតុអ្វី	-10.2369
ជនជាតិជ្វីហ្វ	-10.2371
▁things	-10.2387
▁500	-10.2404
ញូវយ៉ក	-10.2406
អនាម័យ	-10.2418
បត់	-10.243
កំណត់ចំណាំ	-10.244
សង្កេតឃើញ	-10.2444
សាសនាចក្រ	-10.245
61	-10.2478
ចាត់ថ្នាក់	-10.2482
រសើប	-10.2482
ឥណទាន	-10.2482
ឃុំ	-10.2498
លើសពីនេះទៅទៀត	-10.2498
▁life	-10.2499
ចុះហត្ថលេខាលើ	-10.2509
ប្រហោង	-10.2514
បរាជ័យក្នុងការ	-10.2514
▁could	-10.2546
ដ៏លំបាក	-10.2559
តាមដងផ្លូវ	-10.2578
ញ័រ	-10.2581
ផ្តោតអារម្មណ៍	-10.259
ជាថ្មីម្តងទៀត	-10.2595
ដាវ	-10.2608
វិមាត្រ	-10.261
ចុះចត	-10.2626
ស្បែកខ្មៅ	-10.2636
LA	-10.2657
គ្រូបង្វឹក	-10.2658
អនុស្សាវរីយ៍	-10.2658
ទាសករ	-10.2658
ជារៀងរាល់ឆ្នាំ	-10.266
ប្រែទៅជា	-10.2672
}	-10.2675
ឆេះ	-10.2675
ផ្លែប៉ោម	-10.2675
អារ៉ាប់	-10.2679
ពេទ្យសត្វ	-10.268
មិត្តស្រី	-10.268
កំណត់គោលដៅ	-10.2687
llow	-10.269
នំបុ័ង	-10.2691
សងសឹក	-10.2724
ថ្នាំលាប	-10.2727
បាក់	-10.2727
ទូរស័ព្ទដៃ	-10.2729
ប្រសើរជាងមុន	-10.2734
▁sub	-10.2744
▁need	-10.2747
វីដេអូហ្គេម	-10.2749
កសិដ្ឋាន	-10.2756
បន្ទោស	-10.2756
ការទូត	-10.2757
រដ្ឋធម្មនុញ្ញ	-10.2758
▁រួមជាមួយនឹង	-10.277
រ៉ាំរ៉ៃ	-10.2773
ឧប្បត្តិហេតុ	-10.2773
ក្រោកឡើង	-10.2789
ឆ្អិន	-10.2789
ភរិយា	-10.2789
▁1997	-10.2789
អាចធ្វើវាបាន	-10.2805
ជំរាបសួរ	-10.2806
ផ្តួចផ្តើម	-10.2806
ធំទូលាយ	-10.2806
អភិបាលក្រុង	-10.2806
ត្រឡប់មកផ្ទះ	-10.2813
វត្ត	-10.2816
▁over	-10.2819
បណ្តឹង	-10.2822
លោហៈ	-10.2822
សូវៀត	-10.2822
▁មីលីក្រាម	-10.2822
▁NGC	-10.2822
part	-10.2824
▁មុនគ	-10.2824
AT	-10.2825
▁ខ្ញុំមិនដឹងទេ	-10.2825
អណ្តាត	-10.2855
ជាន់ខ្ពស់	-10.2856
ពត់	-10.2874
ផ្តាច់មុខ	-10.2875
ចុះហត្ថលេខា	-10.2879
រួមបញ្ចូលទាំង	-10.288
ទីលាន	-10.2888
សង្កត់ធ្ងន់	-10.2888
▁Martin	-10.2893
អំពាវនាវ	-10.2921
ដំណក់	-10.2921
ដែលមានស្រាប់	-10.2938
រយៈពេលយូរ	-10.2955
ចម្រៀង	-10.2969
ប្រព្រឹត្ត	-10.2971
▁think	-10.2972
ផ្នែកខាងលើនៃ	-10.2972
ដែលគេស្គាល់	-10.2975
យូរអង្វែង	-10.2988
វិស្វករ	-10.2988
ក្រូចឆ្មា	-10.2989
រយៈពេលខ្លី	-10.2991
Z	-10.2992
អ្វីដែលអ្នកចង់	-10.3005
ប៊ឺ	-10.3005
យុគសម័យ	-10.3005
▁Apple	-10.3005
បំពង់ក	-10.3008
ធ្វើឱ្យប្រសើរឡើង	-10.3013
ចុះបញ្ជី	-10.3014
កាកសំណល់	-10.3022
ទឹកជំនន់	-10.3022
ប្រមាថ	-10.3022
មេរៀន	-10.3022
នោះហើយជា	-10.3024
កាក់	-10.3035
ច្រកទ្វារ	-10.3041
មិត្តរួម	-10.3048
ពស់	-10.3054
សប្បុរសធម៌	-10.3056
បរិញ្ញាបត្រ	-10.3056
53	-10.3063
ប៉ុន្មានថ្ងៃ	-10.3068
លក់រាយ	-10.3099
មិនអើពើ	-10.3106
51	-10.3114
រាយ	-10.3119
ដំរី	-10.3123
ដំឡូង	-10.3123
ប្រទេសអង់គ្លេស	-10.3133
គេចាត់ទុកថាជា	-10.3151
តួលេខ	-10.3157
ខ្វះខាត	-10.3174
អត្ថាធិប្បាយ	-10.3174
ពិការ	-10.3204
ទះ	-10.3207
α	-10.3209
▁1994	-10.3209
▁1995	-10.3219
បបូរមាត់	-10.3226
អ្នកជិតខាង	-10.3228
កោស	-10.323
ទស្សនវិជ្ជា	-10.3243
ផ្ទះបាយ	-10.3243
ស្តាប់ទៅដូចជា	-10.3244
កុងសូល	-10.326
ចំណូល	-10.3261
បោះបង់	-10.3263
អំណោយផល	-10.3277
ផ្តាច់	-10.3291
យ៉ាងជិតស្និទ្ធ	-10.3301
រួមចំណែកដល់	-10.3305
អេកូឡូស៊ី	-10.3312
ស្ទូឌីយោ	-10.3312
អនឡាញ	-10.3312
▁កុំបារម្ភ	-10.332
កូនឆ្កែ	-10.3328
កាលីហ្វ័រញ៉ា	-10.3329
កែច្នៃ	-10.3329
អេឡិចត្រូនិច	-10.3329
រហូតមកដល់ពេលនេះ	-10.3329
▁1996	-10.3329
ជីវសាស្រ្ត	-10.3331
កាន់តែងាយស្រួល	-10.3333
ដែន	-10.3359
ព្រិល	-10.3364
វាដល់ពេល	-10.3368
ស្ថិតិ	-10.3373
ដែលមានមូលដ្ឋាននៅ	-10.3383
ឆ្ងល់ថាតើ	-10.3391
បទប្បញ្ញត្តិ	-10.3399
អស់សង្ឃឹម	-10.3405
អ្នកនិងខ្ញុំ	-10.3412
គ្រុនក្តៅ	-10.3416
បុណ្យណូអែល	-10.3416
វិចិត្រករ	-10.3416
ស៊ុម	-10.3416
សារៈសំខាន់	-10.3419
ត្រីមាស	-10.3422
រំលង	-10.3434
▁person	-10.3435
ពេញមួយជីវិត	-10.3439
ស្នាមប្រឡាក់	-10.3451
បណ្តេញ	-10.3462
ក្រឡេកមើល	-10.3487
គណនេយ្យ	-10.3487
ą	-10.3487
ស៊ុយអែត	-10.3504
អង់ស៊ីម	-10.3504
▁ទោះយ៉ាងណា	-10.3504
ស្នាមរបួស	-10.3506
ខណៈពេល	-10.3508
គ្រប់ប្រភេទ	-10.3518
▁good	-10.3523
សេចក្តីរីករាយ	-10.3546
ចក្រភព	-10.3556
គ្រឿងទេស	-10.3558
ខ្ញុំគ្រាន់តែចង់	-10.358
គ្រាប់កាំភ្លើង	-10.3585
គិលានុបដ្ឋាយិកា	-10.3593
ហោះ	-10.3593
មហារីក	-10.3603
អណ្តូង	-10.3611
រលោង	-10.3614
រាតត្បាត	-10.3629
អំពីរឿងនោះ	-10.3637
សាច់ប្រាក់	-10.3639
ប្រសើរឡើង	-10.3645
5,000	-10.3654
គួរឱ្យភ័យខ្លាច	-10.3654
កៅស៊ូ	-10.3664
▁super	-10.3665
▁back	-10.3668
ពិសោធន៍	-10.3677
បង្ក្រាប	-10.3682
បង្កគ្រោះថ្នាក់	-10.3687
គ្រឹះ	-10.3718
ច្រណែន	-10.3718
មេត្តា	-10.3718
អបអរសាទរ	-10.3718
និយមន័យ	-10.372
អំព	-10.3733
ខ្សែក្រវ៉ាត់	-10.3736
ស្បថ	-10.3736
ស្រវឹង	-10.3754
អាទិភាព	-10.3754
ទិនានុប្បវត្តិ	-10.3755
បញ្ញា	-10.3755
ប៉ុន្មាននាក់	-10.3762
អ៊ីស្រាអែល	-10.3773
ផលិតករ	-10.3773
ធានារ៉ាប់រង	-10.3791
ក្មេងជំទង់	-10.3791
ហៅវាថា	-10.3797
សន្មតថា	-10.3809
កូរ៉េខាងជើង	-10.381
ឃ្លាំង	-10.3827
ភារកិច្ច	-10.3827
គុយបា	-10.3827
08	-10.3837
ជូត	-10.3864
បម្រុងទុក	-10.3866
▁Louis	-10.3882
press	-10.389
ជាតិខ្លាញ់	-10.3893
ជាសះស្បើយ	-10.39
ថវិកា	-10.39
ទួរគី	-10.39
ប្រាក់កម្ចី	-10.39
អាំង	-10.39
▁hyper	-10.3901
▁look	-10.3903
បំផ្លិចបំផ្លាញ	-10.3919
អង្ករ	-10.3919
▁បើមិនដូច្នេះទេ	-10.3919
ទេសភាព	-10.3921
05	-10.3931
លម្អិត	-10.3934
ទំនាញ	-10.3937
▁take	-10.3942
យានដ្ឋាន	-10.3956
យីហោ	-10.3956
សួនច្បារ	-10.3956
ហែក	-10.396
ឆ្នេរ	-10.3967
ម្ចាស់ផ្ទះ	-10.3969
គ្រោះមហន្តរាយ	-10.3974
▁might	-10.3977
ي	-10.3993
អ៊ីដ្រូសែន	-10.3993
វាសនា	-10.3993
ឱប	-10.3993
ទន់ខ្សោយ	-10.3994
ចងក្រង	-10.4011
ទោល	-10.4011
▁find	-10.4014
ចំណាកស្រុក	-10.403
ឆាប់ៗនេះ	-10.403
ចង្វាក់	-10.4046
▁ពិតប្រាកដណាស់	-10.4057
វេជ្ជសាស្ត្រ	-10.4067
06	-10.4067
▁give	-10.407
ប័ណ្ណ	-10.4086
បន្សល់ទុក	-10.4086
ដូចខាងក្រោម៖	-10.4104
នៅពេលព្រឹក	-10.4121
សំណល់	-10.4123
▁Alex	-10.4123
សមាជិកសភា	-10.4131
បង្កើនល្បឿន	-10.4135
សម្ព័ន្ធមិត្ត	-10.4139
តែម្នាក់គត់	-10.4142
ជំនុំជម្រះ	-10.4142
បង្រួបបង្រួម	-10.4142
កាលៈទេសៈ	-10.4161
▁1992	-10.4161
ជនបទ	-10.4166
ចម្លាក់	-10.418
បត់បែន	-10.4199
សារធាតុចិញ្ចឹម	-10.4227
អាហារបំប៉ន	-10.4231
ទេវកថា	-10.4237
រំញោច	-10.4237
ហុងកុង	-10.4237
▁para	-10.4265
អ៊ីរ៉ង់	-10.4275
បះបោរ	-10.4294
សញ្ញាបត្រ	-10.4294
ហោប៉ៅ	-10.4294
ឈីស	-10.4294
សម្លេង	-10.4294
ចង្វាក់បេះដូង	-10.4296
▁who	-10.43
ដកស្រង់	-10.4313
របប	-10.4331
ចាប់ពង្រត់	-10.4332
មុំ	-10.4332
កាន់តែអាក្រក់ជាង	-10.4334
គ្រប់រូប	-10.4341
ចំហាយ	-10.4351
ព្រៃឈើ	-10.4354
នាវិក	-10.437
និទាឃរដូវ	-10.437
ផ្សែង	-10.437
អត់ធ្មត់	-10.437
−	-10.437
កែវ	-10.437
ridge	-10.4376
ដេរ	-10.439
ឆ្នាំមកហើយ	-10.4396
លេខកូដ	-10.4397
95	-10.4427
07	-10.4428
ផ្តន្ទាទោស	-10.4428
រសៀល	-10.4428
▁Warsaw	-10.4428
និទានរឿង	-10.4433
ដំណើរកម្សាន្ត	-10.4454
ទីក្រុងប៉េកាំង	-10.4467
ក្រាម	-10.4487
ចំណង	-10.4503
▁Steve	-10.4504
ឃ្លាំមើល	-10.4506
ប៉ាតង់	-10.4506
ctive	-10.4507
មានឆន្ទៈក្នុងការ	-10.4508
លឿនជាងមុន	-10.4511
រមាស់	-10.4526
ចុងសប្តាហ៍	-10.4537
ផ្លុំ	-10.4545
▁Saint	-10.4546
អាចនិយាយបាន	-10.4548
ព្រះមហាក្សត្រ	-10.4565
▁Microsoft	-10.4565
គួរឱ្យខ្លាច	-10.4566
ផ្ទុយគ្នា	-10.4584
ដំណើរទស្សនកិច្ច	-10.4604
ផ្អែមល្ហែម	-10.4604
អត់ឃ្លាន	-10.4604
ទ្រាំ	-10.4604
តំណភ្ជាប់	-10.4624
រលុង	-10.4624
រងទុក្ខ	-10.4625
អ៊ីស្លាម	-10.4644
▁1993	-10.4663
មេរោគអេដស៍	-10.4683
▁Richard	-10.4683
បួននាក់	-10.4691
តោន	-10.4695
មានអ្វីខុស	-10.4697
មីក្រូ	-10.4703
យ៉ាងទន់ភ្លន់	-10.4708
ទំនេរ	-10.4723
កន្ទុយ	-10.4723
ឋានៈ	-10.4723
សំបុក	-10.4723
អាល់កុល	-10.4723
▁hypo	-10.4724
គេស្គាល់ថា	-10.4726
សមិទ្ធិផល	-10.4743
▁something	-10.4743
រទេះ	-10.4744
ប៉ុន្តែបន្ទាប់មក	-10.4745
ត្រលប់មក	-10.4755
ផ្សារទំនើប	-10.4761
អវកាស	-10.4763
ម៉ាស្សា	-10.4763
▁Charles	-10.4763
▁micro	-10.4781
ទិន្នផល	-10.4783
ព្រះយេស៊ូវ	-10.4803
▁Android	-10.4803
▁League	-10.4803
hydr	-10.4817
ś	-10.4823
ខ្នាតតូច	-10.4823
មានទីតាំងនៅ	-10.4831
ត្រាំ	-10.4852
អន្តរ	-10.4859
បំផ្ទុះ	-10.4864
ចូលទៅជិត	-10.4864
ចុចប៊ូតុង	-10.4867
ការហៅទូរស័ព្ទ	-10.4875
គម្លាត	-10.4884
ប្រដាប់ក្មេងលេង	-10.4884
ដុសធ្មេញ	-10.4885
ក្នុងពេលឆាប់ៗនេះ	-10.4904
្រលាញ់ភេទដូចគ្នា	-10.4904
បន្តិចម្តងៗ	-10.4924
▁ដូចគ្នានេះផងដែរ	-10.4924
បទសម្ភាសន៍	-10.4926
កាលពីម្សិលមិញ	-10.4945
▁Facebook	-10.4945
ស៊ីជម្រៅ	-10.4946
ចាក់ផ្សាយ	-10.4957
កាតូលិក	-10.4965
ប្លន់	-10.4965
ត្រូវបានបញ្ជូនទៅ	-10.4973
ទ្រង់ទ្រាយ	-10.4986
▁White	-10.4986
ឧទ្ទិស	-10.5006
ទូរសព្ទ	-10.5006
▁America	-10.5006
ពោត	-10.5006
ធាត់	-10.5027
ព្យញ្ជនៈ	-10.5027
ا	-10.5047
ចំណី	-10.5047
▁South	-10.505
▁going	-10.5054
វិធីមួយដើម្បី	-10.5056
ត្រគាក	-10.5068
ព្រះរាជាណាចក្រ	-10.5068
និន្នាការ	-10.5089
Ś	-10.5089
សិប្បនិម្មិត	-10.5109
កាល់ស្យូម	-10.5109
មេកានិច	-10.5109
្ថិតិកណ្តាលស៊ីរី	-10.5109
កំប៉ុង	-10.513
គ្រិស្តបរិស័ទ	-10.513
ប្រយោគ	-10.513
យោងតាមការិយាល័យស	-10.517
ខ្លាឃ្មុំ	-10.5172
▁people	-10.5172
ត្រកូល	-10.5192
សមាធិ	-10.5192
គ្រីស្តាល់	-10.5213
ប្រេកង់	-10.5213
លំអៀង	-10.5213
ក្រាហ្វិក	-10.5234
បង្ហាប់	-10.5234
លែងលះ	-10.5234
តារាម៉ូដែល	-10.5234
ឆ្នាំចុងក្រោយនេះ	-10.5239
ពេញវ័យ	-10.5249
យេនឌ័រ	-10.5255
ទន្សាយ	-10.5276
ទង់ជាតិ	-10.5276
ខ្ញុំស្រឡាញ់អ្នក	-10.5279
លេខាធិការ	-10.5287
បែបប្រពៃណី	-10.532
ស្មើ	-10.5334
កវី	-10.534
ឆ្ងាញ់	-10.5361
ផ្តាច់ព្រ័ត្រ	-10.5362
និរន្តរភាព	-10.5382
កុលសម្ព័ន្ធ	-10.5382
គម្ពីរ	-10.5382
graph	-10.5383
មរណភាព	-10.5404
សមរភូមិ	-10.5404
▁Port	-10.5406
ជាប់ពន្ធនាគារ	-10.5408
ជាប់ពាក់ព័ន្ធ	-10.5412
ប៉ាស៊ីហ្វិក	-10.5425
អាហារពេលព្រឹក	-10.5426
ម្ភៃ	-10.5446
លួងលោម	-10.5468
ឯកតា	-10.5468
រ៉ុក	-10.5469
ឥឡូវ	-10.5469
ផ្តោត	-10.547
▁មិនមែនអ្នកទេ	-10.547
វិក័យប័ត្រ	-10.5489
ដែលមានមូលដ្ឋានលើ	-10.549
សប្បុរស	-10.5511
អ៊ូ	-10.5511
មួយឬពីរ	-10.5516
ر	-10.5533
ក្រុមតារានិករ	-10.5533
ម្តងម្កាល	-10.5533
រើសអើង	-10.5533
អណ្តើក	-10.5533
▁every	-10.5533
▁Henry	-10.5533
គីឡូក្រាម	-10.5554
បាតុភូត	-10.5554
អ៊ូហ្គង់ដា	-10.5554
iyah	-10.5557
នាគ	-10.5563
ម្យ៉ាងវិញទៀត	-10.5576
រាប់សិប	-10.5578
▁1991	-10.5598
ឈុតឆាក	-10.5599
▁much	-10.5605
ប្រដាប់អាវុធ	-10.5619
ភាពធន់	-10.5619
ត្រូវបានដកចេញ	-10.5628
ជាប្រចាំ	-10.563
ព្រះពុទ្ធ	-10.5641
ភ្ញាក់ពីគេង	-10.5641
ville	-10.5642
មិនអាចទៅរួចទេ	-10.5648
ខួប	-10.5663
សម្ភាសន៍	-10.5684
តុក្កតា	-10.5685
ជំងឺទឹកនោមផ្អែម	-10.5729
ធ្វើទារុណកម្ម	-10.5729
ហ្វីលីពីន	-10.5729
ឡានក្រុង	-10.5729
អន្តរាគមន៍	-10.5729
▁trans	-10.5729
ជម្រៅ	-10.5749
ស្របគ្នា	-10.5778
បន្ធូរ	-10.5795
ជីដូន	-10.5795
ផ្សំ	-10.5817
ច្របាច់	-10.5818
ជណ្តើរ	-10.584
អាកាសចរណ៍	-10.584
ទីធ្លា	-10.584
ប៉ម	-10.584
ជំហរ	-10.5862
កប្បាស	-10.5862
ចង្អោរ	-10.5862
អត់ឱន	-10.5885
▁1,000	-10.5912
ដង់ស៊ីតេ	-10.5952
អាគុយម៉ង់	-10.5952
មើលថែ	-10.5952
▁TED	-10.5952
CBS	-10.5952
រឿងព្រេង	-10.5975
ក្អួត	-10.5997
គំនូរជីវចល	-10.5997
ផុតពូជ	-10.602
ស្រួល	-10.6027
ស្បូន	-10.6043
ទៀងទាត់	-10.6044
ឡាតាំង	-10.6048
ព្រួញ	-10.6065
ភេរវកម្ម	-10.6065
ទទឹង	-10.6088
ជ្រលងភ្នំ	-10.6111
ពួក	-10.6128
ក្អក	-10.618
field	-10.6188
បាច់	-10.6202
×	-10.6203
សុខុមាលភាព	-10.6203
អត្តពលិក	-10.6203
អាឡឺម៉ង់	-10.6203
ទីស្នាក់ការ	-10.6203
គាំងបេះដូង	-10.6226
មមាញឹក	-10.6226
ប្រារព្ធពិធី	-10.6257
ពេទ្យ	-10.6264
ឃ	-10.6271
ការប្រគុំតន្ត្រី	-10.6273
ពពុះ	-10.6273
អគ្គីភ័យ	-10.6273
បានបាត់ទៅហើយ	-10.6296
ធ្នូ	-10.6316
កាបូអ៊ីដ្រាត	-10.6319
ដែលនៅសេសសល់	-10.6319
ថ្លែង	-10.6343
ទូរទឹកកក	-10.6343
រឿងរ៉ាវ	-10.6343
ស្និទ្ធស្នាល	-10.6343
▁down	-10.6346
កំណត់ហេតុ	-10.6366
ងើបឡើងវិញ	-10.6366
ដេញតាម	-10.6366
អាក្រាតកាយ	-10.6366
អធិបតេយ្យ	-10.639
កុំព្យូទ័រយួរដៃ	-10.639
ទេវតា	-10.639
ប្លែក	-10.6413
សៀគ្វី	-10.6413
សាច់ញាតិ	-10.6413
អៀរឡង់	-10.6413
ទីក្រុងរ៉ូម	-10.6414
ស្រអាប់	-10.6437
è	-10.6437
ប៉ូតាស្យូម	-10.6437
វិហារ	-10.6458
អក្ខរាវិរុទ្ធ	-10.6461
ឆៅ	-10.6462
នាពេលបច្ចុប្បន្ន	-10.6477
សំលៀកបំពាក់	-10.6485
អណ្តែត	-10.6485
អាហារសម្រន់	-10.6485
ចុងបញ្ចប់នៃ	-10.6487
2,000	-10.6488
ថ្ងៃខួបកំណើត	-10.6508
ភពព្រះអង្គារ	-10.6508
សូកូឡា	-10.6508
ដំណាំ	-10.6532
ទ្រុង	-10.6532
វិធានការ	-10.6532
វ៉ាស៊ីនតោន	-10.6532
អាហារូបត្ថម្ភ	-10.6532
▁Street	-10.6556
friend	-10.6556
តស៊ូមតិ	-10.6571
ជនភៀសខ្លួន	-10.658
ទស្សន៍	-10.6604
រូងភ្នំ	-10.6604
កេះ	-10.6604
ចៀម	-10.6604
វេណេហ្ស៊ុយអេឡា	-10.6628
លាយបញ្ចូលគ្នា	-10.6652
ឱ្យបានច្រើនតាម	-10.6652
សរសៃឈាមវ៉ែន	-10.6677
ស្នាមជ្រួញ	-10.6677
រត់គេច	-10.6699
ប្រឹក្សាភិបាល	-10.6725
ហ្មត់ចត់	-10.6725
▁Oliver	-10.6725
ដឺក្រេ	-10.675
លេចធ្លាយ	-10.675
របាំ	-10.6766
មុជទឹក	-10.6774
ពាណិជ្ជករ	-10.6774
▁YouTube	-10.6774
គិតត្រឹមឆ្នាំ	-10.6774
បងប្អូនជីដូនមួយ	-10.6799
▁Green	-10.6799
ថប់បារម្ភ	-10.6804
ចម្រូងចម្រាស	-10.6823
នៅទីណា	-10.6845
▁USB	-10.6848
បូជាចារ្យ	-10.6873
▁Scott	-10.6873
ផ្តល់ឱ្យយើងនូវ	-10.6873
ទស្សនវិស័យ	-10.6897
បង្គន់	-10.6897
ភាគពាយព្យ	-10.6897
▁photo	-10.6899
cept	-10.6903
សង្កត់	-10.6922
ដ្ឋារចនាសម្ព័ន្ធ	-10.6922
ពលកម្ម	-10.6922
▁Charlie	-10.6922
ពឹងផ្អែក	-10.6935
▁FBI	-10.6947
បរបាញ់	-10.6947
បំភាយ	-10.6972
មរតក	-10.6972
សោកនាដកម្ម	-10.6972
អំពូល	-10.6972
ចំណុចប្រទាក់	-10.6997
▁Thomas	-10.6997
ស៊ុប	-10.6997
ស្នាក់នៅទីនេះ	-10.6997
▁Championship	-10.7047
ប្រាជ្ញា	-10.7072
ដំបៅ	-10.7098
អ្នកប្រាជ្ញ	-10.7098
បំពាក់	-10.7098
បញ្ឈរ	-10.7123
ភ័យស្លន់ស្លោ	-10.7123
វិសាលគម	-10.7123
ដាច់ខាត	-10.7148
មនុស្សធម៌	-10.7148
អេឡិចត្រុង	-10.7148
ស្លៀក	-10.7198
ថាមវន្ត	-10.7225
វ៉ែនតា	-10.7225
រឿងនិទាន	-10.7244
តេឡេស្កុប	-10.725
ឋានសួគ៌	-10.725
▁York	-10.7251
ឈានមុខគេ	-10.7276
▁Chicago	-10.7276
▁bleach	-10.7276
មូស្លីម	-10.7302
សូដ្យូម	-10.7302
ទៅជួបគ្រូពេទ្យ	-10.7302
លឿង	-10.7325
កីឡដ្ឋាន	-10.7328
ឈ្លោះប្រកែក	-10.7328
ប៉េរូ	-10.7328
ព័រទុយហ្គាល់	-10.7328
ដែលអាចកើតមាន	-10.7328
world	-10.7328
ត្អូញត្អែរ	-10.7354
សន្ធិសញ្ញា	-10.7354
▁គឺជាការតាំង	-10.7354
ដទៃទៀត	-10.7366
ល្បួង	-10.738
បន្ទាន់	-10.74
គ្រឿងអលង្ការ	-10.7406
សញ្ញាប័ត្រ	-10.7406
ទីលំនៅមួយនៅក្នុង	-10.7406
មូស	-10.7406
ហ្គីតា	-10.7432
ប្រេះ	-10.7432
អ៊ីរ៉ាក់	-10.7432
ពូកែ	-10.7432
ដែលមានចំណងជើងថា	-10.7432
បង្គោល	-10.7458
▁1983	-10.7458
▁Smith	-10.7458
ជនជាតិភាគតិច	-10.7484
ā	-10.7484
គុណសម្បត្តិ	-10.7484
ប៉ុប	-10.7484
អាហ្វហ្គានីស្ថាន	-10.7484
where	-10.7484
តានតឹង	-10.7498
អរិយធម៌	-10.751
កេរ្តិ៍ឈ្មោះ	-10.7537
ខ្នើយ	-10.7537
Ł	-10.7537
បិសាច	-10.7537
ពាក្យចចាមអារ៉ាម	-10.7537
▁Rachel	-10.7537
ឆ្លាត	-10.7563
ទឹកខ្មេះ	-10.759
រាបស្មើ	-10.759
អោយប្រសើរឡើងនូវ	-10.759
អ័ក្ស	-10.759
រោគ	-10.7611
ជម្រះ	-10.7616
តូក្យូ	-10.7616
ប៊ិច	-10.7616
អន្តោប្រវេសន៍	-10.7616
ឯកសណ្ឋាន	-10.7616
ចុងភៅ	-10.7643
សហភាពសូវៀត	-10.7643
អត្ថិភាព	-10.7643
សំដៅ	-10.7695
ផាកពិន័យ	-10.7697
▁iPhone	-10.7697
▁because	-10.7697
▁Claire	-10.7697
▁អ៊ុំ	-10.7724
កក់ក្តៅ	-10.7724
▁Daniel	-10.7724
ទំនប់	-10.775
ឧក្រិដ្ឋជន	-10.775
ប្រមូលផល	-10.7773
បម្រុង	-10.7774
ប្រថុយប្រថាន	-10.7778
ស្ថាបត្យករ	-10.7778
ផ្សងព្រេង	-10.7778
▁ទោះជាយ៉ាងណា	-10.7797
វិន័យ	-10.7805
តន្ត្រីករ	-10.7805
ពូជសាសន៍	-10.7832
ប្រាថ្នា	-10.7852
ស្គ្រីប	-10.7859
▁receptor	-10.7859
ū	-10.7859
ស្រលាញ់	-10.7886
▁Pomorski	-10.7886
កោរ	-10.7914
បំណង	-10.7941
ú	-10.7941
បោកបញ្ឆោត	-10.7941
អាហារូបករណ៍	-10.7941
អុកស៊ីតកម្ម	-10.7941
▁Arthur	-10.7941
▁Queen	-10.7941
ទិស	-10.7941
ពន្យារកំណើត	-10.7969
អូទ្រីស	-10.7969
ជំពូក	-10.7996
សេចក្តីព្រាង	-10.7996
▁Choszczno	-10.7996
ពណ៌ប្រផេះ	-10.7996
ប្រឡាយ	-10.7996
ចង្កៀង	-10.8024
ច្រានចោល	-10.8024
នារី	-10.8024
បាញ់ប្រហារ	-10.8052
គ្រឿងបន្លាស់	-10.8052
▁Great	-10.8052
រដ្ឋធានី	-10.8077
និម្មិត	-10.808
មជ្ឈិមបូព៌ា	-10.808
ទំពាំងបាយជូរ	-10.808
សុទិដ្ឋិនិយម	-10.8108
ភាពជាអ្នកដឹកនាំ	-10.8108
ż	-10.8136
សោកសៅ	-10.8136
▁Academy	-10.8136
ទាន់ពេលវេលា	-10.8138
ព្រហ្មទណ្ឌ	-10.8164
▁Entertainment	-10.8164
វីរុស	-10.8192
β	-10.8192
ដង្កូវ	-10.8192
ហ៊ាន	-10.8192
ថ្ងៃឈប់សម្រាក	-10.8204
ចង់ដឹងចង់ឃើញ	-10.822
បង្កាត់ពូជ	-10.822
អ៊ីយ៉ុង	-10.822
អេឡិចត្រូ	-10.822
ជ្រៀតជ្រែក	-10.8249
តៃវ៉ាន់	-10.8249
បោកប្រាស់	-10.8249
ខ្វល់ខ្វាយ	-10.8249
សាប៊ូកក់សក់	-10.8277
▁Dragon	-10.8277
ឈ្លក់វង្វេង	-10.8305
យុទ្ធសាស្ត្រ	-10.8305
អាណិតអាសូរ	-10.8305
▁International	-10.8305
រណ្តៅ	-10.8334
រៀងគ្នា	-10.8334
ជាប់លាប់	-10.8334
ត្រូពិច	-10.8363
ក្រមសីលធម៌	-10.8363
រង្វាស់	-10.8363
ឡាស៊ែរ	-10.8363
ن	-10.8391
ភ្លោះ	-10.8391
កេនយ៉ា	-10.842
ឃុំឃាំង	-10.842
ថេប្លេត	-10.842
ការទូទាត់	-10.842
cycl	-10.8433
▁Twitter	-10.8449
ចាត់វិធានការ	-10.8478
ព្យាណូ	-10.8478
សម្រាលកូន	-10.8478
បន្ទះឈីប	-10.8507
អព្យាក្រឹត	-10.8507
វិចិត្រសាល	-10.8507
ស៊ុតបញ្ចូលទី	-10.8507
អាចទុកចិត្តបាន	-10.8524
ឆ្គង	-10.8536
តូចចង្អៀត	-10.8536
ភ័យរន្ធត់	-10.8536
យានយន្ត	-10.8536
យឺតយ៉ាវ	-10.8536
ជាវិធីដ៏ល្អមួយ	-10.8556
ផ្តល់ឱ្យពួកគេនូវ	-10.8566
ភ្ញៀវទេសចរ	-10.8595
សិង្ហបុរី	-10.8595
អាចធ្វើអ្វីបាន	-10.8612
ខ្មាស់អៀន	-10.8624
ធ្នើ	-10.8624
ប្រកាច់	-10.8624
មគ្គុទ្ទេសក៍	-10.8624
យ៉ាងជ្រាលជ្រៅ	-10.8624
,500	-10.8645
ក្លែងធ្វើ	-10.8654
បុណ្យ	-10.869
ç	-10.8713
ចាស់ទុំ	-10.8713
ពេជ្រ	-10.8743
▁Drawsko	-10.8743
▁Group	-10.8743
រាគ	-10.8743
មនុស្សដទៃ	-10.8767
គ្រាមភាសា	-10.8773
ហ៊ុំព័ទ្ធ	-10.8773
ទូទាំងពិភពលោក	-10.8782
គេរាយការណ៍ថា	-10.8792
ស្វ័យប្រវត្តិ	-10.8798
ភាគឦសាន	-10.8803
ថ្ងៃអាទិត្យ	-10.8833
ភេរវករ	-10.8833
ស្អិត	-10.8833
កំហាប់	-10.8833
ស្ថានីយ	-10.8862
ពិធីបុណ្យសព	-10.8863
▁Joseph	-10.8863
រដូវស្លឹកឈើជ្រុះ	-10.8893
មុទ្រចិនខាងត្បូង	-10.8917
ហត្ថលេខា	-10.8919
▁ال	-10.8923
លាតត្រដាង	-10.8954
សហគ្រិន	-10.8954
ស្លូតត្រង់	-10.8954
ឡានដឹកទំនិញ	-10.8954
អាចម៍ផ្កាយ	-10.8954
ស្រោមដៃ	-10.8954
អ្នកបើកយន្តហោះ	-10.8956
ophil	-10.8961
▁NASA	-10.9015
ជ្រៀតចូល	-10.9045
ពេលជាមួយគ្នានេះ	-10.9051
م	-10.9076
ថ្កោលទោស	-10.9076
ä	-10.9076
អង្កត់ផ្ចិត	-10.9076
អប្បបរមា	-10.9076
រវល់	-10.9076
ចៀន	-10.9076
រាជ	-10.9092
វិសាលភាព	-10.9107
ចាប់ផ្ដើម	-10.9138
ធរណីមាត្រ	-10.9138
អំពើពុករលួយ	-10.9138
កូនក្រមុំ	-10.9169
បន្លំ	-10.9169
រង្វិលជុំ	-10.9169
សហគ្រាស	-10.9169
អព្ភូតហេតុ	-10.92
អំពើបាប	-10.92
ចចក	-10.92
а	-10.9231
ប៉េងប៉ោះ	-10.9231
ពណ៌ទឹកក្រូច	-10.9231
អាណាចក្រ	-10.9231
អារក្ស	-10.9231
កណ្តាប់ដៃ	-10.9231
ជែល	-10.9231
តក្កវិជ្ជា	-10.9263
សញ្ជាតិ	-10.9263
ឯកអគ្គរដ្ឋទូត	-10.9263
ប៉ាគីស្ថាន	-10.9326
ជម្រុញ	-10.9357
បន្ទាប់បន្សំ	-10.9357
នាយករដ្ឋមន្រ្តី	-10.9357
មេធ្មប់	-10.9357
រណសិរ្ស	-10.9357
សមាសភាព	-10.9358
ទីប្រជុំជន	-10.9389
កន្លែងកើតហេតុ	-10.9389
បុរសចំណាស់	-10.9389
ព្រលានយន្តហោះ	-10.9389
▁learn	-10.9389
▁Marshal	-10.9391
ខូគី	-10.9421
ة	-10.9453
à	-10.9647
ب	-10.9911
ˈ	-10.9911
и	-11.0183
#	-11.0641
ã	-11.1045
ə	-11.1625
و	-11.1866
ل	-11.1948
′	-11.1989
→	-11.294
о	-11.35
е	-11.3548
μ	-11.3548
+	-11.355
â	-11.3841
н	-11.4143
ː	-11.4403
ź	-11.4615
Ż	-11.4615
р	-11.4997
>	-11.5109
د	-11.5109
ɪ	-11.5166
៨	-11.5453
ê	-11.5453
២	-11.5512
ć	-11.5749
ع	-11.5931
É	-11.5931
♪	-11.5992
с	-11.6179
س	-11.6305
в	-11.6368
л	-11.6433
០	-11.6826
ο	-11.6893
ت	-11.7029
៩	-11.7029
к	-11.7166
ô	-11.7166
ī	-11.7236
š	-11.7447
៧	-11.7447
៦	-11.759
(	-11.7592
Á	-11.7809
ë	-11.8033
~	-11.8185
ß	-11.8262
ح	-11.834
±	-11.834
ج	-11.8497
γ	-11.8497
^	-11.8656
|	-11.8818
ق	-11.8818
_	-11.89
ï	-11.89
ı	-11.915
π	-11.9235
ك	-11.932
т	-11.9406
ف	-11.9493
ν	-12.0312
æ	-12.06
δ	-12.0698
д	-12.0897
ش	-12.0897
£	-12.0897
ز	-12.0998
č	-12.1204
ρ	-12.1308
Ō	-12.1413
•	-12.1413
ς	-12.1519
τ	-12.1519
៥	-12.1627
σ	-12.1627
៣	-12.1627
☉	-12.1736
⁄	-12.1845
λ	-12.2069
⌘	-12.2183
ì	-12.2298
ε	-12.2298
́	-12.2414
ι	-12.2414
ー	-12.265
θ	-12.2893
៤	-12.2893
ò	-12.3141
Đ	-12.3268
ʊ	-12.3396
κ	-12.3526
ឍ	-12.3791
ン	-12.3926
ē	-12.3926
η	-12.4486
ص	-12.4631
м	-12.4778
子	-12.4778
ù	-12.4927
у	-12.5232
ه	-12.5389
·	-12.5709
ч	-12.5709
ɑ	-12.6039
أ	-12.6209
þ	-12.6209
õ	-12.6209
ط	-12.6735
ả	-12.6735
й	-12.6917
ø	-12.7291
ɛ	-12.7483
@	-12.7679
ル	-12.7879
ư	-12.7879
∗	-12.7879
ă	-12.8083
я	-12.8083
ệ	-12.8083
Ö	-12.8083
ǎ	-12.8504
ラ	-12.8722
ý	-12.8722
⊞	-12.8944
ร	-12.9404
イ	-12.9642
ト	-12.9642
φ	-12.9642
å	-12.9642
ω	-12.9642
ồ	-12.9642
ό	-12.9642
з	-12.9886
ь	-13.0136
خ	-13.0392
ί	-13.0392
ạ	-13.0392
ά	-13.0392
υ	-13.0392
大	-13.0392
៏	-13.0457
ơ	-13.0655
§	-13.0655
ş	-13.0655
ʃ	-13.0655
ọ	-13.0655
ы	-13.0926
≥	-13.0926
≤	-13.1203
า	-13.1203
ו	-13.1489
ˌ	-13.1489
י	-13.1489
ṭ	-13.1489
ス	-13.1489
Τ	-13.1489
К	-13.1489
п	-13.1489
อ	-13.1489
=	-13.1651
غ	-13.1783
ễ	-13.1783
⊕	-13.1783
î	-13.1783
г	-13.2086
ŏ	-13.2086
リ	-13.2086
ŋ	-13.2086
の	-13.2086
ิ	-13.2086
⇧	-13.2086
В	-13.2399
이	-13.2399
Å	-13.2399
ğ	-13.2721
Δ	-13.2721
น	-13.2721
∈	-13.2721
ɒ	-13.2721
เ	-13.2721
А	-13.3055
û	-13.3055
王	-13.3055
ア	-13.3399
ʒ	-13.3399
М	-13.3399
÷	-13.3399
ế	-13.3399
Š	-13.3757
ʻ	-13.3757
χ	-13.3757
С	-13.3757
ท	-13.3757
√	-13.3757
⋮	-13.3757
ž	-13.3757
会	-13.4127
ى	-13.4127
ḥ	-13.4127
ộ	-13.4127
ɡ	-13.4127
€	-13.4127
Ç	-13.4127
‡	-13.4512
☰	-13.4512
姫	-13.4512
ロ	-13.4512
ũ	-13.4512
ั	-13.4512
ม	-13.4912
ị	-13.4912
フ	-13.5328
»	-13.5328
ឱ	-13.5753
ム	-13.5763
式	-13.5763
ض	-13.5763
∞	-13.5763
ย	-13.5763
株	-13.6218
・	-13.6218
¡	-13.6218
«	-13.6218
⋅	-13.6218
天	-13.6218
美	-13.6218
マ	-13.6694
א	-13.6694
田	-13.6694
社	-13.6694
Η	-13.6694
ζ	-13.6694
ל	-13.7194
ा	-13.7194
¿	-13.7194
б	-13.7194
山	-13.7194
®	-13.7194
ǔ	-13.7194
Б	-13.7194
ố	-13.7194
語	-13.7194
親	-13.7194
동	-13.772
ц	-13.772
ш	-13.772
ی	-13.772
ě	-13.772
ő	-13.772
–	-13.8116
्	-13.8276
ウ	-13.8276
і	-13.8276
ジ	-13.8276
ע	-13.8276
一	-13.8276
어	-13.8276
Č	-13.8276
َ	-13.8276
†	-13.8276
♭	-13.8276
文	-13.8276
И	-13.8276
ド	-13.8864
מ	-13.8864
ד	-13.8864
カ	-13.8864
国	-13.8864
小	-13.8864
ǐ	-13.8864
ấ	-13.8864
ứ	-13.8864
木	-13.8864
東	-13.8864
다	-13.8864
사	-13.8864
학	-13.8864
ǃ	-13.8864
ล	-13.8864
シ	-13.9489
タ	-13.9489
レ	-13.9489
ָ	-13.9489
ガ	-13.9489
ク	-13.9489
고	-13.9489
ッ	-13.9489
ф	-13.9489
성	-13.9489
¥	-13.9489
Ó	-13.9489
ث	-13.9489
จ	-13.9489
的	-13.9489
Í	-13.9489
Ð	-13.9489
ǒ	-13.9489
ん	-13.9489
ɔ	-13.9489
李	-13.9489
ή	-13.9489
주	-13.9489
う	-13.9489
し	-13.9489
ה	-14.0156
民	-14.0156
х	-14.0156
ר	-14.0156
ầ	-14.0156
∆	-14.0156
김	-14.0156
서	-14.0156
ʿ	-14.0156
中	-14.0156
기	-14.0156
ต	-14.0156
内	-14.0156
エ	-14.087
ַ	-14.087
נ	-14.087
ี	-14.087
ナ	-14.087
아	-14.087
İ	-14.087
人	-14.087
行	-14.087
ė	-14.087
キ	-14.087
コ	-14.087
四	-14.087
明	-14.087
έ	-14.087
ก	-14.087
ด	-14.087
♠	-14.087
⟩	-14.087
三	-14.087
교	-14.087
ð	-14.087
ง	-14.087
์	-14.087
้	-14.087
प	-14.1639
ж	-14.1639
テ	-14.1639
스	-14.1639
Н	-14.1639
र	-14.1639
정	-14.1639
ɣ	-14.1639
ύ	-14.1639
П	-14.1639
э	-14.1639
ת	-14.1639
া	-14.1639
Ḥ	-14.1639
←	-14.1639
お	-14.1639
리	-14.1639
왕	-14.1639
장	-14.1639
지	-14.1639
제	-14.1639
°	-14.1725
स	-14.2472
ミ	-14.2472
き	-14.2472
시	-14.2472
ְ	-14.2472
Ú	-14.2472
Т	-14.2472
ส	-14.2472
い	-14.2472
宮	-14.2472
生	-14.2472
神	-14.2472
대	-14.2472
ř	-14.2472
ψ	-14.2472
ב	-14.2472
ש	-14.2472
⌥	-14.2472
⏎	-14.2472
官	-14.2472
의	-14.2472
̃	-14.2472
と	-14.2472
公	-14.2472
海	-14.2472
씨	-14.2472
Р	-14.2472
上	-14.2472
त	-14.3381
ּ	-14.3381
О	-14.3381
ी	-14.3381
グ	-14.3381
문	-14.3381
전	-14.3381
主	-14.3381
Î	-14.3382
ɜ	-14.3382
ἀ	-14.3382
か	-14.3382
学	-14.3382
ן	-14.3382
∨	-14.3382
藤	-14.3382
경	-14.3382
บ	-14.3382
พ	-14.3382
라	-14.3382
力	-14.3382
்	-14.3382
่	-14.3382
ャ	-14.4381
Ć	-14.4381
신	-14.4381
إ	-14.4381
理	-14.4381
ș	-14.4381
Σ	-14.4381
ء	-14.4381
ئ	-14.4381
た	-14.4381
ギ	-14.4381
州	-14.4381
平	-14.4381
\	-14.4382
ξ	-14.4382
ם	-14.4382
≈	-14.4382
八	-14.4382
千	-14.4382
日	-14.4382
有	-14.4382
本	-14.4382
村	-14.4382
物	-14.4382
ṣ	-14.4382
光	-14.4382
ˀ	-14.4382
Г	-14.4382
國	-14.4382
地	-14.4382
新	-14.4382
が	-14.4382
울	-14.4382
不	-14.4382
ุ	-14.4382
Л	-14.5493
ま	-14.5493
나	-14.5493
に	-14.5493
温	-14.5493
에	-14.5493
ّ	-14.5493
之	-14.5493
り	-14.5493
チ	-14.5493
モ	-14.5493
法	-14.5493
ŭ	-14.5493
न	-14.5493
、	-14.5493
司	-14.5493
西	-14.5493
공	-14.5493
인	-14.5493
ħ	-14.5493
ț	-14.5493
͡	-14.5493
ỹ	-14.5493
‹	-14.5493
›	-14.5493
⋯	-14.5493
ゃ	-14.5493
ゼ	-14.5493
隊	-14.5493
̈	-14.5493
ώ	-14.5493
ю	-14.5493
ṇ	-14.5493
五	-14.5493
方	-14.5493
花	-14.5493
ว	-14.5493
欧	-14.5493
Ž	-14.5493
く	-14.5493
下	-14.5493
ダ	-14.6743
さ	-14.6743
ニ	-14.6743
メ	-14.6743
る	-14.6743
오	-14.6743
ツ	-14.6743
家	-14.6743
若	-14.6743
野	-14.6743
ʾ	-14.6743
ա	-14.6743
ק	-14.6743
ắ	-14.6743
ờ	-14.6743
こ	-14.6743
白	-14.6743
端	-14.6743
龍	-14.6743
미	-14.6743
ĩ	-14.6743
Д	-14.6743
З	-14.6743
徳	-14.6743
春	-14.6743
道	-14.6743
院	-14.6743
Ã	-14.6743
ǁ	-14.6743
ُ	-14.6743
क	-14.6743
ि	-14.6743
े	-14.6743
ਾ	-14.6743
ữ	-14.6743
∂	-14.6743
∑	-14.6743
∘	-14.6743
∣	-14.6743
∧	-14.6743
⟨	-14.6743
你	-14.6743
十	-14.6743
合	-14.6743
女	-14.6743
楽	-14.6743
洞	-14.6743
見	-14.6743
郡	-14.6743
œ	-14.6743
ё	-14.6743
צ	-14.6743
ܪ	-14.6743
も	-14.6743
일	-14.6743
ʌ	-14.6743
仁	-14.6743
Ü	-14.6743
Ф	-14.6743
戦	-14.6743
Κ	-14.6743
ビ	-14.8171
バ	-14.8171
ِ	-14.8171
랑	-14.8171
ェ	-14.8171
手	-14.8171
안	-14.8171
한	-14.8171
ব	-14.8171
ち	-14.8171
伟	-14.8171
高	-14.8171
부	-14.8171
ܝ	-14.8171
ি	-14.8171
ে	-14.8171
宝	-14.8171
正	-14.8171
由	-14.8171
福	-14.8171
트	-14.8171
{	-14.8171
©	-14.8171
ʼ	-14.8171
Ω	-14.8171
ס	-14.8171
ल	-14.8171
ธ	-14.8171
န	-14.8171
ი	-14.8171
ῦ	-14.8171
―	-14.8171
↓	-14.8171
↹	-14.8171
≡	-14.8171
☆	-14.8171
は	-14.8171
パ	-14.8171
九	-14.8171
位	-14.8171
制	-14.8171
愛	-14.8171
機	-14.8171
科	-14.8171
絵	-14.8171
重	-14.8171
飛	-14.8171
군	-14.8171
마	-14.8171
민	-14.8171
선	-14.8171
후	-14.8171
₹	-14.8171
ふ	-14.8171
语	-14.8171
산	-14.8171
ġ	-14.8171
Ἀ	-14.8171
煮	-14.8171
空	-14.8171
部	-14.8171
金	-14.8171
長	-14.8171
Х	-14.8171
ห	-14.8171
ู	-14.8171
市	-14.8171
机	-14.8171
马	-14.8171
原	-14.8171
ช	-14.8171
ハ	-14.8171
ค	-14.8171
ฟ	-14.8171
プ	-14.9838
ג	-14.9838
็	-14.9838
य	-14.9838
な	-14.9838
แ	-14.9838
ヒ	-14.9838
상	-14.9838
ն	-14.9838
כ	-14.9838
ـ	-14.9838
ܐ	-14.9838
দ	-14.9838
け	-14.9838
オ	-14.9838
普	-14.9838
레	-14.9838
려	-14.9838
영	-14.9838
저	-14.9838
Ä	-14.9838
У	-14.9838
み	-14.9838
Ş	-14.9838
ъ	-14.9838
ợ	-14.9838
わ	-14.9838
ボ	-14.9838
化	-14.9838
在	-14.9838
政	-14.9838
阿	-14.9838
青	-14.9838
가	-14.9838
명	-14.9838
터	-14.9838
Ñ	-14.9838
Α	-14.9838
Ε	-14.9838
Π	-14.9838
র	-14.9838
ਰ	-14.9838
ổ	-14.9838
∇	-14.9838
∏	-14.9838
∼	-14.9838
ィ	-14.9838
デ	-14.9838
七	-14.9838
代	-14.9838
動	-14.9838
字	-14.9838
學	-14.9838
安	-14.9838
志	-14.9838
歌	-14.9838
茅	-14.9838
郎	-14.9838
限	-14.9838
鳳	-14.9838
강	-14.9838
보	-14.9838
소	-14.9838
화	-14.9838
ǝ	-14.9838
Γ	-14.9838
ỉ	-14.9838
実	-14.9838
陳	-14.9838
鬼	-14.9838
세	-14.9838
있	-14.9838
¦	-14.9838
Ā	-14.9838
Χ	-14.9838
ْ	-14.9838
ம	-14.9838
ไ	-14.9838
ベ	-14.9838
雪	-14.9838
국	-14.9838
ா	-14.9838
Μ	-14.9838
ո	-15.1838
ִ	-15.1838
死	-15.1838
ἐ	-15.1838
ֹ	-15.1838
放	-15.1838
व	-15.1838
ु	-15.1838
ソ	-15.1838
ป	-15.1838
じ	-15.1838
っ	-15.1838
ワ	-15.1838
城	-15.1838
定	-15.1838
府	-15.1838
校	-15.1838
游	-15.1838
百	-15.1838
里	-15.1838
领	-15.1838
내	-15.1838
Ī	-15.1838
ү	-15.1838
ܟ	-15.1838
द	-15.1838
ẵ	-15.1838
ῖ	-15.1838
で	-15.1838
二	-15.1838
清	-15.1838
迷	-15.1838
都	-15.1838
門	-15.1838
雲	-15.1838
馬	-15.1838
녕	-15.1838
법	-15.1838
조	-15.1838
Ø	-15.1838
đ	-15.1838
‭	-15.1838
太	-15.1838
如	-15.1838
ĝ	-15.1838
ň	-15.1838
̀	-15.1838
̄	-15.1838
ֵ	-15.1838
ז	-15.1838
پ	-15.1838
ภ	-15.1838
ა	-15.1838
ậ	-15.1838
ể	-15.1838
ỗ	-15.1838
ử	-15.1838
ὐ	-15.1838
∶	-15.1838
⊆	-15.1838
⊙	-15.1838
♯	-15.1838
⚙	-15.1838
す	-15.1838
ぶ	-15.1838
ネ	-15.1838
ブ	-15.1838
令	-15.1838
写	-15.1838
堂	-15.1838
娘	-15.1838
御	-15.1838
我	-15.1838
所	-15.1838
教	-15.1838
江	-15.1838
派	-15.1838
焼	-15.1838
级	-15.1838
肉	-15.1838
陀	-15.1838
集	-15.1838
로	-15.1838
비	-15.1838
야	-15.1838
엔	-15.1838
여	-15.1838
요	-15.1838
자	-15.1838
재	-15.1838
현	-15.1838
호	-15.1838
️	-15.1838
ܬ	-15.1838
โ	-15.1838
世	-15.1838
德	-15.1838
桂	-15.1838
艦	-15.1838
達	-15.1838
陈	-15.1838
구	-15.1838
˧	-15.1838
南	-15.1838
星	-15.1838
衣	-15.1838
超	-15.1838
軍	-15.1838
舞	-15.1838
하	-15.1838
해	-15.1838
ォ	-15.1838
京	-15.1838
爱	-15.1838
ะ	-15.1838
場	-15.1838
광	-15.1838
ข	-15.1838
ւ	-15.4338
ョ	-15.4338
武	-15.4338
蔵	-15.4338
կ	-15.4338
म	-15.4338
相	-15.4338
혜	-15.4338
예	-15.4338
Θ	-15.4338
ў	-15.4338
ח	-15.4338
भ	-15.4338
্	-15.4338
初	-15.4338
業	-15.4338
洋	-15.4338
研	-15.4338
究	-15.4338
話	-15.4338
遊	-15.4338
運	-15.4338
과	-15.4338
충	-15.4338
프	-15.4338
그	-15.4338
ų	-15.4338
ֶ	-15.4338
ं	-15.4338
ष	-15.4338
ῶ	-15.4338
え	-15.4338
ご	-15.4338
ず	-15.4338
井	-15.4338
佐	-15.4338
先	-15.4338
圣	-15.4338
島	-15.4338
年	-15.4338
技	-15.4338
時	-15.4338
横	-15.4338
皇	-15.4338
第	-15.4338
老	-15.4338
食	-15.4338
香	-15.4338
태	-15.4338
Ṣ	-15.4338
云	-15.4338
任	-15.4338
源	-15.4338
도	-15.4338
연	-15.4338
팔	-15.4338
ţ	-15.4338
ǀ	-15.4338
ɦ	-15.4338
˥	-15.4338
̪	-15.4338
Λ	-15.4338
ذ	-15.4338
ۇ	-15.4338
ু	-15.4338
င	-15.4338
မ	-15.4338
ာ	-15.4338
ḍ	-15.4338
ớ	-15.4338
ủ	-15.4338
ἰ	-15.4338
※	-15.4338
↑	-15.4338
∀	-15.4338
∥	-15.4338
≠	-15.4338
★	-15.4338
あ	-15.4338
つ	-15.4338
ケ	-15.4338
ザ	-15.4338
ノ	-15.4338
份	-15.4338
味	-15.4338
和	-15.4338
垣	-15.4338
密	-15.4338
情	-15.4338
想	-15.4338
是	-15.4338
會	-15.4338
札	-15.4338
氏	-15.4338
狗	-15.4338
玉	-15.4338
真	-15.4338
石	-15.4338
編	-15.4338
股	-15.4338
赤	-15.4338
镇	-15.4338
黎	-15.4338
齊	-15.4338
남	-15.4338
너	-15.4338
순	-15.4338
원	-15.4338
최	-15.4338
파	-15.4338
홍	-15.4338
흥	-15.4338
𒀭	-15.4338
𒆠	-15.4338
ظ	-15.4338
好	-15.4338
宿	-15.4338
峰	-15.4338
朝	-15.4338
樹	-15.4338
管	-15.4338
豪	-15.4338
백	-15.4338
촌	-15.4338
희	-15.4338
ɨ	-15.4338
Ч	-15.4338
工	-15.4338
意	-15.4338
火	-15.4338
만	-15.4338
ṃ	-15.4338
月	-15.4338
Ν	-15.4338
வ	-15.4338
း	-15.4338
ᥖ	-15.4338
ᥰ	-15.4338
利	-15.4338
摸	-15.4338
古	-15.4338
布	-15.4338
立	-15.4338
ܡ	-15.4338
ိ	-15.4338
는	-15.7671
յ	-15.7671
ս	-15.7671
送	-15.7671
秘	-15.7671
興	-15.7671
ի	-15.7671
פ	-15.7671
ܕ	-15.7671
奇	-15.7671
沢	-15.7671
舟	-15.7671
袖	-15.7671
뮤	-15.7671
쳐	-15.7671
톤	-15.7671
ܒ	-15.7671
度	-15.7671
条	-15.7671
永	-15.7671
Φ	-15.7671
ט	-15.7671
ہ	-15.7671
ܠ	-15.7671
ो	-15.7671
হ	-15.7671
そ	-15.7671
や	-15.7671
よ	-15.7671
乐	-15.7671
伊	-15.7671
六	-15.7671
华	-15.7671
少	-15.7671
康	-15.7671
橘	-15.7671
界	-15.7671
磨	-15.7671
紺	-15.7671
総	-15.7671
羅	-15.7671
羽	-15.7671
航	-15.7671
英	-15.7671
藍	-15.7671
袁	-15.7671
视	-15.7671
言	-15.7671
記	-15.7671
话	-15.7671
近	-15.7671
開	-15.7671
面	-15.7671
덕	-15.7671
목	-15.7671
운	-15.7671
Â	-15.7671
̇	-15.7671
آ	-15.7671
आ	-15.7671
ặ	-15.7671
玄	-15.7671
翻	-15.7671
莫	-15.7671
華	-15.7671
译	-15.7671
車	-15.7671
陽	-15.7671
반	-15.7671
¬	-15.7671
Ē	-15.7671
ƒ	-15.7671
ɸ	-15.7671
ʈ	-15.7671
̤	-15.7671
Υ	-15.7671
ϸ	-15.7671
Э	-15.7671
Ю	-15.7671
щ	-15.7671
қ	-15.7671
ך	-15.7671
ץ	-15.7671
گ	-15.7671
ܢ	-15.7671
ह	-15.7671
আ	-15.7671
খ	-15.7671
য	-15.7671
স	-15.7671
ਗ	-15.7671
த	-15.7671
ய	-15.7671
ல	-15.7671
ி	-15.7671
ญ	-15.7671
བ	-15.7671
Ṭ	-15.7671
ẫ	-15.7671
ề	-15.7671
ὲ	-15.7671
⇩	-15.7671
∠	-15.7671
⊂	-15.7671
⊗	-15.7671
⌊	-15.7671
⌋	-15.7671
⎙	-15.7671
△	-15.7671
▼	-15.7671
✓	-15.7671
ゆ	-15.7671
を	-15.7671
ァ	-15.7671
サ	-15.7671
ヴ	-15.7671
万	-15.7671
东	-15.7671
事	-15.7671
伴	-15.7671
信	-15.7671
偉	-15.7671
兒	-15.7671
党	-15.7671
入	-15.7671
咸	-15.7671
団	-15.7671
园	-15.7671
场	-15.7671
宗	-15.7671
导	-15.7671
将	-15.7671
川	-15.7671
巾	-15.7671
師	-15.7671
弓	-15.7671
弾	-15.7671
彦	-15.7671
心	-15.7671
忠	-15.7671
怕	-15.7671
思	-15.7671
成	-15.7671
斗	-15.7671
无	-15.7671
昆	-15.7671
書	-15.7671
桑	-15.7671
殿	-15.7671
治	-15.7671
瑞	-15.7671
瓦	-15.7671
甲	-15.7671
省	-15.7671
簡	-15.7671
結	-15.7671
色	-15.7671
菜	-15.7671
落	-15.7671
见	-15.7671
谢	-15.7671
赫	-15.7671
车	-15.7671
陵	-15.7671
魚	-15.7671
건	-15.7671
권	-15.7671
규	-15.7671
냐	-15.7671
네	-15.7671
단	-15.7671
당	-15.7671
를	-15.7671
바	-15.7671
박	-15.7671
수	-15.7671
업	-15.7671
열	-15.7671
워	-15.7671
은	-15.7671
차	-15.7671
타	-15.7671
플	-15.7671
행	-15.7671
헌	-15.7671
ů	-15.7671
̍	-15.7671
ḫ	-15.7671
げ	-15.7671
唐	-15.7671
張	-15.7671
影	-15.7671
杉	-15.7671
漢	-15.7671
貴	-15.7671
造	-15.7671
雷	-15.7671
韓	-15.7671
육	-15.7671
임	-15.7671
종	-15.7671
텔	-15.7671
Β	-15.7671
Ζ	-15.7671
Я	-15.7671
ख	-15.7671
ड	-15.7671
़	-15.7671
ํ	-15.7671
ら	-15.7671
仮	-15.7671
傑	-15.7671
冬	-15.7671
友	-15.7671
台	-15.7671
夕	-15.7671
斎	-15.7671
柳	-15.7671
沙	-15.7671
港	-15.7671
聯	-15.7671
聲	-15.7671
自	-15.7671
賀	-15.7671
鮮	-15.7671
鶴	-15.7671
노	-15.7671
𒆳	-15.7671
特	-15.7671
穿	-15.7671
옥	-15.7671
ன	-15.7671
ப	-15.7671
ர	-15.7671
ள	-15.7671
ு	-15.7671
ು	-15.7671
ใ	-15.7671
ခ	-15.7671
だ	-15.7671
峇	-15.7671
建	-15.7671
恋	-15.7671
鎮	-15.7671
加	-15.7671
尔	-15.7671
ச	-15.7671
牧	-15.7671
ນ	-16.2671
ຫ	-16.2671
ピ	-16.2671
巻	-16.2671
寿	-16.2671
攻	-16.2671
独	-16.2671
토	-16.2671
纶	-16.2671
편	-16.2671
Ш	-16.2671
ј	-16.2671
Қ	-16.2671
մ	-16.2671
տ	-16.2671
ֱ	-16.2671
ֲ	-16.2671
ত	-16.2671
ษ	-16.2671
າ	-16.2671
ぼ	-16.2671
ヨ	-16.2671
元	-16.2671
創	-16.2671
妙	-16.2671
帝	-16.2671
播	-16.2671
映	-16.2671
溜	-16.2671
满	-16.2671
蜜	-16.2671
計	-16.2671
賣	-16.2671
音	-16.2671
魔	-16.2671
뛰	-16.2671
래	-16.2671
봉	-16.2671
앉	-16.2671
직	-16.2671
티	-16.2671
𐴙	-16.2671
언	-16.2671
ә	-16.2671
ٴ	-16.2671
ण	-16.2671
ਿ	-16.2671
ณ	-16.2671
々	-16.2671
セ	-16.2671
倉	-16.2671
分	-16.2671
刺	-16.2671
又	-16.2671
反	-16.2671
向	-16.2671
奥	-16.2671
智	-16.2671
歳	-16.2671
汉	-16.2671
湖	-16.2671
瑟	-16.2671
电	-16.2671
畫	-16.2671
碧	-16.2671
納	-16.2671
腾	-16.2671
製	-16.2671
讯	-16.2671
走	-16.2671
遍	-16.2671
関	-16.2671
陰	-16.2671
雨	-16.2671
鳥	-16.2671
ꠟ	-16.2671
ꠤ	-16.2671
골	-16.2671
데	-16.2671
두	-16.2671
롯	-16.2671
번	-16.2671
불	-16.2671
빵	-16.2671
살	-16.2671
잔	-16.2671
즈	-16.2671
째	-16.2671
찍	-16.2671
크	-16.2671
탄	-16.2671
함	-16.2671
히	-16.2671
Õ	-16.2671
Ź	-16.2671
ḩ	-16.2671
ṅ	-16.2671
Ẓ	-16.2671
周	-16.2671
宁	-16.2671
慧	-16.2671
摩	-16.2671
段	-16.2671
濟	-16.2671
简	-16.2671
糖	-16.2671
腰	-16.2671
葫	-16.2671
露	-16.2671
밤	-16.2671
식	-16.2671
À	-16.2671
Æ	-16.2671
È	-16.2671
Þ	-16.2671
ċ	-16.2671
ű	-16.2671
ǂ	-16.2671
ȍ	-16.2671
ɖ	-16.2671
ɯ	-16.2671
ɲ	-16.2671
ʔ	-16.2671
ʹ	-16.2671
ˋ	-16.2671
̏	-16.2671
̧	-16.2671
Ξ	-16.2671
Ұ	-16.2671
ե	-16.2671
ր	-16.2671
چ	-16.2671
ک	-16.2671
ܼ	-16.2671
ग	-16.2671
ज	-16.2671
ণ	-16.2671
ন	-16.2671
প	-16.2671
ভ	-16.2671
ম	-16.2671
ল	-16.2671
শ	-16.2671
়	-16.2671
ো	-16.2671
ਖ	-16.2671
ਬ	-16.2671
ੁ	-16.2671
ੂ	-16.2671
ே	-16.2671
ා	-16.2671
ผ	-16.2671
ศ	-16.2671
ื	-16.2671
ག	-16.2671
ན	-16.2671
ས	-16.2671
ུ	-16.2671
ྲ	-16.2671
ဆ	-16.2671
တ	-16.2671
ေ	-16.2671
დ	-16.2671
ს	-16.2671
ხ	-16.2671
៛	-16.2671
ᥭ	-16.2671
ḗ	-16.2671
ḷ	-16.2671
ḿ	-16.2671
ṁ	-16.2671
ṓ	-16.2671
ṯ	-16.2671
ṳ	-16.2671
ỏ	-16.2671
Ử	-16.2671
ự	-16.2671
ỳ	-16.2671
ἄ	-16.2671
ἔ	-16.2671
Ἴ	-16.2671
ὁ	-16.2671
ὑ	-16.2671
Ὠ	-16.2671
ὰ	-16.2671
ὶ	-16.2671
ὸ	-16.2671
ᾶ	-16.2671
‖	-16.2671
‰	-16.2671
₤	-16.2671
℞	-16.2671
⇒	-16.2671
∓	-16.2671
≅	-16.2671
⋆	-16.2671
■	-16.2671
●	-16.2671
☺	-16.2671
ⴰ	-16.2671
ⵉ	-16.2671
せ	-16.2671
ゥ	-16.2671
ゲ	-16.2671
ズ	-16.2671
ペ	-16.2671
ポ	-16.2671
ヤ	-16.2671
ユ	-16.2671
ㄧ	-16.2671
丸	-16.2671
为	-16.2671
丼	-16.2671
乙	-16.2671
乱	-16.2671
亲	-16.2671
介	-16.2671
体	-16.2671
佛	-16.2671
作	-16.2671
使	-16.2671
例	-16.2671
保	-16.2671
俞	-16.2671
傣	-16.2671
全	-16.2671
共	-16.2671
典	-16.2671
円	-16.2671
军	-16.2671
判	-16.2671
卯	-16.2671
危	-16.2671
叔	-16.2671
口	-16.2671
叶	-16.2671
号	-16.2671
名	-16.2671
君	-16.2671
唱	-16.2671
噌	-16.2671
团	-16.2671
團	-16.2671
土	-16.2671
坡	-16.2671
垂	-16.2671
夏	-16.2671
多	-16.2671
夫	-16.2671
姐	-16.2671
姜	-16.2671
婷	-16.2671
孫	-16.2671
守	-16.2671
宋	-16.2671
宏	-16.2671
室	-16.2671
寒	-16.2671
对	-16.2671
導	-16.2671
尘	-16.2671
尾	-16.2671
屁	-16.2671
岡	-16.2671
巳	-16.2671
巴	-16.2671
席	-16.2671
引	-16.2671
弥	-16.2671
強	-16.2671
形	-16.2671
律	-16.2671
従	-16.2671
忘	-16.2671
性	-16.2671
恨	-16.2671
感	-16.2671
憲	-16.2671
懂	-16.2671
戏	-16.2671
战	-16.2671
房	-16.2671
扶	-16.2671
授	-16.2671
揚	-16.2671
斬	-16.2671
昂	-16.2671
易	-16.2671
昱	-16.2671
晁	-16.2671
晓	-16.2671
暉	-16.2671
未	-16.2671
末	-16.2671
朱	-16.2671
来	-16.2671
松	-16.2671
极	-16.2671
林	-16.2671
果	-16.2671
枝	-16.2671
柱	-16.2671
格	-16.2671
梅	-16.2671
棒	-16.2671
橋	-16.2671
殺	-16.2671
殻	-16.2671
毅	-16.2671
母	-16.2671
比	-16.2671
気	-16.2671
河	-16.2671
活	-16.2671
流	-16.2671
湘	-16.2671
炊	-16.2671
琴	-16.2671
産	-16.2671
町	-16.2671
盆	-16.2671
盛	-16.2671
直	-16.2671
礼	-16.2671
禄	-16.2671
秦	-16.2671
紋	-16.2671
統	-16.2671
结	-16.2671
罗	-16.2671
翔	-16.2671
考	-16.2671
耶	-16.2671
聂	-16.2671
職	-16.2671
胡	-16.2671
臣	-16.2671
致	-16.2671
舜	-16.2671
芦	-16.2671
萬	-16.2671
葉	-16.2671
葱	-16.2671
蓝	-16.2671
藏	-16.2671
虎	-16.2671
虐	-16.2671
融	-16.2671
角	-16.2671
議	-16.2671
记	-16.2671
豆	-16.2671
賢	-16.2671
起	-16.2671
越	-16.2671
路	-16.2671
輸	-16.2671
速	-16.2671
逯	-16.2671
進	-16.2671
鄧	-16.2671
钉	-16.2671
閩	-16.2671
隠	-16.2671
雄	-16.2671
電	-16.2671
霸	-16.2671
静	-16.2671
順	-16.2671
頡	-16.2671
餘	-16.2671
魏	-16.2671
鯨	-16.2671
黃	-16.2671
龙	-16.2671
감	-16.2671
거	-16.2671
계	-16.2671
꽃	-16.2671
니	-16.2671
답	-16.2671
돌	-16.2671
드	-16.2671
락	-16.2671
럼	-16.2671
렬	-16.2671
림	-16.2671
방	-16.2671
버	-16.2671
범	-16.2671
블	-16.2671
삼	-16.2671
센	-16.2671
십	-16.2671
엘	-16.2671
와	-16.2671
우	-16.2671
유	-16.2671
잖	-16.2671
좋	-16.2671
진	-16.2671
창	-16.2671
처	-16.2671
천	-16.2671
치	-16.2671
칠	-16.2671
콤	-16.2671
클	-16.2671
테	-16.2671
혁	-16.2671
형	-16.2671
𐴝	-16.2671
𒂗	-16.2671
ņ	-16.2671
च	-16.2671
ြ	-16.2671
ᤠ	-16.2671
习	-16.2671
付	-16.2671
再	-16.2671
勝	-16.2671
受	-16.2671
嘉	-16.2671
富	-16.2671
尚	-16.2671
役	-16.2671
持	-16.2671
摺	-16.2671
昊	-16.2671
曾	-16.2671
桐	-16.2671
波	-16.2671
渡	-16.2671
督	-16.2671
耀	-16.2671
者	-16.2671
荘	-16.2671
論	-16.2671
鍋	-16.2671
颜	-16.2671
鰻	-16.2671
결	-16.2671
˩	-16.2671
Ι	-16.2671
ध	-16.2671
ර	-16.2671
ṛ	-16.2671
ヌ	-16.2671
久	-16.2671
也	-16.2671
來	-16.2671
列	-16.2671
前	-16.2671
吉	-16.2671
夜	-16.2671
崇	-16.2671
幻	-16.2671
棠	-16.2671
樂	-16.2671
爾	-16.2671
留	-16.2671
芳	-16.2671
菅	-16.2671
踩	-16.2671
須	-16.2671
늘	-16.2671
막	-16.2671
맹	-16.2671
큼	-16.2671
환	-16.2671
𒌷	-16.2671
亜	-16.2671
容	-16.2671
ٱ	-16.2671
ட	-16.2671
ಾ	-16.2671
ု	-16.2671
რ	-16.2671
ᥑ	-16.2671
ᥒ	-16.2671
ᥨ	-16.2671
ᥬ	-16.2671
ᥳ	-16.2671
止	-16.2671
精	-16.2671
먼	-16.2671
優	-16.2671
ை	-16.2671
級	-16.2671
금	-16.2671
융	-16.2671
க	-16.2671
ნ	-16.2671
ろ	-16.2671
宅	-16.2671
舒	-16.2671
ឫ	-17.2182
ឭ	-17.2663
ឦ	-17.2664
ឲ	-17.2665
ឪ	-17.2666
៌	-17.2667
ឯ	-17.2668
ឥ	-17.2669
ឿ	-17.267
љ	-17.2671
ບ	-17.2671
「	-17.2671
専	-17.2671
ឋ	-17.2671
Հ	-17.2671
թ	-17.2671
ց	-17.2671
থ	-17.2671
ฏ	-17.2671
ມ	-17.2671
ວ	-17.2671
ສ	-17.2671
ະ	-17.2671
ິ	-17.2671
ຼ	-17.2671
ヘ	-17.2671
員	-17.2671
唄	-17.2671
嫌	-17.2671
故	-17.2671
柔	-17.2671
毛	-17.2671
牡	-17.2671
箪	-17.2671
经	-17.2671
腹	-17.2671
誤	-17.2671
諭	-17.2671
讀	-17.2671
質	-17.2671
駅	-17.2671
매	-17.2671
본	-17.2671
익	-17.2671
출	-17.2671
팬	-17.2671
𐴌	-17.2671
𐴗	-17.2671
ؔ	-17.2671
ە	-17.2671
ܣ	-17.2671
ক	-17.2671
ਦ	-17.2671
ਲ	-17.2671
ਵ	-17.2671
ฆ	-17.2671
๊	-17.2671
ὅ	-17.2671
ぬ	-17.2671
ほ	-17.2671
亂	-17.2671
了	-17.2671
今	-17.2671
伏	-17.2671
侯	-17.2671
傘	-17.2671
凡	-17.2671
医	-17.2671
収	-17.2671
善	-17.2671
围	-17.2671
壬	-17.2671
头	-17.2671
居	-17.2671
屋	-17.2671
崎	-17.2671
急	-17.2671
惠	-17.2671
扉	-17.2671
撃	-17.2671
撥	-17.2671
敦	-17.2671
斯	-17.2671
染	-17.2671
櫃	-17.2671
歸	-17.2671
毒	-17.2671
浜	-17.2671
滸	-17.2671
玖	-17.2671
班	-17.2671
琵	-17.2671
琶	-17.2671
皮	-17.2671
眼	-17.2671
穴	-17.2671
童	-17.2671
翁	-17.2671
联	-17.2671
肥	-17.2671
薩	-17.2671
蘭	-17.2671
蠣	-17.2671
衛	-17.2671
貞	-17.2671
郵	-17.2671
雾	-17.2671
願	-17.2671
饭	-17.2671
鷺	-17.2671
ꠐ	-17.2671
개	-17.2671
곰	-17.2671
꺼	-17.2671
넷	-17.2671
뉴	-17.2671
또	-17.2671
랜	-17.2671
러	-17.2671
묘	-17.2671
발	-17.2671
붕	-17.2671
쁘	-17.2671
삐	-17.2671
솔	-17.2671
송	-17.2671
쇼	-17.2671
숙	-17.2671
양	-17.2671
없	-17.2671
웃	-17.2671
위	-17.2671
중	-17.2671
집	-17.2671
컨	-17.2671
콜	-17.2671
허	-17.2671
홈	-17.2671
ằ	-17.2671
Ἕ	-17.2671
乌	-17.2671
兴	-17.2671
材	-17.2671
蓮	-17.2671
겨	-17.2671
더	-17.2671
¤	-17.2671
Ë	-17.2671
Ô	-17.2671
Ý	-17.2671
Ĉ	-17.2671
ĕ	-17.2671
Ě	-17.2671
Ğ	-17.2671
ķ	-17.2671
ļ	-17.2671
ľ	-17.2671
Ŝ	-17.2671
ŝ	-17.2671
ť	-17.2671
Ŧ	-17.2671
ŧ	-17.2671
Ɔ	-17.2671
ǚ	-17.2671
ǧ	-17.2671
ǫ	-17.2671
ǰ	-17.2671
Ȁ	-17.2671
Ș	-17.2671
ɾ	-17.2671
ʂ	-17.2671
ʐ	-17.2671
ˇ	-17.2671
ˊ	-17.2671
˦	-17.2671
̋	-17.2671
̠	-17.2671
̥	-17.2671
̨	-17.2671
͂	-17.2671
͈	-17.2671
͘	-17.2671
Ͱ	-17.2671
ͱ	-17.2671
Ο	-17.2671
Ψ	-17.2671
ϋ	-17.2671
Ϸ	-17.2671
Е	-17.2671
Ц	-17.2671
ї	-17.2671
њ	-17.2671
ћ	-17.2671
ҁ	-17.2671
ң	-17.2671
ҥ	-17.2671
ӑ	-17.2671
ӓ	-17.2671
ӕ	-17.2671
ӧ	-17.2671
ӱ	-17.2671
ӹ	-17.2671
Դ	-17.2671
զ	-17.2671
օ	-17.2671
֥	-17.2671
ֻ	-17.2671
ׁ	-17.2671
ף	-17.2671
ۈ	-17.2671
۲	-17.2671
ܗ	-17.2671
ܘ	-17.2671
ܙ	-17.2671
ܦ	-17.2671
ܩ	-17.2671
ܵ	-17.2671
ܸ	-17.2671
ܹ	-17.2671
अ	-17.2671
ङ	-17.2671
छ	-17.2671
ढ	-17.2671
श	-17.2671
ू	-17.2671
ृ	-17.2671
ौ	-17.2671
ঁ	-17.2671
ই	-17.2671
ও	-17.2671
গ	-17.2671
ঙ	-17.2671
ছ	-17.2671
জ	-17.2671
ষ	-17.2671
ী	-17.2671
ਅ	-17.2671
ਓ	-17.2671
ਥ	-17.2671
ਪ	-17.2671
ਸ	-17.2671
ਹ	-17.2671
੍	-17.2671
ੰ	-17.2671
ੱ	-17.2671
ં	-17.2671
દ	-17.2671
ર	-17.2671
સ	-17.2671
િ	-17.2671
ૂ	-17.2671
ெ	-17.2671
ద	-17.2671
ా	-17.2671
ి	-17.2671
ಗ	-17.2671
ತ	-17.2671
ದ	-17.2671
ಯ	-17.2671
ಳ	-17.2671
ಷ	-17.2671
ಿ	-17.2671
ೆ	-17.2671
අ	-17.2671
ක	-17.2671
ග	-17.2671
ධ	-17.2671
න	-17.2671
ප	-17.2671
ම	-17.2671
ල	-17.2671
ි	-17.2671
ซ	-17.2671
ฐ	-17.2671
ฒ	-17.2671
ถ	-17.2671
ฮ	-17.2671
ๆ	-17.2671
๘	-17.2671
ງ	-17.2671
ຍ	-17.2671
ທ	-17.2671
ັ	-17.2671
ཅ	-17.2671
ད	-17.2671
མ	-17.2671
ཛ	-17.2671
འ	-17.2671
ར	-17.2671
ོ	-17.2671
ྟ	-17.2671
စ	-17.2671
ည	-17.2671
ဒ	-17.2671
ပ	-17.2671
ဘ	-17.2671
ရ	-17.2671
ဝ	-17.2671
ံ	-17.2671
ျ	-17.2671
ვ	-17.2671
თ	-17.2671
ლ	-17.2671
შ	-17.2671
ቡ	-17.2671
ኛ	-17.2671
አ	-17.2671
ዋ	-17.2671
ዕ	-17.2671
የ	-17.2671
ዳ	-17.2671
ጊ	-17.2671
ጋ	-17.2671
៕	-17.2671
ᤌ	-17.2671
ᤐ	-17.2671
ᤕ	-17.2671
ᤢ	-17.2671
ᤰ	-17.2671
ᤱ	-17.2671
ᤴ	-17.2671
ᵻ	-17.2671
ḇ	-17.2671
Ḍ	-17.2671
ṉ	-17.2671
Ẋ	-17.2671
ẋ	-17.2671
ẏ	-17.2671
ẓ	-17.2671
ẻ	-17.2671
Ị	-17.2671
ụ	-17.2671
Ủ	-17.2671
Ἁ	-17.2671
ἡ	-17.2671
Ἠ	-17.2671
ἱ	-17.2671
ἶ	-17.2671
ὤ	-17.2671
ὴ	-17.2671
ῆ	-17.2671
ῡ	-17.2671
ῥ	-17.2671
Ῥ	-17.2671
‿	-17.2671
₽	-17.2671
↵	-17.2671
⇀	-17.2671
⇌	-17.2671
⇬	-17.2671
∅	-17.2671
∖	-17.2671
∪	-17.2671
∫	-17.2671
≃	-17.2671
⊃	-17.2671
⊨	-17.2671
⎇	-17.2671
⏭	-17.2671
─	-17.2671
▷	-17.2671
►	-17.2671
◁	-17.2671
☣	-17.2671
☿	-17.2671
♥	-17.2671
⟹	-17.2671
ⲓ	-17.2671
ⴲ	-17.2671
ⵃ	-17.2671
ⵓ	-17.2671
ⵔ	-17.2671
ⵛ	-17.2671
ⵢ	-17.2671
《	-17.2671
》	-17.2671
」	-17.2671
ぁ	-17.2671
づ	-17.2671
て	-17.2671
ば	-17.2671
ひ	-17.2671
ぷ	-17.2671
べ	-17.2671
む	-17.2671
め	-17.2671
れ	-17.2671
ホ	-17.2671
ュ	-17.2671
ヶ	-17.2671
ㄐ	-17.2671
ㄔ	-17.2671
ㄙ	-17.2671
ㄢ	-17.2671
ㄥ	-17.2671
ㄨ	-17.2671
丁	-17.2671
丈	-17.2671
丑	-17.2671
丙	-17.2671
串	-17.2671
乃	-17.2671
么	-17.2671
乗	-17.2671
乡	-17.2671
予	-17.2671
争	-17.2671
亚	-17.2671
交	-17.2671
亥	-17.2671
仇	-17.2671
仏	-17.2671
仓	-17.2671
他	-17.2671
件	-17.2671
伙	-17.2671
住	-17.2671
何	-17.2671
便	-17.2671
俊	-17.2671
俗	-17.2671
個	-17.2671
倍	-17.2671
候	-17.2671
健	-17.2671
偵	-17.2671
傅	-17.2671
傳	-17.2671
僕	-17.2671
僧	-17.2671
儂	-17.2671
兄	-17.2671
克	-17.2671
兔	-17.2671
兜	-17.2671
兩	-17.2671
兽	-17.2671
冀	-17.2671
冨	-17.2671
凱	-17.2671
刀	-17.2671
切	-17.2671
刊	-17.2671
刘	-17.2671
创	-17.2671
別	-17.2671
則	-17.2671
剑	-17.2671
劇	-17.2671
劉	-17.2671
办	-17.2671
务	-17.2671
动	-17.2671
劳	-17.2671
勞	-17.2671
勳	-17.2671
勿	-17.2671
包	-17.2671
匪	-17.2671
区	-17.2671
區	-17.2671
卅	-17.2671
午	-17.2671
半	-17.2671
卍	-17.2671
卐	-17.2671
単	-17.2671
博	-17.2671
卡	-17.2671
卵	-17.2671
厂	-17.2671
厌	-17.2671
厲	-17.2671
县	-17.2671
双	-17.2671
叡	-17.2671
句	-17.2671
史	-17.2671
右	-17.2671
同	-17.2671
后	-17.2671
吒	-17.2671
吟	-17.2671
吧	-17.2671
含	-17.2671
吴	-17.2671
吸	-17.2671
吻	-17.2671
吾	-17.2671
呼	-17.2671
哇	-17.2671
哪	-17.2671
商	-17.2671
嘴	-17.2671
器	-17.2671
固	-17.2671
圀	-17.2671
圍	-17.2671
圖	-17.2671
坂	-17.2671
坊	-17.2671
坏	-17.2671
基	-17.2671
塞	-17.2671
墟	-17.2671
声	-17.2671
売	-17.2671
外	-17.2671
夢	-17.2671
夷	-17.2671
奈	-17.2671
奋	-17.2671
奕	-17.2671
奖	-17.2671
她	-17.2671
妃	-17.2671
姚	-17.2671
姝	-17.2671
姿	-17.2671
威	-17.2671
娇	-17.2671
婚	-17.2671
婴	-17.2671
媄	-17.2671
媽	-17.2671
嬴	-17.2671
孟	-17.2671
季	-17.2671
宇	-17.2671
宣	-17.2671
宫	-17.2671
害	-17.2671
宸	-17.2671
寅	-17.2671
寇	-17.2671
寛	-17.2671
察	-17.2671
實	-17.2671
寫	-17.2671
寸	-17.2671
寺	-17.2671
寻	-17.2671
尊	-17.2671
就	-17.2671
尹	-17.2671
屯	-17.2671
岁	-17.2671
岚	-17.2671
岛	-17.2671
岭	-17.2671
岳	-17.2671
岸	-17.2671
崑	-17.2671
崗	-17.2671
崩	-17.2671
嵐	-17.2671
左	-17.2671
帅	-17.2671
希	-17.2671
帖	-17.2671
帯	-17.2671
帳	-17.2671
帶	-17.2671
帽	-17.2671
幞	-17.2671
干	-17.2671
幽	-17.2671
广	-17.2671
店	-17.2671
庚	-17.2671
座	-17.2671
庫	-17.2671
庵	-17.2671
廊	-17.2671
廖	-17.2671
廟	-17.2671
廠	-17.2671
廣	-17.2671
廾	-17.2671
弟	-17.2671
弦	-17.2671
强	-17.2671
彌	-17.2671
当	-17.2671
彭	-17.2671
彰	-17.2671
從	-17.2671
復	-17.2671
微	-17.2671
忆	-17.2671
忍	-17.2671
快	-17.2671
怀	-17.2671
怒	-17.2671
怖	-17.2671
怡	-17.2671
恐	-17.2671
恩	-17.2671
悟	-17.2671
悪	-17.2671
惣	-17.2671
惹	-17.2671
愷	-17.2671
慈	-17.2671
慕	-17.2671
慘	-17.2671
戌	-17.2671
戰	-17.2671
戴	-17.2671
戸	-17.2671
才	-17.2671
托	-17.2671
抗	-17.2671
抜	-17.2671
拡	-17.2671
拨	-17.2671
拾	-17.2671
指	-17.2671
挺	-17.2671
捉	-17.2671
换	-17.2671
排	-17.2671
撫	-17.2671
撮	-17.2671
改	-17.2671
散	-17.2671
数	-17.2671
料	-17.2671
斩	-17.2671
施	-17.2671
族	-17.2671
早	-17.2671
旭	-17.2671
旺	-17.2671
昌	-17.2671
昶	-17.2671
晚	-17.2671
晞	-17.2671
晩	-17.2671
晴	-17.2671
暲	-17.2671
曲	-17.2671
最	-17.2671
服	-17.2671
朔	-17.2671
望	-17.2671
术	-17.2671
朵	-17.2671
杨	-17.2671
枳	-17.2671
柑	-17.2671
柚	-17.2671
柯	-17.2671
柴	-17.2671
标	-17.2671
栎	-17.2671
样	-17.2671
梁	-17.2671
梦	-17.2671
椿	-17.2671
榊	-17.2671
榮	-17.2671
構	-17.2671
樓	-17.2671
橄	-17.2671
欖	-17.2671
次	-17.2671
步	-17.2671
残	-17.2671
毓	-17.2671
毘	-17.2671
水	-17.2671
求	-17.2671
汗	-17.2671
池	-17.2671
汪	-17.2671
汶	-17.2671
沃	-17.2671
没	-17.2671
沮	-17.2671
泛	-17.2671
泰	-17.2671
洪	-17.2671
浅	-17.2671
浩	-17.2671
浪	-17.2671
浸	-17.2671
深	-17.2671
淵	-17.2671
湛	-17.2671
溥	-17.2671
漏	-17.2671
漫	-17.2671
潮	-17.2671
澄	-17.2671
濃	-17.2671
濊	-17.2671
濠	-17.2671
瀚	-17.2671
瀬	-17.2671
灵	-17.2671
灼	-17.2671
災	-17.2671
炎	-17.2671
点	-17.2671
為	-17.2671
烈	-17.2671
烏	-17.2671
热	-17.2671
無	-17.2671
照	-17.2671
熱	-17.2671
爆	-17.2671
爭	-17.2671
爺	-17.2671
牆	-17.2671
牍	-17.2671
牛	-17.2671
牟	-17.2671
牵	-17.2671
犬	-17.2671
狂	-17.2671
狐	-17.2671
狼	-17.2671
猛	-17.2671
猪	-17.2671
猫	-17.2671
猴	-17.2671
獄	-17.2671
獲	-17.2671
玆	-17.2671
玦	-17.2671
玫	-17.2671
珮	-17.2671
琛	-17.2671
瑚	-17.2671
瑩	-17.2671
瑰	-17.2671
璽	-17.2671
瓢	-17.2671
甌	-17.2671
用	-17.2671
甯	-17.2671
申	-17.2671
男	-17.2671
畏	-17.2671
異	-17.2671
疯	-17.2671
症	-17.2671
盗	-17.2671
盟	-17.2671
目	-17.2671
盾	-17.2671
県	-17.2671
眞	-17.2671
知	-17.2671
破	-17.2671
祇	-17.2671
祖	-17.2671
离	-17.2671
私	-17.2671
秒	-17.2671
程	-17.2671
穹	-17.2671
窿	-17.2671
站	-17.2671
竜	-17.2671
竹	-17.2671
竺	-17.2671
笔	-17.2671
箍	-17.2671
箱	-17.2671
節	-17.2671
篠	-17.2671
篤	-17.2671
簿	-17.2671
籍	-17.2671
籤	-17.2671
米	-17.2671
粵	-17.2671
糈	-17.2671
系	-17.2671
紀	-17.2671
紗	-17.2671
素	-17.2671
組	-17.2671
綴	-17.2671
綸	-17.2671
緒	-17.2671
線	-17.2671
縣	-17.2671
繪	-17.2671
纂	-17.2671
统	-17.2671
维	-17.2671
编	-17.2671
缺	-17.2671
罪	-17.2671
置	-17.2671
罰	-17.2671
署	-17.2671
羁	-17.2671
羊	-17.2671
羡	-17.2671
群	-17.2671
羿	-17.2671
翰	-17.2671
耳	-17.2671
耿	-17.2671
聖	-17.2671
聚	-17.2671
聰	-17.2671
肖	-17.2671
胆	-17.2671
脩	-17.2671
腔	-17.2671
腦	-17.2671
腳	-17.2671
臨	-17.2671
舉	-17.2671
舵	-17.2671
船	-17.2671
节	-17.2671
芒	-17.2671
芙	-17.2671
苍	-17.2671
苓	-17.2671
苦	-17.2671
茜	-17.2671
茯	-17.2671
荒	-17.2671
荡	-17.2671
莉	-17.2671
莊	-17.2671
莽	-17.2671
蓋	-17.2671
蕩	-17.2671
藻	-17.2671
蘆	-17.2671
蘇	-17.2671
虚	-17.2671
蛇	-17.2671
蝶	-17.2671
術	-17.2671
街	-17.2671
衡	-17.2671
衢	-17.2671
补	-17.2671
袂	-17.2671
裁	-17.2671
裂	-17.2671
補	-17.2671
裡	-17.2671
裳	-17.2671
覲	-17.2671
訓	-17.2671
訴	-17.2671
証	-17.2671
試	-17.2671
読	-17.2671
課	-17.2671
諍	-17.2671
諜	-17.2671
謝	-17.2671
識	-17.2671
譜	-17.2671
護	-17.2671
许	-17.2671
试	-17.2671
诞	-17.2671
说	-17.2671
谱	-17.2671
豬	-17.2671
貊	-17.2671
財	-17.2671
貸	-17.2671
資	-17.2671
贝	-17.2671
贞	-17.2671
赏	-17.2671
赛	-17.2671
足	-17.2671
跳	-17.2671
輝	-17.2671
輩	-17.2671
輪	-17.2671
输	-17.2671
辰	-17.2671
边	-17.2671
过	-17.2671
还	-17.2671
这	-17.2671
透	-17.2671
這	-17.2671
通	-17.2671
連	-17.2671
過	-17.2671
選	-17.2671
避	-17.2671
還	-17.2671
邊	-17.2671
那	-17.2671
邪	-17.2671
郭	-17.2671
郷	-17.2671
酉	-17.2671
鈐	-17.2671
鉄	-17.2671
鉤	-17.2671
錐	-17.2671
錢	-17.2671
錦	-17.2671
鍵	-17.2671
鎂	-17.2671
鐘	-17.2671
鑑	-17.2671
铁	-17.2671
锋	-17.2671
锥	-17.2671
镁	-17.2671
长	-17.2671
閉	-17.2671
閪	-17.2671
闇	-17.2671
闘	-17.2671
闭	-17.2671
际	-17.2671
陛	-17.2671
隆	-17.2671
階	-17.2671
随	-17.2671
際	-17.2671
雀	-17.2671
雅	-17.2671
雑	-17.2671
雞	-17.2671
難	-17.2671
零	-17.2671
霊	-17.2671
霜	-17.2671
靡	-17.2671
革	-17.2671
靳	-17.2671
韦	-17.2671
韩	-17.2671
頭	-17.2671
題	-17.2671
顏	-17.2671
顔	-17.2671
類	-17.2671
颉	-17.2671
频	-17.2671
风	-17.2671
飞	-17.2671
飥	-17.2671
飩	-17.2671
養	-17.2671
餛	-17.2671
館	-17.2671
驤	-17.2671
骸	-17.2671
體	-17.2671
髪	-17.2671
魯	-17.2671
鲁	-17.2671
鳴	-17.2671
鴻	-17.2671
鶏	-17.2671
鸡	-17.2671
鸿	-17.2671
麗	-17.2671
麟	-17.2671
麦	-17.2671
麺	-17.2671
麻	-17.2671
黒	-17.2671
黨	-17.2671
鼓	-17.2671
鼠	-17.2671
齋	-17.2671
齐	-17.2671
龐	-17.2671
ꠋ	-17.2671
ꠍ	-17.2671
ꠎ	-17.2671
ꠚ	-17.2671
ꠣ	-17.2671
ꪘ	-17.2671
ꪙ	-17.2671
ꪚ	-17.2671
ꪛ	-17.2671
ꪜ	-17.2671
ꪝ	-17.2671
ꪞ	-17.2671
ꪟ	-17.2671
ꪠ	-17.2671
ꪡ	-17.2671
ꪢ	-17.2671
ꪣ	-17.2671
ꪤ	-17.2671
ꪥ	-17.2671
ꪦ	-17.2671
ꪧ	-17.2671
ꪨ	-17.2671
ꪩ	-17.2671
ꪪ	-17.2671
ꪫ	-17.2671
ꪬ	-17.2671
ꪭ	-17.2671
ꪮ	-17.2671
ꪯ	-17.2671
간	-17.2671
게	-17.2671
관	-17.2671
극	-17.2671
근	-17.2671
글	-17.2671
깡	-17.2671
깨	-17.2671
께	-17.2671
꼬	-17.2671
낙	-17.2671
날	-17.2671
납	-17.2671
낼	-17.2671
널	-17.2671
넥	-17.2671
녀	-17.2671
농	-17.2671
누	-17.2671
담	-17.2671
댕	-17.2671
독	-17.2671
둔	-17.2671
듀	-17.2671
든	-17.2671
딸	-17.2671
띵	-17.2671
람	-17.2671
량	-17.2671
럽	-17.2671
루	-17.2671
르	-17.2671
릉	-17.2671
면	-17.2671
무	-17.2671
배	-17.2671
벤	-17.2671
복	-17.2671
브	-17.2671
빅	-17.2671
생	-17.2671
설	-17.2671
섭	-17.2671
션	-17.2671
손	-17.2671
쇠	-17.2671
숭	-17.2671
쉅	-17.2671
쉐	-17.2671
슨	-17.2671
습	-17.2671
승	-17.2671
실	-17.2671
썸	-17.2671
앞	-17.2671
앤	-17.2671
억	-17.2671
엠	-17.2671
엽	-17.2671
온	-17.2671
옹	-17.2671
용	-17.2671
욱	-17.2671
웨	-17.2671
윤	-17.2671
잉	-17.2671
잠	-17.2671
잭	-17.2671
쟁	-17.2671
족	-17.2671
죠	-17.2671
줘	-17.2671
참	-17.2671
철	-17.2671
추	-17.2671
춘	-17.2671
커	-17.2671
케	-17.2671
코	-17.2671
퀴	-17.2671
탓	-17.2671
텐	-17.2671
통	-17.2671
틴	-17.2671
판	-17.2671
팡	-17.2671
팩	-17.2671
포	-17.2671
폰	-17.2671
필	-17.2671
합	-17.2671
항	-17.2671
했	-17.2671
험	-17.2671
혼	-17.2671
회	-17.2671
효	-17.2671
훈	-17.2671
훔	-17.2671
휠	-17.2671
𐎴	-17.2671
𐴒	-17.2671
𐴚	-17.2671
𐴥	-17.2671
𒄀	-17.2671
𒆤	-17.2671
𒇉	-17.2671
𒈗	-17.2671
𒊩	-17.2671
𒊭	-17.2671
𒋀	-17.2671
𒋾	-17.2671
𒌅	-17.2671
𒌈	-17.2671
𒌓	-17.2671
𒌨	-17.2671
Ġ	-17.2671
Œ	-17.2671
ŷ	-17.2671
Ǧ	-17.2671
Ά	-17.2671
ؤ	-17.2671
ܚ	-17.2671
ょ	-17.2671
ゴ	-17.2671
伽	-17.2671
剛	-17.2671
勇	-17.2671
告	-17.2671
媛	-17.2671
常	-17.2671
幸	-17.2671
张	-17.2671
恆	-17.2671
恭	-17.2671
悠	-17.2671
拂	-17.2671
捷	-17.2671
浮	-17.2671
獸	-17.2671
磐	-17.2671
祐	-17.2671
秋	-17.2671
縦	-17.2671
缀	-17.2671
菟	-17.2671
蔣	-17.2671
蕎	-17.2671
裕	-17.2671
規	-17.2671
解	-17.2671
谨	-17.2671
躰	-17.2671
領	-17.2671
颯	-17.2671
餃	-17.2671
餺	-17.2671
駒	-17.2671
낮	-17.2671
맥	-17.2671
체	-17.2671
퍼	-17.2671
홉	-17.2671
𐎢	-17.2671
𐎹	-17.2671
Ҫ	-17.2671
Ҳ	-17.2671
Ա	-17.2671
ఉ	-17.2671
గ	-17.2671
Ἔ	-17.2671
Ἰ	-17.2671
ὖ	-17.2671
ῳ	-17.2671
伯	-17.2671
停	-17.2671
児	-17.2671
勘	-17.2671
孤	-17.2671
宥	-17.2671
寬	-17.2671
忽	-17.2671
振	-17.2671
暫	-17.2671
板	-17.2671
梭	-17.2671
津	-17.2671
洲	-17.2671
浒	-17.2671
眉	-17.2671
萨	-17.2671
逆	-17.2671
귀	-17.2671
꽈	-17.2671
들	-17.2671
땅	-17.2671
알	-17.2671
투	-17.2671
폴	-17.2671
𒀜	-17.2671
Բ	-17.2671
լ	-17.2671
ீ	-17.2671
ಭ	-17.2671
ฉ	-17.2671
အ	-17.2671
ბ	-17.2671
უ	-17.2671
Ἱ	-17.2671
ぐ	-17.2671
可	-17.2671
嶺	-17.2671
灣	-17.2671
獨	-17.2671
眠	-17.2671
禁	-17.2671
臺	-17.2671
윙	-17.2671
𒄡	-17.2671
𒄩	-17.2671
ฝ	-17.2672
៊	-17.2672
ど	-17.2672
妖	-17.2672
师	-17.2672
怪	-17.2672
裏	-17.2672
