<unk>	0
<s>	0
</s>	0
.	-3.24099
,	-3.44155
▁và	-4.39259
▁là	-4.42724
▁có	-4.44763
▁của	-4.48253
▁một	-4.6363
▁không	-4.70897
▁được	-4.89483
▁tôi	-5.05306
▁đã	-5.08265
▁trong	-5.08661
▁thể	-5.09385
▁các	-5.13921
▁bạn	-5.14774
▁người	-5.15776
▁cho	-5.19136
▁với	-5.19815
▁đó	-5.34264
▁sẽ	-5.3483
?	-5.35781
▁ta	-5.39674
▁những	-5.40048
▁ở	-5.4191
▁này	-5.42735
▁để	-5.43717
▁-	-5.52312
▁khi	-5.57075
▁ra	-5.60846
▁vào	-5.61526
▁làm	-5.62213
▁chúng	-5.63199
▁anh	-5.65651
▁như	-5.71982
▁phải	-5.76163
▁đến	-5.7617
▁năm	-5.78405
▁về	-5.79399
▁sự	-5.82781
▁(	-5.86602
n	-5.87078
▁	-5.89367
▁Tôi	-5.91595
▁nó	-5.94286
▁lại	-5.95202
▁từ	-6.00084
▁đi	-6.00822
▁việc	-6.01996
▁mà	-6.02507
▁gì	-6.0371
▁nói	-6.04159
i	-6.0523
▁bị	-6.05485
▁cô	-6.06445
▁đầu	-6.07368
▁hơn	-6.09572
▁biết	-6.13097
▁cũng	-6.13229
▁họ	-6.14155
▁điều	-6.14194
)	-6.14737
▁con	-6.1567
▁thành	-6.1702
▁thế	-6.17377
▁hoặc	-6.18004
▁đang	-6.181
m	-6.18301
▁trên	-6.19459
▁"	-6.21127
▁khác	-6.21158
▁cách	-6.23954
▁thấy	-6.2456
t	-6.2754
▁nhà	-6.27549
▁chỉ	-6.27891
s	-6.28789
▁cả	-6.29195
▁công	-6.29251
▁nhiều	-6.29728
▁số	-6.30393
▁đây	-6.31109
▁ấy	-6.33165
o	-6.33414
▁ông	-6.33815
▁muốn	-6.35391
▁học	-6.36162
▁mình	-6.37293
▁nào	-6.37376
▁dụng	-6.38461
▁rằng	-6.3882
y	-6.38903
▁nhất	-6.39495
▁động	-6.39871
▁quan	-6.39971
▁cần	-6.40515
▁chính	-6.41941
▁vì	-6.4221
▁tại	-6.42272
▁Anh	-6.43166
ng	-6.43851
▁nên	-6.46901
a	-6.47105
▁ngày	-6.47934
▁sau	-6.50736
▁nhưng	-6.51523
▁hiện	-6.53181
▁rồi	-6.55171
▁gia	-6.58407
▁nước	-6.58601
▁bằng	-6.59071
▁sao	-6.59646
▁1	-6.60192
▁thì	-6.60289
▁thứ	-6.60834
▁thực	-6.62038
▁em	-6.62132
u	-6.63123
▁còn	-6.63815
▁nhân	-6.64046
▁nghĩ	-6.64226
▁cái	-6.64504
▁thời	-6.64701
▁rất	-6.65047
▁tự	-6.66334
▁theo	-6.67274
:	-6.67571
▁định	-6.67841
▁Nếu	-6.70535
▁Và	-6.7098
▁trước	-6.7111
▁sử	-6.71214
▁hợp	-6.71442
▁cơ	-6.72464
▁tháng	-6.72707
▁chuyện	-6.7357
▁hành	-6.74438
▁thường	-6.74652
▁cảm	-6.76001
▁nhận	-6.76501
▁hình	-6.76937
▁lên	-6.77262
▁nếu	-6.77373
-	-6.77822
!	-6.78306
▁bản	-6.78413
▁phát	-6.78431
▁vậy	-6.78555
▁cuộc	-6.7921
▁giờ	-6.79562
▁hai	-6.80411
▁qua	-6.80794
▁Chúng	-6.8098
"	-6.82398
▁hay	-6.82693
▁bao	-6.82829
▁tin	-6.83354
▁cùng	-6.84165
c	-6.85425
▁bộ	-6.86277
▁tìm	-6.86582
▁do	-6.86816
▁cậu	-6.88925
e	-6.89413
▁kết	-6.90343
▁bắt	-6.90507
▁sinh	-6.9062
▁giúp	-6.91332
▁tới	-6.91971
▁độ	-6.9248
▁trở	-6.92558
▁quá	-6.92823
▁đề	-6.92846
▁lý	-6.93402
▁loại	-6.93743
▁viên	-6.94186
▁ý	-6.95255
p	-6.95866
▁phần	-6.96225
▁hàng	-6.96477
▁tính	-6.97094
▁trình	-6.97728
▁mới	-6.97875
▁giới	-6.98092
▁sống	-6.9845
▁tiếp	-6.98677
▁trường	-6.99049
▁C	-6.99253
▁bởi	-6.99392
▁đối	-6.99806
▁S	-6.99904
▁gian	-7.00047
g	-7.00715
▁năng	-7.01319
▁thông	-7.01334
▁tốt	-7.01925
▁tạo	-7.02015
▁tế	-7.02718
▁ăn	-7.0348
▁mặt	-7.03484
▁đồng	-7.03606
▁thích	-7.03955
▁Bạn	-7.04462
▁Không	-7.04655
▁mọi	-7.05541
▁Có	-7.05623
▁hội	-7.0603
▁nữa	-7.06762
▁lớn	-7.07091
▁trị	-7.07474
▁Một	-7.07572
▁xuất	-7.08209
▁bà	-7.08215
▁Nhưng	-7.09667
▁nhau	-7.10333
▁Nó	-7.10908
▁toàn	-7.11087
▁A	-7.11395
▁hệ	-7.11989
▁dùng	-7.12889
▁thay	-7.13458
▁lượng	-7.13817
▁lần	-7.13894
▁đổi	-7.14972
▁B	-7.14998
h	-7.1532
▁đâu	-7.15409
▁thức	-7.15534
▁nhiên	-7.15639
▁tập	-7.16387
▁Các	-7.17183
▁vị	-7.17209
▁giải	-7.17221
▁chất	-7.17286
▁bảo	-7.17685
▁tác	-7.17889
▁2	-7.18235
▁gọi	-7.18425
▁Cô	-7.18515
▁trọng	-7.18671
▁ai	-7.18918
▁tình	-7.19108
▁thật	-7.19306
▁tâm	-7.19957
▁tiên	-7.21066
▁liên	-7.21174
▁vật	-7.21355
▁tay	-7.21567
▁đường	-7.21602
▁máy	-7.22151
▁vụ	-7.22317
▁sĩ	-7.22797
▁sản	-7.2289
▁tên	-7.22955
▁'	-7.23463
r	-7.23584
▁cao	-7.23819
▁nơi	-7.23834
▁vẫn	-7.23854
▁bất	-7.24214
▁hoá	-7.25537
▁hãy	-7.27952
▁bệnh	-7.28341
▁hiệu	-7.28415
▁xem	-7.29254
▁bên	-7.29807
▁chưa	-7.30391
▁yêu	-7.30771
▁3	-7.30922
▁pháp	-7.31382
C	-7.31907
▁quả	-7.32034
▁T	-7.3221
▁điểm	-7.32269
▁thống	-7.32302
▁tất	-7.32386
▁vấn	-7.32964
▁ảnh	-7.33109
▁chủ	-7.33187
l	-7.33986
▁thuốc	-7.34105
▁cầu	-7.35637
▁thiết	-7.35753
▁bỏ	-7.36376
▁đại	-7.36485
▁quyền	-7.36506
▁quốc	-7.36619
▁tiếng	-7.36983
▁Quốc	-7.37865
▁lập	-7.38041
▁chuyển	-7.38403
▁trung	-7.38548
▁khu	-7.39102
▁phía	-7.39226
▁đấy	-7.39866
▁Trong	-7.39875
▁đưa	-7.39999
▁liệu	-7.40124
▁câu	-7.40251
▁thân	-7.40517
▁biệt	-7.40845
▁cứu	-7.40856
▁phẩm	-7.41001
▁dân	-7.41351
▁chiến	-7.4169
▁cấp	-7.41738
nh	-7.42271
▁lực	-7.42831
▁tiêu	-7.43092
▁chứng	-7.4355
▁D	-7.43757
▁nhìn	-7.44234
ra	-7.44428
▁kinh	-7.44559
▁phụ	-7.44818
▁phòng	-7.44934
▁ngoài	-7.44941
▁gặp	-7.45614
▁nữ	-7.45664
▁hết	-7.4664
▁cố	-7.47019
▁hoạt	-7.47446
▁phương	-7.47481
▁Ông	-7.47693
▁ứng	-7.47871
▁đều	-7.48352
▁gồm	-7.48464
▁khoảng	-7.48778
▁M	-7.49002
▁chế	-7.49063
▁chức	-7.49425
▁chọn	-7.49614
S	-7.49633
▁chết	-7.50025
▁giá	-7.50182
▁tương	-7.50186
k	-7.50342
▁chơi	-7.50515
▁nhỏ	-7.50588
▁Trung	-7.50784
▁lúc	-7.51127
▁sáng	-7.512
▁tăng	-7.51485
▁nghĩa	-7.52103
▁nghe	-7.52301
ch	-7.52551
▁gây	-7.52693
▁hoàn	-7.52855
▁hắn	-7.52887
▁hỏi	-7.5307
▁Ba	-7.5339
▁dẫn	-7.53671
▁khỏi	-7.53982
▁biến	-7.54017
▁tiền	-7.5409
▁phân	-7.54256
▁báo	-7.54606
▁diễn	-7.54799
d	-7.54923
▁thôi	-7.55111
▁thương	-7.55213
▁mất	-7.55464
▁thuật	-7.55996
A	-7.56169
▁lời	-7.5641
▁Khi	-7.56425
▁Em	-7.56581
▁triển	-7.56872
▁vài	-7.56904
▁bố	-7.57047
re	-7.57179
▁điện	-7.57378
▁mẹ	-7.57439
▁ngay	-7.57443
▁từng	-7.57856
▁sát	-7.5796
▁giảm	-7.58205
▁19	-7.58264
▁hiểu	-7.58365
▁Ta	-7.58953
▁dưới	-7.5923
▁mỗi	-7.59469
▁Đó	-7.60211
▁kỳ	-7.60416
▁N	-7.60515
er	-7.60578
▁trẻ	-7.60794
▁nay	-7.60798
▁trí	-7.60905
▁đặc	-7.60915
▁G	-7.60952
▁sách	-7.60954
▁bình	-7.60982
▁xác	-7.61295
le	-7.61505
▁xe	-7.61789
in	-7.61979
▁gần	-7.62202
▁đặt	-7.62223
▁tưởng	-7.62398
▁nghiệp	-7.6278
▁đơn	-7.63111
▁vực	-7.63502
▁bài	-7.63639
▁giữa	-7.63848
▁O	-7.6425
on	-7.64268
la	-7.64523
T	-7.64629
▁L	-7.64925
;	-7.65038
▁Đây	-7.65253
▁chứ	-7.65337
▁Mỹ	-7.6572
▁đất	-7.65808
▁đánh	-7.66695
▁mạnh	-7.67037
▁khó	-7.67069
▁khiến	-7.67088
▁quyết	-7.67136
▁5	-7.67414
▁tài	-7.67434
▁đúng	-7.67536
▁E	-7.67741
▁4	-7.67894
▁s	-7.67921
▁Hãy	-7.67991
▁thêm	-7.68069
▁kế	-7.68293
▁dịch	-7.68358
▁ba	-7.68812
▁cuối	-7.68828
),	-7.6889
▁tư	-7.69293
▁giữ	-7.69524
▁vi	-7.70557
▁truyền	-7.70564
▁giống	-7.70764
▁lấy	-7.71459
▁đồ	-7.71625
▁cá	-7.71964
▁I	-7.71976
M	-7.72131
▁cứ	-7.72318
▁thuộc	-7.72393
▁văn	-7.72405
▁tranh	-7.72552
P	-7.72831
▁dù	-7.72943
).	-7.73055
▁ít	-7.73517
en	-7.7368
▁trò	-7.74071
▁giáo	-7.74171
▁thị	-7.74788
▁H	-7.74805
▁da	-7.74843
▁hạn	-7.75273
▁tham	-7.75286
b	-7.75289
▁Những	-7.7678
▁tinh	-7.77108
▁vô	-7.77249
▁kiểm	-7.77923
▁xảy	-7.77942
▁Họ	-7.7829
▁nguyên	-7.786
▁địa	-7.78761
▁bán	-7.7901
▁mang	-7.79563
▁tử	-7.79702
▁khả	-7.7978
D	-7.79925
▁Con	-7.79962
▁cây	-7.80133
▁trang	-7.80447
'	-7.80748
▁Vậy	-7.81029
N	-7.81389
▁r	-7.81526
▁Nam	-7.81574
lo	-7.81703
▁tra	-7.81783
▁thu	-7.81892
ri	-7.81961
▁sức	-7.82241
▁nghiệm	-7.82331
▁hướng	-7.82646
▁mở	-7.82728
▁mục	-7.82803
▁xuống	-7.83072
▁dụ	-7.83235
an	-7.8336
▁màu	-7.83752
▁luôn	-7.83995
▁Sau	-7.84001
▁10	-7.84022
▁K	-7.84305
ro	-7.84761
▁tích	-7.84813
▁viết	-7.85216
▁tục	-7.85241
▁tượng	-7.85629
▁phép	-7.85793
▁đáng	-7.85862
▁m	-7.85919
▁nhớ	-7.86082
▁vệ	-7.86243
▁thần	-7.86264
el	-7.86423
B	-7.86698
▁thư	-7.86981
▁à	-7.87182
▁lo	-7.87364
▁đủ	-7.87378
▁gái	-7.87421
th	-7.87994
or	-7.88009
▁Điều	-7.88137
al	-7.88333
▁cảnh	-7.88336
▁đạo	-7.88454
▁dài	-7.88589
▁kể	-7.8891
▁tuổi	-7.88931
▁trả	-7.89002
2	-7.89074
▁chắc	-7.8947
▁Cậu	-7.89594
▁Đ	-7.89912
▁V	-7.89926
▁dự	-7.90263
▁âm	-7.91056
▁bác	-7.91087
▁/	-7.91205
▁cửa	-7.91247
▁khí	-7.91263
▁phim	-7.91307
▁quân	-7.91319
x	-7.91444
▁dễ	-7.91692
▁nằm	-7.91908
na	-7.92122
3	-7.9233
▁F	-7.9241
▁phản	-7.92676
▁bé	-7.92788
▁giết	-7.92858
▁chú	-7.93048
▁6	-7.93327
▁tổ	-7.9333
▁chí	-7.93446
▁tiến	-7.94004
▁biểu	-7.94094
▁nhóm	-7.94112
▁an	-7.94179
▁mắt	-7.94189
▁tối	-7.94493
▁cổ	-7.94779
I	-7.94865
▁Lan	-7.95144
▁triệu	-7.95286
▁nhạc	-7.95476
▁đội	-7.95553
ma	-7.95762
▁thủ	-7.95885
5	-7.96023
▁đau	-7.96185
▁nghiên	-7.96229
▁trợ	-7.96607
▁lẽ	-7.96631
▁phố	-7.97125
▁minh	-7.97181
▁chiếc	-7.97333
▁phục	-7.97445
▁chẳng	-7.97818
▁g	-7.97841
▁mô	-7.98029
▁ban	-7.98059
▁đình	-7.98417
▁đời	-7.98631
▁yếu	-7.99453
▁b	-7.9952
▁nghệ	-7.99612
▁ty	-7.99913
▁danh	-7.99984
▁mức	-8.00031
us	-8.00207
▁n	-8.0024
▁nhanh	-8.00461
H	-8.00545
▁P	-8.00635
ta	-8.00938
▁Ma	-8.01014
▁duy	-8.01228
▁thử	-8.01325
▁cung	-8.01756
▁uống	-8.01826
▁l	-8.01959
▁rõ	-8.0206
▁di	-8.02456
▁sở	-8.02461
4	-8.02598
▁cực	-8.02809
▁vùng	-8.03062
▁chân	-8.03219
▁Hoa	-8.03229
▁suy	-8.03401
▁chống	-8.03894
▁nhiệm	-8.04375
▁nổi	-8.04744
▁Năm	-8.0488
▁kiến	-8.05
▁trưởng	-8.05165
▁án	-8.05678
E	-8.06582
▁ngữ	-8.06666
▁dạng	-8.06728
▁mua	-8.06814
▁Tuy	-8.0689
▁luật	-8.07191
▁đấu	-8.07263
z	-8.07264
▁giao	-8.07269
▁R	-8.07273
▁chi	-8.07375
▁vừa	-8.07511
▁7	-8.0777
▁hưởng	-8.08109
li	-8.08284
▁quay	-8.08316
▁tuần	-8.0837
▁so	-8.08485
▁Bà	-8.08621
▁giác	-8.08886
▁phủ	-8.09032
▁Người	-8.09128
▁chỗ	-8.09168
ne	-8.09737
▁Vì	-8.09816
▁giả	-8.10077
▁xã	-8.10235
▁Để	-8.10335
▁lâu	-8.10667
▁Vào	-8.10961
▁lỗi	-8.11007
▁xa	-8.11132
▁lợi	-8.1131
da	-8.11343
▁áp	-8.11425
▁kẻ	-8.11533
L	-8.11552
▁v	-8.11574
▁chương	-8.11887
ol	-8.11896
▁chịu	-8.12362
▁phá	-8.12403
▁Đại	-8.12654
▁dành	-8.12656
▁trai	-8.12816
▁nhập	-8.13064
▁y	-8.13274
▁dục	-8.14333
▁mạng	-8.14354
▁8	-8.14719
▁ngủ	-8.14754
▁lịch	-8.15169
▁kích	-8.1524
▁nguồn	-8.15432
▁lạc	-8.15674
▁gắng	-8.15918
▁tớ	-8.15968
▁diện	-8.16373
▁xúc	-8.1639
▁ngôi	-8.16444
▁tuyệt	-8.16482
▁c	-8.16601
to	-8.16859
▁Ch	-8.16911
▁Do	-8.16923
▁cụ	-8.17351
▁kiện	-8.17772
▁mối	-8.17936
▁xử	-8.17961
▁vẻ	-8.18032
▁trạng	-8.18298
▁độc	-8.18585
▁chút	-8.18678
ạ	-8.18842
▁rộng	-8.18863
▁bàn	-8.19197
▁bay	-8.19241
▁cộng	-8.1952
▁càng	-8.19522
▁dựng	-8.1954
▁quanh	-8.19566
▁viện	-8.19592
▁khoa	-8.19707
▁mày	-8.19728
R	-8.19748
▁Kỳ	-8.19989
es	-8.20052
▁thú	-8.20245
▁x	-8.20475
é	-8.20706
▁mặc	-8.21039
▁cáo	-8.21162
▁cha	-8.21215
▁phút	-8.21222
▁riêng	-8.21359
▁chung	-8.21448
▁thanh	-8.21461
▁đông	-8.21545
▁kỷ	-8.22719
▁đóng	-8.23208
▁chuyên	-8.23348
▁đôi	-8.23797
▁tóc	-8.24211
▁máu	-8.24219
▁vai	-8.24348
▁kiếm	-8.24399
▁đàn	-8.24612
▁sợ	-8.25039
▁vòng	-8.2521
1	-8.25281
▁ch	-8.25384
▁d	-8.25385
▁–	-8.25601
ck	-8.2573
▁dấu	-8.25978
▁luận	-8.26129
▁bóng	-8.26285
▁9	-8.2672
▁lưu	-8.26853
▁đẹp	-8.26892
6	-8.2694
▁vọng	-8.26988
▁Đừng	-8.27019
▁vui	-8.2702
▁thoại	-8.27122
il	-8.2716
▁xây	-8.27181
▁thi	-8.27195
▁lòng	-8.27253
▁tiết	-8.27259
▁hoà	-8.27302
▁thúc	-8.27413
▁cháu	-8.27456
ur	-8.27457
▁Phi	-8.279
▁đá	-8.28073
▁ghi	-8.28721
▁tổng	-8.29018
▁sẵn	-8.29076
á	-8.29334
▁thuyết	-8.29606
▁vận	-8.29961
▁ơn	-8.30068
▁khoẻ	-8.30169
▁chạy	-8.3053
O	-8.30644
▁X	-8.3071
de	-8.30912
▁chuẩn	-8.31149
▁xin	-8.3119
▁La	-8.31214
▁ng	-8.31217
▁hữu	-8.31255
▁lớp	-8.31269
▁kỹ	-8.31832
▁trái	-8.32139
▁h	-8.32141
▁khách	-8.32285
▁Thế	-8.3257
▁18	-8.32604
▁Đức	-8.32741
v	-8.33272
▁chia	-8.33285
▁trời	-8.33528
▁Th	-8.33781
▁lắm	-8.33798
▁quy	-8.33812
▁Chỉ	-8.34076
▁nhiễm	-8.3419
▁đô	-8.34492
▁xét	-8.34771
▁vũ	-8.34922
▁kia	-8.35201
▁U	-8.35586
▁bước	-8.35733
▁tội	-8.35822
ti	-8.35835
▁trực	-8.35939
▁tránh	-8.36103
ine	-8.36176
V	-8.36497
▁Công	-8.36541
▁hạt	-8.36665
▁đừng	-8.36722
▁quản	-8.37107
▁12	-8.37126
▁ký	-8.37269
▁tố	-8.37337
▁khăn	-8.37571
▁cử	-8.37592
▁Sao	-8.37595
▁dầu	-8.37879
▁bọn	-8.38005
▁đoạn	-8.38211
G	-8.38325
▁ca	-8.38545
".	-8.39832
man	-8.4003
F	-8.40136
▁chó	-8.40405
▁cạnh	-8.40438
ka	-8.40476
▁đứng	-8.40481
▁sư	-8.40548
▁buổi	-8.40587
▁đứa	-8.40621
te	-8.4081
▁hoạch	-8.40836
▁phạm	-8.41091
▁ngăn	-8.41187
▁áo	-8.41711
▁nền	-8.41883
▁lệ	-8.42033
▁nguy	-8.42085
▁đạt	-8.42259
▁thẳng	-8.42466
▁hát	-8.42567
▁Li	-8.42645
▁hơi	-8.4285
▁nội	-8.42942
▁bào	-8.42945
ga	-8.42946
▁ích	-8.43146
ar	-8.43373
▁biển	-8.43395
▁nam	-8.43563
▁nhiệt	-8.43621
▁tiểu	-8.43771
▁Cho	-8.43797
▁doanh	-8.44288
▁hồi	-8.44309
▁soát	-8.44793
▁mùa	-8.452
▁dung	-8.45413
▁th	-8.4572
▁Bộ	-8.45796
et	-8.45802
▁phí	-8.45829
▁đầy	-8.45987
▁chị	-8.46091
▁hộ	-8.46489
▁t	-8.46658
▁Mi	-8.46869
▁lá	-8.46934
9	-8.46936
▁chứa	-8.47071
ên	-8.47296
▁hôn	-8.4739
▁Việt	-8.47504
▁20	-8.4764
▁mật	-8.47759
▁khá	-8.47795
▁chấp	-8.48181
▁thiên	-8.48184
▁nh	-8.48427
▁tao	-8.48732
▁đảm	-8.48791
▁bức	-8.4882
st	-8.48964
ơ	-8.49129
▁ngoại	-8.49133
sa	-8.49274
▁loài	-8.49305
▁kéo	-8.49397
▁trận	-8.49474
▁hôm	-8.49761
▁sang	-8.49781
▁phổ	-8.49849
▁đêm	-8.50007
à	-8.50419
▁chắn	-8.50516
▁cải	-8.50643
▁nghị	-8.5073
▁bắc	-8.50756
▁sắc	-8.50786
▁tàu	-8.50857
▁Ra	-8.51118
▁cân	-8.51282
wa	-8.51353
▁mấy	-8.51455
▁lãnh	-8.5155
▁dữ	-8.52057
▁sâu	-8.5244
▁vết	-8.52456
▁ngài	-8.52461
▁châu	-8.52468
▁Al	-8.52482
▁đa	-8.52527
▁Được	-8.52894
▁đoán	-8.52956
▁tức	-8.53374
ry	-8.53536
▁tây	-8.53606
co	-8.54008
▁coi	-8.54045
son	-8.54196
▁p	-8.54236
ba	-8.54286
ia	-8.5513
▁hỗ	-8.55507
w	-8.55529
í	-8.55568
▁thấp	-8.55716
▁Cha	-8.55886
▁la	-8.55964
▁Tây	-8.56004
▁Liên	-8.56082
▁tả	-8.56178
▁ngôn	-8.56246
▁hậu	-8.56312
▁Ở	-8.5651
▁Tr	-8.56543
K	-8.56554
▁hại	-8.56592
▁băng	-8.56622
8	-8.56704
▁đọc	-8.56913
▁thiếu	-8.57031
▁sắp	-8.57082
7	-8.57438
▁sai	-8.57462
▁môi	-8.57725
ả	-8.57854
."	-8.57859
ad	-8.57906
▁Việc	-8.57906
▁nhé	-8.58044
▁Theo	-8.58611
▁khoá	-8.58923
▁hoa	-8.59052
go	-8.59357
▁phù	-8.59469
ó	-8.59548
▁tr	-8.59549
▁hầu	-8.5969
▁xung	-8.59751
ki	-8.59891
▁Ý	-8.59954
▁Ví	-8.60007
▁to	-8.60184
▁bây	-8.6021
▁tim	-8.6022
ie	-8.60221
▁sàng	-8.60262
▁cư	-8.60268
▁lựa	-8.60279
▁Làm	-8.60299
▁cắt	-8.60487
▁cười	-8.60811
▁hiểm	-8.61175
▁ngồi	-8.61216
ce	-8.61444
▁Hắn	-8.61545
▁xuyên	-8.61587
▁tồn	-8.6162
▁thái	-8.61652
▁ánh	-8.61737
▁tệ	-8.61847
▁trải	-8.61901
▁11	-8.61942
▁quần	-8.62004
▁thiện	-8.62019
▁sạch	-8.62143
▁Sự	-8.62163
va	-8.62316
▁kiểu	-8.62325
▁Bản	-8.62356
▁ổn	-8.62365
▁bổ	-8.62373
▁giản	-8.62704
▁de	-8.62815
▁dựa	-8.63337
▁trùng	-8.63385
▁buộc	-8.63432
▁hồ	-8.6351
▁rối	-8.63574
▁Ro	-8.63764
▁thắng	-8.64079
ất	-8.64211
▁toà	-8.64502
me	-8.64754
is	-8.64981
▁Vi	-8.65049
▁Tớ	-8.65162
▁toán	-8.65252
▁An	-8.65301
ư	-8.65378
do	-8.65406
▁tấn	-8.65564
▁W	-8.6576
ter	-8.65772
▁bầu	-8.6584
ni	-8.65879
▁khô	-8.66285
▁trông	-8.6636
f	-8.66501
di	-8.66584
▁đoàn	-8.66791
▁15	-8.66798
▁thất	-8.66818
▁đ	-8.66889
▁Mo	-8.66897
▁tuyến	-8.66926
▁Nhật	-8.66983
▁lắng	-8.6737
▁Re	-8.67419
▁ràng	-8.6743
▁não	-8.67531
vi	-8.67595
▁cập	-8.6766
▁phong	-8.67677
▁căn	-8.67712
▁món	-8.67974
▁ma	-8.68089
▁mẫu	-8.68197
▁nhắc	-8.68303
▁thậm	-8.68352
▁Tại	-8.68362
▁thụ	-8.68363
▁thưởng	-8.68421
▁khai	-8.68618
▁gốc	-8.68664
▁nối	-8.68788
ed	-8.68817
▁ví	-8.6932
▁Bắc	-8.69734
▁suốt	-8.69826
▁Co	-8.69865
un	-8.69949
ic	-8.70226
ve	-8.70417
▁Le	-8.70561
ke	-8.70741
▁xếp	-8.70758
one	-8.7107
▁bánh	-8.71072
▁hạ	-8.71187
êu	-8.71205
▁hả	-8.71375
▁Pa	-8.71681
▁Tất	-8.71737
000	-8.71745
▁cuốn	-8.71752
▁Giờ	-8.71775
ton	-8.71793
as	-8.7184
▁gửi	-8.71977
▁vời	-8.72101
▁nóng	-8.72365
▁Ai	-8.72538
▁nhẹ	-8.72673
▁vầ	-8.72704
▁cánh	-8.72716
▁quen	-8.72744
ô	-8.73028
▁nghi	-8.73385
▁Me	-8.73786
▁đảo	-8.73861
▁mạch	-8.74082
at	-8.74094
▁phi	-8.74221
▁trì	-8.74318
ow	-8.74398
se	-8.7471
no	-8.74778
▁Na	-8.74834
▁Sa	-8.75007
▁in	-8.75029
đ	-8.75091
ê	-8.75126
▁chờ	-8.75239
▁mong	-8.75246
▁tù	-8.75615
▁khoản	-8.75813
▁mèo	-8.7601
ca	-8.76029
▁nghiêm	-8.76062
▁Ka	-8.76268
▁giấy	-8.76433
▁Ca	-8.7646
▁phê	-8.76555
▁luyện	-8.76649
▁đẩy	-8.76649
bo	-8.76687
▁trừ	-8.76713
▁dây	-8.7723
▁vợ	-8.77491
ing	-8.77695
▁De	-8.77879
▁rời	-8.77931
▁vượt	-8.78029
▁New	-8.78095
▁dòng	-8.78154
▁xấu	-8.78159
▁buồn	-8.78166
▁ước	-8.78446
▁ô	-8.78645
▁lai	-8.78662
▁nạn	-8.78756
▁đỏ	-8.78785
▁lạnh	-8.7895
▁cấu	-8.79028
▁Mar	-8.79092
▁mái	-8.79113
▁cũ	-8.79298
▁tạp	-8.7936
▁a	-8.79362
▁sớm	-8.79399
▁Pháp	-8.79549
▁Chúa	-8.79578
▁lộ	-8.79855
▁Bo	-8.80046
▁chữ	-8.80125
▁bang	-8.80352
▁loạn	-8.80635
▁kháng	-8.80676
▁Nhà	-8.80694
▁trúc	-8.80803
ph	-8.81212
▁nặng	-8.81319
▁Phải	-8.81403
ya	-8.81527
▁Ph	-8.81603
▁trách	-8.81604
▁tôn	-8.81695
▁Cái	-8.81715
▁hút	-8.81773
sh	-8.8214
▁So	-8.82191
▁Đông	-8.82313
▁tỷ	-8.82354
▁tỉnh	-8.82673
",	-8.82705
▁hạng	-8.83149
▁khối	-8.83159
▁sơ	-8.83272
▁Mặc	-8.83311
▁nghỉ	-8.83513
▁Âu	-8.83829
▁chàng	-8.83883
▁ngắn	-8.83998
▁thoát	-8.84123
▁trao	-8.84168
▁huỷ	-8.84237
▁súng	-8.84287
▁kính	-8.84303
id	-8.84427
▁Mẹ	-8.84659
▁30	-8.84846
▁Tổng	-8.84962
ho	-8.85009
▁kê	-8.85087
▁chăm	-8.85101
▁trụ	-8.8532
▁thằng	-8.85452
▁tuyên	-8.85703
▁Từ	-8.85766
▁bắn	-8.85848
▁ngươi	-8.85964
U	-8.86159
▁đỡ	-8.86258
▁rượu	-8.86449
▁xanh	-8.86492
▁trắng	-8.86496
▁dàng	-8.86617
▁cà	-8.86878
ko	-8.86886
▁đen	-8.86931
▁dạy	-8.87499
▁chỉnh	-8.87728
▁mắc	-8.87802
▁Á	-8.87935
▁đổ	-8.88039
nd	-8.88103
it	-8.88189
▁bí	-8.88246
▁quý	-8.88561
▁khẩu	-8.8876
am	-8.89014
mo	-8.89498
▁niệm	-8.8969
▁Với	-8.89797
▁thuận	-8.89933
mi	-8.90332
hi	-8.90388
▁Se	-8.90497
▁Di	-8.90541
▁lệnh	-8.90554
▁Ng	-8.90672
ết	-8.90695
os	-8.90702
▁phiên	-8.90787
▁cơn	-8.90799
be	-8.90916
▁bại	-8.90944
▁thận	-8.91012
▁chảy	-8.91019
▁cận	-8.91076
▁hấp	-8.91077
▁nhờ	-8.91094
ul	-8.91156
▁tốc	-8.91242
▁Nh	-8.9135
▁Còn	-8.91458
▁Bây	-8.9164
ân	-8.91658
▁thịt	-8.9177
gi	-8.9197
▁thảo	-8.92234
▁Ban	-8.9227
▁sân	-8.92294
▁đột	-8.92376
▁căng	-8.92457
▁Hai	-8.92601
▁Độ	-8.92626
ll	-8.92668
è	-8.9272
▁miệng	-8.9294
▁Be	-8.92959
▁nửa	-8.93039
▁khám	-8.93133
00	-8.93163
▁dưỡng	-8.93264
▁huy	-8.93314
▁sóc	-8.9336
ến	-8.93457
▁quên	-8.93725
▁Ho	-8.93838
▁giành	-8.93935
▁Da	-8.93937
▁hoạ	-8.94285
pe	-8.94492
ir	-8.94669
▁bữa	-8.9496
▁tắc	-8.95053
▁tộc	-8.9542
▁thở	-8.95447
ss	-8.95507
▁chiều	-8.95621
▁qu	-8.95722
▁đích	-8.95731
▁Ja	-8.95734
▁đợi	-8.96402
▁kì	-8.96417
▁Như	-8.96434
▁tái	-8.96495
▁The	-8.96605
▁Y	-8.96763
▁đăng	-8.9703
▁thưa	-8.97041
▁phóng	-8.97112
▁Nói	-8.9744
ủ	-8.97442
▁hoàng	-8.97462
/	-8.97524
▁chồng	-8.9755
▁e	-8.97747
▁Chính	-8.97895
▁chặn	-8.97951
▁thập	-8.98119
▁tải	-8.98225
▁lửa	-8.98316
▁mềm	-8.98512
▁vàng	-8.98601
▁bốn	-8.98615
▁Su	-8.98646
ru	-8.98668
▁du	-8.98842
▁thai	-8.98856
▁Lo	-8.98884
▁màn	-8.98913
▁tổn	-8.99104
▁tiện	-8.99196
▁St	-8.99294
▁Ngoài	-8.99484
▁dần	-8.99555
▁khủng	-8.99762
▁giai	-9.00255
▁bè	-9.00341
▁ngược	-9.00363
▁lạ	-9.0051
▁17	-9.00563
▁tín	-9.00712
▁sửa	-9.00717
ster	-9.00785
▁thuỷ	-9.0104
▁Thật	-9.0111
▁làng	-9.01145
▁mại	-9.0127
▁dõi	-9.01337
▁đem	-9.01534
▁Mọi	-9.01634
▁Ar	-9.01647
▁ngờ	-9.01735
▁nuôi	-9.01985
za	-9.02047
ard	-9.02208
▁chữa	-9.02302
ha	-9.02362
▁rửa	-9.02393
▁ngành	-9.0254
▁tỏ	-9.02614
tiếng	-9.03264
ì	-9.03319
▁nhật	-9.03375
▁viêm	-9.03743
▁Bố	-9.03862
▁hạnh	-9.03934
▁biên	-9.0394
▁gi	-9.03968
▁tuỳ	-9.03985
▁Ấn	-9.03996
▁niên	-9.04075
der	-9.04217
▁sẻ	-9.04279
▁may	-9.04286
▁Bi	-9.04323
▁xu	-9.04355
bi	-9.0438
▁co	-9.04428
▁Nga	-9.04429
▁Ngày	-9.04495
▁cường	-9.04701
op	-9.04707
pa	-9.04847
án	-9.04856
▁k	-9.04873
▁giám	-9.04994
▁hy	-9.05135
▁In	-9.05143
▁khắc	-9.05156
▁Si	-9.05247
ge	-9.05384
▁16	-9.05448
si	-9.05835
ỉ	-9.06063
▁Jo	-9.06183
▁tai	-9.0619
▁nhiêu	-9.06307
▁mã	-9.06456
ver	-9.06505
▁phúc	-9.06542
▁Là	-9.06547
▁nỗi	-9.06886
▁Ga	-9.07027
▁phán	-9.07035
▁hộp	-9.07457
▁Ri	-9.07511
ci	-9.07535
▁chuyến	-9.07645
▁Hội	-9.0793
▁khởi	-9.07987
▁miễn	-9.08389
▁thừa	-9.08548
▁chóng	-9.08627
▁bày	-9.08732
▁đốc	-9.08921
▁Xin	-9.08945
▁sóng	-9.09056
▁Giải	-9.09094
▁kim	-9.09094
ệt	-9.09275
▁lễ	-9.09554
▁Thái	-9.09974
▁tĩnh	-9.09976
▁bảng	-9.10162
▁lĩnh	-9.10181
▁khắp	-9.10255
▁Ha	-9.10279
yl	-9.10748
▁khuẩn	-9.11037
▁Ni	-9.11152
lin	-9.11177
ian	-9.11854
W	-9.11858
um	-9.11903
▁km	-9.11984
▁đĩa	-9.12321
▁Nhiều	-9.12692
▁Mày	-9.12747
▁f	-9.12793
▁đo	-9.12999
▁mai	-9.13175
Đ	-9.13308
▁tầm	-9.13482
ệ	-9.13589
ly	-9.1361
ot	-9.13681
▁răng	-9.13683
ù	-9.13964
▁dậy	-9.14117
▁huyết	-9.14141
▁sung	-9.14411
▁thăm	-9.14427
▁chiếm	-9.14589
▁ống	-9.14599
od	-9.14638
▁lành	-9.14682
tr	-9.1477
▁đám	-9.14787
ạc	-9.15233
▁cứng	-9.15267
ay	-9.15452
ớ	-9.15532
▁mơ	-9.15548
▁mời	-9.15564
▁Qu	-9.15659
▁Pi	-9.15729
▁nông	-9.15819
▁sổ	-9.15833
▁lao	-9.15868
▁Po	-9.16022
▁Châu	-9.16035
▁Nha	-9.16128
▁xong	-9.16336
▁suất	-9.16348
ự	-9.16429
▁trấn	-9.1644
▁phận	-9.16449
▁of	-9.16563
▁cầm	-9.16572
▁chạm	-9.16711
▁hứng	-9.16899
▁túi	-9.16915
▁To	-9.16955
▁đài	-9.17025
ide	-9.17077
▁mũi	-9.17083
▁ẩn	-9.17183
▁Car	-9.17411
▁Nhân	-9.1742
▁nhằm	-9.17467
▁dị	-9.17531
▁đuổi	-9.17677
▁dừng	-9.17725
▁hề	-9.17973
ứ	-9.17981
▁phức	-9.17982
▁phối	-9.18231
▁mùi	-9.18315
▁yên	-9.18354
▁ủng	-9.18357
ông	-9.18416
▁ung	-9.18512
tin	-9.18557
▁Thực	-9.18957
▁tầng	-9.1907
▁già	-9.19137
▁thao	-9.19141
▁sông	-9.19299
▁14	-9.19394
▁cú	-9.19413
▁xương	-9.19468
▁nhảy	-9.1948
▁siêu	-9.1956
▁lí	-9.19587
ut	-9.19639
▁chiếu	-9.19663
▁Te	-9.19805
▁lông	-9.19828
▁dương	-9.19888
▁hẹn	-9.19916
▁rút	-9.20058
▁tận	-9.20121
▁ngừng	-9.20163
▁0	-9.20236
▁núi	-9.20257
▁tịch	-9.20289
ate	-9.2037
▁giây	-9.20411
▁John	-9.20451
▁nhỉ	-9.20484
j	-9.20609
shi	-9.2068
▁Tìm	-9.20746
▁J	-9.20756
ina	-9.20771
▁thơ	-9.20871
▁Dùng	-9.21035
ỏ	-9.21166
▁loạt	-9.21244
▁góc	-9.21276
pi	-9.21306
0	-9.2135
▁kịch	-9.21467
▁địch	-9.21484
lu	-9.21505
▁Đi	-9.21557
em	-9.21623
▁đào	-9.21772
▁thiệu	-9.21804
▁bề	-9.21877
▁ức	-9.21901
▁chu	-9.21903
▁Dù	-9.21918
▁13	-9.2193
0%	-9.21946
▁Tao	-9.2202
▁đáp	-9.22021
▁video	-9.22078
ợ	-9.22204
▁Bởi	-9.22244
▁ly	-9.22419
▁Nghe	-9.22437
▁Go	-9.22584
▁ph	-9.22587
▁Trước	-9.22784
▁He	-9.22939
ộ	-9.2316
▁tắm	-9.23664
▁tấm	-9.23673
▁Chắc	-9.23887
▁bạo	-9.239
ent	-9.24006
▁nổ	-9.24022
ld	-9.24218
▁ấm	-9.24265
▁Trái	-9.24402
▁miền	-9.24516
▁ngân	-9.24524
▁2016	-9.24687
ff	-9.24922
▁gã	-9.2495
▁gắn	-9.25064
▁Thay	-9.25128
▁web	-9.25241
▁kem	-9.25254
▁100	-9.25277
▁sữa	-9.25307
▁linh	-9.25322
▁No	-9.25325
▁Wi	-9.25434
▁góp	-9.25531
▁lỗ	-9.25701
▁thoải	-9.25949
ú	-9.25952
▁truy	-9.26093
▁nhu	-9.26178
▁thoả	-9.26178
po	-9.26369
▁Ki	-9.26463
▁Gi	-9.26513
▁vẽ	-9.26599
▁chậm	-9.26617
▁(19	-9.26666
▁trăm	-9.26784
▁trại	-9.26895
▁Ju	-9.27088
ụ	-9.27095
êm	-9.27161
▁thả	-9.27189
▁lược	-9.273
ọ	-9.27396
▁cốc	-9.27534
▁môn	-9.27535
ối	-9.27807
▁chuột	-9.27946
▁El	-9.28198
▁Hy	-9.28298
▁điên	-9.28322
▁hài	-9.28577
ẹ	-9.28656
▁hà	-9.28952
▁Pe	-9.29071
sinh	-9.29144
▁al	-9.29241
bu	-9.29384
▁huống	-9.29412
▁trứng	-9.29607
▁bột	-9.29653
▁thẩm	-9.29696
▁Bọn	-9.29839
ah	-9.29937
▁bật	-9.29954
▁rơi	-9.30092
▁giận	-9.30097
▁2011	-9.30102
▁niềm	-9.30133
ấu	-9.30222
▁Hu	-9.3029
▁Bar	-9.3037
▁ẩm	-9.30377
wi	-9.30417
▁lái	-9.30466
▁hi	-9.30521
▁nàng	-9.30686
so	-9.30762
▁2015	-9.30823
▁trốn	-9.30852
▁mẽ	-9.30869
▁Bu	-9.31014
▁Nên	-9.31017
ử	-9.31032
▁thờ	-9.31163
▁Cháu	-9.31263
▁tờ	-9.31277
▁Lu	-9.31684
▁chụp	-9.31736
▁mi	-9.31737
▁Vâng	-9.31845
▁2012	-9.31877
▁thù	-9.32006
▁chối	-9.32073
chi	-9.321
▁thí	-9.32104
▁phẫu	-9.32138
▁khiển	-9.3217
▁kh	-9.32287
▁Hi	-9.32307
▁2014	-9.32477
▁ro	-9.32506
▁lầm	-9.32569
▁Cộng	-9.32597
mer	-9.32659
▁Tập	-9.33018
▁tường	-9.33088
▁2017	-9.33143
ị	-9.33162
▁sáu	-9.3328
▁ấn	-9.33387
▁doạ	-9.33447
▁Mặt	-9.33502
ja	-9.33659
ley	-9.33781
▁Du	-9.33984
▁diệt	-9.34196
▁liệt	-9.34201
dy	-9.3422
ế	-9.34379
ăng	-9.34448
▁+	-9.34495
▁sa	-9.34595
▁Ko	-9.34754
▁bạc	-9.34787
▁trầm	-9.34899
▁hỗn	-9.34933
▁Tên	-9.35025
land	-9.35143
ần	-9.35287
▁Này	-9.35338
▁Kh	-9.35375
▁thách	-9.35452
▁Rồi	-9.35522
▁hương	-9.3553
ẻ	-9.35628
▁tán	-9.35759
▁chặt	-9.35793
▁phó	-9.35901
▁tắt	-9.36039
▁Cả	-9.36088
mp	-9.36174
▁nỗ	-9.36197
▁the	-9.36256
▁San	-9.36409
▁nâng	-9.36498
▁nhắn	-9.36536
▁quang	-9.36643
ể	-9.36678
ai	-9.36732
▁dối	-9.36986
ức	-9.36997
▁(20	-9.37009
▁chim	-9.37096
X	-9.37296
▁khuyến	-9.37345
▁Je	-9.37474
▁giàu	-9.37475
▁York	-9.37517
▁mừng	-9.37631
lan	-9.37842
▁Gu	-9.37914
▁trồng	-9.37919
▁Mu	-9.37924
▁Cách	-9.38113
▁2010	-9.38171
▁ga	-9.38182
▁bụng	-9.38234
▁biện	-9.38494
▁lẫn	-9.38722
▁u	-9.3881
▁ngón	-9.38975
▁nắm	-9.39016
▁25	-9.39066
▁muối	-9.39078
▁vỡ	-9.3911
ừng	-9.39147
▁vua	-9.39153
▁Cơ	-9.39201
▁pha	-9.39252
▁giãn	-9.3931
▁Kinh	-9.39454
▁mát	-9.39509
▁50	-9.39525
▁trà	-9.39562
▁lục	-9.39802
▁giấc	-9.39823
▁giỏi	-9.39843
▁lan	-9.39857
▁phiếu	-9.39916
per	-9.39926
ừ	-9.39981
▁liều	-9.40155
▁ngại	-9.40219
▁binh	-9.40251
ờ	-9.40257
▁vốn	-9.40708
▁lối	-9.40774
▁Đúng	-9.4084
rd	-9.4108
ở	-9.41142
▁tá	-9.41221
▁thước	-9.41228
ền	-9.41485
▁che	-9.41563
les	-9.41643
▁2013	-9.4177
▁2018	-9.41871
▁Wa	-9.42179
▁Ừ	-9.42272
▁Ne	-9.42273
ắc	-9.42379
tra	-9.42426
kh	-9.42439
▁nguyện	-9.4247
▁chào	-9.42495
▁quảng	-9.42709
▁lưng	-9.42732
he	-9.42787
ện	-9.42819
▁Chủ	-9.42957
▁thuê	-9.43015
▁Hà	-9.43029
Cười	-9.43099
▁o	-9.43127
ã	-9.43176
▁hè	-9.43221
20	-9.43231
mon	-9.43267
▁đòi	-9.43324
▁Hiệp	-9.43353
▁Chi	-9.43734
▁nhấn	-9.4375
▁thải	-9.43757
om	-9.43771
ell	-9.43815
ương	-9.43974
▁tách	-9.4398
▁24	-9.44
▁khảo	-9.44064
▁Cũng	-9.44436
▁đương	-9.44494
▁Ngay	-9.44721
▁Hoàng	-9.44789
▁sót	-9.44809
ren	-9.45014
▁hứa	-9.45184
và	-9.45225
▁ưu	-9.45256
▁trữ	-9.45279
▁hư	-9.45508
▁Giáo	-9.45595
▁tẩy	-9.45749
ice	-9.45807
▁tiêm	-9.459
ung	-9.46052
▁su	-9.46099
▁tạm	-9.46131
▁Mỗi	-9.46254
▁Fi	-9.46284
▁tu	-9.46298
'.	-9.4647
▁đe	-9.4667
ran	-9.46856
▁dày	-9.46867
▁axit	-9.47037
▁mê	-9.47192
we	-9.4731
▁dính	-9.47314
ron	-9.47523
▁ép	-9.47592
▁Đối	-9.47742
▁điển	-9.47762
tu	-9.4779
50	-9.47856
▁tụ	-9.47924
▁Bảo	-9.47955
▁họp	-9.48017
▁khích	-9.48327
▁tướng	-9.48443
▁ngạc	-9.48462
▁Cứ	-9.48487
▁ạ	-9.48493
▁Bác	-9.48551
▁mãi	-9.48668
út	-9.48816
len	-9.48881
▁À	-9.48922
▁rừng	-9.48946
▁trưng	-9.48947
▁Thứ	-9.48983
ec	-9.49008
tic	-9.49065
▁Syria	-9.4912
▁Thành	-9.49182
▁ngựa	-9.49207
tro	-9.4923
ana	-9.49264
▁2009	-9.49312
▁đảng	-9.49403
▁kho	-9.49589
▁hải	-9.49622
▁2004	-9.49645
▁Câu	-9.49682
▁quán	-9.4982
0.000	-9.49841
▁chủng	-9.49914
▁li	-9.49946
ger	-9.50086
▁giọng	-9.50101
▁tồi	-9.50134
zi	-9.50146
gu	-9.50263
▁gấp	-9.50264
▁cam	-9.50335
ắt	-9.5036
▁Sử	-9.50453
▁lỏng	-9.50563
▁lọc	-9.50601
▁Ngài	-9.5075
▁Chị	-9.5077
▁vỏ	-9.50866
▁ho	-9.50889
▁gà	-9.51205
▁Ả	-9.51207
▁ơi	-9.51243
▁tri	-9.51266
ải	-9.51396
ku	-9.51434
tan	-9.51565
▁ngực	-9.51748
▁sốt	-9.5187
▁tròn	-9.52108
ers	-9.52379
▁cháy	-9.52699
ập	-9.5287
ồng	-9.53031
▁giày	-9.53087
▁xoá	-9.53127
▁khuyên	-9.53131
▁hàm	-9.53183
▁đốt	-9.53226
Ch	-9.53261
▁thẻ	-9.53265
▁Chú	-9.53359
▁Man	-9.53421
át	-9.53439
rin	-9.5346
▁lũ	-9.53589
▁béo	-9.53684
im	-9.53696
ou	-9.53745
▁quận	-9.53747
ật	-9.53855
▁tiềm	-9.53903
ct	-9.54032
▁hiển	-9.54038
▁tiệc	-9.54057
ấp	-9.54288
ac	-9.5432
ôn	-9.5441
▁Bình	-9.54422
▁xạ	-9.54529
ty	-9.54575
▁miếng	-9.54651
ếu	-9.54718
▁tan	-9.55055
▁album	-9.55134
▁ninh	-9.55153
▁đèn	-9.55494
ab	-9.55502
▁mì	-9.5551
ł	-9.55512
▁Nhìn	-9.55805
▁=	-9.55957
▁Pro	-9.56003
▁khuôn	-9.56037
▁kém	-9.5613
ber	-9.56191
▁dạ	-9.56505
▁2008	-9.56547
▁thiểu	-9.5662
▁hẳn	-9.56641
ler	-9.56777
ếm	-9.56799
ĩ	-9.56978
▁can	-9.56979
▁bi	-9.56987
▁Chiến	-9.57081
▁mắn	-9.57112
nes	-9.57322
▁nút	-9.57337
▁Am	-9.5739
Tôi	-9.57393
sta	-9.57447
▁tàn	-9.57457
▁quỹ	-9.57562
▁xâm	-9.57607
▁đựng	-9.57607
▁Chẳng	-9.57688
▁quái	-9.5783
▁Thông	-9.57902
▁Tránh	-9.57926
ũ	-9.58042
▁Cuộc	-9.58134
▁Vương	-9.58481
che	-9.58509
▁khứ	-9.58676
▁Đến	-9.58832
▁Trường	-9.58881
ze	-9.58945
▁đỉnh	-9.59011
óc	-9.59159
▁Sẽ	-9.59204
▁trống	-9.59284
▁lính	-9.59385
▁mười	-9.59395
ét	-9.59446
▁ngon	-9.59517
▁nghề	-9.59595
▁cản	-9.59607
▁trích	-9.59607
▁sợi	-9.59669
▁ngừa	-9.59732
ây	-9.5979
▁Hàn	-9.59802
J	-9.59839
▁đậu	-9.60057
ham	-9.60223
▁trào	-9.60478
▁Mình	-9.60503
▁khổ	-9.60529
▁lương	-9.60691
▁Z	-9.60728
▁Ke	-9.60738
und	-9.60738
▁ngu	-9.60885
ang	-9.60966
▁hãi	-9.6097
▁mét	-9.61082
▁Ru	-9.61147
▁21	-9.61172
▁tuy	-9.6123
ầm	-9.61237
▁Chuyện	-9.61337
▁phạt	-9.61346
▁đức	-9.61432
▁gan	-9.61579
▁phỏng	-9.61656
Tiếng	-9.61749
▁Chọn	-9.61755
min	-9.61854
ud	-9.61952
▁cài	-9.62292
res	-9.62297
▁bờ	-9.62327
pp	-9.62385
Th	-9.62536
▁thăng	-9.62574
▁thang	-9.62632
▁săn	-9.62912
▁nướng	-9.63023
fa	-9.6314
ỗ	-9.63364
▁Lúc	-9.6337
▁chấm	-9.63436
▁gió	-9.63488
▁hoảng	-9.63523
▁Rập	-9.63579
▁Cảm	-9.63586
▁Đảng	-9.63606
▁dư	-9.63626
▁cẩn	-9.63644
▁tuyển	-9.63723
▁cưới	-9.63812
-19	-9.63837
▁rắc	-9.63893
▁thảm	-9.6391
su	-9.63975
▁mộ	-9.6405
ts	-9.64056
▁2007	-9.64093
▁Hầu	-9.64135
▁Rất	-9.64233
▁kêu	-9.64253
▁rau	-9.6442
ạn	-9.64512
▁táo	-9.64632
ase	-9.64749
▁protein	-9.64856
▁phiền	-9.64901
▁chúa	-9.64904
ò	-9.64983
▁2006	-9.65009
ổ	-9.65029
▁móng	-9.65044
▁ổng	-9.65114
ner	-9.65127
▁Wo	-9.65144
and	-9.65196
▁cỏ	-9.65331
ov	-9.65348
▁Trên	-9.6535
ài	-9.6549
▁Ti	-9.65696
ek	-9.65967
est	-9.66068
ria	-9.66158
ạt	-9.66249
▁Oh	-9.66357
lic	-9.66475
▁tảng	-9.66502
gen	-9.66563
▁giường	-9.66581
▁đập	-9.66591
▁ghế	-9.66598
▁ác	-9.66633
ái	-9.66786
▁cờ	-9.66986
▁tàng	-9.67129
▁Đã	-9.67162
▁Tu	-9.67245
▁lưới	-9.67305
▁Gmina	-9.67402
ễ	-9.67441
▁huấn	-9.67457
▁West	-9.67568
▁Mà	-9.67569
▁Toà	-9.67654
▁nhịp	-9.67671
▁nhấp	-9.67738
▁Kiể	-9.67911
▁hảo	-9.67925
ica	-9.68044
gan	-9.68044
ong	-9.68063
sk	-9.68246
▁thuyền	-9.68292
▁cỡ	-9.68312
▁Cố	-9.68397
▁mảnh	-9.68423
▁bò	-9.68485
art	-9.68692
ăn	-9.68692
▁Phần	-9.68706
▁ghét	-9.69077
▁nắng	-9.69163
▁quyển	-9.69176
ấn	-9.69193
▁hào	-9.69343
▁hiệp	-9.69409
▁mãn	-9.69459
?"	-9.69509
ùng	-9.69636
▁hùng	-9.69692
▁Gia	-9.69728
▁Hay	-9.69761
▁lặp	-9.69775
▁tô	-9.69832
▁Số	-9.69914
▁duyệt	-9.69915
▁nấu	-9.70013
▁Sp	-9.70049
▁hoang	-9.70164
▁thầy	-9.70223
▁ngàn	-9.70271
▁lâm	-9.70287
ốc	-9.70458
▁nợ	-9.705
▁vải	-9.70587
▁ngang	-9.70713
▁đạn	-9.70759
ành	-9.7084
ett	-9.70855
ick	-9.70942
▁cấm	-9.70949
▁2019	-9.71159
▁bẩn	-9.71307
▁Hạ	-9.71353
10	-9.71486
▁Ồ	-9.71554
Y	-9.71603
ầy	-9.71646
âm	-9.71657
▁40	-9.71769
▁dường	-9.71817
▁truyện	-9.7189
▁sắt	-9.71934
▁Za	-9.72087
▁Đôi	-9.7215
▁kèm	-9.72232
gh	-9.7228
▁thói	-9.72304
ốt	-9.72342
▁đùa	-9.72396
▁cãi	-9.72396
ji	-9.7243
ầu	-9.7249
▁xứng	-9.72522
▁Fa	-9.72647
▁Học	-9.7267
ấy	-9.72951
▁chín	-9.72984
▁chuỗi	-9.73111
ami	-9.7313
lia	-9.73364
▁ám	-9.7339
▁tặng	-9.73415
ric	-9.73724
ill	-9.73753
▁điệu	-9.73758
▁cục	-9.73768
▁ngốc	-9.73855
ách	-9.73875
▁II	-9.73883
que	-9.74018
▁nhãn	-9.74078
▁thuế	-9.74169
▁vong	-9.74169
▁tỉ	-9.74278
▁chán	-9.74287
ề	-9.74523
▁viễn	-9.7464
▁bơi	-9.74832
▁khái	-9.74901
▁rác	-9.75016
▁sánh	-9.75037
▁xà	-9.75097
ăm	-9.75109
tion	-9.75121
▁Quan	-9.75133
▁Ben	-9.75164
ight	-9.7524
▁ảo	-9.75259
▁Khoa	-9.75304
▁virus	-9.75401
ak	-9.75445
▁giam	-9.75564
▁chép	-9.75804
▁Thử	-9.76029
▁i	-9.76089
tal	-9.76179
ris	-9.76187
ion	-9.76208
▁Văn	-9.76315
▁Dương	-9.76444
ez	-9.76821
▁nghèo	-9.76877
▁song	-9.77006
▁vườn	-9.7708
▁ư	-9.77152
my	-9.77158
▁gợi	-9.77221
▁Xô	-9.77357
▁giấu	-9.77384
▁bãi	-9.77392
rt	-9.77423
▁Har	-9.77501
▁lồ	-9.77633
ôi	-9.77647
▁tha	-9.77669
▁sứ	-9.77745
▁nạ	-9.78024
▁game	-9.78038
▁hổ	-9.78115
▁Lần	-9.78218
▁dao	-9.78229
▁hồng	-9.78237
▁hồn	-9.78253
line	-9.78342
▁&	-9.78471
95	-9.7848
▁cựu	-9.7856
▁phổi	-9.78789
las	-9.78804
▁Khu	-9.78903
▁Uỷ	-9.78976
▁Thiên	-9.7903
▁Hải	-9.79134
▁gen	-9.79444
vo	-9.79547
▁Đầu	-9.79586
ướng	-9.79622
▁cặp	-9.79665
yn	-9.79732
all	-9.7999
▁hiếm	-9.80119
▁te	-9.80206
▁rãi	-9.8036
▁trú	-9.80404
▁lừa	-9.80464
▁chấn	-9.80493
▁Kết	-9.80499
▁0,	-9.8057
▁bậc	-9.80582
▁bụi	-9.80582
▁Thời	-9.80603
▁lẻ	-9.80632
▁cướp	-9.80701
▁vĩ	-9.8074
▁Cuối	-9.80791
12	-9.80881
tri	-9.80935
▁Xem	-9.80947
▁cột	-9.80984
▁Phụ	-9.81028
▁bớt	-9.81029
▁Bệnh	-9.81119
han	-9.81153
▁thổ	-9.81213
▁Gra	-9.81315
àng	-9.81358
▁Tự	-9.81483
ẽ	-9.81556
▁mạc	-9.8177
▁Thôi	-9.81773
tor	-9.81779
▁giảng	-9.81803
den	-9.81803
▁Đưa	-9.81839
▁cưng	-9.81856
▁hỏng	-9.81929
▁ổ	-9.81941
▁đẳng	-9.82118
▁trộn	-9.82201
▁Hoặc	-9.8223
▁nấm	-9.8232
▁hò	-9.82386
ón	-9.82406
ation	-9.82457
▁Hồi	-9.82539
▁2000	-9.82643
-1	-9.82716
▁nhóc	-9.8277
▁bảy	-9.8278
▁gỡ	-9.83048
áo	-9.83087
▁tốn	-9.83184
▁vương	-9.83266
▁ong	-9.8329
▁gỗ	-9.83396
▁Tư	-9.83417
▁kín	-9.83421
▁bão	-9.83503
▁Khá	-9.83564
az	-9.83635
▁đua	-9.8371
cho	-9.83728
▁Đặt	-9.83783
fe	-9.83793
▁Sha	-9.83818
by	-9.83986
▁bông	-9.8403
▁Bra	-9.8409
▁dọc	-9.84144
▁lãng	-9.84183
▁mụn	-9.84245
▁mồ	-9.84264
▁quà	-9.84385
▁đằng	-9.84661
hu	-9.84988
▁bom	-9.85022
▁ngọn	-9.8505
ua	-9.85063
▁22	-9.8511
sto	-9.85113
ồn	-9.85164
▁đeo	-9.85176
▁°	-9.85303
▁Về	-9.85371
▁me	-9.85468
▁nhánh	-9.85529
▁nồng	-9.85533
▁Ab	-9.85575
▁Nội	-9.85589
15	-9.85732
ận	-9.8577
dia	-9.85792
▁bối	-9.85909
▁tiếc	-9.85932
xy	-9.85969
▁tuý	-9.86054
úng	-9.8607
ski	-9.86077
▁Ngươi	-9.86112
wo	-9.86185
11	-9.86194
▁chai	-9.86259
cu	-9.86279
▁cai	-9.86463
▁2005	-9.86539
▁Chào	-9.8654
▁Ku	-9.86642
▁nhạy	-9.86648
▁Hiện	-9.86662
▁kênh	-9.86681
ara	-9.8669
▁Tra	-9.86818
▁đế	-9.86822
▁lây	-9.86942
▁bếp	-9.87055
▁dinh	-9.8708
▁Mor	-9.87245
▁Mac	-9.8736
ub	-9.87375
▁Voivodeship	-9.87408
▁Mã	-9.87544
▁ương	-9.87612
▁ngọt	-9.87695
▁bận	-9.87728
▁nôn	-9.87873
5%	-9.87878
▁khớp	-9.87887
▁Ôi	-9.87909
▁(1	-9.87944
▁hô	-9.88036
▁Kim	-9.88082
▁khổng	-9.88189
▁Bắt	-9.88257
▁23	-9.88263
▁khung	-9.88277
▁ngũ	-9.88336
▁Phương	-9.88422
▁dược	-9.88503
▁dọn	-9.88529
▁điệp	-9.88534
▁Fe	-9.8859
▁vững	-9.88754
▁buôn	-9.88791
du	-9.88805
▁oxy	-9.88828
ino	-9.88834
àn	-9.88851
▁kìa	-9.88937
▁bắp	-9.88948
▁ni	-9.8897
một	-9.89198
ew	-9.89229
âu	-9.8939
ev	-9.89543
▁Thống	-9.89645
▁Dân	-9.89846
▁mệt	-9.89909
▁Canada	-9.89922
▁mưa	-9.89955
▁tươi	-9.89996
▁Shi	-9.90107
▁Quân	-9.90178
yo	-9.90199
▁mọc	-9.90218
▁Tin	-9.90247
ường	-9.90381
Nhấp	-9.90468
▁trục	-9.90594
▁thua	-9.90728
cy	-9.90731
▁Ge	-9.90744
▁tủ	-9.90827
▁thác	-9.90903
▁nghiện	-9.90932
▁Danh	-9.90942
▁Hôm	-9.90972
ói	-9.9108
▁nha	-9.91094
sse	-9.91109
▁Tổ	-9.91164
▁Fo	-9.91217
ục	-9.91295
zo	-9.91337
▁nhựa	-9.91501
ene	-9.91525
▁Đất	-9.91532
▁Bằng	-9.91703
lli	-9.91949
▁lò	-9.9205
▁Viện	-9.92061
▁hiến	-9.9209
ời	-9.921
▁Ya	-9.92122
kin	-9.92177
▁nhàng	-9.92372
30	-9.92476
▁lão	-9.92524
ex	-9.92597
fi	-9.92672
▁Giữ	-9.9272
▁Cổ	-9.92822
ọc	-9.92823
▁nhầm	-9.9293
▁For	-9.93102
▁lặng	-9.93144
ker	-9.93273
▁email	-9.93376
▁As	-9.93483
ữ	-9.93501
▁Windows	-9.9354
▁lượt	-9.93556
▁Sinh	-9.93854
ft	-9.93929
▁bia	-9.94019
▁thánh	-9.94036
▁Cục	-9.94043
▁Úc	-9.94052
▁rủi	-9.94257
▁ném	-9.94291
▁dặm	-9.94359
▁dứt	-9.94359
▁sàn	-9.94384
van	-9.9442
▁Thuốc	-9.94432
▁sếp	-9.94435
▁vinh	-9.94598
ther	-9.94723
nie	-9.94746
▁huyện	-9.94791
▁Frank	-9.94797
không	-9.94851
cha	-9.94922
▁Hình	-9.94975
rie	-9.94977
▁Nghiên	-9.95078
mb	-9.95296
▁bá	-9.95473
▁Nước	-9.95502
▁Ed	-9.95506
▁cất	-9.95594
▁chừng	-9.95639
▁Internet	-9.95871
▁pro	-9.95878
▁Tốt	-9.96093
▁60	-9.96122
▁phấn	-9.96335
▁mực	-9.96421
▁Serie	-9.96423
▁gương	-9.96448
oc	-9.9651
tch	-9.9662
▁Tiếp	-9.96642
sz	-9.96646
▁đói	-9.96653
▁uỷ	-9.96678
▁thiệp	-9.96679
▁Wal	-9.9668
▁TV	-9.96717
▁and	-9.96729
▁thiệt	-9.96732
▁Đả	-9.968
Tr	-9.96819
cia	-9.96851
dd	-9.96925
▁Nữ	-9.9696
▁bù	-9.97008
dio	-9.97145
tha	-9.97293
ów	-9.9747
▁Loại	-9.97583
▁khấu	-9.976
▁trộm	-9.97724
▁gói	-9.97759
ium	-9.9791
▁Sta	-9.97919
ỡ	-9.98033
▁Quá	-9.98056
▁nở	-9.98068
▁Star	-9.98092
▁Hơn	-9.98113
q	-9.9815
ơi	-9.98152
ven	-9.98229
ser	-9.98335
▁Đài	-9.98625
▁hít	-9.98717
our	-9.98793
▁gián	-9.98886
▁nhuận	-9.98941
ant	-9.9902
17	-9.99071
▁Thị	-9.99118
ō	-9.99216
▁Giống	-9.99331
▁tước	-9.9938
▁Col	-9.9941
▁dán	-9.99511
ok	-9.99562
▁đón	-9.99662
▁bó	-9.99692
tes	-9.99855
▁dâm	-9.99861
▁dịu	-9.99863
rea	-9.99914
ura	-10.0001
ấm	-10.0003
▁1990	-10.0003
▁xoay	-10.0004
▁sạn	-10.0008
▁Her	-10.0017
▁liền	-10.0031
▁giặt	-10.0041
zy	-10.0041
▁thượng	-10.0046
Kể	-10.0053
▁Thủ	-10.0054
▁tám	-10.0055
ey	-10.006
▁sơn	-10.0069
▁bạch	-10.0074
▁mỡ	-10.0077
▁Mc	-10.0085
▁rắn	-10.0088
▁Lạp	-10.0088
▁thợ	-10.0092
▁củ	-10.0098
▁mệnh	-10.0099
▁Thuỵ	-10.0103
▁phái	-10.0106
▁gối	-10.0109
▁Đồng	-10.0122
▁hầm	-10.0124
ếp	-10.0125
ste	-10.0127
▁tuân	-10.0134
▁Cảnh	-10.0135
▁dám	-10.0172
▁Thượng	-10.0185
▁Paul	-10.0217
▁She	-10.0222
▁Nhớ	-10.0238
▁Tom	-10.024
con	-10.0243
▁Tri	-10.0261
▁Cl	-10.0263
ánh	-10.0269
õ	-10.0277
▁Tối	-10.0296
▁túc	-10.0299
ore	-10.03
ằng	-10.0305
▁muộn	-10.0327
▁vitamin	-10.0331
▁Phát	-10.0337
▁cổng	-10.0338
▁ruột	-10.0353
▁no	-10.0364
▁lu	-10.0371
oxi	-10.0381
xi	-10.0381
▁Tháng	-10.0397
▁xơ	-10.0402
▁kỉ	-10.0409
▁Chu	-10.0411
▁chẩn	-10.0413
▁Hồng	-10.0415
OS	-10.0424
▁w	-10.0428
qu	-10.043
▁Ad	-10.044
▁Hệ	-10.0449
ước	-10.0457
com	-10.0469
19	-10.0478
▁khóc	-10.0482
▁va	-10.0485
▁ha	-10.0503
▁nhẫn	-10.0508
ích	-10.0516
ội	-10.0526
ye	-10.0535
ome	-10.0555
lip	-10.056
▁Phòng	-10.0578
úp	-10.058
je	-10.0582
ten	-10.0584
▁Ber	-10.0586
▁We	-10.0588
▁2003	-10.0624
▁Or	-10.0629
▁Tiên	-10.063
▁Tiến	-10.0631
▁27	-10.0644
▁chả	-10.0658
▁gọn	-10.0665
▁26	-10.0671
▁mỏi	-10.0672
▁bát	-10.0672
▁Szczecin	-10.0673
▁hydro	-10.0676
-20	-10.0677
▁Đội	-10.0682
▁Bài	-10.07
▁khốn	-10.0702
▁Thậ	-10.071
▁đống	-10.0732
ib	-10.0738
▁Pomeranian	-10.0738
▁Cor	-10.0743
▁London	-10.075
▁phím	-10.0754
car	-10.0766
ậu	-10.0778
▁treo	-10.0789
áng	-10.0796
iều	-10.0798
▁âu	-10.0799
▁Giá	-10.0812
▁Giám	-10.0813
▁Thưa	-10.0819
▁Q	-10.0824
▁chà	-10.0832
▁Yo	-10.0836
▁ướt	-10.0852
▁bồn	-10.0853
▁$	-10.0858
▁28	-10.087
▁phô	-10.0874
▁Dự	-10.0875
lly	-10.0882
▁Tình	-10.0903
▁im	-10.0919
▁say	-10.0922
▁hôi	-10.0923
▁tia	-10.0923
br	-10.0935
̣	-10.0942
ano	-10.0975
▁trượt	-10.0975
aw	-10.0975
́	-10.0982
ượng	-10.0985
ới	-10.0989
▁200	-10.0993
▁mỏ	-10.0997
▁trăng	-10.0998
hoặc	-10.0998
▁Cam	-10.1001
ona	-10.1006
▁màng	-10.1006
▁tạ	-10.1009
cz	-10.1043
pha	-10.1052
▁tật	-10.107
18	-10.1074
▁nô	-10.1077
▁Google	-10.1086
▁Mary	-10.1088
▁Ste	-10.1097
up	-10.1103
▁khán	-10.1111
ví	-10.1111
▁vân	-10.1119
16	-10.1134
▁cốt	-10.1147
ồ	-10.1149
")	-10.1151
ps	-10.1154
uộc	-10.1154
▁Liệu	-10.1155
▁Paris	-10.1155
the	-10.1158
▁xịt	-10.1163
▁Per	-10.1167
▁Pla	-10.1173
▁vé	-10.1184
ban	-10.1192
▁tụi	-10.1194
▁Bên	-10.12
▁Sam	-10.1203
▁thìa	-10.1225
▁Lưu	-10.1244
▁dáng	-10.1245
▁Thu	-10.1248
]	-10.1249
▁Nintendo	-10.1249
▁ngầm	-10.1253
nia	-10.1258
▁hoại	-10.1263
jo	-10.1264
▁bám	-10.1264
lf	-10.1265
nny	-10.1266
như	-10.1267
▁thùng	-10.1279
▁lang	-10.1284
mar	-10.1296
sen	-10.1297
▁Luật	-10.1299
▁chua	-10.1303
▁1980	-10.1322
▁khẳ	-10.1327
ỵ	-10.1328
▁En	-10.1339
rom	-10.1355
▁calo	-10.1374
▁xoa	-10.1378
▁Mexico	-10.138
▁Mer	-10.1385
▁cm	-10.1418
uyên	-10.143
▁thoảng	-10.143
▁dã	-10.1436
13	-10.1447
▁nhắm	-10.1447
ồi	-10.1458
▁Fu	-10.1465
▁Tiếng	-10.1466
▁Biển	-10.1485
gg	-10.1486
▁vú	-10.1512
▁thắt	-10.1514
▁Hành	-10.1517
▁Lý	-10.1522
▁canh	-10.1529
▁kiên	-10.1547
ssa	-10.155
▁đạp	-10.1552
▁Bri	-10.1565
ney	-10.1577
▁Sch	-10.1585
ssi	-10.1588
14	-10.159
▁Cùng	-10.16
ita	-10.161
▁vở	-10.1613
▁phe	-10.1615
▁Mở	-10.1627
▁bỏng	-10.1629
ace	-10.1632
▁triều	-10.1647
▁giáp	-10.1647
har	-10.1649
▁George	-10.167
▁kiệm	-10.167
▁bền	-10.1678
▁mù	-10.1692
▁Trời	-10.1715
▁Máy	-10.1722
men	-10.1725
▁Mấy	-10.1739
▁ghép	-10.1742
65	-10.1747
age	-10.1748
▁xinh	-10.175
▁mờ	-10.1762
▁War	-10.1775
cin	-10.1778
▁Brazil	-10.1786
▁Val	-10.179
▁Hợp	-10.179
▁Ac	-10.1798
▁than	-10.1801
-3	-10.1815
▁xả	-10.1818
ari	-10.1831
▁thoa	-10.1838
rus	-10.1842
▁ve	-10.1844
ros	-10.185
▁tung	-10.1858
▁Triều	-10.1862
ậ	-10.1871
▁tí	-10.1873
ite	-10.1885
▁tràn	-10.1899
▁kí	-10.191
▁cát	-10.1912
▁men	-10.1913
▁Thêm	-10.1914
▁mỏng	-10.1921
▁Gar	-10.1935
▁Tim	-10.1944
▁ngơi	-10.1963
ố	-10.1966
60	-10.1968
▁Đường	-10.1974
▁cậy	-10.1976
▁Mô	-10.1981
▁2020	-10.1987
25	-10.199
▁James	-10.1991
▁cám	-10.1993
▁sưng	-10.2001
▁xứ	-10.2004
▁bọc	-10.2009
burg	-10.2024
▁Giả	-10.2035
▁Hồ	-10.2035
▁2001	-10.2037
▁chợ	-10.2042
▁kĩ	-10.2051
ão	-10.2066
bb	-10.2068
▁toa	-10.2075
48	-10.2079
úc	-10.2081
▁quỷ	-10.2085
▁hối	-10.209
▁Mon	-10.2096
▁lau	-10.2097
64	-10.2097
▁dò	-10.2099
▁khen	-10.2103
▁cởi	-10.2106
▁trưa	-10.2111
▁nghìn	-10.2124
▁khẩn	-10.2155
▁mạn	-10.2159
▁rào	-10.2169
▁Peter	-10.2169
▁Bro	-10.2176
▁bội	-10.2182
▁Mục	-10.2185
bin	-10.2192
▁khía	-10.2194
▁Tác	-10.2216
▁Chile	-10.2218
nis	-10.2232
▁khúc	-10.2233
ska	-10.2235
ực	-10.2235
▁chậu	-10.2244
▁bể	-10.2259
▁chìm	-10.226
Vỗ	-10.2264
▁khử	-10.2279
▁bút	-10.2291
▁gãy	-10.2293
▁2002	-10.2294
▁mg	-10.2302
▁California	-10.2309
ist	-10.2329
▁mạo	-10.2332
▁leo	-10.2333
▁Nigeria	-10.2336
ỷ	-10.2341
▁ngã	-10.2346
▁*	-10.2365
▁thề	-10.2376
▁David	-10.2377
Z	-10.2381
▁ti	-10.2381
▁Ngoại	-10.2391
▁Cập	-10.2391
▁Mal	-10.2409
▁toả	-10.241
▁At	-10.2424
▁Che	-10.2426
ống	-10.2427
▁xưa	-10.2428
zz	-10.2433
▁lưỡi	-10.2437
â	-10.2452
▁Vị	-10.2455
▁bọ	-10.2459
▁lạm	-10.2479
▁Nor	-10.2482
xa	-10.2487
▁Com	-10.249
▁đâm	-10.25
▁Nguyên	-10.2508
▁sụp	-10.2515
ish	-10.2522
▁thạch	-10.2525
▁Par	-10.2529
▁đớn	-10.2529
▁bơ	-10.2537
94	-10.2541
▁USD	-10.2541
▁tuyết	-10.2541
▁Thánh	-10.2551
▁móc	-10.2555
▁Jack	-10.2555
▁triết	-10.2555
▁lắp	-10.2557
ella	-10.2564
▁Lấy	-10.2575
▁Sara	-10.259
pro	-10.2596
▁trá	-10.2612
▁trôi	-10.2616
▁xô	-10.2618
qui	-10.2626
ctor	-10.263
▁Tính	-10.2637
▁chôn	-10.2645
iệu	-10.2645
ola	-10.2645
có	-10.2655
▁Kar	-10.2661
▁ngẫu	-10.2665
▁chải	-10.2675
ín	-10.2678
▁Washington	-10.2679
▁Ver	-10.2682
▁kẹt	-10.2689
40	-10.2692
}	-10.2708
▁đồn	-10.2709
unt	-10.271
ble	-10.272
▁cụm	-10.2721
▁(2	-10.2726
▁Vấn	-10.2743
rz	-10.2773
▁cắn	-10.2774
▁lát	-10.2791
▁tóm	-10.2793
▁rẻ	-10.2798
là	-10.2808
▁hằng	-10.2811
▁lôi	-10.2813
▁Dar	-10.2815
▁trần	-10.2845
▁Pu	-10.2863
▁nâu	-10.288
▁sôi	-10.2882
▁Han	-10.2883
▁Thanh	-10.2894
▁Ăn	-10.2899
fo	-10.2899
tsu	-10.2906
▁29	-10.291
▁lộn	-10.2923
▁Robert	-10.2929
▁hãng	-10.2937
ía	-10.2946
▁đuôi	-10.2947
▁Jan	-10.2949
òng	-10.2958
▁khát	-10.2973
san	-10.2977
▁đếm	-10.2991
▁sưu	-10.2993
ỳ	-10.2999
▁nạp	-10.3007
▁Nghệ	-10.3015
net	-10.3023
▁chìa	-10.3023
stan	-10.3031
▁thỏ	-10.3051
▁Chứng	-10.3054
ment	-10.3054
▁cắp	-10.3064
▁Xác	-10.3072
▁Nhóm	-10.3074
phi	-10.3078
▁May	-10.31
ậy	-10.3111
▁Game	-10.3116
80	-10.3119
Q	-10.3132
▁quê	-10.3136
▁thuần	-10.3143
▁kịp	-10.3153
▁Min	-10.3157
▁hoả	-10.3162
▁mũ	-10.3172
▁mưu	-10.3172
▁Viết	-10.3174
vis	-10.3176
▁hung	-10.3185
▁bùng	-10.3186
ển	-10.3206
▁William	-10.3207
▁đáy	-10.3209
▁Chà	-10.3209
▁giật	-10.322
▁pa	-10.3231
▁Mont	-10.3239
▁Đặc	-10.3252
sha	-10.326
▁đố	-10.3268
▁Minh	-10.3272
▁thô	-10.3277
▁đai	-10.3298
end	-10.3301
▁Cuba	-10.3308
▁Đế	-10.3309
▁am	-10.3311
▁Michael	-10.3312
SA	-10.3324
▁Khoảng	-10.3327
▁đắn	-10.3342
▁Can	-10.3352
▁Phó	-10.3356
▁hòn	-10.3384
▁Colombia	-10.3388
▁ngưỡng	-10.3389
▁Chương	-10.3389
▁mươi	-10.3393
▁bo	-10.3394
▁Thổ	-10.3398
▁đàm	-10.3398
được	-10.3401
via	-10.3411
▁Pan	-10.3416
▁1970	-10.3427
▁Thần	-10.343
▁1999	-10.3438
▁Cal	-10.3439
▁lầ	-10.3439
▁vuông	-10.3439
▁đáo	-10.3452
▁bôi	-10.346
▁lót	-10.3474
▁Mùa	-10.3479
can	-10.3481
▁thèm	-10.3485
trong	-10.3492
▁mòn	-10.3499
amine	-10.3501
▁Facebook	-10.3505
phen	-10.3507
▁Carl	-10.3508
ằn	-10.3513
68	-10.3515
▁Ser	-10.3523
▁Tương	-10.3532
▁sáp	-10.3536
▁dạo	-10.3548
▁chanh	-10.355
▁dãy	-10.3551
67	-10.3551
▁Joe	-10.3553
bia	-10.3563
onia	-10.3576
▁80	-10.3596
▁cắm	-10.3598
▁Sal	-10.3617
▁ngợi	-10.3618
▁phun	-10.3618
▁cồn	-10.3622
▁rễ	-10.3626
▁soạn	-10.3652
▁Ít	-10.366
▁trễ	-10.3664
tar	-10.3667
▁bú	-10.3668
▁xích	-10.3684
96	-10.369
▁tháo	-10.3716
▁Apple	-10.3717
▁nét	-10.372
▁lồng	-10.3722
▁mỹ	-10.3724
▁se	-10.3733
ữa	-10.3739
▁lệch	-10.3745
fer	-10.3757
▁phẳng	-10.376
ę	-10.378
ốn	-10.3787
▁re	-10.3796
ý	-10.3803
▁Quản	-10.3829
▁mây	-10.3831
illa	-10.3849
▁You	-10.385
▁khoan	-10.3853
▁cạo	-10.3865
▁ưa	-10.3872
▁bẫy	-10.3881
▁pin	-10.3883
▁Đạo	-10.3886
▁nêu	-10.391
▁khoảnh	-10.3913
row	-10.3919
▁lãm	-10.3924
zu	-10.3925
AS	-10.3928
pr	-10.3953
▁thám	-10.3956
gar	-10.3966
▁nhuộm	-10.3966
%	-10.398
▁bu	-10.4014
tta	-10.4015
▁tháp	-10.402
gue	-10.4025
▁sỹ	-10.4033
▁ac	-10.4039
▁Thiết	-10.4043
▁cong	-10.4053
iz	-10.4056
▁Pri	-10.4058
▁trạm	-10.4064
AR	-10.407
▁500	-10.4087
▁1960	-10.4113
sco	-10.4114
▁Park	-10.4115
▁lõi	-10.4118
ethyl	-10.4118
ook	-10.4143
▁Thì	-10.4176
▁Thư	-10.418
▁trừng	-10.4193
▁Tham	-10.4201
▁ôm	-10.4205
▁Cử	-10.4211
▁ngập	-10.4211
▁thổi	-10.4215
▁nho	-10.4222
01	-10.4225
▁Tuỳ	-10.4234
▁hưu	-10.4239
▁Christ	-10.424
▁tê	-10.4249
▁Biết	-10.4255
▁tông	-10.4257
▁Bur	-10.426
▁Pre	-10.4261
▁Thường	-10.4264
▁óc	-10.4268
berg	-10.4272
▁dàn	-10.4281
▁31	-10.4301
▁chở	-10.4301
▁xỉ	-10.431
par	-10.4325
▁Bill	-10.4326
ance	-10.4336
ñ	-10.4355
▁Bru	-10.4355
▁1998	-10.4364
▁Maria	-10.4364
▁dĩ	-10.4367
▁đụng	-10.4372
ept	-10.4387
47	-10.4393
▁khiếp	-10.4396
▁mu	-10.44
▁Nhận	-10.4402
▁nộp	-10.4411
▁Ze	-10.4424
if	-10.4432
▁Mag	-10.4437
▁World	-10.445
▁Địa	-10.445
▁uý	-10.4457
lis	-10.4458
nica	-10.446
▁chúc	-10.447
▁hố	-10.4481
▁tân	-10.4494
The	-10.4497
sky	-10.4512
▁Sĩ	-10.4529
▁nhạt	-10.4539
▁Cá	-10.4544
bar	-10.4549
lar	-10.4551
▁lọ	-10.4556
▁tị	-10.4582
99	-10.459
▁Bỏ	-10.4596
▁bê	-10.4601
▁My	-10.4607
ột	-10.4613
07	-10.4618
▁Warsaw	-10.4626
▁thấm	-10.4653
▁ngứa	-10.4655
▁NGC	-10.4667
▁Trông	-10.4679
▁Uống	-10.4687
ugh	-10.4689
▁90	-10.4692
▁quét	-10.471
▁hẹp	-10.4713
▁Nhấn	-10.4727
▁tần	-10.4733
▁rồng	-10.4741
▁Pol	-10.4752
▁chốt	-10.4753
▁nốt	-10.4755
▁Chờ	-10.4756
▁vay	-10.4761
▁ốc	-10.4772
oid	-10.4774
▁1997	-10.478
▁kẹo	-10.4788
▁thơm	-10.4797
▁vang	-10.48
▁Phân	-10.4801
bra	-10.4801
▁gội	-10.4805
tis	-10.4805
win	-10.4806
▁Cân	-10.4807
ence	-10.4818
66	-10.4822
way	-10.4825
▁Dan	-10.485
itz	-10.4854
▁Đào	-10.4864
▁giấm	-10.4866
▁ngoái	-10.487
▁Del	-10.4871
▁cu	-10.4887
▁robot	-10.4888
▁Cám	-10.4893
▁Luc	-10.49
▁Vo	-10.4902
▁nén	-10.4923
▁đồi	-10.4924
xin	-10.4927
▁Hàng	-10.4934
ef	-10.4942
▁cương	-10.4943
▁Chưa	-10.4964
▁khuyết	-10.4965
▁đới	-10.4967
▁pháo	-10.4969
log	-10.4977
75	-10.4985
▁chẽ	-10.4987
▁45	-10.4995
▁giọt	-10.5
▁Stan	-10.5003
▁Martin	-10.5007
▁chăn	-10.5009
▁Win	-10.5009
ẳng	-10.5014
▁khoai	-10.5016
▁phu	-10.5021
▁kg	-10.5034
▁bồi	-10.504
II	-10.5045
▁trọ	-10.505
▁Trang	-10.5052
▁Los	-10.5057
▁vĩnh	-10.5059
21	-10.5067
qua	-10.5079
▁thấu	-10.5085
▁nhở	-10.509
▁Điện	-10.5099
▁nụ	-10.5109
▁van	-10.511
▁ngục	-10.5113
▁Ly	-10.5121
▁lô	-10.5128
▁hước	-10.513
▁mông	-10.5138
▁ngoan	-10.5144
Ph	-10.5149
▁Giê	-10.515
▁Thằng	-10.5154
Anh	-10.5171
▁Luôn	-10.5172
▁Toàn	-10.5174
▁hoãn	-10.5174
▁Tiểu	-10.518
▁dẹp	-10.5192
33	-10.52
▁Kat	-10.5216
▁má	-10.5216
▁lợn	-10.5217
▁Thể	-10.5218
▁1996	-10.5218
▁hoan	-10.5219
▁Kông	-10.5225
▁1994	-10.523
▁Thi	-10.526
▁tím	-10.5269
▁rũ	-10.5282
▁cọ	-10.5282
▁cuộn	-10.5284
off	-10.5287
▁Gần	-10.5287
pho	-10.5292
▁mồi	-10.5304
▁pho	-10.5305
▁nát	-10.5324
▁võ	-10.5325
▁khoáng	-10.5326
▁mò	-10.5329
▁Nguyễn	-10.5345
▁thịnh	-10.5347
▁khôi	-10.5354
▁bì	-10.537
▁Ghi	-10.5377
▁1995	-10.5382
▁đợt	-10.5407
▁cưỡng	-10.5408
▁70	-10.5415
▁súc	-10.5419
▁xuân	-10.5425
▁sắm	-10.5432
ling	-10.5463
69	-10.5504
▁thôn	-10.5513
24	-10.552
▁CD	-10.5524
port	-10.5534
▁đậm	-10.5538
▁nhi	-10.5538
05	-10.5545
▁củng	-10.5546
▁lỡ	-10.5556
▁CO	-10.5558
▁vây	-10.5571
▁Vua	-10.5571
▁đắt	-10.5574
ash	-10.5575
̀	-10.5582
▁Ter	-10.5583
▁Nơi	-10.5591
▁thỉnh	-10.5596
▁Vũ	-10.5598
▁Yeah	-10.5601
▁Ngân	-10.5601
▁Van	-10.5621
08	-10.5622
▁Đáng	-10.5626
▁Uni	-10.5628
▁Kế	-10.563
▁huyền	-10.5637
ếch	-10.5658
▁Trò	-10.5661
▁Cao	-10.5669
▁Bob	-10.5676
35	-10.5684
rze	-10.5685
▁Hoà	-10.5698
▁đam	-10.5702
ado	-10.5744
▁lưỡng	-10.5749
▁Chuẩn	-10.5767
▁tống	-10.5769
▁1950	-10.5781
▁Philippines	-10.5792
▁Bước	-10.5793
vel	-10.5795
ác	-10.5796
▁Cần	-10.5798
▁bốc	-10.5804
▁há	-10.5805
▁Ổng	-10.5805
▁nang	-10.5822
▁DNA	-10.5825
▁35	-10.5828
▁non	-10.5829
▁Vẫn	-10.5838
▁Yu	-10.5842
ese	-10.5843
▁chớ	-10.5852
34	-10.5853
AN	-10.5865
86	-10.5872
▁Quảng	-10.5879
PA	-10.5888
09	-10.5896
ity	-10.5897
▁Loan	-10.5902
▁Điển	-10.5904
▁Tor	-10.5908
▁bong	-10.5913
▁Đô	-10.5917
▁ngâm	-10.5941
▁châm	-10.5954
▁rã	-10.5966
ose	-10.5967
▁lật	-10.597
06	-10.5976
▁mượn	-10.5981
Chúng	-10.5981
NG	-10.5985
▁dắt	-10.5995
▁Chất	-10.5999
▁keo	-10.6001
▁Hol	-10.6002
▁thuẫn	-10.6007
▁Vụ	-10.6008
▁Đánh	-10.6026
▁Argentina	-10.6027
▁King	-10.6039
ear	-10.6049
▁Hiến	-10.6058
α	-10.606
▁nhá	-10.606
ń	-10.6093
ü	-10.6618
ś	-10.8004
ą	-10.8215
Ô	-10.8623
ẳ	-10.8661
−	-10.8929
ẵ	-10.8973
Ê	-10.9279
̉	-10.9823
′	-10.9871
ā	-11.0067
Â	-11.0196
ằ	-11.0451
Ờ	-11.0542
Ś	-11.0794
ż	-11.0998
ấ	-11.1258
ă	-11.1813
ç	-11.1941
#	-11.2036
Ư	-11.2267
ū	-11.2416
β	-11.3035
\	-11.3665
Ł	-11.3665
À	-11.4131
ỹ	-11.4271
Ố	-11.4772
→	-11.4819
ä	-11.4867
>	-11.4996
–	-11.5
ə	-11.5391
Á	-11.5431
É	-11.5751
Ổ	-11.5856
⁄	-11.5891
=	-11.5952
(	-11.6006
̃	-11.653
±	-11.6993
а	-11.6993
ا	-11.7153
^	-11.8011
♪	-11.8143
+	-11.8182
Ơ	-11.8299
μ	-11.8619
Ż	-11.8854
ć	-11.8998
~	-11.9022
ɪ	-11.9366
Ồ	-11.9389
Ẩ	-11.9492
ː	-11.9827
š	-11.9986
ï	-12.0311
ī	-12.0421
о	-12.1023
и	-12.1083
е	-12.1202
•	-12.1539
Ú	-12.1727
π	-12.1951
Ủ	-12.2016
Ế	-12.2181
Ớ	-12.2314
<	-12.2416
ي	-12.2484
ل	-12.2484
Ō	-12.2518
Ả	-12.2525
н	-12.2587
·	-12.2726
Ứ	-12.2761
ë	-12.2832
ˈ	-12.2867
č	-12.2974
Ð	-12.3266
æ	-12.334
γ	-12.3377
р	-12.349
Ó	-12.3604
$	-12.4046
⌘	-12.4154
Ở	-12.4838
ŏ	-12.4866
£	-12.491
ر	-12.4953
с	-12.5085
ن	-12.5401
ı	-12.5493
τ	-12.5632
л	-12.5679
@	-12.5821
δ	-12.5917
т	-12.5917
ο	-12.6014
Ý	-12.6035
Ộ	-12.6161
к	-12.631
ε	-12.6462
م	-12.6513
ρ	-12.6616
σ	-12.6668
в	-12.6772
Í	-12.6878
ø	-12.6931
λ	-12.6931
ź	-12.7038
ب	-12.7092
ン	-12.7092
ー	-12.7092
ς	-12.7146
و	-12.7146
ν	-12.7311
ß	-12.7479
θ	-12.7765
Ậ	-12.8362
ē	-12.8611
ʊ	-12.8867
κ	-12.8867
Ệ	-12.8867
Ì	-12.9129
ɛ	-12.9196
Ă	-12.9534
€	-12.9605
Ã	-12.9746
⊞	-12.9746
î	-12.9888
ι	-12.996
ة	-13.0179
ɑ	-13.0253
Ừ	-13.0527
∗	-13.0555
Ợ	-13.1435
大	-13.1519
子	-13.1604
η	-13.1604
*	-13.1662
د	-13.169
Δ	-13.2039
Ề	-13.2039
†	-13.2218
φ	-13.2494
Ự	-13.2494
å	-13.2587
ð	-13.2681
ル	-13.2681
м	-13.2873
{	-13.297
イ	-13.297
Ị	-13.3068
у	-13.3068
ě	-13.3267
س	-13.3267
∈	-13.3267
ş	-13.3368
д	-13.3368
ラ	-13.3368
ع	-13.3573
ω	-13.3783
й	-13.3783
⇧	-13.3889
ί	-13.3996
я	-13.4105
Ể	-13.4215
َ	-13.4326
г	-13.4326
Ầ	-13.4552
ʃ	-13.4667
‘	-13.4667
ك	-13.4783
ǎ	-13.4901
ˌ	-13.4901
ɡ	-13.502
&	-13.5113
§	-13.5141
☃	-13.5386
`	-13.5638
û	-13.5638
ف	-13.5638
÷	-13.5766
√	-13.5896
ス	-13.6027
ž	-13.6296
的	-13.6433
ğ	-13.6433
ت	-13.6572
の	-13.6572
≤	-13.6712
≥	-13.6712
ト	-13.6712
ɒ	-13.6855
Ù	-13.6855
Š	-13.6855
Ọ	-13.6855
ы	-13.7
ά	-13.7
氏	-13.7147
ه	-13.7147
ʻ	-13.7147
Ữ	-13.7296
⋮	-13.7296
Ụ	-13.7448
王	-13.7448
ُ	-13.7602
»	-13.7602
Å	-13.7602
ɔ	-13.7602
이	-13.7602
☉	-13.7758
®	-13.7917
ŋ	-13.7917
п	-13.7917
ج	-13.8242
«	-13.8242
ʒ	-13.8409
●	-13.8409
天	-13.8409
า	-13.8926
С	-13.8926
ق	-13.8926
동	-13.8926
ầ	-13.9015
ش	-13.9105
会	-13.9105
υ	-13.9286
ŭ	-13.9286
ح	-13.9286
⋅	-13.9286
ζ	-13.9472
Ò	-13.9472
ő	-13.9472
⁡	-13.9472
°	-13.9633
人	-13.966
ч	-13.966
ř	-13.9853
ク	-13.9853
ь	-13.9853
ِ	-14.0049
Ỹ	-14.0049
⌥	-14.0049
海	-14.0249
ḥ	-14.0249
社	-14.0249
з	-14.0453
ロ	-14.0453
一	-14.0453
中	-14.0661
б	-14.0661
カ	-14.0661
ط	-14.0874
ッ	-14.0874
ز	-14.0874
Ç	-14.0874
ア	-14.0874
田	-14.0874
χ	-14.1091
ّ	-14.1091
∞	-14.1091
ʿ	-14.1313
式	-14.1313
사	-14.1313
Ử	-14.1313
어	-14.1313
ド	-14.1313
リ	-14.1313
¥	-14.1541
ん	-14.1541
장	-14.1541
・	-14.1541
之	-14.1773
美	-14.1773
上	-14.1773
山	-14.2011
ǐ	-14.2011
し	-14.2011
小	-14.2011
В	-14.2011
ウ	-14.2011
ی	-14.2255
ิ	-14.2255
Ặ	-14.2255
⟩	-14.2255
き	-14.2255
物	-14.2255
フ	-14.2255
έ	-14.2505
อ	-14.2505
М	-14.2762
া	-14.2762
レ	-14.2762
生	-14.2762
ṇ	-14.3025
≈	-14.3025
К	-14.3025
나	-14.3025
日	-14.3295
Č	-14.3295
х	-14.3295
ा	-14.3295
⏎	-14.3295
文	-14.3295
ה	-14.3295
น	-14.3573
ш	-14.3573
女	-14.3573
明	-14.3573
ム	-14.3573
¿	-14.3859
대	-14.3859
˧	-14.3859
ṣ	-14.3859
花	-14.3859
전	-14.3859
र	-14.3859
り	-14.3859
А	-14.3859
ミ	-14.3859
コ	-14.3859
新	-14.4153
東	-14.4153
ม	-14.4153
う	-14.4153
ǒ	-14.4153
家	-14.4153
親	-14.4153
다	-14.4153
Ĩ	-14.4153
ْ	-14.4153
৳	-14.4153
三	-14.4456
マ	-14.4456
ė	-14.4456
고	-14.4456
⟨	-14.4456
タ	-14.4456
プ	-14.4456
×	-14.474
ǃ	-14.4768
お	-14.4768
か	-14.4768
神	-14.4768
리	-14.4768
♠	-14.4768
아	-14.4768
의	-14.4768
原	-14.4768
ジ	-14.4768
シ	-14.4768
시	-14.5091
我	-14.5091
飯	-14.5091
Ũ	-14.5091
Ỏ	-14.5091
チ	-14.5091
李	-14.5091
Р	-14.5091
خ	-14.5091
語	-14.5091
ั	-14.5424
國	-14.5424
ș	-14.5424
公	-14.5424
¡	-14.5424
絵	-14.5769
有	-14.5769
西	-14.5769
部	-14.5769
Д	-14.5769
기	-14.5769
Ž	-14.6126
你	-14.6126
内	-14.6126
国	-14.6126
本	-14.6126
藤	-14.6126
ή	-14.6126
平	-14.6126
부	-14.6126
י	-14.6126
と	-14.6126
서	-14.6126
ל	-14.6126
أ	-14.6126
्	-14.6496
ц	-14.6497
ย	-14.6497
木	-14.6497
民	-14.6497
軍	-14.6497
Σ	-14.6497
ו	-14.6497
ע	-14.6497
♭	-14.6497
い	-14.6497
グ	-14.6497
機	-14.6497
스	-14.6497
ก	-14.6881
ต	-14.6881
愛	-14.6881
เ	-14.6881
港	-14.6881
香	-14.6881
Ỉ	-14.6881
光	-14.6881
オ	-14.6881
世	-14.6881
ṃ	-14.7281
©	-14.7281
П	-14.7281
ё	-14.7281
Ḥ	-14.7281
Ẽ	-14.7281
↓	-14.7281
不	-14.7281
御	-14.7281
長	-14.7281
‐	-14.7281
ツ	-14.7281
정	-14.7281
年	-14.7281
行	-14.7281
ʌ	-14.7698
Н	-14.7698
司	-14.7698
ी	-14.7698
焼	-14.7698
野	-14.7698
Б	-14.7698
်	-14.7698
た	-14.8133
ท	-14.8133
ล	-14.8133
金	-14.8133
지	-14.8133
Τ	-14.8133
Ω	-14.8133
Ẵ	-14.8133
⊆	-14.8133
⊕	-14.8133
姫	-14.8133
学	-14.8133
空	-14.8133
ǔ	-14.8133
方	-14.8133
학	-14.8133
ナ	-14.8133
ィ	-14.8133
พ	-14.8587
غ	-14.8587
ุ	-14.8587
主	-14.8587
南	-14.8587
성	-14.8587
˩	-14.8587
ξ	-14.8587
ψ	-14.8587
і	-14.8587
Ẹ	-14.8587
Ỳ	-14.8587
な	-14.8587
川	-14.9063
И	-14.9063
太	-14.9063
ɜ	-14.9063
パ	-14.9063
安	-14.9063
百	-14.9063
О	-14.9063
א	-14.9063
∆	-14.9063
院	-14.9063
Γ	-14.9063
ว	-14.9063
Ẻ	-14.9063
∇	-14.9063
∑	-14.9063
エ	-14.9063
郡	-14.9063
ま	-14.9063
라	-14.9063
Г	-14.9063
ส	-14.9063
ブ	-14.9063
力	-14.9563
오	-14.9563
和	-14.9563
ص	-14.9563
は	-14.9563
キ	-14.9563
代	-14.9563
法	-14.9563
豆	-14.9563
道	-14.9563
高	-14.9563
️	-14.9563
み	-14.9563
正	-14.9563
교	-14.9563
미	-14.9563
ʔ	-14.9563
מ	-14.9563
э	-14.9563
ハ	-14.9563
ュ	-14.9563
く	-15.009
้	-15.009
五	-15.009
개	-15.009
こ	-15.009
星	-15.009
È	-15.009
Ć	-15.009
ț	-15.009
ง	-15.009
≠	-15.009
ゼ	-15.009
心	-15.009
武	-15.009
理	-15.009
마	-15.009
소	-15.009
城	-15.009
村	-15.009
ա	-15.0645
ガ	-15.0645
स	-15.0645
ф	-15.0645
、	-15.0645
下	-15.0645
江	-15.0645
艾	-15.0645
陳	-15.0645
青	-15.0645
에	-15.0645
ǁ	-15.0645
ж	-15.0645
け	-15.0645
火	-15.0645
華	-15.0645
김	-15.0645
Ễ	-15.0645
水	-15.0645
비	-15.0645
ъ	-15.0645
ى	-15.0645
Ü	-15.0645
ב	-15.0645
も	-15.0645
元	-15.0645
马	-15.0645
산	-15.0645
Κ	-15.0645
あ	-15.0645
ネ	-15.0645
ゲ	-15.1233
ら	-15.1233
四	-15.1233
נ	-15.1233
Π	-15.1233
ニ	-15.1233
宮	-15.1233
皇	-15.1233
Α	-15.1233
่	-15.1233
์	-15.1233
⊙	-15.1233
八	-15.1233
宿	-15.1233
所	-15.1233
第	-15.1233
구	-15.1233
원	-15.1233
제	-15.1233
ש	-15.1233
军	-15.1233
英	-15.1233
가	-15.1233
Λ	-15.1233
ี	-15.1233
ダ	-15.1233
立	-15.1858
ल	-15.1858
が	-15.1858
モ	-15.1858
ะ	-15.1858
그	-15.1858
ด	-15.1858
地	-15.1858
雪	-15.1858
랑	-15.1858
신	-15.1858
화	-15.1858
Æ	-15.1858
˥	-15.1858
͡	-15.1858
ḍ	-15.1858
∨	-15.1858
♯	-15.1858
ち	-15.1858
つ	-15.1858
九	-15.1858
官	-15.1858
忠	-15.1858
集	-15.1858
경	-15.1858
레	-15.1858
보	-15.1858
인	-15.1858
주	-15.1858
ᵻ	-15.1858
Ằ	-15.1858
合	-15.1858
者	-15.1858
문	-15.1858
ビ	-15.1858
デ	-15.1858
국	-15.1858
ค	-15.2525
म	-15.2525
政	-15.2525
บ	-15.2525
ザ	-15.2525
德	-15.2525
最	-15.2525
찌	-15.2525
Ā	-15.2525
य	-15.2525
ា	-15.2525
恋	-15.2525
時	-15.2525
爱	-15.2525
자	-15.2525
Μ	-15.2525
Ỷ	-15.2525
ἀ	-15.2525
∀	-15.2525
⊂	-15.2525
る	-15.2525
仁	-15.2525
手	-15.2525
机	-15.2525
沙	-15.2525
男	-15.2525
白	-15.2525
見	-15.2525
하	-15.2525
≡	-15.2525
春	-15.2525
流	-15.2525
真	-15.2525
ি	-15.2525
メ	-15.2525
飛	-15.2525
त	-15.3239
ं	-15.3239
さ	-15.3239
十	-15.3239
士	-15.3239
是	-15.3239
한	-15.3239
宗	-15.3239
鍋	-15.3239
馬	-15.3239
만	-15.3239
व	-15.3239
朝	-15.3239
일	-15.3239
ħ	-15.3239
ώ	-15.3239
‡	-15.3239
₹	-15.3239
∂	-15.3239
∣	-15.3239
ゴ	-15.3239
二	-15.3239
北	-15.3239
夜	-15.3239
州	-15.3239
話	-15.3239
里	-15.3239
공	-15.3239
영	-15.3239
Л	-15.3239
Т	-15.3239
ল	-15.3239
울	-15.3239
千	-15.3239
안	-15.3239
京	-15.4009
ն	-15.4009
島	-15.4009
ṛ	-15.4009
す	-15.4009
ふ	-15.4009
隊	-15.4009
도	-15.4009
ד	-15.4009
娘	-15.4009
學	-15.4009
無	-15.4009
세	-15.4009
있	-15.4009
진	-15.4009
ث	-15.4009
न	-15.4009
प	-15.4009
‟	-15.4009
少	-15.4009
林	-15.4009
科	-15.4009
왕	-15.4009
치	-15.4009
Ñ	-15.4009
ר	-15.4009
月	-15.4009
次	-15.4009
バ	-15.4009
超	-15.4009
강	-15.4009
는	-15.4009
니	-15.4009
트	-15.4009
に	-15.4009
ァ	-15.4009
ピ	-15.4009
帝	-15.4842
重	-15.4842
業	-15.4842
字	-15.4842
石	-15.4842
建	-15.4842
戦	-15.4842
都	-15.4842
수	-15.4842
ห	-15.4842
ῦ	-15.4842
わ	-15.4842
ボ	-15.4842
佳	-15.4842
信	-15.4842
技	-15.4842
파	-15.4842
щ	-15.4842
先	-15.4842
圍	-15.4842
宝	-15.4842
志	-15.4842
會	-15.4842
歌	-15.4842
저	-15.4842
조	-15.4842
현	-15.4842
Ỗ	-15.4842
ὑ	-15.4842
∥	-15.4842
⎙	-15.4842
喜	-15.4842
師	-15.4842
派	-15.4842
연	-15.4842
호	-15.4842
ธ	-15.4842
吉	-15.4842
成	-15.4842
福	-15.4842
身	-15.4842
요	-15.4842
င	-15.4842
事	-15.4842
ւ	-15.5751
ु	-15.5751
ो	-15.5751
་	-15.5751
全	-15.5751
特	-15.5751
ह	-15.5751
내	-15.5751
்	-15.5751
徳	-15.5751
情	-15.5751
温	-15.5751
煮	-15.5751
色	-15.5751
郎	-15.5751
너	-15.5751
선	-15.5751
ġ	-15.5751
サ	-15.5751
东	-15.5751
也	-15.5751
前	-15.5751
動	-15.5751
友	-15.5751
台	-15.5751
洋	-15.5751
若	-15.5751
ĕ	-15.5751
У	-15.5751
ช	-15.5751
ῖ	-15.5751
‹	-15.5751
›	-15.5751
∼	-15.5751
名	-15.5751
后	-15.5751
味	-15.5751
嘉	-15.5751
土	-15.5751
未	-15.5751
記	-15.5751
赤	-15.5751
해	-15.5751
Ф	-15.5751
化	-15.5751
ぶ	-15.5751
ノ	-15.5751
場	-15.5751
放	-15.6751
ゃ	-15.6751
क	-15.6751
ご	-15.6751
密	-15.6751
Ş	-15.6751
令	-15.6751
佐	-15.6751
ไ	-15.6751
向	-15.6751
想	-15.6751
横	-15.6751
清	-15.6751
电	-15.6751
義	-15.6751
군	-15.6751
백	-15.6751
ケ	-15.6751
園	-15.6751
楽	-15.6751
端	-15.6751
记	-15.6751
門	-15.6751
阿	-15.6751
雷	-15.6751
龍	-15.6751
두	-15.6751
여	-15.6751
포	-15.6751
𒀭	-15.6751
­	-15.6751
ɨ	-15.6751
Ẫ	-15.6751
⁠	-15.6751
∓	-15.6751
セ	-15.6751
制	-15.6751
석	-15.6751
야	-15.6751
ض	-15.6751
র	-15.6751
ʾ	-15.6751
や	-15.6751
死	-15.6751
萬	-15.6751
회	-15.6751
ข	-15.6751
ἐ	-15.6751
း	-15.6751
界	-15.6751
န	-15.6751
ェ	-15.6751
工	-15.7862
可	-15.7862
瀬	-15.7862
ک	-15.7862
画	-15.7862
精	-15.7862
古	-15.7862
布	-15.7862
ų	-15.7862
め	-15.7862
ヤ	-15.7862
坂	-15.7862
寺	-15.7862
鬼	-15.7862
데	-15.7862
송	-15.7862
양	-15.7862
은	-15.7862
재	-15.7862
ɲ	-15.7862
Ц	-15.7862
จ	-15.7862
∤	-15.7862
丼	-15.7862
井	-15.7862
六	-15.7862
初	-15.7862
号	-15.7862
汁	-15.7862
言	-15.7862
選	-15.7862
雄	-15.7862
무	-15.7862
방	-15.7862
우	-15.7862
육	-15.7862
터	-15.7862
¬	-15.7862
¶	-15.7862
Õ	-15.7862
ň	-15.7862
ɣ	-15.7862
Θ	-15.7862
े	-15.7862
Ẳ	-15.7862
℞	-15.7862
ず	-15.7862
ど	-15.7862
ワ	-15.7862
乐	-15.7862
保	-15.7862
夏	-15.7862
峇	-15.7862
普	-15.7862
服	-15.7862
玉	-15.7862
艦	-15.7862
通	-15.7862
단	-15.7862
민	-15.7862
박	-15.7862
상	-15.7862
피	-15.7862
て	-15.7862
ズ	-15.7862
出	-15.7862
思	-15.7862
永	-15.7862
菜	-15.7862
면	-15.7862
ָ	-15.7862
द	-15.7862
ヒ	-15.7862
在	-15.7862
張	-15.7862
거	-15.7862
相	-15.9112
博	-15.9112
แ	-15.9112
自	-15.9112
分	-15.9112
書	-15.9112
竹	-15.9112
风	-15.9112
魔	-15.9112
˨	-15.9112
位	-15.9112
党	-15.9112
华	-15.9112
寿	-15.9112
教	-15.9112
浦	-15.9112
운	-15.9112
پ	-15.9112
そ	-15.9112
だ	-15.9112
ヌ	-15.9112
外	-15.9112
夫	-15.9112
尾	-15.9112
常	-15.9112
由	-15.9112
红	-15.9112
街	-15.9112
迷	-15.9112
酒	-15.9112
陸	-15.9112
씨	-15.9112
종	-15.9112
합	-15.9112
ǂ	-15.9112
Υ	-15.9112
ަ	-15.9112
भ	-15.9112
ि	-15.9112
ู	-15.9112
☆	-15.9112
♥	-15.9112
✓	-15.9112
ろ	-15.9112
ギ	-15.9112
回	-15.9112
好	-15.9112
孫	-15.9112
守	-15.9112
実	-15.9112
惹	-15.9112
战	-15.9112
校	-15.9112
漢	-15.9112
直	-15.9112
統	-15.9112
編	-15.9112
衣	-15.9112
路	-15.9112
音	-15.9112
냐	-15.9112
로	-15.9112
예	-15.9112
차	-15.9112
ם	-15.9112
ذ	-15.9112
ⴰ	-15.9112
ソ	-15.9112
廠	-15.9112
森	-15.9112
河	-15.9112
법	-15.9112
ů	-15.9112
Е	-15.9112
ে	-15.9112
ာ	-15.9112
ю	-15.9112
级	-15.9112
ব	-15.9112
্	-15.9112
ベ	-15.9112
မ	-15.9112
七	-16.054
兄	-16.0541
З	-16.0541
族	-16.0541
送	-16.0541
ק	-16.0541
ီ	-16.0541
□	-16.0541
梦	-16.0541
老	-16.0541
術	-16.0541
速	-16.0541
面	-16.0541
게	-16.0541
처	-16.0541
ť	-16.0541
ǝ	-16.0541
̂	-16.0541
ὐ	-16.0541
え	-16.0541
ぼ	-16.0541
伟	-16.0541
勝	-16.0541
唐	-16.0541
条	-16.0541
母	-16.0541
求	-16.0541
炊	-16.0541
省	-16.0541
知	-16.0541
茶	-16.0541
藍	-16.0541
賢	-16.0541
赵	-16.0541
起	-16.0541
陽	-16.0541
麻	-16.0541
黃	-16.0541
말	-16.0541
삼	-16.0541
윤	-16.0541
최	-16.0541
추	-16.0541
þ	-16.0541
ɯ	-16.0541
˦	-16.0541
̍	-16.0541
̥	-16.0541
Φ	-16.0541
Ж	-16.0541
ן	-16.0541
ס	-16.0541
ٌ	-16.0541
ট	-16.0541
ম	-16.0541
ေ	-16.0541
―	-16.0541
◌	-16.0541
げ	-16.0541
份	-16.0541
伊	-16.0541
作	-16.0541
偏	-16.0541
堂	-16.0541
奇	-16.0541
婚	-16.0541
影	-16.0541
暨	-16.0541
桐	-16.0541
油	-16.0541
球	-16.0541
盛	-16.0541
眼	-16.0541
結	-16.0541
良	-16.0541
虎	-16.0541
運	-16.0541
非	-16.0541
韓	-16.0541
風	-16.0541
食	-16.0541
餡	-16.0541
과	-16.0541
더	-16.0541
명	-16.0541
살	-16.0541
티	-16.0541
팥	-16.0541
Ε	-16.0541
Э	-16.0541
ּ	-16.0541
إ	-16.0541
ज	-16.0541
โ	-16.0541
ホ	-16.0541
久	-16.0541
如	-16.0541
役	-16.0541
棋	-16.0541
棒	-16.0541
车	-16.0541
遊	-16.0541
광	-16.0541
남	-16.0541
와	-16.0541
텔	-16.0541
홍	-16.0541
ާ	-16.0541
ခ	-16.0541
ְ	-16.0541
入	-16.2207
ג	-16.2207
တ	-16.2207
ா	-16.2207
ი	-16.2207
ड	-16.2207
を	-16.2207
定	-16.2207
视	-16.2207
計	-16.2207
说	-16.2207
을	-16.2207
Ä	-16.2207
ʼ	-16.2207
Х	-16.2207
ז	-16.2207
כ	-16.2207
़	-16.2207
ক	-16.2207
ฟ	-16.2207
仮	-16.2207
关	-16.2207
兵	-16.2207
判	-16.2207
吳	-16.2207
干	-16.2207
強	-16.2207
摺	-16.2207
桂	-16.2207
池	-16.2207
漬	-16.2207
灣	-16.2207
烏	-16.2207
産	-16.2207
纪	-16.2207
臺	-16.2207
豪	-16.2207
足	-16.2207
達	-16.2207
长	-16.2207
隆	-16.2207
魚	-16.2207
관	-16.2207
태	-16.2207
Þ	-16.2207
ņ	-16.2207
ַ	-16.2207
ת	-16.2207
آ	-16.2207
ܐ	-16.2207
ग	-16.2207
ब	-16.2207
য	-16.2207
ু	-16.2207
ਰ	-16.2207
ਾ	-16.2207
ා	-16.2207
ṯ	-16.2207
Ỵ	-16.2207
ὰ	-16.2207
∏	-16.2207
✔	-16.2207
ユ	-16.2207
云	-16.2207
任	-16.2207
佛	-16.2207
倍	-16.2207
受	-16.2207
史	-16.2207
吃	-16.2207
君	-16.2207
命	-16.2207
场	-16.2207
垣	-16.2207
宋	-16.2207
察	-16.2207
尚	-16.2207
屋	-16.2207
张	-16.2207
彦	-16.2207
揚	-16.2207
早	-16.2207
智	-16.2207
朱	-16.2207
桑	-16.2207
源	-16.2207
烈	-16.2207
狗	-16.2207
目	-16.2207
聲	-16.2207
舞	-16.2207
芳	-16.2207
草	-16.2207
謝	-16.2207
警	-16.2207
语	-16.2207
輝	-16.2207
闘	-16.2207
门	-16.2207
陈	-16.2207
頭	-16.2207
餅	-16.2207
鳳	-16.2207
권	-16.2207
러	-16.2207
물	-16.2207
생	-16.2207
월	-16.2207
유	-16.2207
후	-16.2207
𒆠	-16.2207
ִ	-16.2207
দ	-16.2207
ป	-16.2207
周	-16.2207
品	-16.2207
团	-16.2207
府	-16.2207
進	-16.2207
녕	-16.2207
센	-16.2207
ח	-16.2207
多	-16.2207
Ν	-16.2207
위	-16.2207
将	-16.2207
牧	-16.2208
յ	-16.4207
為	-16.4207
ใ	-16.4207
修	-16.4207
功	-16.4207
Ο	-16.4207
ދ	-16.4207
ื	-16.4207
ⵉ	-16.4207
宅	-16.4207
深	-16.4207
秘	-16.4207
钱	-16.4207
Ч	-16.4207
ख	-16.4207
ष	-16.4207
ば	-16.4207
浮	-16.4207
紀	-16.4207
角	-16.4207
감	-16.4207
창	-16.4207
ű	-16.4207
ம	-16.4207
₩	-16.4207
ポ	-16.4207
伏	-16.4207
伴	-16.4207
冠	-16.4207
員	-16.4207
夢	-16.4207
歡	-16.4207
澄	-16.4207
琴	-16.4207
私	-16.4207
與	-16.4207
谷	-16.4207
軒	-16.4207
鳥	-16.4207
당	-16.4207
승	-16.4207
실	-16.4207
타	-16.4207
ҁ	-16.4207
ܪ	-16.4207
ण	-16.4207
ယ	-16.4207
了	-16.4207
偉	-16.4207
到	-16.4207
员	-16.4207
尹	-16.4207
岡	-16.4207
市	-16.4207
康	-16.4207
撃	-16.4207
曲	-16.4207
欢	-16.4207
津	-16.4207
演	-16.4207
玄	-16.4207
納	-16.4207
舟	-16.4207
芦	-16.4207
荒	-16.4207
蔵	-16.4207
血	-16.4207
貴	-16.4207
賀	-16.4207
越	-16.4207
車	-16.4207
込	-16.4207
開	-16.4207
雲	-16.4207
飞	-16.4207
鶴	-16.4207
녀	-16.4207
노	-16.4207
래	-16.4207
통	-16.4207
팔	-16.4207
Ē	-16.4207
͘	-16.4207
Ш	-16.4207
צ	-16.4207
ً	-16.4207
چ	-16.4207
च	-16.4207
ू	-16.4207
ঁ	-16.4207
ঙ	-16.4207
ම	-16.4207
්	-16.4207
ฐ	-16.4207
າ	-16.4207
ဒ	-16.4207
ရ	-16.4207
ွ	-16.4207
Ṭ	-16.4207
ὶ	-16.4207
ῶ	-16.4207
⇒	-16.4207
∩	-16.4207
★	-16.4207
♮	-16.4207
」	-16.4207
じ	-16.4207
で	-16.4207
よ	-16.4207
丸	-16.4207
使	-16.4207
偵	-16.4207
利	-16.4207
則	-16.4207
右	-16.4207
商	-16.4207
善	-16.4207
妙	-16.4207
室	-16.4207
峰	-16.4207
律	-16.4207
承	-16.4207
振	-16.4207
易	-16.4207
曾	-16.4207
橙	-16.4207
湘	-16.4207
粉	-16.4207
紅	-16.4207
紫	-16.4207
經	-16.4207
線	-16.4207
结	-16.4207
羅	-16.4207
耀	-16.4207
肉	-16.4207
能	-16.4207
腐	-16.4207
興	-16.4207
艇	-16.4207
荘	-16.4207
蔡	-16.4207
诗	-16.4207
话	-16.4207
造	-16.4207
関	-16.4207
间	-16.4207
雅	-16.4207
魏	-16.4207
간	-16.4207
골	-16.4207
네	-16.4207
드	-16.4207
람	-16.4207
바	-16.4207
반	-16.4207
식	-16.4207
애	-16.4207
ÿ	-16.4207
ဝ	-16.4207
～	-16.4207
න	-16.4207
ރ	-16.4207
慶	-16.4207
黒	-16.4207
何	-16.6707
ე	-16.6707
რ	-16.6707
집	-16.6707
བ	-16.6707
破	-16.6707
ಾ	-16.6707
ས	-16.6707
በ	-16.6707
猫	-16.6707
近	-16.6707
電	-16.6707
ի	-16.6707
চ	-16.6707
ய	-16.6707
ོ	-16.6707
ὸ	-16.6707
ゆ	-16.6707
业	-16.6707
微	-16.6707
持	-16.6707
斯	-16.6707
来	-16.6707
浩	-16.6707
游	-16.6707
秦	-16.6707
製	-16.6707
輪	-16.6707
钟	-16.6707
陵	-16.6707
페	-16.6707
프	-16.6707
қ	-16.6707
ङ	-16.6707
ល	-16.6707
ស	-16.6707
ἕ	-16.6707
々	-16.6707
乡	-16.6707
冬	-16.6707
加	-16.6707
勇	-16.6707
団	-16.6707
婆	-16.6707
孝	-16.6707
导	-16.6707
崎	-16.6707
差	-16.6707
度	-16.6707
斗	-16.6707
昌	-16.6707
期	-16.6707
橘	-16.6707
浪	-16.6707
熊	-16.6707
缘	-16.6707
諸	-16.6707
鎮	-16.6707
間	-16.6707
順	-16.6707
領	-16.6707
龙	-16.6707
꽃	-16.6707
병	-16.6707
불	-16.6707
새	-16.6707
잔	-16.6707
플	-16.6707
헌	-16.6707
ĭ	-16.6707
ḷ	-16.6707
ḿ	-16.6707
內	-16.6707
均	-16.6707
孟	-16.6707
宫	-16.6707
巾	-16.6707
恩	-16.6707
沢	-16.6707
禄	-16.6707
翔	-16.6707
邪	-16.6707
零	-16.6707
黄	-16.6707
등	-16.6707
루	-16.6707
순	-16.6707
열	-16.6707
옥	-16.6707
촌	-16.6707
ţ	-16.6707
ȁ	-16.6707
ɢ	-16.6707
ɦ	-16.6707
̈	-16.6707
̌	-16.6707
Щ	-16.6707
ү	-16.6707
گ	-16.6707
ܠ	-16.6707
ܬ	-16.6707
ނ	-16.6707
ް	-16.6707
গ	-16.6707
ত	-16.6707
ভ	-16.6707
ර	-16.6707
ල	-16.6707
ි	-16.6707
ိ	-16.6707
ት	-16.6707
ን	-16.6707
ត	-16.6707
ḏ	-16.6707
Ỡ	-16.6707
ῆ	-16.6707
↦	-16.6707
∙	-16.6707
⌊	-16.6707
♣	-16.6707
ⵏ	-16.6707
「	-16.6707
ざ	-16.6707
ぷ	-16.6707
ペ	-16.6707
亜	-16.6707
体	-16.6707
傳	-16.6707
兒	-16.6707
刀	-16.6707
同	-16.6707
吸	-16.6707
哈	-16.6707
园	-16.6707
基	-16.6707
妃	-16.6707
姓	-16.6707
客	-16.6707
寄	-16.6707
开	-16.6707
弁	-16.6707
弟	-16.6707
当	-16.6707
怕	-16.6707
总	-16.6707
您	-16.6707
戏	-16.6707
戰	-16.6707
才	-16.6707
拉	-16.6707
斬	-16.6707
无	-16.6707
昊	-16.6707
映	-16.6707
晴	-16.6707
札	-16.6707
松	-16.6707
果	-16.6707
柳	-16.6707
栗	-16.6707
楊	-16.6707
榮	-16.6707
樂	-16.6707
橋	-16.6707
照	-16.6707
父	-16.6707
狐	-16.6707
甲	-16.6707
章	-16.6707
童	-16.6707
简	-16.6707
簡	-16.6707
系	-16.6707
臣	-16.6707
苦	-16.6707
菓	-16.6707
葉	-16.6707
藏	-16.6707
藝	-16.6707
衫	-16.6707
观	-16.6707
豚	-16.6707
赛	-16.6707
郷	-16.6707
錦	-16.6707
锋	-16.6707
陰	-16.6707
雜	-16.6707
雨	-16.6707
금	-16.6707
버	-16.6707
복	-16.6707
북	-16.6707
십	-16.6707
엘	-16.6707
워	-16.6707
임	-16.6707
죤	-16.6707
충	-16.6707
크	-16.6707
함	-16.6707
행	-16.6707
	-16.6707
𒂗	-16.6707
Ĝ	-16.6707
Ξ	-16.6707
Й	-16.6707
ญ	-16.6707
万	-16.6707
传	-16.6707
倉	-16.6707
区	-16.6707
县	-16.6707
反	-16.6707
性	-16.6707
意	-16.6707
斎	-16.6707
解	-16.6707
連	-16.6707
계	-16.6707
뮤	-16.6707
번	-16.6707
쇼	-16.6707
언	-16.6707
천	-16.6707
혁	-16.6707
혜	-16.6707
ט	-16.6707
ა	-16.6707
ⵍ	-16.6707
幻	-16.6707
旋	-16.6707
格	-16.6707
泰	-16.6707
羽	-16.6707
裁	-16.6707
議	-16.6707
贴	-16.6707
边	-16.6707
體	-16.6707
중	-16.6707
れ	-16.6707
ե	-16.6707
圓	-17.004
せ	-17.004
む	-17.004
円	-17.004
廣	-17.0041
ひ	-17.0041
切	-17.0041
监	-17.0041
웃	-17.0041
争	-17.0041
念	-17.0041
氣	-17.0041
泉	-17.0041
脑	-17.0041
տ	-17.0041
ީ	-17.0041
ྲ	-17.0041
ု	-17.0041
የ	-17.0041
ម	-17.0041
ឧ	-17.0041
្	-17.0041
ⵎ	-17.0041
亲	-17.0041
劍	-17.0041
局	-17.0041
敦	-17.0041
杯	-17.0041
梁	-17.0041
汉	-17.0041
治	-17.0041
現	-17.0041
瑟	-17.0041
疯	-17.0041
苗	-17.0041
諜	-17.0041
迎	-17.0041
酱	-17.0041
际	-17.0041
雑	-17.0041
鞠	-17.0041
령	-17.0041
他	-17.0041
淑	-17.0041
祐	-17.0041
Ī	-17.0041
ľ	-17.0041
ǫ	-17.0041
ܝ	-17.0041
ই	-17.0041
த	-17.0041
ು	-17.0041
ག	-17.0041
ṓ	-17.0041
ὄ	-17.0041
₽	-17.0041
っ	-17.0041
ヨ	-17.0041
与	-17.0041
優	-17.0041
儿	-17.0041
冷	-17.0041
劉	-17.0041
區	-17.0041
午	-17.0041
双	-17.0041
吴	-17.0041
哲	-17.0041
塩	-17.0041
妹	-17.0041
寧	-17.0041
强	-17.0041
復	-17.0041
打	-17.0041
柑	-17.0041
殿	-17.0041
毛	-17.0041
版	-17.0041
礼	-17.0041
秀	-17.0041
程	-17.0041
等	-17.0041
節	-17.0041
线	-17.0041
罗	-17.0041
考	-17.0041
聖	-17.0041
胡	-17.0041
芬	-17.0041
關	-17.0041
館	-17.0041
騎	-17.0041
디	-17.0041
배	-17.0041
삐	-17.0041
설	-17.0041
친	-17.0041
콩	-17.0041
테	-17.0041
ċ	-17.0041
ǧ	-17.0041
ɸ	-17.0041
ɹ	-17.0041
ɾ	-17.0041
ˇ	-17.0041
̤	-17.0041
͂	-17.0041
Ψ	-17.0041
ј	-17.0041
ў	-17.0041
ө	-17.0041
է	-17.0041
ך	-17.0041
ہ	-17.0041
ܘ	-17.0041
ܣ	-17.0041
ި	-17.0041
ध	-17.0041
श	-17.0041
ও	-17.0041
ন	-17.0041
প	-17.0041
ী	-17.0041
ப	-17.0041
ர	-17.0041
ள	-17.0041
ග	-17.0041
ผ	-17.0041
ງ	-17.0041
ຫ	-17.0041
ံ	-17.0041
ር	-17.0041
ቅ	-17.0041
ና	-17.0041
ជ	-17.0041
ប	-17.0041
រ	-17.0041
េ	-17.0041
ḗ	-17.0041
Ὠ	-17.0041
ὲ	-17.0041
ᾶ	-17.0041
⇌	-17.0041
∉	-17.0041
∫	-17.0041
⊇	-17.0041
⊗	-17.0041
♦	-17.0041
ぽ	-17.0041
ヶ	-17.0041
乙	-17.0041
介	-17.0041
伯	-17.0041
來	-17.0041
侯	-17.0041
係	-17.0041
俊	-17.0041
兆	-17.0041
典	-17.0041
兼	-17.0041
再	-17.0041
冰	-17.0041
剧	-17.0041
創	-17.0041
務	-17.0041
卍	-17.0041
卐	-17.0041
单	-17.0041
卯	-17.0041
印	-17.0041
厂	-17.0041
叔	-17.0041
吧	-17.0041
告	-17.0041
咸	-17.0041
哥	-17.0041
器	-17.0041
圖	-17.0041
圣	-17.0041
声	-17.0041
夕	-17.0041
头	-17.0041
姐	-17.0041
宇	-17.0041
寒	-17.0041
师	-17.0041
希	-17.0041
席	-17.0041
帮	-17.0041
幸	-17.0041
店	-17.0041
录	-17.0041
彬	-17.0041
忘	-17.0041
忽	-17.0041
憲	-17.0041
戸	-17.0041
摩	-17.0041
景	-17.0041
晶	-17.0041
末	-17.0041
枝	-17.0041
样	-17.0041
根	-17.0041
梅	-17.0041
梨	-17.0041
樹	-17.0041
歳	-17.0041
氷	-17.0041
波	-17.0041
洪	-17.0041
浴	-17.0041
淚	-17.0041
渡	-17.0041
湯	-17.0041
漪	-17.0041
灵	-17.0041
热	-17.0041
片	-17.0041
牛	-17.0041
猎	-17.0041
猛	-17.0041
琳	-17.0041
瑞	-17.0041
留	-17.0041
益	-17.0041
盗	-17.0041
督	-17.0041
砲	-17.0041
祖	-17.0041
禍	-17.0041
离	-17.0041
稲	-17.0041
笑	-17.0041
管	-17.0041
米	-17.0041
約	-17.0041
羊	-17.0041
耶	-17.0041
肥	-17.0041
舜	-17.0041
蘆	-17.0041
蛇	-17.0041
蛋	-17.0041
融	-17.0041
装	-17.0041
要	-17.0041
規	-17.0041
訓	-17.0041
論	-17.0041
賴	-17.0041
辛	-17.0041
辰	-17.0041
鄧	-17.0041
酢	-17.0041
鉄	-17.0041
镇	-17.0041
队	-17.0041
阳	-17.0041
雾	-17.0041
露	-17.0041
類	-17.0041
鰻	-17.0041
麦	-17.0041
귤	-17.0041
덕	-17.0041
를	-17.0041
목	-17.0041
못	-17.0041
분	-17.0041
업	-17.0041
엔	-17.0041
엠	-17.0041
역	-17.0041
잖	-17.0041
잘	-17.0041
참	-17.0041
채	-17.0041
칠	-17.0041
클	-17.0041
토	-17.0041
편	-17.0041
환	-17.0041
흥	-17.0041
희	-17.0041
伦	-17.0041
刘	-17.0041
副	-17.0041
叶	-17.0041
宣	-17.0041
晓	-17.0041
杨	-17.0041
汪	-17.0041
湖	-17.0041
脱	-17.0041
蘭	-17.0041
결	-17.0041
림	-17.0041
봉	-17.0041
좋	-17.0041
Ι	-17.0041
ਗ	-17.0041
ぴ	-17.0041
亿	-17.0041
呼	-17.0041
晩	-17.0041
殺	-17.0041
組	-17.0041
蓝	-17.0041
蘇	-17.0041
輔	-17.0041
鐵	-17.0041
陀	-17.0041
首	-17.0041
黎	-17.0041
눈	-17.0041
익	-17.0041
잠	-17.0041
즈	-17.0041
ׁ	-17.0041
އ	-17.0041
খ	-17.0041
ს	-17.0041
執	-17.0041
奥	-17.0041
步	-17.0041
課	-17.0041
郁	-17.0041
락	-17.0041
個	-17.0041
爆	-17.0041
ြ	-17.0041
탑	-17.0041
ゅ	-17.0041
刊	-17.0041
톤	-17.0041
ހ	-17.0041
囂	-17.504
背	-17.504
ல	-17.504
Շ	-17.5041
շ	-17.5041
ؤ	-17.5041
专	-17.5041
岛	-17.5041
捏	-17.5041
看	-17.5041
磨	-17.5041
침	-17.5041
ẖ	-17.5041
শ	-17.5041
범	-17.5041
ȍ	-17.5041
հ	-17.5041
க	-17.5041
ச	-17.5041
ಬ	-17.5041
ಯ	-17.5041
མ	-17.5041
ပ	-17.5041
လ	-17.5041
ლ	-17.5041
ნ	-17.5041
ო	-17.5041
ፈ	-17.5041
ង	-17.5041
ណ	-17.5041
ἡ	-17.5041
ね	-17.5041
ゾ	-17.5041
僕	-17.5041
列	-17.5041
卵	-17.5041
寻	-17.5041
尔	-17.5041
抗	-17.5041
爺	-17.5041
署	-17.5041
艺	-17.5041
訴	-17.5041
賣	-17.5041
黑	-17.5041
ꢬ	-17.5041
꣄	-17.5041
께	-17.5041
모	-17.5041
훔	-17.5041
њ	-17.5041
ҳ	-17.5041
ە	-17.5041
ै	-17.5041
ར	-17.5041
ἔ	-17.5041
ぐ	-17.5041
丽	-17.5041
优	-17.5041
凶	-17.5041
口	-17.5041
図	-17.5041
屏	-17.5041
息	-17.5041
溜	-17.5041
潘	-17.5041
甘	-17.5041
町	-17.5041
眞	-17.5041
祇	-17.5041
総	-17.5041
縦	-17.5041
薩	-17.5041
霸	-17.5041
願	-17.5041
鯨	-17.5041
글	-17.5041
낭	-17.5041
알	-17.5041
항	-17.5041
ŷ	-17.5041
Ы	-17.5041
ঠ	-17.5041
ⴻ	-17.5041
堆	-17.5041
戴	-17.5041
摄	-17.5041
昼	-17.5041
泊	-17.5041
瞿	-17.5041
祥	-17.5041
秋	-17.5041
箕	-17.5041
紙	-17.5041
膝	-17.5041
蒲	-17.5041
衛	-17.5041
裙	-17.5041
鍾	-17.5041
鯰	-17.5041
갑	-17.5041
굴	-17.5041
달	-17.5041
청	-17.5041
판	-17.5041
향	-17.5041
¢	-17.5041
Ë	-17.5041
Ɔ	-17.5041
ǰ	-17.5041
ȳ	-17.5041
ɘ	-17.5041
ˋ	-17.5041
̓	-17.5041
̞	-17.5041
Є	-17.5041
Ѕ	-17.5041
Ь	-17.5041
ҙ	-17.5041
ә	-17.5041
ӣ	-17.5041
ը	-17.5041
կ	-17.5041
մ	-17.5041
ֱ	-17.5041
פ	-17.5041
ץ	-17.5041
ٍ	-17.5041
ڌ	-17.5041
ܟ	-17.5041
ܢ	-17.5041
ܵ	-17.5041
ܹ	-17.5041
ܼ	-17.5041
ސ	-17.5041
ौ	-17.5041
ং	-17.5041
ষ	-17.5041
ো	-17.5041
ৰ	-17.5041
ਖ	-17.5041
ੁ	-17.5041
ੂ	-17.5041
ி	-17.5041
ே	-17.5041
ಇ	-17.5041
ಠ	-17.5041
ಿ	-17.5041
ೆ	-17.5041
ක	-17.5041
ถ	-17.5041
ང	-17.5041
ན	-17.5041
ི	-17.5041
ུ	-17.5041
ဇ	-17.5041
ထ	-17.5041
ვ	-17.5041
ስ	-17.5041
ደ	-17.5041
ዳ	-17.5041
ድ	-17.5041
ፍ	-17.5041
ហ	-17.5041
អ	-17.5041
ᱟ	-17.5041
Ḏ	-17.5041
ṁ	-17.5041
ṳ	-17.5041
Ẓ	-17.5041
ὁ	-17.5041
‒	-17.5041
‧	-17.5041
℥	-17.5041
↠	-17.5041
≃	-17.5041
≢	-17.5041
⋃	-17.5041
⋆	-17.5041
⑆	-17.5041
╯	-17.5041
►	-17.5041
♏	-17.5041
✳	-17.5041
✶	-17.5041
⟳	-17.5041
⟹	-17.5041
ⴹ	-17.5041
ⵢ	-17.5041
べ	-17.5041
ㄧ	-17.5041
丑	-17.5041
串	-17.5041
乃	-17.5041
亂	-17.5041
亥	-17.5041
仏	-17.5041
仰	-17.5041
伙	-17.5041
伝	-17.5041
伤	-17.5041
便	-17.5041
俗	-17.5041
倪	-17.5041
假	-17.5041
像	-17.5041
僧	-17.5041
億	-17.5041
冒	-17.5041
凛	-17.5041
创	-17.5041
剑	-17.5041
劇	-17.5041
务	-17.5041
动	-17.5041
助	-17.5041
勒	-17.5041
勢	-17.5041
医	-17.5041
升	-17.5041
半	-17.5041
収	-17.5041
句	-17.5041
只	-17.5041
吹	-17.5041
吻	-17.5041
呉	-17.5041
嘅	-17.5041
坚	-17.5041
坝	-17.5041
坡	-17.5041
垂	-17.5041
塔	-17.5041
塞	-17.5041
墨	-17.5041
失	-17.5041
妖	-17.5041
姉	-17.5041
姚	-17.5041
存	-17.5041
宁	-17.5041
完	-17.5041
实	-17.5041
宥	-17.5041
寅	-17.5041
富	-17.5041
对	-17.5041
尊	-17.5041
導	-17.5041
尘	-17.5041
居	-17.5041
岚	-17.5041
崇	-17.5041
巳	-17.5041
巴	-17.5041
帯	-17.5041
帶	-17.5041
帽	-17.5041
広	-17.5041
庄	-17.5041
庆	-17.5041
庭	-17.5041
弄	-17.5041
引	-17.5041
弦	-17.5041
彼	-17.5041
徐	-17.5041
従	-17.5041
快	-17.5041
怪	-17.5041
恵	-17.5041
感	-17.5041
慧	-17.5041
懦	-17.5041
戌	-17.5041
戶	-17.5041
托	-17.5041
抜	-17.5041
拓	-17.5041
指	-17.5041
捉	-17.5041
揭	-17.5041
搶	-17.5041
敏	-17.5041
敬	-17.5041
数	-17.5041
料	-17.5041
施	-17.5041
旅	-17.5041
旗	-17.5041
时	-17.5041
昱	-17.5041
暫	-17.5041
更	-17.5041
朗	-17.5041
望	-17.5041
柏	-17.5041
查	-17.5041
榜	-17.5041
構	-17.5041
樓	-17.5041
段	-17.5041
殻	-17.5041
毅	-17.5041
汗	-17.5041
沈	-17.5041
洁	-17.5041
洞	-17.5041
浸	-17.5041
滩	-17.5041
漣	-17.5041
濟	-17.5041
濱	-17.5041
爭	-17.5041
爾	-17.5041
牵	-17.5041
狼	-17.5041
珠	-17.5041
班	-17.5041
琛	-17.5041
瓊	-17.5041
申	-17.5041
畢	-17.5041
盆	-17.5041
眠	-17.5041
祓	-17.5041
祭	-17.5041
秒	-17.5041
笏	-17.5041
笔	-17.5041
策	-17.5041
粥	-17.5041
粵	-17.5041
紋	-17.5041
級	-17.5041
素	-17.5041
終	-17.5041
網	-17.5041
纸	-17.5041
统	-17.5041
网	-17.5041
羡	-17.5041
羹	-17.5041
習	-17.5041
聂	-17.5041
聚	-17.5041
聯	-17.5041
聰	-17.5041
肖	-17.5041
育	-17.5041
膳	-17.5041
至	-17.5041
致	-17.5041
船	-17.5041
芋	-17.5041
芝	-17.5041
茂	-17.5041
荣	-17.5041
莫	-17.5041
菅	-17.5041
落	-17.5041
薙	-17.5041
虐	-17.5041
號	-17.5041
蜜	-17.5041
袍	-17.5041
裳	-17.5041
见	-17.5041
証	-17.5041
詩	-17.5041
説	-17.5041
読	-17.5041
譚	-17.5041
護	-17.5041
调	-17.5041
趙	-17.5041
轉	-17.5041
農	-17.5041
进	-17.5041
遠	-17.5041
那	-17.5041
酉	-17.5041
鈕	-17.5041
鐘	-17.5041
钦	-17.5041
閣	-17.5041
閩	-17.5041
闭	-17.5041
陶	-17.5041
険	-17.5041
霖	-17.5041
霞	-17.5041
韶	-17.5041
頓	-17.5041
髮	-17.5041
鸡	-17.5041
鹏	-17.5041
鹰	-17.5041
麗	-17.5041
麺	-17.5041
齊	-17.5041
근	-17.5041
까	-17.5041
낙	-17.5041
날	-17.5041
농	-17.5041
답	-17.5041
댕	-17.5041
들	-17.5041
뛰	-17.5041
띵	-17.5041
란	-17.5041
려	-17.5041
록	-17.5041
룹	-17.5041
르	-17.5041
릉	-17.5041
맥	-17.5041
맨	-17.5041
먼	-17.5041
밤	-17.5041
뱀	-17.5041
벌	-17.5041
벤	-17.5041
블	-17.5041
빵	-17.5041
뻔	-17.5041
쁜	-17.5041
솔	-17.5041
술	-17.5041
습	-17.5041
싫	-17.5041
앉	-17.5041
암	-17.5041
앞	-17.5041
앤	-17.5041
억	-17.5041
용	-17.5041
작	-17.5041
적	-17.5041
젓	-17.5041
죄	-17.5041
줄	-17.5041
철	-17.5041
쳐	-17.5041
춘	-17.5041
투	-17.5041
팡	-17.5041
표	-17.5041
필	-17.5041
형	-17.5041
훈	-17.5041
	-17.5041
	-17.5041
﨑	-17.5041
︢	-17.5041
𐎠	-17.5041
𐰤	-17.5041
𒂊	-17.5041
𒃲	-17.5041
𒆳	-17.5041
𒌈	-17.5041
𒌷	-17.5041
_	-17.5041
ል	-17.5041
ẓ	-17.5041
┻	-17.5041
伍	-17.5041
傣	-17.5041
屁	-17.5041
弘	-17.5041
晁	-17.5041
珍	-17.5041
皮	-17.5041
芒	-17.5041
菊	-17.5041
邱	-17.5041
钉	-17.5041
階	-17.5041
霜	-17.5041
静	-17.5041
규	-17.5041
준	-17.5041
ظ	-17.5041
ብ	-17.5041
以	-17.5041
养	-17.5041
容	-17.5041
岁	-17.5041
忍	-17.5041
晚	-17.5041
栖	-17.5041
桃	-17.5041
止	-17.5041
犬	-17.5041
畫	-17.5041
荡	-17.5041
蓮	-17.5041
誌	-17.5041
过	-17.5041
養	-17.5041
귀	-17.5041
쉅	-17.5041
온	-17.5041
초	-17.5041
콜	-17.5041
ণ	-17.5041
ศ	-17.5041
က	-17.5041
သ	-17.5041
ှ	-17.5041
თ	-17.5041
Ἔ	-17.5041
农	-17.5041
別	-17.5041
坊	-17.5041
後	-17.5041
競	-17.5041
躍	-17.5041
週	-17.5041
랜	-17.5041
몰	-17.5041
약	-17.5041
음	-17.5041
품	-17.5041
했	-17.5041
ວ	-17.5041
應	-17.5041
𒍪	-18.4682
𒀊	-18.4683
핑	-18.4684
평	-18.4685
틱	-18.4686
텀	-18.4687
탄	-18.4688
큼	-18.4689
콤	-18.469
카	-18.4691
체	-18.4692
찍	-18.4693
째	-18.4694
짓	-18.4695
쏘	-18.4696
슈	-18.4697
변	-18.4698
베	-18.4699
맹	-18.47
막	-18.4701
렐	-18.4702
럼	-18.4703
뚜	-18.4704
뒤	-18.4705
된	-18.4706
누	-18.4707
깨	-18.4708
같	-18.4709
ꠟ	-18.471
ꠐ	-18.4711
ꠍ	-18.4712
龄	-18.4713
鮮	-18.4714
餘	-18.4715
颂	-18.4716
頡	-18.4717
靳	-18.4718
隣	-18.4719
锺	-18.472
铁	-18.4721
錢	-18.4722
鈴	-18.4723
郵	-18.4724
踩	-18.4725
赫	-18.4726
购	-18.4727
贝	-18.4728
貸	-18.4729
貞	-18.473
谭	-18.4731
谐	-18.4732
谈	-18.4733
讯	-18.4734
裕	-18.4735
蜑	-18.4736
荷	-18.4737
腾	-18.4738
聞	-18.4739
締	-18.474
篠	-18.4741
箍	-18.4742
筒	-18.4743
突	-18.4744
礦	-18.4745
碩	-18.4746
碑	-18.4747
碎	-18.4748
牍	-18.4749
爪	-18.475
澤	-18.4751
湾	-18.4752
淸	-18.4753
消	-18.4754
活	-18.4755
柱	-18.4756
杂	-18.4757
暴	-18.4758
昂	-18.4759
改	-18.476
掛	-18.4761
拨	-18.4762
扶	-18.4763
戒	-18.4764
悪	-18.4765
形	-18.4766
彗	-18.4767
左	-18.4768
宏	-18.4769
孩	-18.477
婧	-18.4771
姑	-18.4772
奈	-18.4773
塘	-18.4774
囷	-18.4775
哨	-18.4776
取	-18.4777
卡	-18.4778
勞	-18.4779
労	-18.478
剌	-18.4781
共	-18.4782
例	-18.4783
众	-18.4784
们	-18.4785
予	-18.4786
乱	-18.4787
乌	-18.4788
为	-18.4789
丁	-18.479
ほ	-18.4791
づ	-18.4792
。	-18.4793
ⵕ	-18.4794
ⱬ	-18.4795
♍	-18.4796
⌂	-18.4797
⊥	-18.4798
₤	-18.4799
₣	-18.48
ῥ	-18.4801
ὤ	-18.4802
ὕ	-18.4803
ἱ	-18.4804
Ἑ	-18.4805
Ἁ	-18.4806
ṷ	-18.4807
ᥳ	-18.4808
ᥭ	-18.4809
ᥬ	-18.481
ᥨ	-18.4811
ᥒ	-18.4812
ᥑ	-18.4813
យ	-18.4814
ទ	-18.4815
ញ	-18.4816
ច	-18.4817
მ	-18.4818
ྒ	-18.4819
ິ	-18.482
ະ	-18.4821
ສ	-18.4822
ມ	-18.4823
ບ	-18.4824
ณ	-18.4825
ฆ	-18.4826
ප	-18.4827
ධ	-18.4828
අ	-18.4829
ு	-18.483
ட	-18.4831
थ	-18.4832
छ	-18.4833
ޚ	-18.4834
ޖ	-18.4835
ڪ	-18.4836
ڊ	-18.4837
վ	-18.4838
թ	-18.4839
գ	-18.484
Թ	-18.4841
Ա	-18.4842
һ	-18.4843
Қ	-18.4844
Я	-18.4845
Ю	-18.4846
Ά	-18.4847
̋	-18.4848
ʕ	-18.4849
ʋ	-18.485
ʉ	-18.4851
ɖ	-18.4852
Ș	-18.4853
Ź	-18.4854
Ř	-18.4855
Œ	-18.4856
퍼	-18.4857
직	-18.4858
융	-18.4859
앙	-18.486
빈	-18.4861
밀	-18.4862
망	-18.4863
돌	-18.4864
건	-18.4865
麥	-18.4866
餛	-18.4867
飩	-18.4868
遍	-18.4869
轅	-18.487
袖	-18.4871
虫	-18.4872
舉	-18.4873
腰	-18.4874
紺	-18.4875
篮	-18.4876
站	-18.4877
研	-18.4878
瓦	-18.4879
柯	-18.488
杉	-18.4881
朽	-18.4882
攻	-18.4883
弓	-18.4884
巻	-18.4885
属	-18.4886
尽	-18.4887
姜	-18.4888
书	-18.4889
ⴲ	-18.489
☁	-18.4891
∖	-18.4892
↯	-18.4893
↑	-18.4894
‖	-18.4895
Ἰ	-18.4896
ἶ	-18.4897
ἄ	-18.4898
ោ	-18.4899
አ	-18.49
ை	-18.4901
ছ	-18.4902
आ	-18.4903
ϸ	-18.4904
̶	-18.4905
ʈ	-18.4906
Ū	-18.4907
Ą	-18.4908
쩔	-18.4909
없	-18.491
롯	-18.4911
늘	-18.4912
ꠤ	-18.4913
過	-18.4914
转	-18.4915
輸	-18.4916
走	-18.4917
译	-18.4918
諭	-18.4919
翻	-18.492
祸	-18.4921
異	-18.4922
琶	-18.4923
琵	-18.4924
殊	-18.4925
摸	-18.4926
噌	-18.4927
○	-18.4928
⌋	-18.4929
※	-18.493
ᥰ	-18.4931
ᥖ	-18.4932
់	-18.4933
៉	-18.4934
စ	-18.4935
ນ	-18.4936
வ	-18.4937
ன	-18.4938
ެ	-18.4939
Χ	-18.494
Β	-18.4941
ǩ	-18.4942
Ę	-18.4943
히	-18.4944
숭	-18.4945
브	-18.4946
领	-18.4947
須	-18.4948
革	-18.4949
股	-18.495
究	-18.4951
狂	-18.4952
炒	-18.4953
浜	-18.4954
浅	-18.4955
写	-18.4956
仔	-18.4957
ヴ	-18.4958
ษ	-18.4959
়	-18.496
Η	-18.4961
코	-18.4962
葫	-18.4963
糖	-18.4964
棠	-18.4965
极	-18.4966
∅	-18.4967
⇩	-18.4968
ក	-18.4969
ํ	-18.497
স	-18.4971
̊	-18.4972
Ŭ	-18.4973
Ġ	-18.4974
Ğ	-18.4975
谢	-18.4976
袁	-18.4977
央	-18.4978
▼	-18.4979
↵	-18.498
ἰ	-18.4981
Ἀ	-18.4982
ḫ	-18.4983
ئ	-18.4984
☺	-18.4985
‰	-18.4986
Ṣ	-18.4987
ョ	-18.4988
∪	-18.4989
ր	-18.499
̇	-18.4991
ˀ	-18.4992
ǀ	-18.4993
ĝ	-18.4994
ォ	-18.4995
ـ	-18.4996
ո	-18.4997
￼	-18.4998
限	-18.4999
ภ	-18.5
航	-18.5001
⁝	-18.5002
欧	-18.5003
↹	-18.5004
∧	-18.5005
ء	-18.5006
̅	-18.5007
ƒ	-18.5008
Ø	-18.5009
∘	-18.501
⚙	-18.5011
ṅ	-18.5012
Ń	-18.5013
̄	-18.5014
„	-18.5015
◦	-18.5016
ャ	-18.5017
œ	-18.5018
Î	-18.5019
⋯	-18.502
‭	-18.5021
İ	-18.5022
ύ	-18.5023
テ	-18.5024
株	-18.5025
■	-18.5026
←	-18.5027
ร	-18.5028
☰	-18.5029
Ö	-18.503
ό	-18.5031
ṭ	-18.5032
Ắ	-18.5033
Ạ	-18.5034
|	-18.5035
ö	-18.5036
[	-18.5037
Ấ	-18.5038
ẫ	-18.5039
ẩ	-18.504
ཟ	-18.504
ླ	-18.504
ெ	-18.504
ტ	-18.504
播	-18.504
替	-18.504
菱	-18.504
趛	-18.504
趜	-18.504
趝	-18.504
趞	-18.504
阪	-18.504
듯	-18.504
속	-18.504
̑	-18.504
լ	-18.504
ս	-18.504
ڈ	-18.504
ބ	-18.504
ޠ	-18.504
ओ	-18.504
औ	-18.504
સ	-18.504
ீ	-18.504
ฏ	-18.504
ལ	-18.504
အ	-18.504
დ	-18.504
ზ	-18.504
უ	-18.504
ღ	-18.504
შ	-18.504
ለ	-18.504
ተ	-18.504
ከ	-18.504
គ	-18.504
ន	-18.504
ុ	-18.504
ែ	-18.504
៊	-18.504
ᱛ	-18.504
ᱱ	-18.504
Ἱ	-18.504
ⴳ	-18.504
ⵜ	-18.504
ⵣ	-18.504
《	-18.504
丝	-18.504
交	-18.504
企	-18.504
報	-18.504
壮	-18.504
夷	-18.504
対	-18.504
幾	-18.504
抹	-18.504
擊	-18.504
支	-18.504
杭	-18.504
没	-18.504
渉	-18.504
牡	-18.504
种	-18.504
紹	-18.504
縱	-18.504
绸	-18.504
综	-18.504
绽	-18.504
缉	-18.504
翼	-18.504
职	-18.504
舒	-18.504
茄	-18.504
視	-18.504
讀	-18.504
计	-18.504
趂	-18.504
趄	-18.504
趆	-18.504
趇	-18.504
趈	-18.504
趉	-18.504
趌	-18.504
趍	-18.504
趎	-18.504
趏	-18.504
趐	-18.504
趑	-18.504
趒	-18.504
趟	-18.504
趠	-18.504
趡	-18.504
趢	-18.504
趣	-18.504
趤	-18.504
趩	-18.504
鞍	-18.504
魂	-18.504
鲁	-18.504
ꢵ	-18.504
땅	-18.504
릴	-18.504
볼	-18.504
욕	-18.504
줬	-18.504
케	-18.504
є	-18.5041
ї	-18.5041
ҭ	-18.5041
ठ	-18.5041
ં	-18.5041
દ	-18.5041
િ	-18.5041
ૂ	-18.5041
గ	-18.5041
ద	-18.5041
ా	-18.5041
ಗ	-18.5041
ತ	-18.5041
ದ	-18.5041
್	-18.5041
ซ	-18.5041
็	-18.5041
ဦ	-18.5041
ቡ	-18.5041
Ὑ	-18.5041
∠	-18.5041
ヘ	-18.5041
亀	-18.5041
俞	-18.5041
势	-18.5041
吾	-18.5041
唯	-18.5041
売	-18.5041
媞	-18.5041
宴	-18.5041
尉	-18.5041
尻	-18.5041
屹	-18.5041
岩	-18.5041
忆	-18.5041
愍	-18.5041
憂	-18.5041
戊	-18.5041
據	-18.5041
板	-18.5041
檜	-18.5041
欽	-18.5041
涉	-18.5041
済	-18.5041
滨	-18.5041
烟	-18.5041
熙	-18.5041
独	-18.5041
盖	-18.5041
睿	-18.5041
短	-18.5041
硝	-18.5041
碗	-18.5041
禛	-18.5041
禧	-18.5041
纵	-18.5041
胆	-18.5041
著	-18.5041
蒸	-18.5041
蕃	-18.5041
蠣	-18.5041
證	-18.5041
请	-18.5041
趪	-18.5041
趫	-18.5041
載	-18.5041
鑑	-18.5041
锦	-18.5041
阴	-18.5041
顕	-18.5041
겠	-18.5041
곰	-18.5041
극	-18.5041
쁘	-18.5041
손	-18.5041
왠	-18.5041
입	-18.5041
점	-18.5041
찾	-18.5041
키	-18.5041
탕	-18.5041
𒀕	-18.5041
𒄿	-18.5041
𒋾	-18.5041
Ǧ	-18.5041
ʑ	-18.5041
Դ	-18.5041
฿	-18.5041
ḃ	-18.5041
Ḩ	-18.5041
ゥ	-18.5041
丈	-18.5041
习	-18.5041
勁	-18.5041
吒	-18.5041
含	-18.5041
單	-18.5041
垚	-18.5041
培	-18.5041
奴	-18.5041
審	-18.5041
寳	-18.5041
屠	-18.5041
悠	-18.5041
拂	-18.5041
朧	-18.5041
泥	-18.5041
漆	-18.5041
煎	-18.5041
營	-18.5041
狩	-18.5041
皎	-18.5041
粽	-18.5041
耿	-18.5041
臭	-18.5041
莊	-18.5041
莞	-18.5041
蓋	-18.5041
蔽	-18.5041
蕩	-18.5041
藥	-18.5041
蜂	-18.5041
裟	-18.5041
襦	-18.5041
酸	-18.5041
闇	-18.5041
韦	-18.5041
鯵	-18.5041
麟	-18.5041
넥	-18.5041
닥	-18.5041
메	-18.5041
묵	-18.5041
쇠	-18.5041
쌈	-18.5041
쑥	-18.5041
잎	-18.5041
폰	-18.5041
☣	-18.5041
嚴	-18.5041
谶	-18.5041
Ï	-18.5041
Û	-18.5041
Ĉ	-18.5041
Ě	-18.5041
ĵ	-18.5041
ļ	-18.5041
Ľ	-18.5041
Ŋ	-18.5041
Ŝ	-18.5041
ŝ	-18.5041
Ť	-18.5041
Ŧ	-18.5041
ŧ	-18.5041
Ÿ	-18.5041
Ǝ	-18.5041
ǚ	-18.5041
ǹ	-18.5041
ȕ	-18.5041
ȫ	-18.5041
ɍ	-18.5041
ɕ	-18.5041
ɫ	-18.5041
ɵ	-18.5041
ʂ	-18.5041
ʐ	-18.5041
ʟ	-18.5041
ʤ	-18.5041
ʹ	-18.5041
ˁ	-18.5041
ˊ	-18.5041
̏	-18.5041
̚	-18.5041
̧	-18.5041
̨	-18.5041
͈	-18.5041
Ͱ	-18.5041
ͱ	-18.5041
ϊ	-18.5041
ϛ	-18.5041
Ϸ	-18.5041
Ѓ	-18.5041
І	-18.5041
Ј	-18.5041
Ў	-18.5041
ѕ	-18.5041
љ	-18.5041
ѧ	-18.5041
Җ	-18.5041
җ	-18.5041
Ң	-18.5041
ң	-18.5041
ҥ	-18.5041
Ү	-18.5041
Ҳ	-18.5041
ҷ	-18.5041
ӓ	-18.5041
ӕ	-18.5041
Ә	-18.5041
ӧ	-18.5041
ӱ	-18.5041
ӹ	-18.5041
Բ	-18.5041
Ի	-18.5041
Ո	-18.5041
Վ	-18.5041
զ	-18.5041
խ	-18.5041
֑	-18.5041
֔	-18.5041
ֲ	-18.5041
ֶ	-18.5041
ֹ	-18.5041
ֻ	-18.5041
ף	-18.5041
ٓ	-18.5041
ٗ	-18.5041
ٴ	-18.5041
ڠ	-18.5041
ھ	-18.5041
ۀ	-18.5041
ۇ	-18.5041
ۈ	-18.5041
۲	-18.5041
ܓ	-18.5041
ܕ	-18.5041
ܙ	-18.5041
ܚ	-18.5041
ܦ	-18.5041
ܩ	-18.5041
ܶ	-18.5041
ܸ	-18.5041
ݜ	-18.5041
ݨ	-18.5041
ު	-18.5041
ट	-18.5041
ढ	-18.5041
ॐ	-18.5041
অ	-18.5041
এ	-18.5041
থ	-18.5041
ধ	-18.5041
ਓ	-18.5041
ਥ	-18.5041
ਬ	-18.5041
੍	-18.5041
ੰ	-18.5041
ੱ	-18.5041
આ	-18.5041
જ	-18.5041
ર	-18.5041
વ	-18.5041
ો	-18.5041
இ	-18.5041
உ	-18.5041
ఉ	-18.5041
ి	-18.5041
ಅ	-18.5041
ಈ	-18.5041
ಉ	-18.5041
ಊ	-18.5041
ಋ	-18.5041
ಎ	-18.5041
ಏ	-18.5041
ಕ	-18.5041
ಡ	-18.5041
ನ	-18.5041
ಭ	-18.5041
ರ	-18.5041
ಳ	-18.5041
ವ	-18.5041
ಷ	-18.5041
ಸ	-18.5041
ೊ	-18.5041
ೠ	-18.5041
එ	-18.5041
ය	-18.5041
ව	-18.5041
හ	-18.5041
ฒ	-18.5041
ฮ	-18.5041
๘	-18.5041
ຂ	-18.5041
ຊ	-18.5041
ທ	-18.5041
ຼ	-18.5041
ຽ	-18.5041
້	-18.5041
ໍ	-18.5041
ཀ	-18.5041
ཁ	-18.5041
ཅ	-18.5041
ཏ	-18.5041
ད	-18.5041
ཛ	-18.5041
ཤ	-18.5041
ྟ	-18.5041
ྫ	-18.5041
ဟ	-18.5041
္	-18.5041
ျ	-18.5041
პ	-18.5041
ᅢ	-18.5041
ᅦ	-18.5041
ሃ	-18.5041
ላ	-18.5041
ሓ	-18.5041
ሚ	-18.5041
ማ	-18.5041
ም	-18.5041
ረ	-18.5041
ሪ	-18.5041
ራ	-18.5041
ሮ	-18.5041
ሱ	-18.5041
ሳ	-18.5041
ቤ	-18.5041
ቱ	-18.5041
ቴ	-18.5041
ች	-18.5041
ነ	-18.5041
ኖ	-18.5041
ኢ	-18.5041
እ	-18.5041
ካ	-18.5041
ኳ	-18.5041
ወ	-18.5041
ዋ	-18.5041
ዎ	-18.5041
ዕ	-18.5041
ያ	-18.5041
ዲ	-18.5041
ጊ	-18.5041
ጋ	-18.5041
ፊ	-18.5041
᎓	-18.5041
ភ	-18.5041
វ	-18.5041
ឡ	-18.5041
ិ	-18.5041
ឹ	-18.5041
ួ	-18.5041
ំ	-18.5041
ᤌ	-18.5041
ᤕ	-18.5041
ᤠ	-18.5041
ᤢ	-18.5041
ᤰ	-18.5041
ᤱ	-18.5041
ᱤ	-18.5041
ᱥ	-18.5041
ᱲ	-18.5041
ḇ	-18.5041
Ḍ	-18.5041
ḑ	-18.5041
ḩ	-18.5041
ḳ	-18.5041
ṉ	-18.5041
ṕ	-18.5041
ṹ	-18.5041
Ẋ	-18.5041
ẋ	-18.5041
ẏ	-18.5041
ẕ	-18.5041
ẟ	-18.5041
Ἕ	-18.5041
Ἴ	-18.5041
ὠ	-18.5041
ὴ	-18.5041
ᾱ	-18.5041
ῡ	-18.5041
ῳ	-18.5041
‿	-18.5041
₦	-18.5041
₱	-18.5041
₸	-18.5041
↔	-18.5041
↩	-18.5041
↪	-18.5041
↺	-18.5041
⇀	-18.5041
⇄	-18.5041
⇬	-18.5041
⇱	-18.5041
∕	-18.5041
∝	-18.5041
≅	-18.5041
⊃	-18.5041
⊢	-18.5041
⊨	-18.5041
⊲	-18.5041
⋀	-18.5041
⋁	-18.5041
⌫	-18.5041
⎇	-18.5041
⏏	-18.5041
⏭	-18.5041
─	-18.5041
━	-18.5041
┼	-18.5041
▲	-18.5041
△	-18.5041
▴	-18.5041
▶	-18.5041
▷	-18.5041
☠	-18.5041
☩	-18.5041
☴	-18.5041
☿	-18.5041
♀	-18.5041
♂	-18.5041
♃	-18.5041
♈	-18.5041
♉	-18.5041
♊	-18.5041
♋	-18.5041
♌	-18.5041
♎	-18.5041
♐	-18.5041
♑	-18.5041
♒	-18.5041
♓	-18.5041
⛔	-18.5041
✖	-18.5041
❤	-18.5041
⟼	-18.5041
⤧	-18.5041
⭐	-18.5041
ⴱ	-18.5041
ⴷ	-18.5041
ⴼ	-18.5041
ⵇ	-18.5041
ⵡ	-18.5041
⹋	-18.5041
》	-18.5041
〜	-18.5041
ぁ	-18.5041
ぎ	-18.5041
ぜ	-18.5041
ぱ	-18.5041
ょ	-18.5041
゙	-18.5041
゚	-18.5041
ㄐ	-18.5041
ㄢ	-18.5041
ㄥ	-18.5041
ㄨ	-18.5041
丙	-18.5041
两	-18.5041
严	-18.5041
並	-18.5041
个	-18.5041
丹	-18.5041
乔	-18.5041
买	-18.5041
乳	-18.5041
于	-18.5041
亚	-18.5041
亞	-18.5041
亢	-18.5041
亭	-18.5041
亮	-18.5041
什	-18.5041
仇	-18.5041
仕	-18.5041
付	-18.5041
仙	-18.5041
件	-18.5041
伐	-18.5041
伪	-18.5041
伽	-18.5041
佃	-18.5041
但	-18.5041
住	-18.5041
佑	-18.5041
佗	-18.5041
佩	-18.5041
依	-18.5041
侶	-18.5041
俠	-18.5041
俺	-18.5041
候	-18.5041
値	-18.5041
傅	-18.5041
傑	-18.5041
傘	-18.5041
備	-18.5041
催	-18.5041
傲	-18.5041
傷	-18.5041
傻	-18.5041
傾	-18.5041
僰	-18.5041
儀	-18.5041
儒	-18.5041
允	-18.5041
兇	-18.5041
克	-18.5041
児	-18.5041
兔	-18.5041
兩	-18.5041
兴	-18.5041
兽	-18.5041
冕	-18.5041
冨	-18.5041
决	-18.5041
准	-18.5041
凝	-18.5041
凡	-18.5041
凤	-18.5041
処	-18.5041
凯	-18.5041
凰	-18.5041
凱	-18.5041
刑	-18.5041
则	-18.5041
刚	-18.5041
别	-18.5041
刺	-18.5041
剛	-18.5041
割	-18.5041
劫	-18.5041
勤	-18.5041
勲	-18.5041
勳	-18.5041
勿	-18.5041
包	-18.5041
匠	-18.5041
匪	-18.5041
卅	-18.5041
协	-18.5041
卓	-18.5041
協	-18.5041
単	-18.5041
占	-18.5041
卢	-18.5041
卫	-18.5041
危	-18.5041
厌	-18.5041
厨	-18.5041
厲	-18.5041
及	-18.5041
变	-18.5041
吏	-18.5041
吗	-18.5041
吟	-18.5041
呈	-18.5041
呜	-18.5041
咫	-18.5041
咲	-18.5041
哇	-18.5041
响	-18.5041
唔	-18.5041
唱	-18.5041
問	-18.5041
啟	-18.5041
啲	-18.5041
喊	-18.5041
喝	-18.5041
喼	-18.5041
嘯	-18.5041
嘴	-18.5041
因	-18.5041
囧	-18.5041
围	-18.5041
圀	-18.5041
團	-18.5041
圭	-18.5041
圾	-18.5041
坏	-18.5041
坑	-18.5041
垃	-18.5041
型	-18.5041
域	-18.5041
埼	-18.5041
墟	-18.5041
墾	-18.5041
壁	-18.5041
壩	-18.5041
壬	-18.5041
壺	-18.5041
壽	-18.5041
备	-18.5041
夭	-18.5041
夯	-18.5041
夺	-18.5041
奋	-18.5041
奕	-18.5041
奖	-18.5041
奭	-18.5041
妇	-18.5041
妮	-18.5041
姊	-18.5041
始	-18.5041
委	-18.5041
姥	-18.5041
姻	-18.5041
姿	-18.5041
娇	-18.5041
娟	-18.5041
婴	-18.5041
媄	-18.5041
媛	-18.5041
媽	-18.5041
嫁	-18.5041
嫌	-18.5041
孔	-18.5041
孛	-18.5041
季	-18.5041
孤	-18.5041
宠	-18.5041
宸	-18.5041
寇	-18.5041
實	-18.5041
寬	-18.5041
封	-18.5041
専	-18.5041
尖	-18.5041
就	-18.5041
尺	-18.5041
尼	-18.5041
屍	-18.5041
屯	-18.5041
岐	-18.5041
岑	-18.5041
岭	-18.5041
岳	-18.5041
岷	-18.5041
岸	-18.5041
峨	-18.5041
峯	-18.5041
崑	-18.5041
崗	-18.5041
崩	-18.5041
嵘	-18.5041
嶋	-18.5041
嶺	-18.5041
巅	-18.5041
巌	-18.5041
巧	-18.5041
巫	-18.5041
巽	-18.5041
帅	-18.5041
帆	-18.5041
帛	-18.5041
带	-18.5041
帳	-18.5041
幕	-18.5041
幞	-18.5041
幡	-18.5041
幣	-18.5041
幹	-18.5041
庁	-18.5041
底	-18.5041
庙	-18.5041
庚	-18.5041
庫	-18.5041
庵	-18.5041
廈	-18.5041
廉	-18.5041
廓	-18.5041
廖	-18.5041
廾	-18.5041
异	-18.5041
弥	-18.5041
弾	-18.5041
彝	-18.5041
彩	-18.5041
彫	-18.5041
彭	-18.5041
彰	-18.5041
彿	-18.5041
征	-18.5041
待	-18.5041
徒	-18.5041
得	-18.5041
從	-18.5041
循	-18.5041
徭	-18.5041
徹	-18.5041
忌	-18.5041
怀	-18.5041
怒	-18.5041
怡	-18.5041
急	-18.5041
恐	-18.5041
恒	-18.5041
恨	-18.5041
悬	-18.5041
悲	-18.5041
惟	-18.5041
惣	-18.5041
惧	-18.5041
愷	-18.5041
愿	-18.5041
慈	-18.5041
慕	-18.5041
慘	-18.5041
懂	-18.5041
懌	-18.5041
戍	-18.5041
房	-18.5041
扇	-18.5041
扉	-18.5041
扑	-18.5041
扬	-18.5041
护	-18.5041
押	-18.5041
拡	-18.5041
拯	-18.5041
挑	-18.5041
挺	-18.5041
挽	-18.5041
捷	-18.5041
掃	-18.5041
排	-18.5041
掠	-18.5041
探	-18.5041
推	-18.5041
提	-18.5041
握	-18.5041
搞	-18.5041
搭	-18.5041
搵	-18.5041
摆	-18.5041
摇	-18.5041
摘	-18.5041
撈	-18.5041
撥	-18.5041
故	-18.5041
敌	-18.5041
敢	-18.5041
散	-18.5041
斉	-18.5041
斑	-18.5041
斤	-18.5041
旦	-18.5041
旭	-18.5041
昆	-18.5041
昭	-18.5041
昶	-18.5041
晞	-18.5041
晨	-18.5041
暖	-18.5041
暗	-18.5041
暲	-18.5041
曉	-18.5041
曬	-18.5041
曹	-18.5041
曼	-18.5041
朔	-18.5041
术	-18.5041
杀	-18.5041
束	-18.5041
杠	-18.5041
枳	-18.5041
染	-18.5041
柔	-18.5041
柚	-18.5041
柴	-18.5041
栎	-18.5041
树	-18.5041
栾	-18.5041
桓	-18.5041
桜	-18.5041
桥	-18.5041
梓	-18.5041
梭	-18.5041
棉	-18.5041
棧	-18.5041
椎	-18.5041
椒	-18.5041
椪	-18.5041
楚	-18.5041
楠	-18.5041
極	-18.5041
楷	-18.5041
槍	-18.5041
槐	-18.5041
標	-18.5041
樞	-18.5041
権	-18.5041
樫	-18.5041
橄	-18.5041
檔	-18.5041
欖	-18.5041
欠	-18.5041
歩	-18.5041
歸	-18.5041
殭	-18.5041
毀	-18.5041
毒	-18.5041
毓	-18.5041
比	-18.5041
毘	-18.5041
氐	-18.5041
气	-18.5041
汝	-18.5041
汶	-18.5041
沒	-18.5041
沟	-18.5041
沪	-18.5041
沮	-18.5041
泛	-18.5041
泡	-18.5041
注	-18.5041
泱	-18.5041
泳	-18.5041
泽	-18.5041
洲	-18.5041
涙	-18.5041
涯	-18.5041
淀	-18.5041
淞	-18.5041
淵	-18.5041
混	-18.5041
渔	-18.5041
渝	-18.5041
測	-18.5041
湛	-18.5041
滇	-18.5041
滋	-18.5041
滝	-18.5041
满	-18.5041
滸	-18.5041
漫	-18.5041
潔	-18.5041
潜	-18.5041
潞	-18.5041
激	-18.5041
濃	-18.5041
濊	-18.5041
濠	-18.5041
瀚	-18.5041
瀾	-18.5041
灌	-18.5041
灯	-18.5041
灰	-18.5041
炎	-18.5041
炮	-18.5041
炯	-18.5041
点	-18.5041
炼	-18.5041
炽	-18.5041
烦	-18.5041
焉	-18.5041
焰	-18.5041
然	-18.5041
熱	-18.5041
燮	-18.5041
牆	-18.5041
牘	-18.5041
牟	-18.5041
犭	-18.5041
狱	-18.5041
猪	-18.5041
献	-18.5041
猴	-18.5041
猿	-18.5041
獄	-18.5041
獅	-18.5041
獲	-18.5041
獻	-18.5041
玆	-18.5041
玦	-18.5041
玫	-18.5041
珮	-18.5041
琊	-18.5041
琏	-18.5041
琦	-18.5041
琼	-18.5041
瑀	-18.5041
瑄	-18.5041
瑚	-18.5041
瑛	-18.5041
瑩	-18.5041
瑯	-18.5041
瑰	-18.5041
璋	-18.5041
璐	-18.5041
璽	-18.5041
瓜	-18.5041
用	-18.5041
甫	-18.5041
番	-18.5041
當	-18.5041
畿	-18.5041
症	-18.5041
痞	-18.5041
痴	-18.5041
発	-18.5041
登	-18.5041
盈	-18.5041
盲	-18.5041
県	-18.5041
睟	-18.5041
睦	-18.5041
瞬	-18.5041
瞽	-18.5041
矢	-18.5041
码	-18.5041
砂	-18.5041
砕	-18.5041
磊	-18.5041
磐	-18.5041
礫	-18.5041
示	-18.5041
祎	-18.5041
禁	-18.5041
禅	-18.5041
禕	-18.5041
禪	-18.5041
禹	-18.5041
秃	-18.5041
移	-18.5041
種	-18.5041
稼	-18.5041
積	-18.5041
穎	-18.5041
穏	-18.5041
穴	-18.5041
穹	-18.5041
穿	-18.5041
窿	-18.5041
竞	-18.5041
笄	-18.5041
笛	-18.5041
符	-18.5041
筆	-18.5041
箋	-18.5041
箐	-18.5041
算	-18.5041
箭	-18.5041
築	-18.5041
簪	-18.5041
籍	-18.5041
籤	-18.5041
粒	-18.5041
粕	-18.5041
粹	-18.5041
糕	-18.5041
純	-18.5041
紗	-18.5041
紜	-18.5041
絡	-18.5041
絢	-18.5041
絳	-18.5041
絹	-18.5041
継	-18.5041
続	-18.5041
綜	-18.5041
綬	-18.5041
維	-18.5041
綱	-18.5041
綸	-18.5041
綾	-18.5041
緒	-18.5041
練	-18.5041
縣	-18.5041
總	-18.5041
繪	-18.5041
纯	-18.5041
纶	-18.5041
纹	-18.5041
终	-18.5041
经	-18.5041
给	-18.5041
络	-18.5041
绝	-18.5041
继	-18.5041
维	-18.5041
缀	-18.5041
编	-18.5041
缝	-18.5041
缺	-18.5041
罩	-18.5041
罪	-18.5041
置	-18.5041
罰	-18.5041
羁	-18.5041
羋	-18.5041
群	-18.5041
羿	-18.5041
翁	-18.5041
翅	-18.5041
翌	-18.5041
翰	-18.5041
耆	-18.5041
而	-18.5041
耳	-18.5041
联	-18.5041
聡	-18.5041
職	-18.5041
肴	-18.5041
胞	-18.5041
脚	-18.5041
脩	-18.5041
腔	-18.5041
腦	-18.5041
腳	-18.5041
膚	-18.5041
臈	-18.5041
臨	-18.5041
舵	-18.5041
节	-18.5041
芸	-18.5041
苍	-18.5041
苔	-18.5041
范	-18.5041
茸	-18.5041
荅	-18.5041
菟	-18.5041
菲	-18.5041
菽	-18.5041
萌	-18.5041
葛	-18.5041
董	-18.5041
葱	-18.5041
葵	-18.5041
蒔	-18.5041
蒙	-18.5041
蒽	-18.5041
蔣	-18.5041
蕎	-18.5041
蕭	-18.5041
藻	-18.5041
處	-18.5041
虚	-18.5041
虞	-18.5041
蚁	-18.5041
蚂	-18.5041
蛸	-18.5041
蝉	-18.5041
蝦	-18.5041
蝶	-18.5041
螣	-18.5041
螺	-18.5041
蟹	-18.5041
衙	-18.5041
衡	-18.5041
补	-18.5041
袂	-18.5041
裂	-18.5041
補	-18.5041
裡	-18.5041
裤	-18.5041
裰	-18.5041
裸	-18.5041
褙	-18.5041
襴	-18.5041
覲	-18.5041
観	-18.5041
覺	-18.5041
試	-18.5041
該	-18.5041
誠	-18.5041
調	-18.5041
談	-18.5041
諍	-18.5041
謂	-18.5041
謎	-18.5041
謐	-18.5041
謨	-18.5041
識	-18.5041
譜	-18.5041
譽	-18.5041
讓	-18.5041
训	-18.5041
许	-18.5041
论	-18.5041
证	-18.5041
识	-18.5041
试	-18.5041
诞	-18.5041
诸	-18.5041
谁	-18.5041
谎	-18.5041
豔	-18.5041
豫	-18.5041
豬	-18.5041
豹	-18.5041
貊	-18.5041
貓	-18.5041
財	-18.5041
貪	-18.5041
資	-18.5041
賈	-18.5041
賞	-18.5041
質	-18.5041
贇	-18.5041
贞	-18.5041
败	-18.5041
贺	-18.5041
赏	-18.5041
赱	-18.5041
赳	-18.5041
赴	-18.5041
赶	-18.5041
赸	-18.5041
赺	-18.5041
赻	-18.5041
赼	-18.5041
赽	-18.5041
赾	-18.5041
赿	-18.5041
趀	-18.5041
趁	-18.5041
趃	-18.5041
趋	-18.5041
趓	-18.5041
趔	-18.5041
趕	-18.5041
趖	-18.5041
趗	-18.5041
趘	-18.5041
趚	-18.5041
趥	-18.5041
趦	-18.5041
趧	-18.5041
趨	-18.5041
趬	-18.5041
趭	-18.5041
趮	-18.5041
趯	-18.5041
趰	-18.5041
趱	-18.5041
趲	-18.5041
跑	-18.5041
距	-18.5041
躰	-18.5041
輩	-18.5041
轩	-18.5041
轻	-18.5041
辣	-18.5041
辺	-18.5041
辻	-18.5041
达	-18.5041
运	-18.5041
这	-18.5041
迪	-18.5041
迹	-18.5041
追	-18.5041
逃	-18.5041
选	-18.5041
透	-18.5041
途	-18.5041
逝	-18.5041
逢	-18.5041
逯	-18.5041
遇	-18.5041
遜	-18.5041
遷	-18.5041
避	-18.5041
邁	-18.5041
邑	-18.5041
邡	-18.5041
郊	-18.5041
郭	-18.5041
鄂	-18.5041
鄉	-18.5041
酎	-18.5041
醤	-18.5041
醫	-18.5041
醬	-18.5041
采	-18.5041
釗	-18.5041
釜	-18.5041
鈐	-18.5041
鈞	-18.5041
鉤	-18.5041
鉾	-18.5041
鋒	-18.5041
鍵	-18.5041
鎂	-18.5041
鏡	-18.5041
铳	-18.5041
锁	-18.5041
错	-18.5041
锻	-18.5041
镁	-18.5041
閃	-18.5041
閉	-18.5041
閪	-18.5041
闪	-18.5041
闯	-18.5041
防	-18.5041
陆	-18.5041
降	-18.5041
陛	-18.5041
陣	-18.5041
险	-18.5041
陪	-18.5041
随	-18.5041
際	-18.5041
隼	-18.5041
难	-18.5041
雀	-18.5041
雁	-18.5041
雍	-18.5041
雙	-18.5041
雞	-18.5041
需	-18.5041
靈	-18.5041
靉	-18.5041
靜	-18.5041
韩	-18.5041
頁	-18.5041
頂	-18.5041
預	-18.5041
頤	-18.5041
顆	-18.5041
題	-18.5041
顏	-18.5041
顔	-18.5041
预	-18.5041
颐	-18.5041
频	-18.5041
颗	-18.5041
题	-18.5041
颜	-18.5041
颯	-18.5041
飥	-18.5041
飲	-18.5041
餃	-18.5041
餺	-18.5041
饰	-18.5041
饶	-18.5041
馆	-18.5041
駅	-18.5041
駆	-18.5041
駒	-18.5041
駿	-18.5041
験	-18.5041
驤	-18.5041
骁	-18.5041
髀	-18.5041
髡	-18.5041
髪	-18.5041
髻	-18.5041
鬘	-18.5041
魁	-18.5041
魅	-18.5041
魯	-18.5041
鮎	-18.5041
鯛	-18.5041
鱼	-18.5041
鳌	-18.5041
鴨	-18.5041
鴻	-18.5041
鵰	-18.5041
鶻	-18.5041
鷹	-18.5041
鸟	-18.5041
鸢	-18.5041
鸿	-18.5041
鹤	-18.5041
鹽	-18.5041
鹿	-18.5041
麵	-18.5041
黔	-18.5041
默	-18.5041
點	-18.5041
黥	-18.5041
黨	-18.5041
鼓	-18.5041
鼠	-18.5041
鼻	-18.5041
齋	-18.5041
齡	-18.5041
Ɪ	-18.5041
ꢜ	-18.5041
ꢰ	-18.5041
ꢱ	-18.5041
ꣃ	-18.5041
ꦣ	-18.5041
ꦧ	-18.5041
ꦭ	-18.5041
ꦶ	-18.5041
ꪘ	-18.5041
ꪙ	-18.5041
ꪚ	-18.5041
ꪛ	-18.5041
ꪜ	-18.5041
ꪝ	-18.5041
ꪞ	-18.5041
ꪟ	-18.5041
ꪠ	-18.5041
ꪡ	-18.5041
ꪢ	-18.5041
ꪣ	-18.5041
ꪤ	-18.5041
ꪥ	-18.5041
ꪦ	-18.5041
ꪧ	-18.5041
ꪨ	-18.5041
ꪩ	-18.5041
ꪪ	-18.5041
ꪫ	-18.5041
ꪬ	-18.5041
ꪭ	-18.5041
ꪮ	-18.5041
ꪯ	-18.5041
ꪸ	-18.5041
ꪹ	-18.5041
ꪺ	-18.5041
ꪻ	-18.5041
ꪼ	-18.5041
ꪽ	-18.5041
ꪾ	-18.5041
갈	-18.5041
걷	-18.5041
겨	-18.5041
격	-18.5041
견	-18.5041
궁	-18.5041
귈	-18.5041
길	-18.5041
깐	-18.5041
깡	-18.5041
깰	-18.5041
꼬	-18.5041
꼭	-18.5041
꽈	-18.5041
꾸	-18.5041
꾼	-18.5041
꿈	-18.5041
끝	-18.5041
난	-18.5041
낼	-18.5041
냥	-18.5041
넌	-18.5041
널	-18.5041
넙	-18.5041
넷	-18.5041
년	-18.5041
녑	-18.5041
녹	-18.5041
놀	-18.5041
놨	-18.5041
늄	-18.5041
닭	-18.5041
담	-18.5041
독	-18.5041
되	-18.5041
둔	-18.5041
득	-18.5041
든	-18.5041
딩	-18.5041
딴	-18.5041
딸	-18.5041
땀	-18.5041
땡	-18.5041
떠	-18.5041
띠	-18.5041
램	-18.5041
랩	-18.5041
량	-18.5041
렇	-18.5041
력	-18.5041
련	-18.5041
료	-18.5041
름	-18.5041
린	-18.5041
맛	-18.5041
매	-18.5041
멋	-18.5041
멸	-18.5041
몽	-18.5041
뭐	-18.5041
뭔	-18.5041
뮈	-18.5041
및	-18.5041
발	-18.5041
밥	-18.5041
밴	-18.5041
뱅	-18.5041
별	-18.5041
본	-18.5041
봄	-18.5041
붐	-18.5041
붕	-18.5041
뷰	-18.5041
빅	-18.5041
빔	-18.5041
뿐	-18.5041
섭	-18.5041
섯	-18.5041
션	-18.5041
숙	-18.5041
쉬	-18.5041
슨	-18.5041
심	-18.5041
싶	-18.5041
썸	-18.5041
었	-18.5041
엽	-18.5041
옹	-18.5041
완	-18.5041
외	-18.5041
욱	-18.5041
웅	-18.5041
윙	-18.5041
읍	-18.5041
잇	-18.5041
잡	-18.5041
쟁	-18.5041
절	-18.5041
족	-18.5041
죠	-18.5041
줘	-18.5041
짱	-18.5041
찬	-18.5041
책	-18.5041
챔	-18.5041
총	-18.5041
출	-18.5041
커	-18.5041
컨	-18.5041
택	-18.5041
텐	-18.5041
특	-18.5041
틴	-18.5041
팩	-18.5041
팬	-18.5041
할	-18.5041
험	-18.5041
협	-18.5041
혼	-18.5041
홀	-18.5041
홉	-18.5041
휘	-18.5041
휠	-18.5041
𐎢	-18.5041
𐎱	-18.5041
𐎴	-18.5041
𐎺	-18.5041
𐏁	-18.5041
𐏂	-18.5041
𐰀	-18.5041
𐰢	-18.5041
𒀜	-18.5041
𒄀	-18.5041
𒄊	-18.5041
𒄩	-18.5041
𒆤	-18.5041
𒆷	-18.5041
𒇺	-18.5041
𒈗	-18.5041
𒈠	-18.5041
𒈨	-18.5041
𒉡	-18.5041
𒊩	-18.5041
𒊭	-18.5041
𒋀	-18.5041
𒌅	-18.5041
𒌓	-18.5041
𒌵	-18.5041
💓	-18.5041
💔	-18.5041
💖	-18.5041
💗	-18.5041
💘	-18.5041
ặ	-18.5041
ਪ	-18.5041
ဖ	-18.5041
ቀ	-18.5041
ㄔ	-18.5041
ㄙ	-18.5041
净	-18.5041
奔	-18.5041
孙	-18.5041
寛	-18.5041
徽	-18.5041
擂	-18.5041
晒	-18.5041
残	-18.5041
決	-18.5041
沃	-18.5041
漉	-18.5041
潰	-18.5041
竺	-18.5041
般	-18.5041
苏	-18.5041
赖	-18.5041
難	-18.5041
駄	-18.5041
빌	-18.5041
ʁ	-18.5041
Ρ	-18.5041
Ӏ	-18.5041
֖	-18.5041
ৌ	-18.5041
ਅ	-18.5041
ਦ	-18.5041
ਲ	-18.5041
ਵ	-18.5041
ਿ	-18.5041
ฉ	-18.5041
ታ	-18.5041
ጉ	-18.5041
ጎ	-18.5041
ἅ	-18.5041
ἥ	-18.5041
⸸	-18.5041
乗	-18.5041
今	-18.5041
仓	-18.5041
余	-18.5041
俏	-18.5041
停	-18.5041
儂	-18.5041
劳	-18.5041
吨	-18.5041
啦	-18.5041
專	-18.5041
惠	-18.5041
抓	-18.5041
揆	-18.5041
撕	-18.5041
敵	-18.5041
斐	-18.5041
暮	-18.5041
材	-18.5041
案	-18.5041
橫	-18.5041
欲	-18.5041
泪	-18.5041
熟	-18.5041
玖	-18.5041
疑	-18.5041
着	-18.5041
碌	-18.5041
稱	-18.5041
纾	-18.5041
胎	-18.5041
脫	-18.5041
萃	-18.5041
薈	-18.5041
薬	-18.5041
衢	-18.5041
表	-18.5041
討	-18.5041
許	-18.5041
說	-18.5041
让	-18.5041
貼	-18.5041
赲	-18.5041
输	-18.5041
颉	-18.5041
꺼	-18.5041
늑	-18.5041
또	-18.5041
셔	-18.5041
얼	-18.5041
엑	-18.5041
웨	-18.5041
홈	-18.5041
𐎹	-18.5041
𒇉	-18.5041
𒌨	-18.5041
ލ	-18.5041
ქ	-18.5041
ገ	-18.5041
ἠ	-18.5041
冊	-18.5041
办	-18.5041
奪	-18.5041
害	-18.5041
往	-18.5041
災	-18.5041
膀	-18.5041
赹	-18.5041
던	-18.5041
랐	-18.5041
럽	-18.5041
빼	-18.5041
뽕	-18.5041
샾	-18.5041
엄	-18.5041
잭	-18.5041
𐎧	-18.5041
𒄡	-18.5041
މ	-18.5041
ắ	-18.5042
茅	-18.5042
