<unk>	0
<s>	0
</s>	0
.	-3.1234
s	-3.24359
,	-3.289
▁the	-3.52326
▁to	-4.00294
'	-4.06807
▁a	-4.11392
▁of	-4.15326
▁and	-4.23971
▁in	-4.41829
▁you	-4.43344
▁I	-4.58837
t	-4.71628
▁is	-4.87976
▁that	-4.94565
▁-	-4.96356
ing	-5.08574
▁it	-5.11596
▁for	-5.23898
▁your	-5.28208
ed	-5.2829
?	-5.33546
d	-5.34737
▁n	-5.43505
▁with	-5.4406
▁on	-5.47022
▁be	-5.51296
re	-5.5272
▁was	-5.52732
▁	-5.5747
▁are	-5.66777
m	-5.69309
▁have	-5.69614
▁or	-5.70046
▁as	-5.73031
▁The	-5.75606
▁do	-5.77109
▁this	-5.81502
▁can	-5.82086
▁not	-5.88063
▁You	-5.88298
▁(	-5.89243
▁we	-5.91056
y	-5.92407
▁"	-6.00179
▁me	-6.00522
ly	-6.01609
▁from	-6.03385
▁by	-6.03946
er	-6.04033
▁at	-6.05634
)	-6.07381
▁an	-6.0826
n	-6.14117
e	-6.14781
ll	-6.19392
al	-6.23575
▁It	-6.2387
▁will	-6.25543
▁he	-6.25719
r	-6.27443
▁about	-6.33371
▁they	-6.33877
▁A	-6.36722
▁out	-6.37069
▁my	-6.37453
▁And	-6.37531
▁one	-6.38023
▁what	-6.39462
▁all	-6.40589
▁up	-6.41277
▁her	-6.4151
▁like	-6.42981
▁but	-6.43514
a	-6.47545
▁if	-6.47814
▁know	-6.48246
ve	-6.5139
▁so	-6.52373
▁has	-6.55972
o	-6.56348
▁In	-6.56379
▁get	-6.58138
▁just	-6.60587
▁We	-6.61438
!	-6.62763
▁more	-6.62826
▁time	-6.64275
▁she	-6.64289
in	-6.65394
:	-6.67424
▁If	-6.6823
es	-6.7135
g	-6.71538
▁there	-6.73442
"	-6.74125
▁which	-6.7486
▁were	-6.74945
▁them	-6.75255
▁when	-6.75366
▁He	-6.7614
▁his	-6.76836
or	-6.77754
i	-6.7786
▁who	-6.78403
▁their	-6.79196
▁This	-6.80312
▁also	-6.83279
▁had	-6.83504
▁people	-6.83753
▁want	-6.85272
▁So	-6.85447
▁other	-6.85863
▁been	-6.85991
▁S	-6.8615
c	-6.86464
▁him	-6.86796
▁would	-6.86993
le	-6.87334
th	-6.88205
▁may	-6.91493
▁here	-6.91541
p	-6.92539
ation	-6.9369
▁no	-6.9418
▁into	-6.9585
▁go	-6.96479
...	-6.97155
▁did	-6.97593
▁make	-6.9802
▁some	-6.9821
▁But	-6.98931
▁see	-6.99891
▁think	-7.00754
▁over	-7.02264
▁s	-7.02554
l	-7.02765
▁right	-7.02968
▁re	-7.04004
▁need	-7.04503
▁She	-7.04822
▁could	-7.074
S	-7.07566
▁first	-7.07918
▁back	-7.07991
▁de	-7.0847
▁than	-7.09271
k	-7.09513
▁Do	-7.10128
b	-7.10421
ar	-7.10455
ic	-7.11134
▁how	-7.11486
▁our	-7.14495
en	-7.14996
-	-7.15635
▁way	-7.16882
▁take	-7.17464
ion	-7.18031
▁help	-7.19265
an	-7.19831
▁now	-7.2032
▁us	-7.20732
▁should	-7.20748
▁two	-7.22161
on	-7.22591
▁these	-7.22622
▁only	-7.24163
▁got	-7.25126
u	-7.25743
▁They	-7.27374
▁where	-7.27549
ra	-7.29258
▁then	-7.29335
▁work	-7.30168
▁because	-7.30591
▁use	-7.30682
▁going	-7.31036
▁--	-7.32174
▁good	-7.32545
▁ca	-7.33658
▁any	-7.33948
it	-7.33993
▁E	-7.34497
▁down	-7.34966
▁That	-7.35072
ro	-7.36893
▁What	-7.37144
▁new	-7.38183
ur	-7.38414
el	-7.39937
▁after	-7.4046
;	-7.40699
ch	-7.41995
▁very	-7.42619
ri	-7.43092
▁even	-7.43552
▁C	-7.44169
▁something	-7.44316
C	-7.44414
▁most	-7.44794
A	-7.44856
ce	-7.45184
▁day	-7.46311
▁such	-7.46437
▁F	-7.46657
▁before	-7.48441
h	-7.49755
ment	-7.49788
us	-7.49829
ate	-7.50113
la	-7.50865
▁No	-7.51034
▁19	-7.52599
▁years	-7.52721
▁come	-7.52999
ers	-7.5338
▁man	-7.54129
et	-7.54425
▁life	-7.54595
▁off	-7.54813
▁said	-7.54816
ta	-7.55013
I	-7.55312
te	-7.55887
▁say	-7.56241
▁does	-7.56402
▁–	-7.56488
▁much	-7.57032
li	-7.57107
z	-7.57244
▁water	-7.57428
▁used	-7.57717
ive	-7.5801
se	-7.58307
▁well	-7.58511
▁un	-7.58833
ma	-7.59358
▁find	-7.6019
▁really	-7.60589
na	-7.60627
P	-7.60646
able	-7.60694
▁There	-7.60949
▁B	-7.6116
▁through	-7.61738
▁many	-7.61911
▁too	-7.63396
ent	-7.63712
),	-7.64142
▁being	-7.64176
il	-7.64228
▁around	-7.6466
▁For	-7.65313
▁g	-7.65335
▁world	-7.65408
▁feel	-7.65529
▁look	-7.66026
ne	-7.6678
▁tell	-7.66865
lo	-7.66893
▁its	-7.67546
ity	-7.68607
▁b	-7.6861
D	-7.68881
mi	-7.68922
ine	-7.69037
▁things	-7.71487
w	-7.72293
▁D	-7.72956
▁those	-7.73006
▁little	-7.73042
▁Well	-7.73185
ul	-7.74125
▁To	-7.74367
▁P	-7.74845
ck	-7.74914
▁part	-7.75132
f	-7.75688
▁give	-7.7638
▁1	-7.76589
▁might	-7.76921
ol	-7.76997
▁G	-7.77033
▁3	-7.77089
▁never	-7.77214
M	-7.77321
ir	-7.77856
▁2	-7.78039
▁Re	-7.78049
▁own	-7.78424
▁long	-7.78653
."	-7.78759
▁still	-7.7897
▁made	-7.79207
▁gonna	-7.79283
▁under	-7.79572
▁yourself	-7.80032
▁let	-7.80541
▁name	-7.80788
ry	-7.8132
T	-7.81462
ter	-7.81901
▁co	-7.81948
▁When	-7.82236
▁same	-7.82602
▁place	-7.83012
▁U	-7.83631
▁M	-7.84473
▁home	-7.84495
▁O	-7.84529
▁sure	-7.84663
est	-7.84669
to	-7.8487
ist	-7.8523
▁e	-7.8595
▁thing	-7.86007
▁end	-7.86441
ge	-7.87268
ia	-7.88041
x	-7.88501
▁while	-7.88545
▁person	-7.88561
▁between	-7.89314
▁year	-7.89432
▁Now	-7.8952
ci	-7.89822
E	-7.90589
ian	-7.90597
de	-7.90763
▁K	-7.90894
▁different	-7.91022
▁keep	-7.91882
▁three	-7.92085
▁Be	-7.92416
).	-7.9246
un	-7.93533
▁last	-7.94095
co	-7.94755
▁N	-7.94858
▁/	-7.95665
ty	-7.96086
▁T	-7.96451
▁Ma	-7.98123
▁better	-7.98625
▁con	-7.98716
▁every	-7.98837
▁love	-7.98925
tic	-7.99752
▁each	-8.00046
ated	-8.00062
▁found	-8.00361
man	-8.01268
am	-8.0148
▁away	-8.01822
at	-8.01893
no	-8.02362
ary	-8.02712
▁c	-8.03028
O	-8.03275
▁both	-8.03749
as	-8.03872
▁put	-8.04044
me	-8.04756
▁car	-8.05098
um	-8.05171
▁best	-8.05588
N	-8.05608
▁body	-8.05954
ca	-8.06021
ie	-8.0615
▁another	-8.06316
▁why	-8.06457
▁talk	-8.06474
▁called	-8.06487
▁few	-8.071
▁lot	-8.07284
age	-8.07427
▁example	-8.07497
▁must	-8.07571
▁mean	-8.07797
▁system	-8.08255
id	-8.08347
▁10	-8.09509
ting	-8.09605
B	-8.09704
▁call	-8.10042
▁p	-8.1078
▁How	-8.10897
R	-8.11266
▁important	-8.11319
▁China	-8.11819
▁number	-8.11982
▁during	-8.12086
▁De	-8.12125
▁thought	-8.12202
ous	-8.12246
ru	-8.12434
▁As	-8.12461
▁4	-8.13019
mo	-8.13029
L	-8.13176
▁head	-8.13381
4	-8.13492
ng	-8.13613
▁start	-8.13617
▁again	-8.14138
▁kind	-8.14284
F	-8.14349
▁high	-8.14483
▁try	-8.14614
ha	-8.16265
▁great	-8.16373
▁human	-8.16441
sh	-8.16602
▁old	-8.16653
▁18	-8.16677
▁wo	-8.16967
▁side	-8.17235
▁until	-8.17241
▁doing	-8.1796
▁pro	-8.18041
▁left	-8.18963
ness	-8.19209
▁My	-8.19256
▁All	-8.19259
ni	-8.1958
▁known	-8.19592
▁hand	-8.19823
ies	-8.19874
▁5	-8.20168
is	-8.20253
▁R	-8.20546
▁family	-8.20608
▁United	-8.21204
vi	-8.21216
▁light	-8.21661
▁La	-8.21813
ke	-8.21954
be	-8.22073
▁often	-8.2218
▁actually	-8.2219
1	-8.22547
▁always	-8.23012
2	-8.23526
▁show	-8.23807
▁am	-8.24481
▁without	-8.24629
▁Your	-8.24639
▁using	-8.2488
nd	-8.24944
ti	-8.25034
▁Ha	-8.25208
▁Oh	-8.25768
▁anything	-8.26101
▁power	-8.2647
▁An	-8.26476
▁change	-8.26546
go	-8.27214
▁W	-8.27779
pe	-8.27849
▁Ro	-8.27879
ted	-8.28442
ling	-8.28449
H	-8.2846
▁school	-8.28768
ial	-8.28866
ka	-8.28947
▁someone	-8.29438
▁Ca	-8.29484
▁night	-8.29528
im	-8.29696
▁Why	-8.30206
ant	-8.30345
▁Mr	-8.30434
▁hard	-8.30477
3	-8.3078
▁friend	-8.30898
▁together	-8.3118
▁become	-8.3158
▁ever	-8.32108
▁small	-8.32272
▁hair	-8.32997
▁government	-8.3312
▁enough	-8.33454
▁dis	-8.33587
▁On	-8.33664
ut	-8.33698
ang	-8.33753
▁getting	-8.33796
▁order	-8.34027
▁since	-8.34127
▁American	-8.34545
▁ex	-8.34768
▁face	-8.35107
▁real	-8.35291
▁Let	-8.35308
one	-8.35368
tra	-8.35446
▁open	-8.35575
▁next	-8.35981
▁H	-8.36072
▁Just	-8.3621
▁against	-8.363
▁set	-8.36306
▁st	-8.36422
▁support	-8.36604
va	-8.36679
ide	-8.37012
▁country	-8.37037
▁Le	-8.37051
▁These	-8.37176
ism	-8.37477
ance	-8.37485
▁include	-8.37544
▁Yeah	-8.37727
▁less	-8.37794
▁area	-8.38044
▁play	-8.3805
▁war	-8.38278
▁per	-8.38578
▁later	-8.38638
▁d	-8.38713
▁money	-8.38864
▁second	-8.38885
▁skin	-8.39468
▁control	-8.39707
▁process	-8.3973
5	-8.39872
ish	-8.39934
▁able	-8.39972
ga	-8.40026
▁point	-8.40153
▁ma	-8.40292
▁States	-8.40419
▁pre	-8.40442
▁women	-8.40523
G	-8.40782
mp	-8.40908
▁blood	-8.41092
ad	-8.41301
▁L	-8.41339
op	-8.41422
▁Bo	-8.41447
▁ask	-8.41685
▁told	-8.41844
▁turn	-8.41982
▁food	-8.42082
▁Ba	-8.42326
▁stop	-8.42383
do	-8.42424
ating	-8.42439
▁stay	-8.42459
▁Mo	-8.42467
▁20	-8.42472
▁doctor	-8.42666
mon	-8.42893
▁making	-8.43094
▁run	-8.4331
▁came	-8.43422
▁believe	-8.43724
▁leave	-8.44018
om	-8.44541
up	-8.44639
▁done	-8.44786
▁At	-8.44877
%	-8.44886
▁Ra	-8.455
▁room	-8.45553
▁6	-8.45644
ho	-8.45703
▁Look	-8.45726
bo	-8.45837
ow	-8.46136
▁house	-8.46247
▁father	-8.46408
▁including	-8.46507
ard	-8.46552
nt	-8.46752
▁Mar	-8.46775
▁care	-8.47249
▁within	-8.47315
▁free	-8.47383
▁Me	-8.47433
▁trying	-8.47564
po	-8.47565
▁New	-8.47647
ure	-8.47829
▁mo	-8.47904
▁bad	-8.47932
6	-8.48058
▁Co	-8.48075
▁cause	-8.48139
▁Go	-8.48148
ba	-8.48464
▁mind	-8.48507
di	-8.48529
▁live	-8.48595
▁One	-8.48689
son	-8.48847
▁minutes	-8.49098
▁million	-8.49129
min	-8.49275
the	-8.49355
▁days	-8.49444
▁St	-8.49654
▁children	-8.49764
▁form	-8.50202
pa	-8.50249
ip	-8.50631
▁'	-8.50946
▁job	-8.51055
▁idea	-8.51306
▁public	-8.51446
▁four	-8.51779
▁After	-8.52258
▁guy	-8.52288
▁f	-8.52353
▁Al	-8.52949
▁looking	-8.53392
▁men	-8.53527
▁move	-8.53564
▁Li	-8.53721
▁having	-8.53823
ran	-8.53847
▁Ho	-8.5431
bi	-8.54443
▁m	-8.54661
ized	-8.55275
▁Some	-8.55616
▁group	-8.55927
▁problem	-8.56034
che	-8.56211
▁big	-8.56355
▁close	-8.56719
▁treatment	-8.56798
ence	-8.56807
▁everything	-8.57013
▁Pa	-8.57169
da	-8.57327
ton	-8.57392
ag	-8.57767
he	-8.57821
▁large	-8.57907
em	-8.57943
ster	-8.58175
▁based	-8.58187
▁today	-8.58267
ki	-8.58382
wa	-8.58501
▁case	-8.58838
▁reason	-8.5891
▁nothing	-8.58918
▁15	-8.58993
▁kill	-8.59013
▁took	-8.59043
ot	-8.59178
▁else	-8.59256
▁social	-8.59347
▁five	-8.59566
▁Ka	-8.59662
▁wanted	-8.59687
▁top	-8.5985
ach	-8.60108
tion	-8.60282
▁once	-8.60505
▁Sa	-8.60567
0	-8.61116
▁means	-8.6125
▁went	-8.61296
ny	-8.61327
▁working	-8.61426
tor	-8.61443
lic	-8.61635
und	-8.62018
▁seen	-8.62152
▁possible	-8.62184
ally	-8.62241
▁7	-8.62543
▁game	-8.62665
▁several	-8.62725
▁line	-8.62837
▁film	-8.62997
▁fact	-8.63178
▁Then	-8.63207
▁v	-8.63572
▁death	-8.63675
▁became	-8.63725
▁present	-8.63819
▁whole	-8.63831
▁heart	-8.63937
▁already	-8.64
▁state	-8.64058
▁understand	-8.6421
▁oil	-8.64226
▁least	-8.64465
▁However	-8.6447
▁air	-8.64546
▁short	-8.64553
▁coming	-8.64558
▁class	-8.64646
▁friends	-8.6496
▁team	-8.64976
▁South	-8.65012
ner	-8.6518
▁clean	-8.65198
less	-8.65553
▁business	-8.65626
ven	-8.65757
▁Because	-8.65947
▁law	-8.66158
▁V	-8.66263
ver	-8.66308
▁bit	-8.6648
▁local	-8.66508
les	-8.66536
▁mother	-8.67072
▁risk	-8.67074
▁Her	-8.67355
▁Or	-8.6754
▁Lo	-8.67628
▁la	-8.67629
▁language	-8.68019
▁cat	-8.68092
▁far	-8.68249
▁di	-8.68504
▁Vi	-8.68569
▁company	-8.68689
▁course	-8.68785
▁Na	-8.68898
▁common	-8.68945
▁city	-8.69164
▁near	-8.69165
ical	-8.69247
▁Con	-8.69248
▁others	-8.69377
▁comp	-8.69406
▁Mi	-8.69442
▁information	-8.69557
V	-8.69586
▁times	-8.69603
▁art	-8.69733
▁Se	-8.6977
U	-8.69955
▁sub	-8.7033
▁bring	-8.70443
j	-8.70567
land	-8.70662
com	-8.70683
▁8	-8.70766
▁girl	-8.70777
▁taking	-8.7093
▁market	-8.70948
ric	-8.71086
▁12	-8.71396
▁Can	-8.7141
é	-8.7171
▁result	-8.71905
Laughter	-8.71909
gen	-8.72001
ig	-8.72063
line	-8.72085
▁li	-8.72311
ler	-8.72499
gu	-8.73054
▁rest	-8.73107
▁woman	-8.73165
▁relationship	-8.7321
▁experience	-8.73232
▁Vietnam	-8.73415
os	-8.73448
▁Pro	-8.73563
▁health	-8.73652
▁started	-8.73749
▁hold	-8.74312
tro	-8.7439
▁pain	-8.74494
,"	-8.74684
ze	-8.74706
▁University	-8.74928
▁list	-8.74949
▁test	-8.74986
▁phone	-8.74989
▁talking	-8.75025
▁week	-8.75063
▁remember	-8.75236
▁hours	-8.75712
▁countries	-8.75753
▁brain	-8.75894
▁Po	-8.76099
cu	-8.76406
cy	-8.76547
▁Are	-8.76731
▁en	-8.7677
▁God	-8.76779
▁Not	-8.76856
▁child	-8.77098
▁half	-8.77107
▁cut	-8.77174
▁computer	-8.77517
ice	-8.7766
▁ago	-8.77805
W	-8.77889
dy	-8.78175
▁building	-8.78243
▁lead	-8.7831
▁hear	-8.78358
▁Su	-8.78387
hi	-8.78453
▁dead	-8.78483
▁Poland	-8.78591
wi	-8.78656
▁early	-8.78659
vo	-8.78709
▁space	-8.78814
▁saw	-8.79158
lu	-8.79238
▁al	-8.7928
▁dog	-8.79331
▁son	-8.79367
ud	-8.79514
ative	-8.7961
▁Try	-8.79817
▁matter	-8.80077
▁brother	-8.80174
▁disease	-8.80605
per	-8.80674
▁prevent	-8.80714
▁low	-8.80849
ac	-8.80915
▁Did	-8.8137
▁north	-8.81393
▁break	-8.81427
▁though	-8.81563
▁create	-8.81655
00	-8.81733
▁Hey	-8.81779
▁term	-8.81892
▁study	-8.82021
▁check	-8.82131
ction	-8.82173
way	-8.82239
▁May	-8.82536
▁Make	-8.82579
▁30	-8.82784
▁Ta	-8.8284
▁t	-8.82934
▁special	-8.83014
▁act	-8.8304
▁Get	-8.83217
▁single	-8.83242
ring	-8.83265
lin	-8.83481
ko	-8.8355
▁along	-8.83615
der	-8.83661
bu	-8.83744
▁pay	-8.83766
▁design	-8.83847
▁past	-8.8394
ions	-8.84025
▁guys	-8.84085
▁safe	-8.84111
▁level	-8.84179
ize	-8.84193
▁following	-8.84258
▁story	-8.84366
▁due	-8.84373
king	-8.8478
▁self	-8.84815
ful	-8.84872
▁Use	-8.84891
▁Te	-8.85008
▁J	-8.85017
▁okay	-8.85028
▁period	-8.85142
▁likely	-8.85175
▁step	-8.85176
▁treat	-8.85265
▁eye	-8.85337
▁young	-8.8558
▁World	-8.85595
▁i	-8.85678
▁program	-8.85706
con	-8.85743
▁age	-8.85793
▁book	-8.85939
▁increase	-8.86262
▁plan	-8.86274
▁type	-8.86296
▁question	-8.86303
io	-8.86444
▁app	-8.86549
▁partner	-8.86566
ite	-8.86732
que	-8.86975
▁Car	-8.87063
v	-8.87268
▁War	-8.87282
▁Chinese	-8.87335
▁hope	-8.87464
▁color	-8.87548
▁either	-8.87573
K	-8.87673
▁late	-8.87789
end	-8.87923
▁usually	-8.87942
▁With	-8.88097
▁bar	-8.88166
▁inside	-8.88166
ak	-8.88192
▁wrong	-8.88245
▁eat	-8.88411
rs	-8.8844
▁energy	-8.88479
▁k	-8.88479
ger	-8.88544
▁born	-8.88571
▁post	-8.88708
▁protect	-8.88733
▁full	-8.8874
cent	-8.88957
qui	-8.88974
▁land	-8.8904
▁months	-8.89219
▁six	-8.8922
tin	-8.89315
▁16	-8.89406
ten	-8.89451
▁situation	-8.89552
▁allow	-8.89553
▁h	-8.89865
▁Dr	-8.89969
▁non	-8.89973
▁fight	-8.90005
▁position	-8.90085
▁chance	-8.90139
mer	-8.90182
▁read	-8.9047
▁political	-8.90488
▁avoid	-8.90489
▁thinking	-8.90529
▁instead	-8.90728
▁Ri	-8.90759
▁pa	-8.90899
▁future	-8.9097
▁9	-8.91338
▁ra	-8.91462
▁17	-8.91508
▁amount	-8.91569
▁difficult	-8.91569
▁moment	-8.91676
▁provide	-8.91698
▁music	-8.9199
za	-8.92123
▁sleep	-8.92165
▁o	-8.92282
▁soon	-8.92641
▁especially	-8.92661
▁party	-8.92667
▁Maybe	-8.92691
▁account	-8.93273
▁die	-8.93509
fa	-8.93585
▁Fi	-8.93636
▁Yes	-8.93775
ff	-8.93914
▁outside	-8.93929
▁anti	-8.9407
ab	-8.94093
▁Z	-8.94259
▁season	-8.94276
▁killed	-8.9436
▁bo	-8.94366
▁century	-8.94508
▁probably	-8.94508
ect	-8.94607
▁village	-8.94757
ities	-8.94786
▁happened	-8.94837
▁project	-8.94882
ator	-8.94894
lf	-8.95063
▁role	-8.95238
▁white	-8.95264
▁file	-8.9533
▁Take	-8.9534
▁star	-8.9534
▁eyes	-8.95597
▁hands	-8.95599
▁cr	-8.95626
▁consider	-8.95756
▁force	-8.95898
ap	-8.9595
▁Jo	-8.95973
▁video	-8.9603
▁meet	-8.96031
▁Come	-8.96113
▁Who	-8.96183
▁maybe	-8.96346
▁answer	-8.96395
▁model	-8.96419
fe	-8.96479
ship	-8.96565
▁Ar	-8.96607
▁fall	-8.96629
▁yet	-8.96679
▁saying	-8.96733
▁sp	-8.96741
▁history	-8.96773
▁rather	-8.96775
rate	-8.96791
▁Di	-8.97112
▁attack	-8.97283
▁Fa	-8.97349
".	-8.97438
ium	-8.97715
ast	-8.97781
ph	-8.97864
▁dry	-8.97873
▁US	-8.98099
ron	-8.98213
▁Lu	-8.98251
▁research	-8.98309
▁X	-8.98402
out	-8.98447
▁mi	-8.98562
fi	-8.98766
▁Wa	-8.98984
od	-8.99022
▁population	-8.99089
▁clear	-8.99102
▁drug	-8.99117
▁po	-8.99185
▁percent	-8.99341
▁please	-8.9938
oc	-8.9945
au	-8.99739
▁similar	-8.99739
▁buy	-8.99741
▁deal	-8.99788
▁Ja	-8.99812
▁strong	-9.00027
▁fl	-9.00202
tri	-9.00271
▁learn	-9.00328
▁wait	-9.00344
▁released	-9.0041
▁whether	-9.00528
▁vi	-9.00656
,000	-9.00775
▁red	-9.00794
▁Pi	-9.00809
▁National	-9.00926
▁figure	-9.01058
▁given	-9.01125
▁Man	-9.01135
▁word	-9.01194
▁Ne	-9.01213
ai	-9.01292
▁longer	-9.01334
we	-9.01654
av	-9.02045
▁series	-9.02133
▁data	-9.02162
▁feeling	-9.02179
▁plant	-9.02424
▁focus	-9.02561
▁Mu	-9.02653
▁fire	-9.02679
ina	-9.02685
▁hit	-9.02881
ise	-9.03026
▁(19	-9.03306
red	-9.03429
▁knew	-9.03475
▁0	-9.03494
▁makes	-9.03504
▁development	-9.03521
▁lost	-9.03632
▁Pe	-9.03677
▁problems	-9.0372
▁personal	-9.03721
ning	-9.03739
▁store	-9.03797
▁key	-9.03892
▁front	-9.03919
ex	-9.03953
▁morning	-9.04158
yl	-9.04168
▁song	-9.04214
▁taken	-9.04284
▁Gu	-9.04568
▁ho	-9.04739
▁ten	-9.04746
▁Si	-9.04811
▁11	-9.04836
▁alone	-9.04883
▁anyone	-9.04977
▁boy	-9.0513
▁paper	-9.05139
and	-9.05262
▁walk	-9.05284
ign	-9.05495
▁happen	-9.05534
▁available	-9.05814
▁sense	-9.05955
▁symptoms	-9.05989
▁deep	-9.06003
act	-9.06049
▁across	-9.06234
▁main	-9.06241
my	-9.06402
▁text	-9.06513
▁town	-9.06677
▁product	-9.06839
▁hot	-9.06944
▁region	-9.06962
▁certain	-9.0697
bb	-9.07021
▁offer	-9.07164
du	-9.0717
▁Wi	-9.07226
qu	-9.07305
born	-9.07446
▁effects	-9.07658
▁view	-9.07726
▁began	-9.0774
▁official	-9.07782
▁sometimes	-9.07784
▁size	-9.07879
▁positive	-9.07924
rd	-9.0799
ft	-9.08019
▁black	-9.08066
▁physical	-9.08066
▁w	-9.0811
▁sorry	-9.08124
▁report	-9.08345
side	-9.08366
▁return	-9.08416
ase	-9.08462
▁ready	-9.08522
▁Da	-9.08579
▁Where	-9.08637
▁member	-9.08752
▁March	-9.08754
▁natural	-9.08852
▁drive	-9.08877
▁door	-9.08883
ja	-9.08913
▁acid	-9.08999
▁access	-9.09068
▁national	-9.09121
▁cell	-9.09292
▁box	-9.09399
▁heard	-9.09494
▁14	-9.09495
▁image	-9.09522
▁trust	-9.09789
▁general	-9.0984
▁visit	-9.09937
▁economic	-9.09954
▁Ex	-9.10138
ping	-9.10439
▁Okay	-9.10516
▁almost	-9.10666
▁By	-9.107
▁club	-9.10954
▁Hu	-9.10999
nce	-9.11024
cul	-9.11275
ious	-9.11367
▁wife	-9.11395
▁John	-9.11395
▁ha	-9.11493
▁major	-9.11496
▁contact	-9.11543
ization	-9.11578
ung	-9.11775
▁true	-9.1184
▁follow	-9.11898
▁medical	-9.11999
▁Bar	-9.12023
▁seem	-9.12055
▁pressure	-9.1215
▁among	-9.12169
▁behavior	-9.12282
▁baby	-9.1243
▁daughter	-9.12579
▁fish	-9.12588
▁lower	-9.12669
▁attention	-9.12728
▁died	-9.12765
The	-9.1282
▁pass	-9.12861
▁sound	-9.13023
▁German	-9.13212
▁reduce	-9.133
▁infection	-9.13328
gan	-9.13422
▁drink	-9.13461
ology	-9.13482
iv	-9.13589
gi	-9.13612
▁gave	-9.13737
8	-9.13747
▁watch	-9.13765
▁everyone	-9.14003
▁Ga	-9.14064
▁cover	-9.14106
▁America	-9.14209
▁third	-9.14231
▁living	-9.14247
▁stand	-9.14404
▁Du	-9.14555
▁fat	-9.14602
▁comes	-9.14632
ld	-9.14701
▁send	-9.14743
▁field	-9.14795
hu	-9.14929
▁stress	-9.14992
▁His	-9.15138
▁office	-9.15205
ub	-9.1524
▁rate	-9.15271
▁police	-9.15296
▁bi	-9.15331
▁(20	-9.15334
▁release	-9.15433
▁hurt	-9.15451
rin	-9.15538
ble	-9.15578
▁east	-9.15652
▁hi	-9.15866
ving	-9.15891
▁picture	-9.1591
▁Bu	-9.15926
▁ground	-9.16065
▁se	-9.16134
▁begin	-9.16212
▁drop	-9.1623
▁fear	-9.16292
▁pretty	-9.16374
▁asked	-9.16381
▁behind	-9.16528
▁13	-9.16558
ber	-9.16665
▁burn	-9.16688
▁tend	-9.16857
▁share	-9.16923
chi	-9.17137
▁President	-9.1715
▁l	-9.17281
▁function	-9.1732
▁nice	-9.17321
▁fine	-9.17396
by	-9.17447
▁imp	-9.17591
▁100	-9.17726
▁Ki	-9.1773
▁happy	-9.17775
▁tree	-9.17789
ah	-9.17892
▁date	-9.17974
▁add	-9.17976
▁lives	-9.18147
▁says	-9.1817
▁surface	-9.18247
▁couple	-9.18247
▁While	-9.18404
▁build	-9.1842
▁international	-9.18563
▁km	-9.18884
tu	-9.18956
▁exercise	-9.19038
▁2015	-9.19047
ight	-9.19104
▁El	-9.19135
▁cur	-9.19351
▁military	-9.19356
▁character	-9.19507
ong	-9.19611
▁occur	-9.1966
▁areas	-9.19675
▁Keep	-9.19676
▁potential	-9.19835
▁easy	-9.19836
▁worked	-9.19992
▁sign	-9.20026
▁weeks	-9.20144
▁Once	-9.20179
▁Have	-9.20185
pro	-9.20207
▁effect	-9.20245
▁gone	-9.20368
han	-9.20484
▁2016	-9.20487
▁needs	-9.20619
▁site	-9.20644
▁parents	-9.20682
▁secret	-9.20801
▁products	-9.2098
▁Even	-9.21078
▁Earth	-9.21125
▁sh	-9.21141
▁West	-9.21223
▁speak	-9.21368
val	-9.21389
ick	-9.21537
▁continue	-9.21625
ens	-9.21626
▁June	-9.21656
▁touch	-9.2169
▁popular	-9.21779
ley	-9.21809
▁Qu	-9.21855
▁myself	-9.21939
▁reach	-9.22092
ug	-9.22151
▁works	-9.22152
▁fun	-9.22191
ile	-9.22315
▁cold	-9.22329
▁practice	-9.22431
▁April	-9.22431
▁th	-9.22444
our	-9.2264
▁kids	-9.22644
▁cells	-9.22748
▁develop	-9.22903
▁planet	-9.22906
▁specific	-9.22907
▁version	-9.22931
▁super	-9.22944
▁table	-9.22989
▁effective	-9.23067
▁2014	-9.23099
▁weight	-9.23109
▁named	-9.23246
▁president	-9.23256
▁words	-9.23287
men	-9.23381
▁Here	-9.23392
▁Polish	-9.23505
▁sun	-9.23566
▁Japan	-9.23588
▁stuff	-9.23604
▁cancer	-9.23769
▁kid	-9.2381
▁Hi	-9.23829
▁media	-9.23839
qua	-9.23873
▁trans	-9.23894
▁card	-9.239
▁2017	-9.23932
let	-9.23939
ward	-9.23947
▁grow	-9.24039
▁decision	-9.24088
▁block	-9.24114
led	-9.24583
▁located	-9.24629
▁Most	-9.24674
▁center	-9.24762
▁cool	-9.24775
▁tri	-9.24869
▁arm	-9.24934
row	-9.24972
▁Africa	-9.24978
cl	-9.25086
▁People	-9.25095
▁En	-9.25157
tan	-9.25158
▁fi	-9.25175
lan	-9.25268
▁developed	-9.25276
▁Bi	-9.25286
▁write	-9.25322
▁English	-9.25434
▁prison	-9.25434
▁sir	-9.25453
▁dark	-9.25612
▁gun	-9.2563
▁2012	-9.25786
▁wish	-9.25801
▁ta	-9.25872
▁pick	-9.26017
▁track	-9.26145
▁value	-9.26162
for	-9.26228
▁travel	-9.26289
ee	-9.26403
▁50	-9.26435
pi	-9.26522
den	-9.26531
▁Cha	-9.26565
▁capital	-9.26626
▁screen	-9.26627
▁inter	-9.26647
▁service	-9.26692
▁record	-9.26705
▁North	-9.26758
ible	-9.26775
▁hour	-9.26781
▁August	-9.26798
▁simple	-9.26798
▁dream	-9.26798
▁choice	-9.26808
▁shot	-9.26821
▁quite	-9.26866
▁pull	-9.26889
▁cases	-9.26938
",	-9.27023
ps	-9.27027
ew	-9.27053
▁2011	-9.27327
▁window	-9.27499
▁sta	-9.27519
▁normal	-9.27588
▁won	-9.27737
▁heat	-9.27778
▁listen	-9.27886
▁itself	-9.28007
▁Miss	-9.28112
▁remove	-9.28234
▁further	-9.28253
▁degree	-9.28355
▁accept	-9.28356
▁fe	-9.28399
▁require	-9.28403
til	-9.28427
▁held	-9.2858
form	-9.28661
▁negative	-9.28704
▁Ste	-9.28811
▁January	-9.28879
▁temperature	-9.28879
▁San	-9.28909
▁October	-9.29055
▁district	-9.29055
▁mass	-9.29193
▁met	-9.29221
▁husband	-9.2923
▁professional	-9.29281
▁court	-9.29413
▁higher	-9.2945
▁2018	-9.29591
▁however	-9.29641
▁former	-9.2969
ged	-9.29802
ition	-9.29878
▁July	-9.2999
▁produce	-9.30066
▁em	-9.30105
▁machine	-9.30114
9	-9.3015
▁ship	-9.30178
hy	-9.30232
▁technology	-9.30291
▁sort	-9.30522
rn	-9.30523
▁save	-9.30554
▁unit	-9.30605
▁solution	-9.30648
▁para	-9.30682
met	-9.30688
▁base	-9.30767
▁wall	-9.30803
▁quickly	-9.30955
▁damage	-9.31005
7	-9.31024
▁warm	-9.31097
▁Per	-9.31183
port	-9.31385
cc	-9.31418
▁ti	-9.31506
shi	-9.3152
▁Fe	-9.3158
▁built	-9.31724
▁December	-9.31904
▁ways	-9.32053
▁November	-9.32085
▁device	-9.32086
▁address	-9.32267
▁exactly	-9.32352
▁trade	-9.32423
▁rule	-9.32423
▁lose	-9.32431
▁pot	-9.32444
▁brought	-9.32448
▁sea	-9.32525
▁cost	-9.32577
▁community	-9.3263
▁conversation	-9.3263
▁month	-9.32759
▁approach	-9.32812
▁September	-9.32812
▁sister	-9.32815
▁York	-9.33364
▁Sha	-9.33484
▁French	-9.33728
▁title	-9.33733
▁sent	-9.33766
nder	-9.33836
▁goes	-9.33842
▁production	-9.34043
▁First	-9.34097
▁organization	-9.34102
▁eight	-9.34145
wo	-9.34259
▁See	-9.34275
▁culture	-9.34281
▁select	-9.34338
▁worth	-9.34347
▁Gra	-9.34584
▁themselves	-9.34652
▁25	-9.34745
▁healthy	-9.34763
▁married	-9.34838
ual	-9.3492
▁host	-9.34996
▁diet	-9.35013
▁click	-9.35024
ane	-9.3505
▁movement	-9.3515
▁pi	-9.35191
▁TV	-9.35368
▁u	-9.35423
▁running	-9.35431
▁print	-9.35542
▁Sp	-9.35581
xi	-9.35614
ath	-9.35743
▁sex	-9.35788
▁message	-9.3579
▁changes	-9.35838
rk	-9.35932
▁online	-9.36021
▁condition	-9.36036
▁questions	-9.36121
▁security	-9.36149
▁Ni	-9.36217
▁extra	-9.36343
▁meeting	-9.36517
▁According	-9.36526
▁education	-9.36526
ome	-9.36547
▁cha	-9.36562
bra	-9.36578
ture	-9.36655
▁Ju	-9.3673
▁issue	-9.36785
▁received	-9.3679
▁gas	-9.36966
▁spend	-9.37071
▁mouth	-9.37096
use	-9.37157
ox	-9.37273
cing	-9.37363
▁simply	-9.37477
▁growth	-9.37595
▁notice	-9.37656
▁hell	-9.3775
▁playing	-9.3781
▁south	-9.37841
▁completely	-9.37841
▁Dur	-9.37862
▁choose	-9.37862
▁success	-9.37864
▁+	-9.379
izing	-9.37952
▁loss	-9.37992
▁current	-9.38194
J	-9.38441
ified	-9.38443
▁interest	-9.38506
▁various	-9.3863
ral	-9.38698
▁suggest	-9.38702
▁wash	-9.38751
ple	-9.38769
mic	-9.3877
▁created	-9.38892
▁thank	-9.3896
▁bed	-9.39011
▁considered	-9.39022
▁Like	-9.39093
▁final	-9.39554
▁above	-9.39607
▁2013	-9.3961
▁2010	-9.39618
▁ice	-9.39681
ham	-9.39692
▁Ko	-9.39693
▁Th	-9.39772
▁Pre	-9.39872
her	-9.39906
▁Wo	-9.39939
▁hospital	-9.39991
▁draw	-9.39993
▁related	-9.40092
ants	-9.40152
▁guess	-9.40192
▁page	-9.40202
ier	-9.40202
istic	-9.40346
▁enjoy	-9.40384
ey	-9.40438
▁source	-9.40444
▁sit	-9.40565
uch	-9.4061
▁press	-9.40732
▁total	-9.40763
▁response	-9.40778
▁pe	-9.4083
▁action	-9.40842
▁feet	-9.40852
▁billion	-9.41031
▁improve	-9.41119
▁charge	-9.41152
▁album	-9.41174
▁search	-9.41174
▁su	-9.41221
ging	-9.41231
sis	-9.41305
▁members	-9.41371
▁global	-9.41372
▁science	-9.41372
▁feelings	-9.415
▁entire	-9.41525
ou	-9.41885
▁piece	-9.41947
▁Thank	-9.4197
▁wanna	-9.4197
▁cross	-9.41972
▁count	-9.4201
kin	-9.4204
▁Tell	-9.42321
▁2009	-9.42382
▁difference	-9.42575
▁tried	-9.42576
▁player	-9.42601
▁da	-9.42697
▁mu	-9.4273
▁beautiful	-9.42772
▁ga	-9.42778
▁range	-9.42823
▁patients	-9.42934
▁measure	-9.4312
▁mar	-9.43162
▁challenge	-9.43176
▁activity	-9.43184
▁seven	-9.432
?"	-9.43279
▁levels	-9.4329
ya	-9.43496
like	-9.4368
▁green	-9.43787
dic	-9.43818
▁letter	-9.43828
▁evidence	-9.43988
▁middle	-9.43988
▁rock	-9.44033
▁active	-9.4409
ue	-9.44152
▁network	-9.44192
▁individual	-9.44196
▁artist	-9.44357
▁bank	-9.44394
▁subject	-9.44397
▁spot	-9.44474
▁gotta	-9.44475
▁addition	-9.44572
▁location	-9.44602
▁From	-9.44604
▁photo	-9.44627
▁price	-9.4481
▁2004	-9.44822
▁Good	-9.44842
▁Europe	-9.44928
▁appear	-9.4493
ris	-9.45011
▁fast	-9.4506
▁published	-9.45219
▁worry	-9.45235
▁Ti	-9.45324
car	-9.45337
▁approximately	-9.45425
▁necessary	-9.45425
▁protein	-9.45426
▁street	-9.45426
▁Sea	-9.4554
ek	-9.45625
▁respect	-9.45632
▁Since	-9.45651
▁stage	-9.45657
▁India	-9.45664
yn	-9.45699
▁band	-9.45767
▁needed	-9.45858
▁African	-9.45984
▁explain	-9.46048
ory	-9.46075
▁played	-9.46087
▁Many	-9.46161
▁served	-9.46216
▁claim	-9.46272
▁apply	-9.46287
▁Ph	-9.46322
▁minute	-9.46339
▁contain	-9.46444
▁led	-9.46455
▁Col	-9.46665
▁gain	-9.46857
▁Japanese	-9.4689
▁moving	-9.46913
▁tea	-9.47102
▁species	-9.47304
cal	-9.47349
▁Ru	-9.47352
pp	-9.4739
▁serious	-9.47482
vers	-9.47497
▁chemical	-9.47515
late	-9.47636
▁shoot	-9.47727
ability	-9.47826
▁2008	-9.47952
▁Un	-9.47981
/	-9.47983
▁ball	-9.48069
▁24	-9.48105
▁im	-9.48147
▁attempt	-9.48151
ib	-9.48225
▁Give	-9.4835
▁voice	-9.48364
▁giving	-9.48364
ana	-9.48626
cor	-9.48701
▁bottom	-9.48791
▁style	-9.48795
ctor	-9.48838
▁City	-9.48951
▁threat	-9.49007
▁direct	-9.4917
▁poor	-9.49191
▁trouble	-9.49219
▁environment	-9.49227
▁writing	-9.49434
▁County	-9.49539
ries	-9.4965
▁students	-9.49687
▁truth	-9.49866
▁method	-9.49881
▁standard	-9.49896
press	-9.5002
▁himself	-9.50082
▁foreign	-9.50084
▁issues	-9.50104
▁mark	-9.50106
▁stick	-9.50116
▁code	-9.5015
ku	-9.50338
▁training	-9.50373
▁caused	-9.50536
▁du	-9.50641
▁event	-9.50726
▁directly	-9.50764
▁Je	-9.50863
▁particular	-9.50938
▁structure	-9.5098
▁blue	-9.51172
▁Ad	-9.51276
▁document	-9.51611
▁administrative	-9.51631
ned	-9.51672
▁reaction	-9.51721
▁Ke	-9.5175
wn	-9.518
▁cup	-9.51847
▁push	-9.51849
▁Right	-9.51869
▁changed	-9.51949
▁le	-9.52063
▁finger	-9.52066
zi	-9.52128
▁reported	-9.52174
pose	-9.52251
▁complex	-9.52273
▁ver	-9.52381
▁types	-9.52464
ically	-9.52492
▁tonight	-9.525
▁goal	-9.52602
▁original	-9.52606
▁fit	-9.52633
▁Ch	-9.5267
▁Am	-9.52711
▁February	-9.52717
▁movie	-9.52718
tter	-9.52737
▁upon	-9.53016
▁supposed	-9.53105
gue	-9.53166
X	-9.53231
ov	-9.53306
ski	-9.53364
▁International	-9.53387
▁afraid	-9.53387
▁expect	-9.53549
▁ro	-9.53612
▁=	-9.53615
▁2019	-9.53627
▁activities	-9.53835
ify	-9.53961
▁represent	-9.53989
▁affect	-9.54022
▁private	-9.54061
vis	-9.54154
▁agent	-9.54154
ev	-9.54213
tes	-9.54214
▁mis	-9.54224
har	-9.54239
ped	-9.54399
▁regional	-9.5447
ef	-9.54511
fo	-9.54611
▁moved	-9.54915
▁Asia	-9.54927
▁fruit	-9.54967
▁General	-9.54969
fer	-9.55085
▁rep	-9.55147
▁Central	-9.55195
▁sexual	-9.55287
zo	-9.55417
▁studies	-9.55423
▁France	-9.55423
▁command	-9.55432
▁pen	-9.55508
if	-9.55602
▁spread	-9.55659
▁40	-9.55785
▁rights	-9.55897
▁gene	-9.55939
▁fix	-9.55948
▁Of	-9.55955
mate	-9.55997
▁decided	-9.56012
▁animals	-9.56037
▁fo	-9.56102
▁modern	-9.56116
▁mine	-9.56162
▁director	-9.56251
▁y	-9.56362
▁21	-9.56373
▁slow	-9.56654
▁wear	-9.56795
▁influence	-9.56804
▁promise	-9.5681
pen	-9.56935
▁whatever	-9.56961
▁ability	-9.571
▁dance	-9.57133
▁involved	-9.57181
cro	-9.57319
▁material	-9.57351
▁shown	-9.57365
▁State	-9.57388
ji	-9.57389
▁felt	-9.57504
Y	-9.57515
▁enter	-9.57577
▁European	-9.576
▁task	-9.5774
▁root	-9.57757
▁Pri	-9.57768
ez	-9.5777
▁Art	-9.57891
▁produced	-9.57895
▁sugar	-9.57979
▁exist	-9.58075
▁cu	-9.58185
▁separate	-9.58204
▁Award	-9.58214
▁foot	-9.5822
▁trial	-9.58255
▁station	-9.58331
▁lies	-9.58379
▁bag	-9.58391
▁written	-9.58474
q	-9.58502
ray	-9.58504
▁Sta	-9.5858
▁imagine	-9.58675
▁career	-9.58757
time	-9.58822
▁win	-9.58843
ough	-9.58892
▁female	-9.58912
▁parts	-9.58945
des	-9.58958
ato	-9.59271
▁happens	-9.59373
▁r	-9.59457
▁discovered	-9.59502
▁generally	-9.5955
▁growing	-9.59551
▁content	-9.59627
▁results	-9.59633
ok	-9.59648
▁log	-9.59711
▁option	-9.59822
ino	-9.59832
▁respond	-9.59863
▁nation	-9.60003
▁conditions	-9.60006
▁pet	-9.60049
▁School	-9.60102
▁King	-9.60159
▁associated	-9.60186
▁Cla	-9.60202
▁Ben	-9.60219
▁East	-9.60243
▁television	-9.60343
▁lo	-9.60472
▁website	-9.60583
▁throw	-9.60598
▁games	-9.60633
uff	-9.60656
▁announced	-9.60684
▁Che	-9.6069
▁west	-9.60817
▁asking	-9.60824
▁relative	-9.60836
▁terms	-9.60906
▁rec	-9.60925
▁telling	-9.60997
▁object	-9.61001
▁murder	-9.61065
▁central	-9.61065
▁border	-9.61065
▁2007	-9.61079
light	-9.61307
▁purpose	-9.61311
▁wa	-9.61313
▁seems	-9.61383
rac	-9.61414
▁foods	-9.61437
▁impact	-9.61568
▁beginning	-9.61571
▁sold	-9.6161
▁Cr	-9.61641
ably	-9.61708
▁groups	-9.61737
▁turned	-9.61762
▁hundred	-9.61793
▁daily	-9.61794
▁link	-9.61796
▁tra	-9.61815
▁carry	-9.62038
▁mistake	-9.62042
▁worse	-9.62044
▁2006	-9.62057
▁rich	-9.62128
▁setting	-9.62166
ó	-9.62234
▁tomorrow	-9.62281
▁glass	-9.62282
▁detail	-9.62312
▁throughout	-9.62375
▁Voivodeship	-9.62526
▁fly	-9.6255
▁fa	-9.62737
10	-9.62776
▁news	-9.62796
▁western	-9.62859
▁tax	-9.62965
30	-9.62974
▁salt	-9.63008
0,000	-9.63025
▁systems	-9.63387
▁companies	-9.63513
▁smell	-9.63514
▁section	-9.63538
▁road	-9.63538
▁round	-9.63552
ever	-9.63676
▁society	-9.63761
▁target	-9.63761
▁°	-9.63762
▁pop	-9.63776
▁immediately	-9.63861
gro	-9.63873
▁drugs	-9.63952
▁Please	-9.6401
▁policy	-9.6401
▁services	-9.64162
▁sweet	-9.64259
▁maintain	-9.64259
▁particularly	-9.64289
▁towards	-9.64411
▁alive	-9.64412
ay	-9.64436
▁eating	-9.64457
▁wrote	-9.64509
▁adult	-9.64761
zz	-9.64822
▁Y	-9.64845
pir	-9.64886
▁micro	-9.65027
▁looks	-9.65145
▁Russian	-9.65193
▁sell	-9.6525
▁according	-9.65263
▁floor	-9.65263
▁books	-9.65273
▁forward	-9.65317
▁flow	-9.65417
▁sha	-9.65464
▁Mon	-9.65474
ili	-9.65485
▁teacher	-9.65506
▁alcohol	-9.65515
▁relax	-9.65516
▁Put	-9.65575
▁suit	-9.65584
▁user	-9.65628
ification	-9.65768
▁straight	-9.65769
ade	-9.65774
▁perform	-9.65781
▁brand	-9.65792
▁increased	-9.6581
▁typically	-9.65856
▁cho	-9.6586
pl	-9.65909
ria	-9.66148
ney	-9.66178
▁wants	-9.66198
▁Han	-9.66248
▁scale	-9.66283
▁larger	-9.66318
▁refer	-9.66352
▁waiting	-9.6645
▁gu	-9.66753
ea	-9.66764
▁British	-9.66788
▁equal	-9.66789
▁Ask	-9.6682
▁events	-9.66823
▁Phil	-9.66946
bin	-9.67068
tern	-9.67211
▁extreme	-9.67301
▁tu	-9.67316
▁install	-9.6756
▁dress	-9.67561
▁limit	-9.6757
wer	-9.67665
fu	-9.67722
▁legal	-9.67747
▁dad	-9.67798
▁successful	-9.67812
▁disorder	-9.67817
▁Cor	-9.67885
low	-9.67919
▁soft	-9.68132
▁shape	-9.68145
▁shall	-9.68304
▁anymore	-9.68337
▁forget	-9.68449
▁II	-9.68584
▁plants	-9.68629
▁flu	-9.68661
▁Game	-9.68754
ł	-9.68788
▁gold	-9.68834
▁Minister	-9.68858
▁demand	-9.68861
▁scar	-9.68982
▁Chi	-9.68987
▁Air	-9.69038
▁significant	-9.69161
▁Dis	-9.69216
▁patient	-9.69218
▁shows	-9.69349
▁kilometres	-9.69382
▁Gmina	-9.69383
▁medication	-9.69446
▁finally	-9.69449
ain	-9.69449
▁op	-9.69485
▁concern	-9.69665
▁serve	-9.69668
▁perfect	-9.69683
cin	-9.69717
▁largest	-9.69752
▁Har	-9.69756
ists	-9.69819
▁train	-9.69827
▁animal	-9.69995
▁speed	-9.70178
put	-9.70197
▁performance	-9.70197
▁designed	-9.70315
▁cop	-9.70339
▁goals	-9.70423
▁essential	-9.70439
ō	-9.70439
dent	-9.70596
▁multi	-9.70681
▁deliver	-9.70707
▁operation	-9.70713
▁Tra	-9.70732
mark	-9.70798
▁spent	-9.70809
▁chi	-9.70836
▁Party	-9.70895
▁Internet	-9.70974
ye	-9.71219
▁regular	-9.71262
▁prefer	-9.71292
▁prove	-9.71336
over	-9.71349
▁Our	-9.71386
▁Although	-9.71507
▁Instead	-9.71507
▁economy	-9.71507
▁soil	-9.71609
fl	-9.7163
▁interested	-9.71674
ky	-9.71737
▁easier	-9.71799
▁powerful	-9.71923
▁join	-9.7195
50	-9.71957
nu	-9.71971
▁states	-9.71976
▁Avoid	-9.72045
▁fresh	-9.72046
▁Think	-9.72046
▁finish	-9.72079
▁uh	-9.72127
▁complete	-9.72135
cz	-9.72211
▁ri	-9.72379
▁express	-9.72459
▁girls	-9.72986
▁onto	-9.72989
len	-9.73141
ari	-9.73199
fin	-9.73239
ological	-9.73285
▁rid	-9.73359
▁thoughts	-9.73391
▁variety	-9.73404
▁memory	-9.73406
af	-9.73502
▁lack	-9.7354
▁included	-9.7361
▁author	-9.73618
▁cream	-9.73679
▁House	-9.73707
▁interesting	-9.7373
▁Gi	-9.7376
▁traditional	-9.7379
▁board	-9.73792
▁feed	-9.73873
▁bus	-9.73913
▁handle	-9.73919
▁London	-9.73953
▁Bra	-9.74215
▁virus	-9.74232
▁looked	-9.7441
▁wonder	-9.74514
pla	-9.74563
▁meaning	-9.7472
▁cla	-9.74755
▁although	-9.74781
▁somebody	-9.74781
▁Korea	-9.74849
▁wide	-9.75168
▁match	-9.75209
ban	-9.75229
▁habit	-9.75346
▁progress	-9.75349
▁bird	-9.75362
▁Q	-9.75382
20	-9.75397
▁Find	-9.75435
▁lu	-9.75437
▁Remember	-9.75617
▁victim	-9.75617
▁cap	-9.75707
▁Ge	-9.75877
▁camp	-9.75887
▁leaving	-9.75897
stan	-9.7593
gar	-9.76008
▁starting	-9.76009
▁ran	-9.76133
▁layer	-9.76151
▁application	-9.76178
▁recent	-9.76201
▁muscle	-9.76238
log	-9.76274
hen	-9.76419
▁Other	-9.76463
▁seek	-9.76487
▁river	-9.76522
▁described	-9.76525
lie	-9.76546
▁ring	-9.76573
ifi	-9.76705
▁pattern	-9.76742
▁Frank	-9.76743
▁freedom	-9.76754
▁mom	-9.7676
▁allowed	-9.76824
▁2000	-9.76854
▁60	-9.76861
lock	-9.76892
bri	-9.7713
▁High	-9.7734
▁concept	-9.77343
▁decade	-9.77344
▁22	-9.77372
lit	-9.77399
ency	-9.77439
▁Click	-9.77595
▁distance	-9.77595
▁average	-9.77596
▁lived	-9.7761
▁catch	-9.77626
▁ju	-9.77688
van	-9.77806
▁District	-9.7788
▁nature	-9.77882
▁wood	-9.779
▁bio	-9.77972
bal	-9.78016
▁sick	-9.78046
▁seat	-9.78076
▁belong	-9.78125
▁bottle	-9.78167
▁stories	-9.78167
az	-9.78285
▁corner	-9.78339
▁Mac	-9.78353
▁button	-9.78444
▁coffee	-9.78454
▁severe	-9.78462
11	-9.78655
▁camera	-9.78715
▁comfortable	-9.7877
▁note	-9.78805
cle	-9.78806
▁path	-9.78894
aw	-9.78912
▁Ver	-9.78971
▁leading	-9.78981
▁Soviet	-9.79032
▁below	-9.79205
▁numbers	-9.79251
mar	-9.79285
espite	-9.79354
graph	-9.79364
▁vote	-9.79398
▁Russia	-9.79401
work	-9.79538
▁direction	-9.79602
▁article	-9.79612
yo	-9.79805
▁Republic	-9.79903
▁easily	-9.79903
▁football	-9.7991
▁multiple	-9.79913
▁hole	-9.79935
▁Park	-9.79959
▁currently	-9.79983
▁Ab	-9.79987
▁radio	-9.80006
▁learning	-9.80101
▁reflect	-9.80196
▁technique	-9.80196
▁contract	-9.80199
▁involve	-9.80307
▁wind	-9.80328
▁leg	-9.8039
12	-9.80395
▁finished	-9.80453
▁purchase	-9.80489
▁prior	-9.8049
▁calm	-9.80504
▁Vietnamese	-9.80505
▁Two	-9.80546
ace	-9.80546
▁(1	-9.80553
▁places	-9.80562
▁Min	-9.8059
▁Will	-9.80708
phy	-9.80753
pha	-9.80803
▁management	-9.80826
ole	-9.80874
ook	-9.80929
lar	-9.80998
▁connect	-9.81053
▁Add	-9.81065
▁whose	-9.81081
▁ear	-9.81273
umb	-9.81289
▁quality	-9.81374
▁tissue	-9.81374
▁2005	-9.81403
▁theory	-9.81434
nia	-9.81524
▁yes	-9.81583
▁clothes	-9.81735
cho	-9.81766
▁connection	-9.81877
bar	-9.81906
▁Open	-9.82069
ama	-9.8207
▁fund	-9.8209
igh	-9.82094
▁Sun	-9.82149
▁Consider	-9.82267
▁instance	-9.82269
▁remain	-9.82356
▁Ye	-9.82413
▁financial	-9.82566
▁wh	-9.82633
▁Fu	-9.82635
▁ob	-9.82651
▁beat	-9.82664
▁seeing	-9.82722
▁hum	-9.82826
▁birth	-9.82863
▁display	-9.82878
$	-9.82996
▁Ya	-9.83079
▁island	-9.83093
▁male	-9.83107
▁depend	-9.83111
▁Com	-9.83134
▁opportunity	-9.83168
▁smaller	-9.83336
duct	-9.83344
▁park	-9.83457
▁generation	-9.8347
▁kiss	-9.83475
▁sal	-9.83504
▁decide	-9.836
cept	-9.83609
▁Time	-9.83626
▁realize	-9.83663
▁Germany	-9.83698
▁Australia	-9.83773
▁experiment	-9.83773
▁jump	-9.838
▁23	-9.83924
▁Star	-9.83999
▁wearing	-9.84002
▁Red	-9.84104
▁signs	-9.8413
▁hate	-9.84286
▁strength	-9.84288
board	-9.8438
▁crazy	-9.84382
▁Women	-9.84398
▁email	-9.844
▁rules	-9.84488
▁Union	-9.84495
▁nine	-9.84558
19	-9.84586
cer	-9.84598
▁Mor	-9.84743
▁&	-9.84798
cra	-9.84931
▁loved	-9.84979
ik	-9.85002
▁determine	-9.85048
▁Ku	-9.85186
▁breath	-9.85232
▁basic	-9.85284
▁neck	-9.85311
▁blow	-9.85359
▁sa	-9.85613
mber	-9.85631
▁seconds	-9.8566
▁causes	-9.85742
▁fill	-9.858
▁auto	-9.85817
▁rise	-9.85881
▁campaign	-9.8592
▁survive	-9.8592
▁correct	-9.8592
▁emotional	-9.85921
ime	-9.8607
▁civil	-9.86194
▁established	-9.86208
▁Sh	-9.86393
▁Tu	-9.86416
pec	-9.8642
▁Any	-9.8644
ular	-9.8649
▁roll	-9.8652
▁Great	-9.86544
▁stock	-9.86565
ów	-9.86604
oma	-9.86659
▁disc	-9.86713
gon	-9.86814
▁1,	-9.86816
▁Sometimes	-9.86856
▁officer	-9.86895
▁forces	-9.87048
▁Pu	-9.87125
▁aware	-9.87168
▁honor	-9.8717
▁Sam	-9.87203
▁added	-9.87241
part	-9.87245
▁Roman	-9.87408
Arabic	-9.87425
▁Before	-9.87483
▁trip	-9.87543
▁returned	-9.87655
▁achieve	-9.87763
▁Another	-9.87805
right	-9.8784
▁mental	-9.87891
▁ahead	-9.87906
▁founded	-9.87934
▁Does	-9.88001
▁horse	-9.88116
▁ensure	-9.88118
▁conf	-9.88147
▁Windows	-9.88149
▁rat	-9.88208
▁Syria	-9.88222
▁resources	-9.88225
▁clo	-9.88235
▁peace	-9.88244
▁Only	-9.88315
▁everybody	-9.88432
▁bomb	-9.88454
▁pin	-9.88559
▁bra	-9.88603
cur	-9.88617
▁receptor	-9.88751
▁software	-9.88751
▁Would	-9.88751
▁engage	-9.88751
▁battle	-9.88752
▁knowledge	-9.88752
▁discuss	-9.88892
▁Dan	-9.88899
▁More	-9.88937
▁features	-9.88953
▁Black	-9.8907
▁dinner	-9.8907
▁favorite	-9.89083
▁crime	-9.89085
▁dangerous	-9.89088
▁points	-9.89228
▁Tr	-9.89352
bor	-9.8936
▁perhaps	-9.89391
▁followed	-9.89527
▁Year	-9.89795
jo	-9.89838
▁consist	-9.90015
ix	-9.9007
▁label	-9.90108
▁lie	-9.9012
▁bone	-9.90122
bel	-9.90155
ulation	-9.9017
á	-9.90205
▁Start	-9.90252
▁balance	-9.90359
▁judge	-9.90359
cha	-9.90406
▁reading	-9.90409
▁flat	-9.90467
▁origin	-9.90471
▁conflict	-9.90683
burg	-9.90794
▁emotions	-9.90875
▁Over	-9.90889
iff	-9.90986
▁counter	-9.90988
ura	-9.91071
▁Gen	-9.91091
ude	-9.91228
ball	-9.91269
▁mission	-9.91289
▁Uh	-9.91357
▁1990	-9.91365
▁bright	-9.91382
rad	-9.91488
ties	-9.91665
▁writer	-9.91699
▁shut	-9.91719
▁paid	-9.91748
▁wound	-9.91765
▁novel	-9.91795
▁spa	-9.91872
▁eventually	-9.91992
▁twice	-9.91992
▁earlier	-9.91992
▁compete	-9.91997
▁Those	-9.91999
og	-9.92045
▁char	-9.92055
▁mid	-9.9206
▁signal	-9.92066
▁recently	-9.9228
now	-9.92285
▁finding	-9.92296
illa	-9.92313
▁square	-9.92323
▁double	-9.92325
▁failure	-9.92339
▁somewhere	-9.92371
▁older	-9.92376
▁huh	-9.92654
fect	-9.92821
rop	-9.92864
48	-9.9287
▁28	-9.9288
▁learned	-9.92934
ker	-9.92936
▁Serie	-9.92983
ita	-9.92987
▁heavy	-9.92987
▁sales	-9.93112
▁paint	-9.93196
▁port	-9.93219
▁developing	-9.93229
▁indicate	-9.93261
▁schedule	-9.93319
▁speech	-9.93319
▁causing	-9.93324
lon	-9.93326
▁solve	-9.93344
▁required	-9.93558
▁trigger	-9.93653
▁desire	-9.93664
▁map	-9.93691
▁review	-9.93696
▁ideas	-9.93754
pping	-9.93781
▁actions	-9.9379
itis	-9.93804
ese	-9.93937
▁scientist	-9.93989
▁teeth	-9.93989
▁reality	-9.94218
▁forms	-9.94219
▁Em	-9.94245
▁speaking	-9.94255
▁Every	-9.94303
▁standing	-9.94348
▁route	-9.94362
▁iron	-9.94377
▁cook	-9.94391
▁firm	-9.94425
▁meant	-9.94475
▁miles	-9.94537
▁feature	-9.9454
▁via	-9.94652
▁Mc	-9.94662
▁kept	-9.94664
▁combination	-9.94664
clo	-9.94674
17	-9.94691
▁meat	-9.94718
▁quick	-9.94758
▁wave	-9.94817
▁cry	-9.94864
ash	-9.94874
▁allows	-9.94935
uring	-9.94942
▁institution	-9.94957
▁laugh	-9.95009
▁photograph	-9.95012
▁Check	-9.95062
▁sad	-9.95082
matic	-9.95083
ack	-9.95096
▁Comp	-9.95098
▁discover	-9.95184
OS	-9.95213
▁metal	-9.95247
▁bacteria	-9.95254
▁honest	-9.95343
▁holding	-9.95368
▁tight	-9.95383
▁recommend	-9.95518
▁receive	-9.9555
▁orbit	-9.95654
▁leaders	-9.95668
▁attract	-9.95683
▁engineer	-9.95684
▁depression	-9.95684
▁becoming	-9.95693
▁Army	-9.95718
▁harm	-9.95724
▁election	-9.95746
▁king	-9.95868
▁relation	-9.95903
▁climate	-9.96027
▁competition	-9.96027
▁industry	-9.96027
▁wild	-9.96028
▁Western	-9.96036
▁huge	-9.9609
▁Sal	-9.96156
▁length	-9.9637
▁reveal	-9.96376
▁items	-9.96469
▁hang	-9.96591
▁Act	-9.96631
▁beyond	-9.96715
▁nuclear	-9.9679
oid	-9.96874
▁formula	-9.96935
▁communication	-9.97061
▁plastic	-9.97061
▁religious	-9.97061
▁sitting	-9.97126
▁invent	-9.97154
▁fell	-9.97166
▁highly	-9.97192
▁happening	-9.9721
▁toward	-9.97227
▁farm	-9.97244
▁rank	-9.97261
path	-9.97323
▁Va	-9.97331
▁student	-9.97349
▁Bre	-9.97387
▁college	-9.97408
▁milk	-9.97409
▁rain	-9.97433
▁spin	-9.97448
▁suffer	-9.97491
▁therapy	-9.97551
pper	-9.97631
▁responsible	-9.97757
▁changing	-9.97757
zy	-9.98009
▁Korean	-9.98023
▁Pomeranian	-9.98106
▁accident	-9.98106
▁compound	-9.98106
▁organ	-9.98133
▁colon	-9.98157
▁Ce	-9.9821
▁OK	-9.98225
▁statement	-9.98319
oli	-9.98326
amine	-9.98338
▁plans	-9.98391
▁lines	-9.98418
▁favor	-9.98443
▁employ	-9.98443
▁pl	-9.98459
▁flower	-9.9849
▁ai	-9.98495
▁Mom	-9.98515
▁greater	-9.98518
vel	-9.98529
▁showed	-9.98539
▁Win	-9.98557
▁x	-9.98563
▁miss	-9.98708
▁weak	-9.98736
nne	-9.98786
place	-9.98796
▁cycle	-9.98809
▁summer	-9.98827
▁dose	-9.99023
▁Paul	-9.99033
ock	-9.99062
▁keeping	-9.99091
Applause	-9.99163
▁2003	-9.99202
▁Nor	-9.99238
▁dish	-9.99284
")	-9.99316
vin	-9.99324
▁era	-9.99417
▁includes	-9.99452
▁poly	-9.99481
▁detect	-9.99506
▁decrease	-9.99517
vation	-9.99604
▁options	-9.99605
ivity	-9.99616
▁dollars	-9.99655
▁collect	-9.99665
▁Gar	-9.99679
▁nose	-9.99725
▁comm	-9.99802
▁Sir	-9.99823
▁shift	-9.99874
▁Italian	-9.99876
▁James	-9.99878
▁Lord	-9.99922
▁soap	-9.99942
▁menu	-9.99974
▁mess	-10.0006
▁workers	-10.001
▁lay	-10.0013
▁teach	-10.0021
▁alternative	-10.0023
▁channel	-10.0023
▁Pan	-10.0023
rick	-10.0035
▁par	-10.0035
▁etc	-10.0043
▁Shi	-10.0054
▁marriage	-10.0059
▁yeah	-10.0059
▁Listen	-10.0064
▁waste	-10.0066
▁additional	-10.0066
▁pair	-10.0071
▁ride	-10.0073
▁calling	-10.0079
▁Za	-10.0081
▁chain	-10.0083
▁continued	-10.0092
▁interests	-10.0098
▁watching	-10.0098
▁appearance	-10.0099
net	-10.0111
▁Tri	-10.0121
▁race	-10.0123
old	-10.0131
ju	-10.0141
▁leaves	-10.0146
▁broken	-10.0151
▁commercial	-10.0167
ob	-10.0167
▁garden	-10.0167
▁recover	-10.0168
▁ill	-10.0169
▁effort	-10.0179
lia	-10.0192
▁studied	-10.0204
▁Congress	-10.0204
▁safety	-10.0216
▁thus	-10.0217
well	-10.0224
kh	-10.0225
▁Ag	-10.0234
▁appears	-10.0234
▁regard	-10.0238
▁anxiety	-10.024
▁interview	-10.0241
▁remind	-10.0241
dia	-10.0243
▁Mag	-10.025
▁Mary	-10.025
▁fan	-10.0255
uck	-10.0256
▁Mil	-10.0262
▁thousands	-10.0273
een	-10.0273
▁ocean	-10.0277
▁objects	-10.0279
▁download	-10.0282
▁Up	-10.0283
▁painting	-10.0284
rry	-10.0294
▁useful	-10.0299
▁26	-10.0303
▁medications	-10.0304
▁sounds	-10.0306
▁27	-10.0306
}	-10.0313
▁encourage	-10.0313
▁stomach	-10.0313
▁breathing	-10.0314
▁Court	-10.0314
▁boys	-10.0318
▁$1	-10.0318
▁cities	-10.0323
▁Dar	-10.0333
▁unless	-10.0335
▁anybody	-10.035
▁breast	-10.035
▁escape	-10.035
▁lawyer	-10.0351
▁sentence	-10.0354
▁passed	-10.0365
▁je	-10.0368
▁customer	-10.0368
▁skills	-10.0371
▁switch	-10.0387
▁guard	-10.039
of	-10.0394
off	-10.0395
▁placed	-10.0411
▁putting	-10.0414
▁fully	-10.0424
▁bodies	-10.0425
▁protest	-10.0425
gram	-10.0437
▁bear	-10.0442
thy	-10.0444
▁individuals	-10.0461
▁visual	-10.0462
head	-10.0467
▁pal	-10.0471
▁Indian	-10.0473
▁walking	-10.0479
▁web	-10.049
▁topic	-10.0493
▁supply	-10.0499
▁assume	-10.0504
▁comment	-10.0505
▁wake	-10.0506
▁Sch	-10.0512
▁pack	-10.0513
aries	-10.0517
▁commonly	-10.052
▁Lin	-10.0528
▁scene	-10.0537
▁Latin	-10.0551
▁Bas	-10.0572
▁yellow	-10.0575
▁shoes	-10.0583
▁Bel	-10.0588
rine	-10.0612
▁suspect	-10.0613
▁Talk	-10.0613
▁defeat	-10.0613
▁Work	-10.0615
▁master	-10.0623
▁Bro	-10.065
▁audience	-10.0651
▁medicine	-10.0651
▁opinion	-10.0651
▁mix	-10.0651
▁northern	-10.0651
ene	-10.0652
▁transport	-10.0653
▁anywhere	-10.0654
▁lip	-10.0656
▁icon	-10.0658
▁arms	-10.0667
▁stars	-10.0674
▁prepared	-10.0677
vir	-10.0684
▁independent	-10.0689
▁liquid	-10.0689
▁gather	-10.0689
▁mountain	-10.0689
▁soldier	-10.069
▁cast	-10.07
▁expand	-10.0727
▁grand	-10.0727
German	-10.0728
▁thick	-10.0729
▁lady	-10.0734
▁legs	-10.0737
▁broke	-10.0741
▁replace	-10.0743
▁Del	-10.0743
can	-10.0747
hel	-10.0749
▁agree	-10.0751
▁Fo	-10.0756
▁boat	-10.0757
▁honey	-10.0767
▁juice	-10.0768
▁boss	-10.0777
▁rare	-10.0778
▁factor	-10.0786
60	-10.0789
▁Wait	-10.0791
▁bath	-10.0794
▁describe	-10.0795
▁clinical	-10.0798
▁magazine	-10.0804
▁taught	-10.0804
▁defend	-10.0804
▁primary	-10.0805
ella	-10.0807
▁flight	-10.081
pped	-10.0811
▁affected	-10.0814
▁trick	-10.0817
▁plane	-10.0818
▁upper	-10.0828
▁Pol	-10.0832
▁manage	-10.0833
▁Tom	-10.0835
▁raise	-10.0838
▁Follow	-10.0843
▁tank	-10.0843
▁hunt	-10.0844
▁spray	-10.0845
▁Mal	-10.0858
ega	-10.0861
▁protection	-10.0876
▁vehicle	-10.0882
▁unique	-10.0882
▁acting	-10.0906
▁destroy	-10.0909
▁hat	-10.0909
top	-10.0913
▁Which	-10.0921
▁caught	-10.0921
16	-10.0921
▁owner	-10.0923
▁invest	-10.0923
▁property	-10.0924
▁2002	-10.0925
▁2001	-10.0925
▁funny	-10.0925
▁Men	-10.0932
▁hide	-10.0949
▁actress	-10.096
▁killing	-10.0962
▁Human	-10.0969
▁temp	-10.0973
▁believed	-10.0974
acy	-10.0974
▁contains	-10.0981
▁Pat	-10.0988
▁Ser	-10.0992
▁Paris	-10.0994
▁Plan	-10.0999
▁episode	-10.0999
▁identify	-10.0999
▁England	-10.0999
▁Social	-10.1
▁scientific	-10.1001
▁edge	-10.1005
▁Peter	-10.1013
▁helping	-10.1014
▁taste	-10.1017
take	-10.1028
▁joined	-10.1034
▁Council	-10.1039
▁request	-10.1039
▁fluid	-10.1044
▁Island	-10.1055
▁Bill	-10.1066
▁Hy	-10.107
▁stain	-10.1073
▁ourselves	-10.1079
▁famous	-10.1079
▁drain	-10.1079
▁expert	-10.1079
ised	-10.1081
▁2020	-10.1082
craft	-10.1086
▁careful	-10.1101
stitute	-10.1104
▁appropriate	-10.1118
▁credit	-10.1119
▁Second	-10.1119
▁showing	-10.1119
hr	-10.1133
▁pieces	-10.1135
▁tap	-10.1147
▁Bru	-10.1149
▁bro	-10.1152
▁load	-10.1158
▁adopt	-10.1159
▁motion	-10.1169
▁Set	-10.117
▁indicat	-10.1177
▁antibiotic	-10.1199
▁gift	-10.1199
▁smart	-10.1199
We	-10.12
▁mood	-10.1206
pri	-10.1215
▁Yu	-10.1228
▁component	-10.1239
▁calorie	-10.1239
▁copy	-10.124
▁nail	-10.124
▁authorities	-10.1241
▁slowly	-10.1241
▁1980	-10.1244
▁construction	-10.1244
berg	-10.1246
▁faster	-10.125
▁earth	-10.1262
▁values	-10.1268
▁fail	-10.1275
▁opening	-10.1276
▁Olympic	-10.1279
▁slightly	-10.1279
▁shop	-10.1285
▁fra	-10.1286
▁fighting	-10.1287
▁carbon	-10.1287
war	-10.1291
65	-10.1292
▁Bri	-10.1297
15	-10.1301
▁Bur	-10.1311
cri	-10.1314
▁core	-10.1316
▁Google	-10.132
▁200	-10.1327
▁pu	-10.1331
house	-10.1335
▁tie	-10.1338
▁fair	-10.1345
day	-10.1352
chan	-10.1352
▁react	-10.1357
▁administration	-10.1361
▁universe	-10.1361
▁minor	-10.1361
▁internal	-10.1363
▁Bal	-10.1364
▁Also	-10.1365
▁Vo	-10.1367
▁Part	-10.1368
▁opened	-10.1375
▁benefits	-10.1379
▁Institute	-10.1381
bit	-10.1382
▁saved	-10.1389
▁Research	-10.1402
▁zone	-10.1402
▁lab	-10.1402
▁capture	-10.1403
▁employee	-10.1404
▁Christian	-10.1404
▁magic	-10.1405
▁investment	-10.1408
▁strip	-10.1411
▁recognize	-10.1413
▁benefit	-10.1425
▁80	-10.1436
▁church	-10.1443
▁transform	-10.1445
▁Val	-10.1451
▁coast	-10.1459
You	-10.1462
▁appeared	-10.1462
▁alter	-10.1462
▁plate	-10.1469
▁missing	-10.1479
▁Szczecin	-10.1484
▁Kingdom	-10.1485
▁Health	-10.1486
▁Though	-10.1486
▁score	-10.1495
▁treated	-10.1503
▁except	-10.1514
▁understanding	-10.1514
▁leader	-10.1517
get	-10.152
▁Char	-10.1522
▁quiet	-10.1526
iz	-10.1526
▁clothing	-10.1526
▁Place	-10.1527
▁reached	-10.153
▁Yo	-10.1545
▁vision	-10.1558
hold	-10.1566
▁substance	-10.1568
▁wire	-10.1571
▁elements	-10.1572
▁signed	-10.1574
▁closer	-10.1577
ida	-10.158
phen	-10.1582
▁rot	-10.1591
▁Dad	-10.1593
▁limited	-10.1608
▁families	-10.1609
▁supplement	-10.1609
▁George	-10.1609
▁adapt	-10.1609
▁repeat	-10.1611
win	-10.1611
▁mask	-10.1614
▁singer	-10.1615
pan	-10.1615
▁pill	-10.1617
▁Jan	-10.162
▁helped	-10.1624
▁costs	-10.1624
cut	-10.163
ute	-10.1632
▁client	-10.1651
▁ancient	-10.1651
▁angry	-10.1652
▁ended	-10.1652
▁compared	-10.1669
▁army	-10.1675
▁mostly	-10.1685
rap	-10.1688
▁volume	-10.1694
▁creating	-10.1694
▁damn	-10.1694
▁Super	-10.17
terior	-10.1703
▁Hong	-10.1715
lation	-10.1716
▁thin	-10.1722
▁Perhaps	-10.1736
▁approved	-10.1736
▁nobody	-10.1736
▁hypo	-10.1736
▁Center	-10.1736
▁presence	-10.1736
▁mode	-10.1737
▁Queen	-10.1737
▁crack	-10.1738
▁referred	-10.1738
▁bill	-10.1742
▁expected	-10.1747
▁anyway	-10.1762
▁remains	-10.1777
▁stupid	-10.1778
▁distinct	-10.1779
▁towel	-10.178
pre	-10.1781
ati	-10.1787
38	-10.1793
▁collection	-10.1797
▁Cal	-10.1799
cia	-10.1802
▁materials	-10.1806
▁sources	-10.1808
osis	-10.1812
▁methods	-10.1818
▁appointed	-10.1821
▁nervous	-10.1821
▁politician	-10.1821
▁White	-10.1821
▁William	-10.1821
▁Best	-10.1824
ional	-10.1836
25	-10.1845
▁Mer	-10.1848
ake	-10.1848
▁defined	-10.1853
▁Ly	-10.1855
▁introduced	-10.1858
▁provided	-10.1862
▁Department	-10.1864
▁politics	-10.1864
▁stone	-10.1874
▁previous	-10.1883
▁recommended	-10.1885
▁Music	-10.1886
▁actor	-10.1886
bur	-10.1898
▁attend	-10.1901
▁tools	-10.1905
▁van	-10.1907
]	-10.1907
▁disappear	-10.1907
▁ingredient	-10.1907
▁department	-10.1907
▁phase	-10.1909
▁impress	-10.1909
▁apart	-10.1911
vol	-10.1914
▁bigger	-10.1914
ani	-10.1916
▁aid	-10.1918
▁labor	-10.1921
14	-10.1935
load	-10.1936
cular	-10.1938
▁muscles	-10.1941
▁formed	-10.1949
▁symbol	-10.1951
▁worried	-10.1951
▁blind	-10.1951
▁Could	-10.1951
▁critic	-10.1954
▁journal	-10.1954
▁drinking	-10.1955
▁guide	-10.1955
onic	-10.1956
▁prop	-10.1956
▁raised	-10.1962
▁increasing	-10.1969
▁Mad	-10.1971
ola	-10.1971
▁Washington	-10.1994
▁Greek	-10.1994
▁therefore	-10.1994
▁Watch	-10.1994
▁smile	-10.1995
▁Trans	-10.1996
▁1999	-10.1999
ano	-10.2002
read	-10.2008
▁joint	-10.2012
▁70	-10.2015
ada	-10.2021
▁violence	-10.2038
▁stopped	-10.2042
▁ban	-10.2063
▁Out	-10.2065
ography	-10.2066
▁epi	-10.2074
▁confidence	-10.2082
▁status	-10.2083
▁Office	-10.2085
▁aim	-10.2085
▁broad	-10.2085
▁factors	-10.2087
▁Kong	-10.2101
▁liver	-10.2104
bro	-10.2112
▁highest	-10.2113
mun	-10.212
▁Warsaw	-10.2126
▁secure	-10.2126
▁lift	-10.2131
▁tough	-10.2132
▁till	-10.2132
▁hero	-10.2137
▁rice	-10.2139
ius	-10.214
13	-10.2142
▁selling	-10.2146
name	-10.2154
▁helpful	-10.2155
▁Cu	-10.2161
▁Nintendo	-10.217
▁applied	-10.217
▁bowl	-10.217
▁brown	-10.2171
▁division	-10.2171
▁eggs	-10.2178
▁Apple	-10.2184
▁fu	-10.2187
▁lock	-10.2188
▁closed	-10.2199
▁emergency	-10.2214
▁pregnancy	-10.2214
▁routine	-10.2214
▁strategy	-10.2214
▁brush	-10.2214
▁sample	-10.2214
▁biggest	-10.2214
▁reject	-10.2215
▁predict	-10.2215
▁chief	-10.2216
▁agreement	-10.2221
▁abuse	-10.2224
▁Chile	-10.2234
book	-10.2238
▁listening	-10.2239
99	-10.224
▁Got	-10.2248
▁performed	-10.2259
▁vegetables	-10.2259
▁Nigeria	-10.2259
▁grew	-10.2259
▁cultural	-10.2261
▁fuel	-10.2265
je	-10.2266
▁Law	-10.2271
▁Str	-10.2271
tus	-10.2273
▁Jack	-10.2273
▁efforts	-10.229
▁Michael	-10.2304
▁Street	-10.2304
▁sweat	-10.2304
gh	-10.2305
▁doubt	-10.2305
▁Group	-10.2305
▁digital	-10.2334
▁pur	-10.2336
▁connected	-10.2336
▁Mont	-10.2337
▁butter	-10.234
▁coat	-10.2344
▁activist	-10.2349
▁grown	-10.2361
▁majority	-10.2363
bol	-10.2364
▁sports	-10.2369
▁Ter	-10.2373
▁naturally	-10.2381
▁California	-10.2394
▁surgery	-10.2394
▁herself	-10.2394
▁overall	-10.2395
▁seeds	-10.2402
▁upset	-10.2406
ose	-10.2407
18	-10.2413
▁Thu	-10.2416
▁90	-10.2432
▁critical	-10.2434
▁struggle	-10.244
▁southern	-10.244
▁steal	-10.244
▁tired	-10.2443
atory	-10.2445
▁wrap	-10.2445
▁regime	-10.2446
▁covered	-10.2456
▁wedding	-10.2458
▁Ty	-10.2461
▁whom	-10.2466
▁Hold	-10.2471
ette	-10.2479
▁Bureau	-10.2485
▁faith	-10.2485
▁amazing	-10.2485
▁beauty	-10.2485
▁cloud	-10.2487
▁Asian	-10.2526
▁busy	-10.2529
▁Kar	-10.253
▁advantage	-10.2531
▁throat	-10.2531
ural	-10.2532
▁loose	-10.2532
▁solid	-10.2532
▁*	-10.2533
tsu	-10.2536
▁Play	-10.2537
▁failed	-10.2543
▁interaction	-10.2556
▁semi	-10.2566
ę	-10.2577
ü	-10.2577
▁bridge	-10.2577
▁principle	-10.2577
▁mechanism	-10.2577
▁Pacific	-10.2577
▁basis	-10.2577
▁chest	-10.2578
▁Grand	-10.2585
▁Say	-10.2587
▁River	-10.2588
▁Under	-10.2591
▁scan	-10.2592
▁vent	-10.2597
▁spoke	-10.2602
▁Gal	-10.2611
▁monitor	-10.2623
▁mixture	-10.2625
▁transfer	-10.2625
▁[	-10.2625
▁sum	-10.2633
ception	-10.2644
▁expression	-10.265
▁App	-10.2656
▁Ah	-10.2659
▁environmental	-10.2668
▁driving	-10.267
▁revolution	-10.267
▁university	-10.267
▁vitamin	-10.267
▁DNA	-10.267
▁consult	-10.267
▁truly	-10.267
▁refuse	-10.267
▁Robert	-10.267
▁weapons	-10.2676
▁Boy	-10.2681
▁elected	-10.269
door	-10.2706
ula	-10.2713
▁Beijing	-10.2717
▁argue	-10.2718
▁Canada	-10.2719
▁Mark	-10.2725
▁debut	-10.2726
bility	-10.2729
▁Day	-10.2733
▁urge	-10.274
▁shower	-10.2743
▁confirmed	-10.2755
▁parent	-10.2758
▁concentration	-10.2764
ي	-10.2764
▁David	-10.2764
▁kick	-10.2767
Z	-10.2773
▁tip	-10.2781
▁historical	-10.2784
▁removed	-10.2798
80	-10.2802
zu	-10.2803
▁interact	-10.2805
▁soul	-10.281
▁newspaper	-10.2811
▁traffic	-10.2811
▁properties	-10.2811
▁operating	-10.2813
63	-10.2814
▁lung	-10.2819
▁Alex	-10.2819
room	-10.282
75	-10.2833
▁Van	-10.2843
▁greatest	-10.2844
▁focused	-10.2847
▁accomplish	-10.2858
▁Colombia	-10.2858
▁College	-10.2858
▁Spanish	-10.2858
▁depending	-10.286
▁nerve	-10.2863
▁bind	-10.288
▁surrounding	-10.2901
▁spell	-10.2907
uk	-10.2907
▁trap	-10.291
▁pan	-10.2912
▁marry	-10.2918
ference	-10.2921
▁Master	-10.2926
▁Pl	-10.2928
▁Apply	-10.2931
▁replaced	-10.2932
water	-10.2941
▁mad	-10.2945
▁fiber	-10.2947
▁execut	-10.2949
▁killer	-10.2952
▁procedure	-10.2954
▁Championship	-10.2954
▁analysis	-10.2955
▁numer	-10.2955
▁metres	-10.2959
▁mention	-10.2964
▁fever	-10.2965
ken	-10.2965
▁hotel	-10.2975
gging	-10.2977
▁clearly	-10.2996
▁gentle	-10.3001
▁syndrome	-10.3002
▁plenty	-10.3002
▁crush	-10.3002
▁losing	-10.3007
▁compose	-10.3016
▁Reg	-10.3019
▁Dia	-10.302
but	-10.3031
▁talked	-10.3041
▁operate	-10.3042
▁recorded	-10.3048
▁defense	-10.305
▁hormone	-10.305
▁professor	-10.305
▁League	-10.305
▁domestic	-10.305
▁talent	-10.305
▁boyfriend	-10.305
▁planning	-10.3056
▁(4	-10.3065
long	-10.3065
eu	-10.3076
cript	-10.309
▁manager	-10.3094
▁arrest	-10.3096
▁crisis	-10.3099
▁income	-10.3101
▁29	-10.3103
▁settle	-10.3104
▁UK	-10.3115
▁Both	-10.312
nica	-10.3121
▁pig	-10.3132
▁award	-10.3138
ñ	-10.3147
▁Science	-10.3147
▁census	-10.3147
hood	-10.3148
▁shoulder	-10.3149
62	-10.3153
▁proper	-10.3159
under	-10.316
▁forest	-10.316
wood	-10.3162
▁mg	-10.3175
ologist	-10.3181
via	-10.3186
▁consequence	-10.3196
▁context	-10.3196
▁contribute	-10.3196
▁vessel	-10.3196
▁Captain	-10.3196
▁worst	-10.3197
itch	-10.3199
▁1997	-10.32
▁staff	-10.32
▁moon	-10.3211
▁del	-10.3212
awa	-10.3238
5%	-10.324
▁possess	-10.3246
▁oxygen	-10.3246
▁otherwise	-10.3246
▁robot	-10.3249
iness	-10.325
▁Know	-10.3251
▁1960	-10.3253
46	-10.3258
▁dealing	-10.3284
▁spirit	-10.3294
▁sustain	-10.3295
▁mobile	-10.3295
▁smooth	-10.3295
▁Division	-10.3296
▁shared	-10.3301
▁frequently	-10.3307
▁promotion	-10.3309
mmer	-10.3322
▁stream	-10.3323
▁(2	-10.3323
▁tape	-10.3335
▁absorb	-10.3345
▁equipment	-10.3345
▁possibly	-10.3345
▁primarily	-10.3345
▁serving	-10.3345
▁Choose	-10.3345
▁Learn	-10.3345
▁strange	-10.3357
print	-10.336
▁reform	-10.337
pho	-10.3375
phe	-10.3377
▁rob	-10.3378
▁Call	-10.3392
▁advice	-10.3395
▁province	-10.3395
▁profile	-10.3395
▁smoke	-10.3395
▁Association	-10.3396
▁1994	-10.3398
▁conference	-10.3399
▁neuro	-10.3426
vision	-10.344
▁Arab	-10.3444
▁launch	-10.3445
▁argument	-10.3445
▁powder	-10.3445
▁kilo	-10.3446
▁promote	-10.3451
▁sky	-10.3465
ado	-10.3466
lay	-10.3484
▁citizens	-10.3492
▁Mexico	-10.3496
▁criminal	-10.3496
▁perspective	-10.3496
▁sensitive	-10.3496
▁fashion	-10.3496
▁weather	-10.3496
▁instructions	-10.3497
stone	-10.3499
▁weird	-10.35
▁1998	-10.35
▁emerge	-10.3501
▁specifically	-10.3501
▁Ve	-10.3509
▁Gold	-10.3515
70	-10.3517
▁lucky	-10.352
▁Ban	-10.3523
lum	-10.3529
BC	-10.353
fully	-10.3531
▁Pop	-10.3532
▁completed	-10.3534
▁Maria	-10.3535
▁capacity	-10.3546
▁poison	-10.3547
▁basically	-10.3549
▁surprise	-10.355
▁reduced	-10.3555
▁wonderful	-10.3557
▁Sorry	-10.3561
▁bringing	-10.3562
▁fri	-10.3568
▁Ze	-10.3572
▁Kha	-10.3583
list	-10.3589
▁Op	-10.3591
▁Ministry	-10.3597
▁circle	-10.3597
▁Museum	-10.3597
▁impossible	-10.3597
▁Cap	-10.3598
▁bat	-10.3599
▁advance	-10.3601
▁guest	-10.3605
▁Cho	-10.3608
▁genetic	-10.3619
▁cash	-10.3622
▁glu	-10.3623
▁Turn	-10.3628
67	-10.3635
app	-10.3636
lash	-10.3644
▁concerned	-10.3645
▁neighbor	-10.3648
▁bought	-10.3649
▁Louis	-10.3649
▁Select	-10.3649
box	-10.3652
▁conduct	-10.3654
▁profit	-10.366
▁spending	-10.3661
▁vary	-10.3667
▁boil	-10.3671
▁tradition	-10.3679
í	-10.3683
▁branch	-10.3687
▁govern	-10.3695
▁comfort	-10.3695
▁pregnant	-10.37
▁belief	-10.37
▁girlfriend	-10.3701
▁illness	-10.3704
▁height	-10.3712
▁31	-10.3713
▁Cup	-10.372
▁Show	-10.3726
▁hydro	-10.3727
57	-10.3733
40	-10.3735
▁exact	-10.3737
▁Prince	-10.3739
37	-10.3747
▁association	-10.3752
▁confident	-10.3752
▁cheap	-10.3752
▁Nam	-10.3754
▁1970	-10.3758
▁spring	-10.3759
vert	-10.3759
▁originally	-10.376
pot	-10.3803
cher	-10.3804
▁exposure	-10.3804
▁identity	-10.3804
▁molecule	-10.3804
▁quarter	-10.3804
▁restaurant	-10.3804
▁exchange	-10.3804
▁aspect	-10.3805
▁tro	-10.3818
▁castle	-10.3823
47	-10.3829
mination	-10.383
▁Four	-10.3832
active	-10.3836
▁consumer	-10.3839
▁Inter	-10.3842
▁Ji	-10.3851
▁expensive	-10.3857
▁instrument	-10.3857
▁chicken	-10.3857
▁implement	-10.3857
▁license	-10.3857
▁‘	-10.3858
▁ruin	-10.3866
duction	-10.3874
▁Hol	-10.3878
▁mono	-10.3887
▁container	-10.3889
dom	-10.3895
▁none	-10.3903
▁Facebook	-10.3909
▁System	-10.3909
▁decline	-10.3909
▁convert	-10.3913
▁1995	-10.3914
▁forever	-10.3917
▁Joe	-10.3918
▁Never	-10.3924
field	-10.3924
▁stem	-10.3925
AR	-10.3935
▁initial	-10.3938
05	-10.3941
▁ph	-10.3955
▁regularly	-10.3958
▁background	-10.3962
▁engine	-10.3962
▁particle	-10.3963
▁testing	-10.3963
▁glad	-10.3963
▁lesson	-10.3964
▁anger	-10.3969
▁chart	-10.3972
▁tr	-10.3977
▁Par	-10.3977
wan	-10.4
▁widely	-10.4009
▁hearing	-10.4009
▁chronic	-10.4015
▁succeed	-10.4015
▁permanent	-10.4015
▁Write	-10.4017
▁leadership	-10.4017
▁Everyone	-10.4019
steroid	-10.4022
▁winter	-10.4025
▁distribution	-10.4027
▁bond	-10.4028
▁pound	-10.4028
liber	-10.4032
▁lying	-10.4035
▁hall	-10.404
▁previously	-10.4046
▁folder	-10.4048
bla	-10.4049
▁Love	-10.4053
col	-10.406
▁scared	-10.4066
▁intelligence	-10.4069
▁shirt	-10.4069
▁strike	-10.4069
▁resistance	-10.407
▁driver	-10.4087
▁ideal	-10.4102
▁teaching	-10.4108
▁500	-10.4111
58	-10.4112
▁stated	-10.4114
▁democracy	-10.4122
▁responsibility	-10.4122
▁afford	-10.4123
▁Flo	-10.4124
▁saving	-10.4125
▁joke	-10.4126
▁entered	-10.4132
▁sat	-10.4142
▁Count	-10.4151
▁Pra	-10.4158
▁luck	-10.4161
▁Committee	-10.4177
▁appreciate	-10.4177
▁collaborat	-10.4177
▁fundamental	-10.4177
▁prompt	-10.4177
▁dispute	-10.4178
▁Three	-10.4178
▁represented	-10.419
▁enable	-10.4204
▁formal	-10.4205
▁producer	-10.4208
▁Xi	-10.423
#	-10.4231
▁punish	-10.4231
▁injury	-10.4231
▁gently	-10.4231
▁slave	-10.4232
▁kidney	-10.4233
LA	-10.4234
▁fourth	-10.4246
▁Port	-10.425
▁reward	-10.426
▁grade	-10.4265
▁quit	-10.4266
▁Tap	-10.4269
▁element	-10.428
▁immune	-10.4286
▁witness	-10.4286
▁storm	-10.4286
▁Chief	-10.4287
▁outcome	-10.4287
▁package	-10.429
gie	-10.4291
▁establish	-10.4291
▁buck	-10.4293
nie	-10.4306
▁Kim	-10.4307
bil	-10.4312
▁recording	-10.4318
▁actual	-10.4321
▁cooking	-10.4331
▁danger	-10.4338
▁enzyme	-10.434
▁investigation	-10.434
▁mirror	-10.434
▁prescribe	-10.434
▁debt	-10.4343
▁fellow	-10.4344
▁bound	-10.4348
▁chair	-10.4349
ctic	-10.4357
He	-10.4359
▁adding	-10.436
▁CA	-10.4362
▁properly	-10.4368
▁discussion	-10.4372
▁Sil	-10.4375
itz	-10.4377
71	-10.4394
▁Statistics	-10.4396
▁truck	-10.4396
▁sector	-10.4399
▁Type	-10.4399
▁tall	-10.4404
▁entirely	-10.4409
▁massive	-10.4412
flu	-10.4419
▁sight	-10.4432
▁remained	-10.4434
▁processes	-10.4441
▁passion	-10.4443
▁grain	-10.4451
▁intention	-10.4452
▁shock	-10.4453
▁arrested	-10.4454
▁Carl	-10.446
▁uncle	-10.4461
▁managed	-10.4465
▁justice	-10.4466
▁proud	-10.4466
▁wine	-10.4468
66	-10.4469
What	-10.4469
▁poet	-10.4474
▁estimated	-10.4478
▁earn	-10.4485
▁CD	-10.4488
34	-10.4489
▁row	-10.449
▁Cy	-10.449
53	-10.4494
ena	-10.45
II	-10.4506
▁religion	-10.4507
▁brief	-10.4507
▁romantic	-10.4507
▁ticket	-10.4507
▁Film	-10.4508
▁Leave	-10.4508
▁annual	-10.4508
▁tear	-10.451
▁1996	-10.4511
emia	-10.4519
down	-10.4522
Q	-10.4525
▁Er	-10.4526
▁comb	-10.4529
▁ya	-10.4538
▁Stop	-10.4543
▁certainly	-10.4549
▁mainly	-10.455
In	-10.4551
▁Ci	-10.4559
▁fabric	-10.4563
▁proceed	-10.4564
▁syn	-10.4564
▁adjust	-10.4564
▁Green	-10.4564
▁generate	-10.4568
▁thousand	-10.4569
▁attended	-10.4573
bie	-10.4581
▁Dam	-10.4592
vic	-10.4594
▁Ol	-10.461
▁sand	-10.4613
▁Service	-10.462
▁blame	-10.462
▁Church	-10.462
▁Mother	-10.4622
▁remaining	-10.4623
▁grab	-10.4624
▁apartment	-10.4627
▁seriously	-10.4629
▁fool	-10.4631
49	-10.4641
▁inhibitor	-10.4654
▁filled	-10.4656
eva	-10.4669
▁pure	-10.4673
▁explore	-10.4677
ech	-10.4678
▁Nations	-10.4682
mba	-10.4685
▁Ven	-10.469
▁reference	-10.4692
▁Someone	-10.4693
▁Old	-10.4701
▁combined	-10.4704
▁solar	-10.4707
▁Bank	-10.4709
▁distribut	-10.4721
▁tested	-10.4731
▁definition	-10.4734
▁illegal	-10.4734
▁scratch	-10.4734
▁jail	-10.4734
▁knee	-10.4735
▁dying	-10.4736
▁transition	-10.4737
▁swim	-10.4738
▁tiny	-10.4741
:00	-10.4741
▁authority	-10.4744
▁Stay	-10.4747
ux	-10.4753
▁consume	-10.4753
ographic	-10.4755
▁normally	-10.4758
PA	-10.4766
▁List	-10.477
▁gate	-10.4786
▁journey	-10.4791
▁hyper	-10.4791
▁Everything	-10.4791
▁fault	-10.4791
▁headache	-10.4792
▁sleeping	-10.4796
▁Today	-10.4798
▁wealth	-10.4804
▁personality	-10.4811
▁inhibit	-10.4814
▁formation	-10.482
01	-10.4824
▁Tan	-10.4831
▁parties	-10.4836
▁(3	-10.4837
▁jo	-10.4837
▁stronger	-10.4838
mino	-10.4846
▁containing	-10.4846
▁Lan	-10.4848
▁Middle	-10.4849
▁library	-10.4849
▁practical	-10.4849
▁scholar	-10.4849
▁lunch	-10.4849
▁infected	-10.485
▁winning	-10.4852
▁stuck	-10.4853
run	-10.487
▁Tur	-10.4886
▁Sho	-10.4898
▁45	-10.4904
▁identified	-10.4907
▁Empire	-10.4907
▁empty	-10.4907
▁atmosphere	-10.4907
▁pray	-10.4915
une	-10.4915
▁angle	-10.4918
▁capable	-10.4918
▁agreed	-10.4921
▁32	-10.4922
▁frame	-10.4926
poli	-10.4927
69	-10.493
▁bull	-10.4932
▁Last	-10.4955
▁tail	-10.4957
▁deserve	-10.4966
▁proposed	-10.4966
▁optim	-10.4966
▁boost	-10.4967
▁mild	-10.4971
▁settlement	-10.4972
izer	-10.4974
▁tab	-10.4982
▁pool	-10.4985
▁trace	-10.5006
phil	-10.5011
▁Hall	-10.5023
▁Province	-10.5025
▁gender	-10.5025
▁About	-10.5027
▁mentioned	-10.5028
▁nearby	-10.5031
▁export	-10.5032
▁controlled	-10.5033
back	-10.5034
▁Italy	-10.5036
Do	-10.5038
▁skill	-10.505
▁drama	-10.5064
▁eliminate	-10.5084
▁vaccine	-10.5084
▁urban	-10.5084
▁zero	-10.5084
▁giant	-10.5084
▁Development	-10.5086
▁forgive	-10.5087
▁flash	-10.5088
AT	-10.5094
▁1950	-10.5096
▁suddenly	-10.5101
▁breaking	-10.5122
▁carefully	-10.5123
ń	-10.5142
ą	-10.5143
▁apparent	-10.5143
▁kitchen	-10.5143
▁update	-10.5146
ło	-10.5149
▁weekend	-10.5151
▁Nu	-10.5152
▁Anti	-10.5164
RI	-10.5168
oxy	-10.5169
▁Pen	-10.5175
▁regulat	-10.5176
▁noise	-10.5187
▁experienced	-10.5187
α	-10.5203
▁literature	-10.5203
▁reducing	-10.5203
▁evil	-10.5203
▁pepper	-10.5204
▁minister	-10.5205
▁crew	-10.5208
▁Hav	-10.5209
▁injection	-10.5213
▁Adam	-10.5233
▁organized	-10.5234
▁constant	-10.5239
▁Lee	-10.5248
▁UN	-10.525
augh	-10.5252
ś	-10.5263
▁federal	-10.5263
▁equation	-10.5263
▁incident	-10.5263
▁Father	-10.5264
▁Commission	-10.5264
▁screw	-10.5264
▁birthday	-10.5264
▁hydrogen	-10.5265
59	-10.5294
▁immediate	-10.5299
▁offered	-10.5302
90	-10.5302
▁cm	-10.5309
08	-10.531
▁league	-10.5324
▁platform	-10.5324
▁format	-10.5329
▁seal	-10.5333
▁Christ	-10.5339
▁businesses	-10.5349
▁cloth	-10.5349
▁effectively	-10.5353
▁painful	-10.5359
MA	-10.5362
▁Syrian	-10.5364
▁dust	-10.5379
▁trained	-10.538
▁Government	-10.5385
▁diver	-10.5385
▁visible	-10.5385
▁Hanoi	-10.5386
▁usual	-10.5386
▁roof	-10.5386
▁Vin	-10.5392
▁bother	-10.5398
▁apple	-10.5399
▁chosen	-10.5402
▁Water	-10.5404
▁mixed	-10.5405
▁Long	-10.5413
▁rose	-10.5414
town	-10.5423
▁observed	-10.5425
morph	-10.5433
07	-10.5433
▁Bob	-10.5435
▁closely	-10.5438
▁journalist	-10.5442
▁Nobody	-10.5446
▁Richard	-10.5446
▁convince	-10.5446
▁industrial	-10.5446
▁definitely	-10.5446
▁wheel	-10.5446
▁sauce	-10.5446
▁Whatever	-10.5462
▁dear	-10.5463
▁destroyed	-10.5465
▁boot	-10.5476
elli	-10.5482
▁Using	-10.5482
▁existing	-10.5485
▁Force	-10.5497
▁hydr	-10.5504
▁evolution	-10.5508
▁opposite	-10.5508
▁policies	-10.5508
▁technical	-10.5508
▁medium	-10.5509
▁Summer	-10.551
▁existence	-10.5513
▁confirm	-10.5521
▁Born	-10.5523
▁lake	-10.5528
▁Prime	-10.5538
▁Jim	-10.5564
▁Festival	-10.557
▁password	-10.557
▁strategic	-10.557
▁terrible	-10.557
ر	-10.557
▁flavor	-10.557
▁exposed	-10.557
▁steam	-10.557
▁Jesus	-10.5571
▁rap	-10.5573
▁bread	-10.5577
fen	-10.5585
position	-10.5592
▁toxic	-10.5592
▁dig	-10.5603
▁increasingly	-10.5605
26	-10.563
ا	-10.5633
▁Nguyen	-10.5633
▁colleague	-10.5633
▁cheese	-10.5633
▁filter	-10.5633
▁ignore	-10.5633
▁bathroom	-10.5633
▁contest	-10.5633
cie	-10.5638
▁fiction	-10.5638
No	-10.5639
most	-10.5641
21	-10.5645
▁egg	-10.5684
▁owe	-10.5686
▁abandon	-10.5695
▁Academy	-10.5695
▁Education	-10.5695
▁candidate	-10.5695
▁register	-10.5695
▁complain	-10.5696
▁pleasure	-10.5696
▁foundation	-10.5696
▁Next	-10.5696
▁Royal	-10.5696
▁1993	-10.5699
▁planned	-10.57
▁rub	-10.5703
▁Cause	-10.5704
▁consistent	-10.5705
▁400	-10.571
▁motor	-10.5712
play	-10.5712
▁rapidly	-10.5718
rzy	-10.5726
▁custom	-10.5728
▁distract	-10.5731
▁poll	-10.5736
▁weapon	-10.5751
▁excess	-10.5754
chlor	-10.5756
elle	-10.5758
▁Run	-10.5758
▁appointment	-10.5759
▁communities	-10.5759
▁providing	-10.5759
▁volunteer	-10.5759
▁Company	-10.5759
▁Eastern	-10.5759
▁encounter	-10.576
▁relieve	-10.576
▁awarded	-10.5764
▁bullet	-10.5765
95	-10.5773
▁totally	-10.5786
where	-10.5791
▁mini	-10.5814
▁browser	-10.5822
▁dimension	-10.5822
▁sequence	-10.5822
▁1991	-10.5822
▁bleeding	-10.5822
▁folk	-10.5823
▁enemy	-10.5823
▁Israel	-10.5823
▁crowd	-10.5823
▁Guy	-10.5824
▁Secretary	-10.5824
▁absolutely	-10.5835
▁stole	-10.5837
▁flag	-10.5838
▁define	-10.5839
24	-10.5842
▁Note	-10.5843
▁classes	-10.5849
▁missed	-10.5858
range	-10.5868
cap	-10.5876
09	-10.588
▁Venezuela	-10.5887
▁resident	-10.5887
▁literally	-10.5887
▁Henry	-10.5887
▁retain	-10.5887
▁tongue	-10.5888
▁confront	-10.5888
▁cough	-10.5895
▁objective	-10.59
▁vet	-10.5901
▁suppose	-10.5903
▁walked	-10.5929
▁speaker	-10.5933
▁selected	-10.5933
▁hanging	-10.5938
▁Creat	-10.5944
▁picked	-10.595
▁stretch	-10.5951
▁NGC	-10.5951
▁creative	-10.5951
▁strain	-10.5951
▁dozen	-10.5953
CBS	-10.5953
▁determined	-10.5961
▁moral	-10.5962
500	-10.5978
▁obtained	-10.599
ER	-10.5995
▁soda	-10.6006
98	-10.6007
▁(5	-10.6007
ultural	-10.6014
▁Society	-10.6016
▁worldwide	-10.6016
▁session	-10.6016
▁random	-10.6017
▁sharp	-10.6017
▁Nothing	-10.6018
▁script	-10.603
▁Lady	-10.6034
grade	-10.6054
▁realized	-10.6072
▁Microsoft	-10.6081
▁prescription	-10.6081
▁academic	-10.6081
▁welcome	-10.6081
▁repair	-10.6081
▁Saint	-10.6083
▁nurse	-10.6083
▁Walk	-10.6085
▁pump	-10.6086
▁cutting	-10.6105
▁bug	-10.6105
▁manner	-10.6122
▁bite	-10.6122
ison	-10.6123
▁wing	-10.613
▁Max	-10.6132
CA	-10.6137
89	-10.6143
▁hip	-10.6144
ö	-10.6147
▁satellite	-10.6147
▁prince	-10.6147
▁afternoon	-10.6147
▁monster	-10.6147
▁tumor	-10.6147
▁carried	-10.6148
▁crash	-10.615
▁sharing	-10.6152
mail	-10.6153
▁locked	-10.6157
▁younger	-10.6158
▁Mike	-10.6166
hydrate	-10.6182
▁Zo	-10.6194
▁Gro	-10.6197
▁combat	-10.6203
▁construct	-10.6205
▁advanced	-10.6209
▁sale	-10.6212
▁suicide	-10.6213
▁launched	-10.6214
▁Treat	-10.6215
▁healing	-10.6223
▁duty	-10.6225
EC	-10.6229
▁Martin	-10.6233
▁drag	-10.6254
▁suggested	-10.6255
▁Brazil	-10.6276
▁chip	-10.6279
28	-10.628
▁administer	-10.628
▁celebrate	-10.628
▁correspond	-10.628
▁galaxy	-10.628
▁Democrat	-10.628
▁swear	-10.628
▁storage	-10.628
▁cotton	-10.628
gress	-10.6283
▁split	-10.6284
▁1992	-10.6285
▁representative	-10.6285
▁Harry	-10.6296
▁Cut	-10.63
▁invited	-10.6317
▁Free	-10.632
dding	-10.633
▁pea	-10.634
lateral	-10.6344
▁producing	-10.6347
▁unknown	-10.6347
▁enhance	-10.6347
▁knock	-10.6347
▁climb	-10.6347
▁Christmas	-10.6347
▁architecture	-10.6349
▁Spain	-10.635
▁III	-10.635
▁characteristic	-10.6351
▁Sco	-10.6396
▁BC	-10.6403
▁shaped	-10.6406
tail	-10.6408
▁Florida	-10.6415
▁Public	-10.6415
▁category	-10.6415
▁creature	-10.6415
▁appeal	-10.6415
▁sodium	-10.6415
▁Scott	-10.6417
▁orange	-10.6419
▁surround	-10.6421
▁organic	-10.6427
▁geo	-10.6441
▁granted	-10.6446
▁35	-10.6466
▁letting	-10.6478
▁occasion	-10.6481
▁knife	-10.6483
▁opportunities	-10.6483
▁yesterday	-10.6483
▁column	-10.6483
▁Ghana	-10.6483
▁Thomas	-10.6483
▁creation	-10.6483
▁internet	-10.6485
▁CO	-10.6492
▁Liber	-10.6493
▁Life	-10.6494
▁extend	-10.6501
▁Tar	-10.6506
▁(18	-10.6508
▁electronic	-10.6509
▁peak	-10.6512
▁portion	-10.6518
▁arrived	-10.6519
88	-10.653
▁stranger	-10.6537
▁Mel	-10.6539
▁Communist	-10.6551
▁Taiwan	-10.6551
▁happiness	-10.6551
▁HIV	-10.6551
▁contrast	-10.6551
▁Something	-10.6552
▁debate	-10.6554
▁1979	-10.6555
▁winner	-10.6557
▁desk	-10.6562
▁Director	-10.6563
rrent	-10.6568
stream	-10.6582
▁300	-10.6583
▁spoken	-10.6583
vari	-10.6602
▁rapid	-10.6607
▁arrange	-10.6615
06	-10.662
▁excited	-10.662
▁broadcast	-10.662
▁silver	-10.662
▁pretend	-10.662
▁Command	-10.6621
▁loud	-10.6625
▁tension	-10.6625
lov	-10.6629
ła	-10.6631
▁slip	-10.6665
23	-10.667
▁Earl	-10.6677
▁significantly	-10.6685
unct	-10.6687
▁conducted	-10.6689
▁virtual	-10.669
▁senior	-10.669
▁narrow	-10.669
▁Club	-10.669
03	-10.6698
▁$2	-10.6699
▁dirty	-10.671
▁prepare	-10.6712
▁obviously	-10.6713
▁manufacturer	-10.6714
▁fur	-10.6725
27	-10.6725
▁Home	-10.6743
а	-10.676
▁Catholic	-10.676
▁inflammation	-10.676
▁observation	-10.676
▁variable	-10.676
▁grave	-10.6761
▁executive	-10.6767
▁editor	-10.6769
▁extract	-10.6784
▁hack	-10.6784
▁medal	-10.6784
▁exception	-10.6789
point	-10.6804
phone	-10.6808
▁corn	-10.6817
▁surprised	-10.6826
▁admit	-10.6827
▁fold	-10.6828
▁affair	-10.683
▁collapse	-10.683
▁museum	-10.683
▁reserve	-10.683
▁patch	-10.6831
cause	-10.6833
02	-10.6837
32	-10.6839
rov	-10.6848
▁Thi	-10.6867
▁Eli	-10.6876
▁typical	-10.6876
owski	-10.6882
▁introduce	-10.6888
BA	-10.6901
م	-10.6901
▁minimum	-10.6901
▁unusual	-10.6901
▁smoking	-10.6901
▁external	-10.6901
▁neighborhood	-10.6901
▁childhood	-10.6903
▁assess	-10.6906
▁bare	-10.6914
▁melt	-10.6931
▁Eat	-10.6933
view	-10.6936
ctive	-10.6939
▁vice	-10.6945
▁Big	-10.6952
▁Wall	-10.6971
▁Jewish	-10.6972
▁Studies	-10.6972
▁centuries	-10.6972
▁counsel	-10.6972
▁neutral	-10.6972
▁resolution	-10.6972
▁technologies	-10.6972
▁divorce	-10.6972
▁Iraq	-10.6973
▁trauma	-10.6973
▁rescue	-10.6973
▁Read	-10.6973
▁plain	-10.6974
▁dropped	-10.6976
▁1975	-10.698
▁lemon	-10.698
▁poem	-10.6983
hou	-10.6994
▁promoted	-10.6998
▁paste	-10.7001
▁claimed	-10.7002
zar	-10.7004
▁arch	-10.7015
▁inches	-10.7016
▁obvious	-10.702
▁Rome	-10.7027
▁perfectly	-10.7039
▁Professor	-10.7044
▁budget	-10.7044
▁puppy	-10.7044
▁babies	-10.7044
▁withdraw	-10.7044
▁bunch	-10.7044
▁queen	-10.7045
▁Prize	-10.7049
▁nuts	-10.7063
▁Vol	-10.7068
85	-10.707
▁initially	-10.7078
▁stake	-10.7081
39	-10.7083
▁Later	-10.7096
▁Press	-10.7107
▁diploma	-10.7113
▁Security	-10.7117
▁distinguish	-10.7117
▁efficient	-10.7117
▁familiar	-10.7117
▁physician	-10.7117
▁vinegar	-10.7117
▁flood	-10.7117
▁Major	-10.7117
▁Control	-10.7117
▁importance	-10.7119
▁1945	-10.7122
▁cake	-10.7134
▁regulation	-10.715
▁Land	-10.7177
▁complicated	-10.719
▁cooperation	-10.719
▁Should	-10.719
▁excuse	-10.719
▁injured	-10.719
▁urine	-10.7192
▁everywhere	-10.7194
para	-10.7194
▁vast	-10.7201
▁kit	-10.7206
▁clock	-10.7208
▁strengthen	-10.7212
▁observe	-10.7216
35	-10.7218
▁assist	-10.7222
▁theater	-10.7233
▁Back	-10.7244
▁stable	-10.7248
▁hungry	-10.7263
▁manufacturing	-10.7263
▁principal	-10.7263
▁Uganda	-10.7263
▁constitution	-10.7265
▁odd	-10.7266
▁biological	-10.7266
abilities	-10.7267
▁breed	-10.7267
▁commitment	-10.7268
▁Ten	-10.7272
▁reduction	-10.7276
▁Moon	-10.7283
▁lean	-10.7291
▁cable	-10.7296
▁restore	-10.7299
▁Tak	-10.7301
▁gotten	-10.7312
▁Hor	-10.7318
▁suffering	-10.732
fish	-10.7337
▁accurate	-10.7337
▁frequency	-10.7337
▁necessarily	-10.7337
▁precise	-10.7337
▁grass	-10.7338
▁div	-10.7349
▁Order	-10.7351
▁breathe	-10.7354
▁improvement	-10.7358
▁opera	-10.7363
▁dating	-10.7376
▁graduated	-10.7379
▁rent	-10.7384
aya	-10.7396
phan	-10.7397
▁architect	-10.741
▁Covid	-10.7412
▁Always	-10.7413
▁entry	-10.7413
▁rinse	-10.7413
▁kitten	-10.7414
▁advise	-10.7415
▁Food	-10.7415
31	-10.7427
▁musical	-10.743
▁1,000	-10.7437
▁crop	-10.7442
22	-10.7444
000	-10.7449
▁divided	-10.7451
▁constellation	-10.7487
▁parliament	-10.7487
▁psychological	-10.7487
▁Britain	-10.7487
▁evolve	-10.7487
▁communicate	-10.7487
▁console	-10.7488
29	-10.749
▁slide	-10.749
▁organism	-10.7492
▁1989	-10.7493
▁occurred	-10.7494
▁sail	-10.7501
▁delay	-10.7502
▁edition	-10.7503
▁string	-10.7504
▁fake	-10.751
▁recognized	-10.7516
▁mile	-10.752
▁soak	-10.7521
▁por	-10.7523
▁intended	-10.7526
▁Sara	-10.755
▁psycho	-10.7563
▁Hospital	-10.7563
▁diagnose	-10.7563
▁guarantee	-10.7563
▁possibility	-10.7563
▁survey	-10.7563
▁dedicated	-10.7563
▁error	-10.7563
▁relief	-10.7563
ancy	-10.7564
▁facing	-10.7566
▁mineral	-10.7567
▁hoping	-10.757
▁airport	-10.7571
▁exam	-10.7596
▁secondary	-10.7598
▁payment	-10.7601
▁deeper	-10.7617
▁extended	-10.762
▁Rock	-10.7622
▁prime	-10.7625
▁Region	-10.7626
rich	-10.7633
▁Arch	-10.7636
▁conclude	-10.7639
▁jealous	-10.7639
▁phrase	-10.7639
▁pocket	-10.7639
▁Remove	-10.7639
▁import	-10.764
▁Police	-10.7642
worm	-10.7643
▁household	-10.7643
▁citizen	-10.7644
▁proof	-10.7645
▁Ken	-10.7647
▁Book	-10.766
án	-10.7676
▁cancel	-10.7677
▁Entertainment	-10.7716
▁Whether	-10.7716
▁cluster	-10.7716
▁coronavirus	-10.7716
▁uncomfortable	-10.7716
▁Actually	-10.7716
▁passenger	-10.7716
▁fifth	-10.7716
▁nausea	-10.7716
▁memories	-10.7716
▁Oliver	-10.7716
▁crown	-10.7716
▁inspired	-10.7717
▁Still	-10.7717
▁casual	-10.7717
▁latter	-10.7722
▁friendship	-10.7731
▁mail	-10.7735
▁snow	-10.774
cade	-10.7746
▁Hill	-10.776
▁Gla	-10.776
▁ratio	-10.7772
▁factory	-10.7776
▁earned	-10.7789
▁chose	-10.779
ż	-10.7794
▁Muslim	-10.7794
▁breakfast	-10.7794
▁circumstances	-10.7794
▁experiencing	-10.7794
▁harvest	-10.7794
▁rabbit	-10.7794
▁remote	-10.7794
▁Smith	-10.7794
▁depth	-10.7794
▁intense	-10.7794
▁Charles	-10.7798
▁brave	-10.78
▁indeed	-10.7805
▁warning	-10.7809
▁examine	-10.781
▁roughly	-10.7813
▁radi	-10.7817
▁Such	-10.7863
à	-10.7872
▁equivalent	-10.7872
▁territory	-10.7872
▁hidden	-10.7872
▁freak	-10.7872
▁Southern	-10.7873
▁Again	-10.7874
5,000	-10.7876
▁attractive	-10.7884
▁dramatic	-10.7898
▁Cast	-10.7906
▁Bring	-10.7915
maker	-10.7917
▁fairly	-10.7919
nova	-10.7947
▁contribution	-10.7951
▁expense	-10.7951
▁compliment	-10.7951
▁TED	-10.7951
▁studio	-10.7951
▁respectively	-10.7951
▁restrict	-10.7951
▁compress	-10.7951
onia	-10.7951
▁opposition	-10.7951
▁desert	-10.7952
▁hiding	-10.7952
▁1987	-10.7956
▁Power	-10.7956
▁leak	-10.7957
▁collective	-10.7962
▁server	-10.7962
CE	-10.7964
▁plus	-10.7966
78	-10.7966
▁neither	-10.7971
▁skip	-10.7976
ension	-10.7978
▁Santa	-10.7983
▁Sub	-10.7983
fold	-10.801
▁terror	-10.802
▁achiev	-10.8025
TV	-10.8025
also	-10.8026
▁Assembly	-10.803
▁Supreme	-10.803
▁asleep	-10.803
▁disappoint	-10.803
▁vulnerable	-10.803
▁Austria	-10.803
▁derived	-10.803
▁troops	-10.803
▁aircraft	-10.8034
▁wipe	-10.8034
ón	-10.8035
▁Para	-10.8035
▁hook	-10.8038
▁Android	-10.8046
▁suck	-10.8071
▁attached	-10.8072
▁Camp	-10.8072
▁Spi	-10.8086
86	-10.809
etween	-10.8106
▁Children	-10.811
▁chocolate	-10.811
▁relevant	-10.811
▁supplies	-10.811
▁resolve	-10.811
▁drunk	-10.811
▁concert	-10.811
▁Blue	-10.811
▁1986	-10.8116
82	-10.812
▁terrorist	-10.812
▁stability	-10.8121
gio	-10.8125
▁attitude	-10.8135
92	-10.8148
lav	-10.8154
direct	-10.8159
▁Peru	-10.8159
titude	-10.8171
▁ASEAN	-10.8191
▁automatically	-10.8191
▁calculate	-10.8191
▁diagnosis	-10.8191
▁gradually	-10.8191
ن	-10.8191
▁Understand	-10.8191
▁prominent	-10.8191
▁entertain	-10.8191
▁captain	-10.8191
▁Business	-10.8191
▁therapist	-10.8191
volving	-10.8193
▁pitch	-10.8197
nnie	-10.8197
▁mouse	-10.82
▁Light	-10.8202
▁shame	-10.8204
▁guilty	-10.8211
▁participate	-10.8224
▁Tro	-10.826
▁Cambodia	-10.8272
▁Economic	-10.8272
▁approval	-10.8272
▁incredible	-10.8272
▁moisture	-10.8272
▁Foreign	-10.8272
▁crystal	-10.8272
▁eastern	-10.8272
▁baking	-10.8272
▁depict	-10.8273
▁permission	-10.8274
▁sink	-10.8275
▁1988	-10.8278
ville	-10.8279
▁panel	-10.8283
▁massage	-10.8287
flow	-10.8288
▁measurement	-10.8294
▁Post	-10.8306
ú	-10.8354
▁buried	-10.8354
▁independence	-10.8354
▁thorough	-10.8354
è	-10.8354
▁sword	-10.8354
▁variation	-10.8354
▁fought	-10.8354
▁Record	-10.8354
▁Focus	-10.8354
▁praise	-10.8354
▁permit	-10.8355
▁awake	-10.8357
▁1982	-10.8359
▁Common	-10.836
▁tube	-10.8367
▁trail	-10.8371
▁Town	-10.8371
▁pants	-10.8375
▁ease	-10.8383
97	-10.8394
▁participated	-10.8402
person	-10.8409
▁meters	-10.8411
▁edit	-10.8418
▁instruct	-10.8435
▁YouTube	-10.8437
▁aggressive	-10.8437
▁consumption	-10.8437
▁tournament	-10.8437
▁ghost	-10.8437
▁Brother	-10.8437
▁Girl	-10.8437
▁alarm	-10.8438
▁analog	-10.8439
▁assistance	-10.8439
▁corruption	-10.844
▁plot	-10.8442
▁excessive	-10.8443
▁panic	-10.8454
▁Jean	-10.8469
▁deposit	-10.8478
with	-10.8481
idine	-10.8485
just	-10.8494
▁Cape	-10.8516
▁Administration	-10.852
▁Moscow	-10.852
▁fulfill	-10.852
▁intellectual	-10.852
▁physics	-10.852
▁sufficient	-10.852
▁convention	-10.852
▁temporary	-10.852
▁violent	-10.852
▁blank	-10.852
▁hardware	-10.852
▁colour	-10.852
▁swelling	-10.852
▁cousin	-10.852
▁graphic	-10.8521
▁gym	-10.8522
▁moderate	-10.8522
45	-10.8524
Video	-10.8534
▁insert	-10.8549
▁Nazi	-10.8553
writer	-10.8566
68	-10.8576
▁Rose	-10.8581
87	-10.8598
ç	-10.8604
▁assassin	-10.8604
▁continuous	-10.8604
▁diabetes	-10.8604
▁potassium	-10.8604
▁ال	-10.8604
▁revenue	-10.8604
▁extension	-10.8604
▁insurance	-10.8604
▁stood	-10.8604
itarian	-10.8604
▁Southeast	-10.8604
▁pilot	-10.8604
▁vertical	-10.8607
▁obtain	-10.8638
▁emotion	-10.8638
▁constantly	-10.8638
▁graduate	-10.8641
▁150	-10.8646
▁determin	-10.8663
▁sudden	-10.8664
kov	-10.8679
▁pour	-10.8681
▁fee	-10.8688
▁Foundation	-10.8689
▁disturb	-10.8689
▁enforce	-10.8689
▁shadow	-10.8689
▁borrow	-10.8689
▁stroke	-10.8689
▁vocal	-10.8689
▁minimize	-10.8689
▁swimming	-10.8689
▁1985	-10.8695
▁commit	-10.8696
▁USB	-10.8709
72	-10.8718
Polish	-10.8736
▁exhibit	-10.8758
▁Revolution	-10.8774
▁FDA	-10.8774
▁Speak	-10.8774
▁civilian	-10.8784
▁Night	-10.8794
▁dynamic	-10.8795
ín	-10.882
▁differ	-10.8854
▁judgment	-10.886
▁sacrifice	-10.886
▁understood	-10.886
▁ethnic	-10.886
▁Texas	-10.886
▁density	-10.886
▁somehow	-10.886
▁Sunday	-10.8862
▁shopping	-10.8863
▁betray	-10.8863
▁radical	-10.8863
▁latest	-10.8887
▁loan	-10.8889
▁Doctor	-10.8893
▁Chris	-10.8924
▁Lake	-10.8929
icular	-10.8931
▁buddy	-10.8947
▁Canadian	-10.8947
▁Little	-10.8947
▁exciting	-10.8947
▁pursue	-10.8947
▁estate	-10.8948
▁rural	-10.8949
▁committed	-10.895
▁Unless	-10.8955
▁classified	-10.8955
▁assert	-10.8956
roid	-10.8973
ON	-10.8982
encies	-10.8985
▁matches	-10.8988
▁electrical	-10.9002
94	-10.9013
▁Technology	-10.9035
▁victory	-10.9035
▁disaster	-10.9035
▁Northern	-10.9035
▁Besides	-10.9036
▁naked	-10.9037
▁plug	-10.9039
▁criticism	-10.904
▁sport	-10.9049
▁rip	-10.9051
▁bike	-10.9055
▁electric	-10.9064
▁Shin	-10.9069
▁Sky	-10.9074
▁joy	-10.9075
▁coach	-10.9076
▁invite	-10.9077
▁dollar	-10.9092
▁dirt	-10.9101
▁Angel	-10.912
▁Virgin	-10.9123
▁Thailand	-10.9123
▁acquired	-10.9123
▁declared	-10.9123
▁nutrients	-10.9123
▁valuable	-10.9123
ā	-10.9123
▁Emperor	-10.9123
▁Friday	-10.9123
▁transplant	-10.9123
▁Tokyo	-10.9124
▁bleach	-10.9124
▁recipe	-10.9124
▁snack	-10.9124
▁royal	-10.9124
▁patent	-10.9124
▁toilet	-10.9137
▁tag	-10.9138
▁belt	-10.9144
84	-10.9147
▁Princess	-10.9151
76	-10.9152
▁resource	-10.9182
credibly	-10.9213
▁Witnesses	-10.9213
▁concentrate	-10.9213
▁conclusion	-10.9213
▁extensive	-10.9213
▁Parliament	-10.9213
▁interrupt	-10.9213
▁Through	-10.9213
▁Therefore	-10.9213
▁loyal	-10.9213
▁innocent	-10.9213
▁extent	-10.9214
▁Change	-10.9214
▁reverse	-10.9223
▁highlight	-10.9224
▁retail	-10.9225
▁farmers	-10.923
▁arrive	-10.9255
▁whenever	-10.9256
▁starr	-10.9269
▁pipe	-10.9271
▁tub	-10.9282
▁Low	-10.9291
▁electron	-10.9292
inflammatory	-10.9303
▁attribute	-10.9303
▁description	-10.9303
▁survival	-10.9303
▁commission	-10.9303
▁regret	-10.9303
▁facial	-10.9303
▁finance	-10.9303
▁innovation	-10.9303
▁false	-10.9303
▁isolated	-10.9304
▁transmit	-10.9304
▁electricity	-10.9308
96	-10.9323
▁divide	-10.935
▁Six	-10.9358
▁manufacture	-10.9362
▁gap	-10.9372
▁Off	-10.9392
ة	-10.9394
▁Jamaica	-10.9394
▁Jupiter	-10.9394
▁maximum	-10.9394
▁receiving	-10.9394
▁categori	-10.9394
▁lymph	-10.9394
▁Repeat	-10.9394
▁Mountain	-10.9394
▁tele	-10.9395
▁infant	-10.9396
▁trend	-10.9396
▁leaf	-10.9396
▁Space	-10.9397
▁sunlight	-10.9398
▁Media	-10.9411
▁singing	-10.9416
▁Nick	-10.9435
▁USA	-10.9435
▁democratic	-10.9486
▁laptop	-10.9486
`	-10.9486
ب	-10.9486
▁Everybody	-10.9486
▁assault	-10.9486
▁disagree	-10.9486
▁recognition	-10.9486
▁societies	-10.9486
▁Obama	-10.9486
▁attorney	-10.9486
▁parallel	-10.9486
▁confused	-10.9486
▁rush	-10.9486
▁northeast	-10.9486
▁kingdom	-10.9486
▁Drink	-10.9487
▁thumb	-10.9489
▁Governorate	-10.949
▁1976	-10.9491
▁1984	-10.9491
▁flour	-10.9493
▁$3	-10.9494
▁hired	-10.9495
▁rising	-10.9495
▁rash	-10.9512
This	-10.9542
power	-10.9549
▁peaceful	-10.9551
▁featur	-10.9553
200	-10.9576
▁basket	-10.9578
▁educate	-10.9578
▁Project	-10.9578
▁heavily	-10.9578
▁iPhone	-10.9578
▁suppress	-10.9578
▁overcome	-10.9579
▁prize	-10.958
▁acute	-10.958
▁dye	-10.958
▁Brown	-10.958
▁witch	-10.958
▁Draw	-10.9583
▁forgot	-10.9584
▁outbreak	-10.9587
▁angel	-10.9589
▁ultimately	-10.9591
▁Cuba	-10.9613
aritime	-10.9629
74	-10.963
▁Chu	-10.9649
ía	-10.965
▁Egypt	-10.9668
▁calcium	-10.9672
▁diarrhea	-10.9672
▁excellent	-10.9672
▁goddamn	-10.9672
▁philosophy	-10.9672
▁preparation	-10.9672
▁shampoo	-10.9672
▁somewhat	-10.9672
▁acknowledge	-10.9672
▁chapter	-10.9672
▁committee	-10.9672
▁Navy	-10.9672
▁barrier	-10.9672
▁olive	-10.9673
▁sensor	-10.9673
▁Silesia	-10.9675
▁Anyway	-10.9676
▁1983	-10.9677
▁1972	-10.9677
▁assistant	-10.9678
83	-10.9681
▁Edit	-10.9681
▁1940	-10.9682
▁blog	-10.9689
▁subsequently	-10.969
▁Finally	-10.9691
▁musician	-10.97
▁delete	-10.9705
▁audio	-10.9708
mission	-10.9721
▁impos	-10.9728
weight	-10.9735
▁Corporation	-10.9766
▁Singapore	-10.9766
▁discomfort	-10.9766
▁explanation	-10.9766
▁facility	-10.9766
▁festival	-10.9766
▁lecture	-10.9766
▁vomiting	-10.9766
▁yield	-10.9766
▁beneath	-10.9766
▁boundaries	-10.9767
▁Number	-10.9767
▁manipulat	-10.9767
▁legend	-10.977
▁flea	-10.9772
▁alongside	-10.9777
▁passage	-10.9786
▁laid	-10.9798
▁Allow	-10.9807
▁Matt	-10.9811
claim	-10.9828
▁inject	-10.9847
ˈ	-10.9861
×	-10.9861
▁estrogen	-10.9861
▁stimulate	-10.9861
▁twenty	-10.9861
و	-10.9861
▁Minh	-10.9861
▁bastard	-10.9861
▁hurry	-10.9861
▁Depend	-10.9861
▁carrier	-10.9862
▁Linux	-10.9862
▁domain	-10.9863
▁acne	-10.9866
▁Plus	-10.9875
▁Guard	-10.9876
▁cheat	-10.9877
▁shake	-10.9878
▁mold	-10.9881
azine	-10.989
▁attach	-10.991
▁conscious	-10.9955
▁champion	-10.9956
▁allergic	-10.9957
▁compassion	-10.9957
▁extraordinary	-10.9957
▁infrastructure	-10.9957
▁initiative	-10.9957
▁nutrition	-10.9957
▁pandemic	-10.9957
▁phenomenon	-10.9957
▁servant	-10.9957
▁universal	-10.9957
▁veterinar	-10.9957
▁Global	-10.9957
▁cuisine	-10.9957
▁disrupt	-10.9957
▁battery	-10.9957
▁proposal	-10.9957
▁removing	-10.9957
▁Joseph	-10.9957
▁liberal	-10.9958
▁shelter	-10.9958
▁porn	-10.9958
▁drum	-10.996
▁transferred	-10.996
ggle	-10.9962
▁diplomatic	-10.9963
▁poetry	-10.9965
▁arrangement	-10.9965
▁copies	-10.9968
▁dependent	-10.9973
therapy	-11.0016
93	-11.0022
▁preserve	-11.0042
▁Similar	-11.0054
▁Twitter	-11.0054
▁deploy	-11.0054
▁derivative	-11.0054
▁diameter	-11.0054
▁dissolve	-11.0054
▁interface	-11.0054
▁landscape	-11.0054
▁negotiation	-11.0054
▁pollution	-11.0054
▁surveillance	-11.0054
▁swallow	-11.0054
▁courage	-11.0054
▁snake	-11.0055
▁steel	-11.0055
▁bump	-11.0056
▁Constitution	-11.0056
▁rubber	-11.0056
▁torture	-11.0056
▁induce	-11.0056
▁Hello	-11.0057
▁spectrum	-11.0057
▁instant	-11.0059
▁Brazilian	-11.006
▁weakness	-11.0062
▁everyday	-11.0063
▁Juan	-11.0065
▁dump	-11.0066
▁scrap	-11.0067
▁damp	-11.007
▁branches	-11.0079
▁slice	-11.0083
iyah	-11.0083
▁incorporate	-11.0091
▁Yan	-11.0094
▁freeze	-11.0104
▁combine	-11.0113
▁intend	-11.0118
▁Afghanistan	-11.0152
▁protocol	-11.0152
▁telescope	-11.0152
▁enemies	-11.0152
▁continent	-11.0152
▁guitar	-11.0152
▁poverty	-11.0152
▁Trump	-11.0152
▁punch	-11.0153
▁Square	-11.0153
▁Clean	-11.0153
▁chew	-11.0153
▁Help	-11.0154
▁gentlemen	-11.0155
▁Jeff	-11.0159
▁radiation	-11.0165
▁dumb	-11.0176
▁Wash	-11.0181
phon	-11.0195
▁estimate	-11.0204
77	-11.0209
which	-11.0213
▁Cuban	-11.0221
▁Champion	-11.025
▁Example	-11.0251
▁algorithm	-11.0251
▁descend	-11.0251
▁entrance	-11.0251
▁membrane	-11.0251
▁plasma	-11.0251
▁Victoria	-11.0252
▁strict	-11.0252
▁exclusive	-11.0253
79	-11.0256
ropical	-11.0274
▁percentage	-11.0275
▁10,000	-11.0292
▁temple	-11.0306
▁rough	-11.033
▁relat	-11.0339
▁Chicago	-11.0351
▁Imagine	-11.0351
▁Indonesia	-11.0351
▁antagonist	-11.0351
▁apologize	-11.0351
▁grandfather	-11.0351
▁uncertain	-11.0351
▁scream	-11.0351
▁database	-11.0351
▁perceive	-11.0351
▁Dutch	-11.0352
▁Front	-11.0352
▁scrub	-11.0352
▁agency	-11.0352
▁Short	-11.0353
ão	-11.0353
▁Third	-11.0353
▁float	-11.0355
▁addiction	-11.036
▁Drug	-11.0361
▁Things	-11.0364
▁achievement	-11.0369
▁Coast	-11.0371
▁lifetime	-11.0374
▁raw	-11.039
▁electro	-11.0406
▁Nice	-11.0418
▁Stand	-11.042
▁circuit	-11.0452
▁frozen	-11.0452
▁Special	-11.0452
▁draft	-11.0452
▁gloves	-11.0452
▁History	-11.0453
▁ladies	-11.0453
▁resistant	-11.0455
▁rival	-11.0456
▁Kenya	-11.0457
▁jar	-11.0458
▁Castle	-11.0466
▁$5	-11.0467
▁awful	-11.0468
▁bacterial	-11.0479
▁sake	-11.0488
▁quote	-11.0492
▁dragon	-11.0499
▁dude	-11.0506
▁wage	-11.0535
́	-11.0554
β	-11.0554
▁advocate	-11.0554
▁crucial	-11.0554
▁earthquake	-11.0554
▁facilities	-11.0554
▁resemble	-11.0554
ū	-11.0554
▁adverse	-11.0554
▁lifestyle	-11.0554
▁motivate	-11.0554
▁sensation	-11.0555
▁superior	-11.0555
▁funeral	-11.0555
▁heaven	-11.0555
▁introduction	-11.0555
▁persist	-11.0559
▁Program	-11.0559
▁vein	-11.0559
▁pillow	-11.056
▁Jackson	-11.056
▁index	-11.056
▁radius	-11.0562
▁Angeles	-11.057
▁tribe	-11.0572
▁Emil	-11.058
▁rope	-11.0584
▁Temp	-11.0592
▁distraction	-11.0599
▁shade	-11.0653
▁Jehovah	-11.0658
▁cigarette	-11.0658
▁enterprise	-11.0658
▁ordinary	-11.0658
▁unexpected	-11.0658
▁unfortunate	-11.0658
▁assignment	-11.0658
▁idiot	-11.0658
▁Civil	-11.0658
▁essay	-11.0658
▁Arthur	-11.0658
▁abroad	-11.0658
▁proportion	-11.0658
▁margin	-11.0658
▁spouse	-11.0658
▁Monday	-11.0659
▁expectations	-11.0659
▁nasal	-11.066
▁Daddy	-11.0662
▁1974	-11.0664
▁clinic	-11.0673
▁wax	-11.0674
▁oven	-11.0674
▁clip	-11.0674
▁Bern	-11.0713
▁Additionally	-11.0762
▁genuine	-11.0762
▁occupied	-11.0762
▁1981	-11.0762
▁Alexander	-11.0762
▁discharge	-11.0762
▁dancing	-11.0762
▁honour	-11.0762
▁shrink	-11.0762
▁mutual	-11.0762
▁flesh	-11.0762
▁Daniel	-11.0762
▁Among	-11.0768
▁biology	-11.0769
▁programme	-11.077
▁flee	-11.0779
73	-11.0781
▁laser	-11.0782
▁dosage	-11.0786
▁Trade	-11.0795
▁organize	-11.0807
▁magnetic	-11.0826
&	-11.0829
▁frequent	-11.0842
о	-11.0867
▁Caribbean	-11.0867
▁abstract	-11.0867
▁sneak	-11.0867
▁Build	-11.0867
▁priest	-11.0867
▁Puerto	-11.0867
▁feedback	-11.0868
▁palace	-11.0869
▁consciousness	-11.087
▁fraction	-11.0871
▁tourist	-11.0875
▁teen	-11.0875
▁establishment	-11.0878
▁exhibition	-11.0887
▁1920	-11.0887
▁lens	-11.0888
▁pork	-11.089
▁Hunt	-11.0902
▁arise	-11.0931
▁guilt	-11.0947
▁tract	-11.096
▁Francis	-11.097
и	-11.0973
▁Football	-11.0973
▁Somebody	-11.0973
▁bubble	-11.0973
▁competitive	-11.0973
▁monkey	-11.0973
▁dialect	-11.0973
▁uniform	-11.0973
ński	-11.0975
▁mount	-11.0975
▁afterwards	-11.0975
▁Charlie	-11.0975
▁recall	-11.0975
▁Albert	-11.0975
▁Member	-11.0981
▁prim	-11.1005
static	-11.1017
▁adj	-11.1034
sexual	-11.1044
ión	-11.1074
▁Affairs	-11.1081
▁Convention	-11.1081
▁Saturday	-11.1081
▁narrative	-11.1081
▁molecular	-11.1081
▁athlete	-11.1081
▁stadium	-11.1081
▁harsh	-11.1081
▁valid	-11.1081
▁diaper	-11.1081
▁drill	-11.1081
ologies	-11.1082
▁spiritual	-11.1083
▁emission	-11.1085
▁1977	-11.1087
▁resist	-11.1089
▁theories	-11.1089
▁interpretation	-11.109
▁mature	-11.1094
▁Simpl	-11.1096
▁detective	-11.1096
▁pageant	-11.1101
▁grant	-11.114
▁coordinate	-11.1188
▁Organization	-11.119
▁Pakistan	-11.119
▁Welcome	-11.119
▁contemporary	-11.119
▁corporation	-11.119
▁ecosystem	-11.119
▁magnitude	-11.119
▁DVD	-11.119
▁Excuse	-11.119
▁cabinet	-11.119
▁Federal	-11.119
▁composition	-11.119
▁ritual	-11.119
▁investigate	-11.119
▁wrist	-11.119
▁Edward	-11.119
▁jewel	-11.119
▁submit	-11.119
▁clue	-11.1191
▁naval	-11.1191
▁María	-11.1192
▁ought	-11.1196
▁closing	-11.1198
▁awareness	-11.1199
media	-11.1217
▁bored	-11.1222
▁sanct	-11.1224
▁bake	-11.1235
▁digit	-11.1237
▁audit	-11.1258
counter	-11.126
including	-11.1262
worth	-11.127
▁abnormal	-11.13
▁adventure	-11.13
▁ceremony	-11.13
▁entrepreneur	-11.13
▁explosion	-11.13
▁irritate	-11.13
▁quarantine	-11.13
▁scenario	-11.13
▁strategies	-11.13
▁Malaysia	-11.13
▁recruit	-11.13
▁underneath	-11.13
▁teenager	-11.13
▁Wilson	-11.13
▁deputy	-11.13
▁Rachel	-11.13
▁Cross	-11.13
▁odor	-11.13
▁sinus	-11.1301
▁forgotten	-11.1301
▁occasionally	-11.1302
▁admitted	-11.1304
▁1939	-11.1308
gnan	-11.1382
▁yell	-11.141
▁Kraków	-11.1411
▁Observ	-11.1411
▁destruction	-11.1411
▁refugee	-11.1411
▁reinforce	-11.1411
▁Sweden	-11.1411
▁trunk	-11.1411
▁literary	-11.1411
▁Dragon	-11.1411
▁scheme	-11.1411
▁CEO	-11.1411
▁absence	-11.1411
▁overnight	-11.1411
▁Ocean	-11.1411
▁Claire	-11.1411
▁Jimmy	-11.1413
▁rational	-11.1413
▁missile	-11.1414
▁regardless	-11.1416
▁1978	-11.1418
▁alien	-11.142
▁plum	-11.1469
▁announce	-11.1475
ل	-11.1523
▁Argentina	-11.1523
▁desperate	-11.1523
▁intervention	-11.1523
▁metabolism	-11.1523
▁privilege	-11.1523
▁Battle	-11.1523
▁transaction	-11.1523
▁placing	-11.1523
▁sought	-11.1523
▁Invest	-11.1524
▁Limit	-11.1525
▁Valley	-11.1526
▁tomato	-11.1529
▁meaningful	-11.1529
▁loop	-11.1535
other	-11.1553
▁compare	-11.159
▁Universe	-11.1637
▁discipline	-11.1637
▁headquarter	-11.1637
▁mathematics	-11.1637
▁municipal	-11.1637
▁exploit	-11.1637
▁Zealand	-11.1637
▁remarkable	-11.1637
▁dismiss	-11.1637
▁faint	-11.1639
▁Theatre	-11.164
▁blend	-11.1641
▁tech	-11.1641
▁litter	-11.1645
▁digesti	-11.1652
▁interfere	-11.1695
▁interpret	-11.1742
▁Świ	-11.1752
н	-11.1752
▁opponent	-11.1752
▁respiratory	-11.1752
▁sponsor	-11.1752
▁surprising	-11.1752
▁velocity	-11.1752
▁Support	-11.1752
phobia	-11.1752
▁assigned	-11.1752
▁yoga	-11.1752
▁Information	-11.1752
▁warrior	-11.1752
▁Berlin	-11.1752
▁blade	-11.1752
▁Mongol	-11.1752
▁silly	-11.1752
▁Medical	-11.1753
▁requirements	-11.1753
▁Agency	-11.1753
▁portray	-11.1754
▁cyst	-11.1755
▁chamber	-11.1755
▁Francisco	-11.1755
▁informed	-11.1756
▁1973	-11.1757
▁1968	-11.1759
▁Wood	-11.1761
▁quo	-11.1826
▁Final	-11.1845
▁Governor	-11.1862
▁Journal	-11.1868
▁seizure	-11.1868
ə	-11.1868
▁default	-11.1868
▁puzzle	-11.1868
▁qualities	-11.1868
▁tunnel	-11.1868
▁vacuum	-11.1868
▁Library	-11.1868
▁manifest	-11.1868
▁removal	-11.1868
▁sovereign	-11.1868
▁injuries	-11.1868
▁FBI	-11.1868
▁twist	-11.1868
▁alleged	-11.1868
▁ruling	-11.1868
▁swing	-11.187
▁Jones	-11.1871
▁loving	-11.1874
▁chairman	-11.1875
▁Often	-11.1875
▁curious	-11.1876
▁Sarah	-11.1876
communica	-11.1877
connect	-11.1949
▁Digital	-11.1985
▁Netherlands	-11.1985
▁Unfortunately	-11.1985
▁assumption	-11.1985
▁circulation	-11.1985
▁efficacy	-11.1985
▁tattoo	-11.1985
▁earliest	-11.1985
▁VND	-11.1986
▁rumor	-11.1986
▁reputation	-11.1986
▁silence	-11.1986
▁squad	-11.1986
▁dried	-11.1986
▁contaminat	-11.1987
▁shore	-11.1988
▁keyboard	-11.199
▁cookie	-11.2017
▁historic	-11.2053
▁symptom	-11.2074
▁chemistry	-11.2105
▁compromise	-11.2105
▁gambling	-11.2105
▁grandmother	-11.2105
▁occupation	-11.2105
▁monument	-11.2105
▁1961	-11.2105
▁Turkey	-11.2105
▁1/2	-11.2105
▁historian	-11.2105
▁duration	-11.2105
▁gmina	-11.2105
▁Senate	-11.2105
▁terminal	-11.2105
▁capabilities	-11.2105
▁accent	-11.2107
▁vital	-11.2107
▁bedroom	-11.2107
▁elsewhere	-11.2108
▁hug	-11.2116
▁elect	-11.2182
▁COVID	-11.2225
▁Mexican	-11.2225
▁Official	-11.2225
▁Switzerland	-11.2225
▁awkward	-11.2225
▁entitled	-11.2225
▁gravity	-11.2225
▁psychiatri	-11.2225
▁struggling	-11.2225
▁upstairs	-11.2225
▁Probably	-11.2225
▁garlic	-11.2225
▁Dream	-11.2226
▁Marshal	-11.2227
▁Standard	-11.2228
▁harmful	-11.223
▁Spring	-11.2235
▁Excel	-11.225
▁methyl	-11.2299
▁subsequent	-11.2322
ê	-11.2347
▁brilliant	-11.2347
▁concrete	-11.2347
▁evaluate	-11.2347
▁motivation	-11.2347
▁psychology	-11.2347
▁synthesis	-11.2347
▁miracle	-11.2347
▁vacation	-11.2347
▁silent	-11.2347
▁depressed	-11.2347
▁mystery	-11.2348
▁Model	-11.2348
▁Title	-11.2348
▁grape	-11.2348
▁collar	-11.2348
▁Egyptian	-11.2352
▁lord	-11.2354
INN	-11.2372
▁limb	-11.2377
▁promot	-11.2383
berries	-11.2391
cellular	-11.2427
friend	-11.2431
piece	-11.2433
▁glyc	-11.2439
▁Certain	-11.247
▁cholesterol	-11.247
▁dwarf	-11.247
▁expansion	-11.247
▁jacket	-11.247
▁synthetic	-11.247
▁teaspoon	-11.247
▁railway	-11.247
▁sibling	-11.247
▁polish	-11.247
▁anxious	-11.2471
▁raising	-11.2471
▁agencies	-11.2471
▁garment	-11.2471
▁grid	-11.2472
▁Tibet	-11.2472
▁flirt	-11.2472
▁neurons	-11.2472
▁spark	-11.2474
▁twin	-11.2477
▁preserv	-11.2487
atomic	-11.2531
spire	-11.2538
toxic	-11.2569
western	-11.2573
▁adequate	-11.2595
▁calendar	-11.2595
▁mosquito	-11.2595
▁universities	-11.2595
▁awesome	-11.2595
▁favour	-11.2595
▁1941	-11.2595
▁valley	-11.2595
▁darling	-11.2595
▁steak	-11.2596
▁spectr	-11.2596
▁nightmare	-11.2596
▁banana	-11.2598
▁piano	-11.2598
▁fancy	-11.2604
▁dense	-11.2614
oodle	-11.2666
▁Defense	-11.2722
▁Harvard	-11.2722
▁imagination	-11.2722
▁irritation	-11.2722
▁substantial	-11.2722
▁testosterone	-11.2722
▁Jordan	-11.2722
▁meditation	-11.2722
▁Either	-11.2722
▁grateful	-11.2722
▁segment	-11.2722
▁worship	-11.2722
▁Palace	-11.2722
▁ulcer	-11.2722
▁pride	-11.2722
▁exceed	-11.2723
▁framework	-11.2723
▁behave	-11.2723
▁coordinat	-11.2724
▁translation	-11.2725
▁polar	-11.2728
▁germ	-11.2745
▁Heart	-11.2762
walk	-11.2818
▁absolute	-11.2826
▁Original	-11.285
▁exhaust	-11.285
~	-11.285
▁Imperial	-11.285
▁Swedish	-11.285
▁accused	-11.285
▁engaging	-11.285
▁holiday	-11.285
▁mathematical	-11.285
▁moisturizer	-11.285
▁psychologist	-11.285
▁synthesiz	-11.285
▁tablespoon	-11.285
▁territorial	-11.285
▁fatigue	-11.285
▁1942	-11.285
▁dopamine	-11.285
▁trillion	-11.285
▁spoon	-11.285
▁initiate	-11.2851
▁Centre	-11.2851
▁championship	-11.2852
▁depriv	-11.2852
▁tactic	-11.2853
▁restrictions	-11.2853
▁devote	-11.2855
▁ongoing	-11.2856
▁Costa	-11.2925
operative	-11.2953
▁neighbour	-11.298
▁Chandler	-11.298
▁Practice	-11.298
▁Tuesday	-11.298
▁advertising	-11.298
▁council	-11.298
▁emphasize	-11.298
▁enormous	-11.298
▁sandwich	-11.298
▁yogurt	-11.298
▁signature	-11.298
▁intensity	-11.298
▁Family	-11.298
▁lonely	-11.298
▁Miami	-11.298
▁strand	-11.298
▁smartphone	-11.2981
▁carpet	-11.2981
▁chloride	-11.2981
▁Michel	-11.2984
▁insult	-11.2985
▁scr	-11.3055
Music	-11.3074
▁shoe	-11.3088
μ	-11.3112
▁diamond	-11.3112
س	-11.3112
▁Recognize	-11.3112
▁Studio	-11.3112
▁corporate	-11.3112
▁dioxide	-11.3112
▁privacy	-11.3112
▁quantum	-11.3112
▁toothpaste	-11.3112
▁Colonel	-11.3112
▁Deputy	-11.3112
▁asshole	-11.3112
▁devil	-11.3112
▁spider	-11.3112
▁barrel	-11.3112
▁housing	-11.3112
▁cease	-11.3113
▁discriminat	-11.3113
▁spill	-11.3113
▁empower	-11.3113
▁investors	-11.3113
▁Operation	-11.3114
▁snap	-11.3148
from	-11.3208
▁northwest	-11.3215
osphere	-11.3227
firm	-11.323
▁advertise	-11.3245
▁constrain	-11.3245
▁Eccellenza	-11.3245
▁arrival	-11.3245
▁challenging	-11.3245
▁peroxide	-11.3245
▁relegated	-11.3245
▁squeeze	-11.3245
▁varieties	-11.3245
▁feminist	-11.3245
▁1955	-11.3245
▁Management	-11.3245
▁Kepler	-11.3245
▁illusion	-11.3245
▁pencil	-11.3245
▁invasion	-11.3245
▁thrill	-11.3245
▁cruel	-11.3245
▁companion	-11.3245
▁telephone	-11.3245
▁Boston	-11.3246
▁Point	-11.3247
▁arrow	-11.3248
▁gear	-11.325
▁associate	-11.3332
ع	-11.338
▁Channel	-11.338
▁Detective	-11.338
▁Determine	-11.338
▁agriculture	-11.338
▁comparison	-11.338
▁destination	-11.338
▁economies	-11.338
▁economist	-11.338
▁frighten	-11.338
▁furniture	-11.338
▁galaxies	-11.338
▁grocery	-11.338
▁irregular	-11.338
▁jurisdiction	-11.338
▁nucleus	-11.338
▁participation	-11.338
▁possibilities	-11.338
▁pseudo	-11.338
▁structural	-11.338
▁organisation	-11.338
▁1954	-11.338
▁Federation	-11.338
▁analyze	-11.338
▁genius	-11.338
▁improving	-11.338
▁1943	-11.338
▁struck	-11.338
▁violation	-11.338
▁cardiac	-11.338
▁Search	-11.338
▁scalp	-11.338
▁drown	-11.338
▁resort	-11.3381
▁desktop	-11.3381
▁horizontal	-11.3382
▁trapped	-11.3385
▁Protect	-11.3387
▁southwest	-11.3394
▁erect	-11.3446
▁intelligent	-11.3517
▁Amazon	-11.3517
▁Language	-11.3517
▁Portuguese	-11.3517
▁calculation	-11.3517
▁esteem	-11.3517
▁fantastic	-11.3517
▁immigrant	-11.3517
▁surgeon	-11.3517
▁temporarily	-11.3517
▁turtle	-11.3517
▁Military	-11.3517
▁burden	-11.3517
▁pleasant	-11.3517
▁dairy	-11.3517
▁rifle	-11.3517
▁distant	-11.3518
▁serum	-11.3518
▁fortune	-11.3519
▁trading	-11.3519
▁Connect	-11.352
▁rude	-11.3521
▁Greg	-11.353
▁Radio	-11.3585
▁addict	-11.3647
▁plea	-11.3654
▁analys	-11.3655
р	-11.3656
rdiovascular	-11.3656
▁Elizabeth	-11.3656
▁anniversary	-11.3656
▁continuing	-11.3656
▁qualify	-11.3656
▁sculpture	-11.3656
▁Hawaii	-11.3656
▁Idlib	-11.3656
▁bronze	-11.3656
▁triangle	-11.3656
▁1952	-11.3656
▁behalf	-11.3656
▁Senator	-11.3656
▁garage	-11.3656
▁spiral	-11.3656
▁goodbye	-11.3656
▁intimate	-11.3656
▁admire	-11.3656
▁publisher	-11.3656
▁diversity	-11.3656
▁Trust	-11.3656
▁alliance	-11.3657
▁Design	-11.3657
▁Indeed	-11.3658
▁inspect	-11.3668
stitution	-11.3695
▁Advance	-11.3797
▁Buddhist	-11.3797
▁Greece	-11.3797
▁Meanwhile	-11.3797
▁NASA	-11.3797
▁circular	-11.3797
▁cognitive	-11.3797
▁happier	-11.3797
▁horrible	-11.3797
▁retirement	-11.3797
▁phospho	-11.3797
nstrual	-11.3797
▁Network	-11.3797
▁solving	-11.3797
▁Anything	-11.3797
▁mechanical	-11.3797
▁mucus	-11.3797
▁southeast	-11.3797
▁Bridge	-11.3798
▁elite	-11.3798
▁transmission	-11.3798
▁outfit	-11.3799
▁cheer	-11.3799
▁Uncle	-11.3801
▁Photo	-11.3815
▁Unti	-11.391
د	-11.394
▁Download	-11.394
▁Lieutenant	-11.394
▁Santiago	-11.394
▁Tomorrow	-11.394
▁assembly	-11.394
▁astronomer	-11.394
▁mysterious	-11.394
▁width	-11.394
▁cheek	-11.394
▁Mount	-11.394
▁Rather	-11.394
▁insulin	-11.3941
▁laboratory	-11.3941
▁Andrew	-11.3943
▁zoo	-11.4068
▁Direct	-11.4074
▁quest	-11.4076
▁Masurian	-11.4085
▁Oxford	-11.4085
▁caffeine	-11.4085
▁creativity	-11.4085
▁damaging	-11.4085
▁fracture	-11.4085
▁inhabitants	-11.4085
▁peripheral	-11.4085
▁profound	-11.4085
▁territories	-11.4085
▁Switch	-11.4085
▁grief	-11.4085
▁pioneer	-11.4085
▁Hindu	-11.4085
▁clever	-11.4085
▁stabiliz	-11.4085
▁threw	-11.4085
▁catalog	-11.4085
▁dentist	-11.4085
▁instinct	-11.4085
▁incentive	-11.4085
▁convey	-11.4086
▁bury	-11.4086
▁violate	-11.4086
▁Close	-11.4087
▁Warmia	-11.4176
clusive	-11.4229
ː	-11.4232
▁Communication	-11.4232
▁rhythm	-11.4232
▁shield	-11.4232
▁AIDS	-11.4232
▁Environment	-11.4232
▁Otherwise	-11.4232
▁Thursday	-11.4232
▁abdominal	-11.4232
▁garbage	-11.4232
▁maintenance	-11.4232
▁prohibit	-11.4232
▁recipient	-11.4232
▁releasing	-11.4232
▁steady	-11.4232
▁widespread	-11.4232
▁Culture	-11.4232
▁Prussia	-11.4232
▁communist	-11.4232
▁currency	-11.4232
▁leather	-11.4232
▁Calcio	-11.4232
▁Tunisia	-11.4232
▁empire	-11.4232
▁choosing	-11.4232
▁pimple	-11.4232
▁blister	-11.4232
▁straw	-11.4232
▁drove	-11.4232
▁publishing	-11.4232
▁overseas	-11.4232
▁Nathan	-11.4232
▁Modern	-11.4233
▁ugly	-11.4233
▁Clear	-11.4233
▁traits	-11.4233
▁immuno	-11.4234
▁programming	-11.4234
▁resume	-11.4235
front	-11.4368
▁Secret	-11.4378
▁Associa	-11.4379
ô	-11.4381
▁Eventually	-11.4381
▁Lithuania	-11.4381
▁Sergeant	-11.4381
▁competitor	-11.4381
▁conservative	-11.4381
▁dialogue	-11.4381
▁genital	-11.4381
▁integrated	-11.4381
▁quantity	-11.4381
▁statistics	-11.4381
▁Identify	-11.4381
▁revenge	-11.4381
▁ounce	-11.4381
▁infinite	-11.4381
▁Sierra	-11.4381
▁burst	-11.4381
▁sperm	-11.4383
▁sheep	-11.4383
▁Antoni	-11.439
▁stereo	-11.4427
publish	-11.4532
ccompanied	-11.4532
▁Commonwealth	-11.4532
▁Matthew	-11.4532
▁defensive	-11.4532
▁efficiency	-11.4532
▁metabolite	-11.4532
▁obstacle	-11.4532
▁practicing	-11.4532
▁ridiculous	-11.4532
▁Belgium	-11.4532
▁Georgia	-11.4532
▁preparing	-11.4532
▁1956	-11.4532
▁inspiration	-11.4532
▁invitation	-11.4532
▁examination	-11.4532
▁wheat	-11.4533
▁delicate	-11.4533
▁Actress	-11.4533
▁grill	-11.4533
▁agenda	-11.4533
▁amateur	-11.4533
▁suburb	-11.4535
▁agonist	-11.4535
е	-11.4686
▁controversial	-11.4686
▁dynasty	-11.4686
▁envelope	-11.4686
▁exercising	-11.4686
▁explosive	-11.4686
▁facilitate	-11.4686
▁horror	-11.4686
▁reconstruct	-11.4686
▁treasure	-11.4686
▁appetite	-11.4686
▁distress	-11.4686
▁residence	-11.4686
▁mammal	-11.4686
▁GDP	-11.4686
▁smiling	-11.4686
▁abortion	-11.4686
▁Ladies	-11.4687
▁Freedom	-11.4687
▁predator	-11.4688
▁jam	-11.4691
bacter	-11.4709
▁Develop	-11.4837
▁PlayStation	-11.4843
▁constipation	-11.4843
▁dizziness	-11.4843
▁ministry	-11.4843
▁negotiate	-11.4843
▁obligation	-11.4843
▁satisfy	-11.4843
▁sweep	-11.4843
▁twelve	-11.4843
▁Turkish	-11.4843
▁coincide	-11.4843
▁confusion	-11.4843
▁Blood	-11.4843
▁Prepare	-11.4843
▁genome	-11.4843
▁modified	-11.4843
▁Czech	-11.4843
▁dominant	-11.4843
▁jaw	-11.4843
▁healthcare	-11.4843
▁denied	-11.4844
▁grace	-11.4847
dynamic	-11.4963
keeper	-11.4964
▁situat	-11.4986
æ	-11.5001
▁Ecuador	-11.5001
▁Energy	-11.5001
▁Executive	-11.5001
▁Guatemala	-11.5001
▁Occupation	-11.5001
▁Together	-11.5001
▁Ukraine	-11.5001
▁discontinu	-11.5001
▁elevator	-11.5001
▁helicopter	-11.5001
▁satisfied	-11.5001
▁telenovela	-11.5001
▁activated	-11.5001
▁authentic	-11.5001
vaginal	-11.5001
▁hypertension	-11.5001
peptide	-11.5001
▁Chrome	-11.5001
▁Political	-11.5001
▁fragment	-11.5001
▁measuring	-11.5001
▁peanut	-11.5001
▁cyber	-11.5001
▁summit	-11.5002
▁junk	-11.5002
▁drew	-11.5002
ī	-11.5663
ح	-11.6011
+	-11.6151
ت	-11.6189
с	-11.6556
±	-11.6556
ɪ	-11.6745
в	-11.6745
к	-11.6937
â	-11.7333
ف	-11.7746
Ś	-11.8176
(	-11.836
л	-11.8398
ệ	-11.8625
ï	-11.8625
т	-11.8858
γ	-11.8858
š	-11.8858
ك	-11.9096
Á	-11.934
⁄	-11.959
ش	-11.959
д	-11.9846
>	-11.9846
ć	-11.9846
^	-12.0109
|	-12.0109
π	-12.0109
ο	-12.038
ج	-12.038
<	-12.0657
ë	-12.0943
ρ	-12.1237
ق	-12.1237
м	-12.1853
ı	-12.2175
É	-12.2509
ς	-12.2509
σ	-12.2509
_	-12.2853
ε	-12.2853
ط	-12.2853
ν	-12.2854
τ	-12.2854
ß	-12.3211
č	-12.3211
⌘	-12.3211
ù	-12.3211
ư	-12.3581
ʊ	-12.3581
й	-12.3581
‐	-12.3581
ì	-12.3581
ả	-12.3581
г	-12.3966
ز	-12.3966
子	-12.3966
Å	-12.4366
أ	-12.4366
ه	-12.4366
λ	-12.4782
ɛ	-12.4782
า	-12.4782
δ	-12.5217
ص	-12.5672
ι	-12.5672
у	-12.6148
ø	-12.6148
♪	-12.6148
ン	-12.6148
ー	-12.6148
я	-12.6648
ē	-12.6648
⊞	-12.7174
어	-12.7174
ò	-12.7174
î	-12.773
ơ	-12.773
ạ	-12.773
@	-12.773
з	-12.773
大	-12.773
õ	-12.8318
Δ	-12.8318
θ	-12.8318
ч	-12.8318
κ	-12.8318
В	-12.8943
्	-12.8943
ラ	-12.8943
η	-12.8943
ọ	-12.8943
학	-12.8943
∈	-12.961
ŏ	-12.961
ɑ	-12.961
ί	-12.961
ト	-13.0324
전	-13.0324
י	-13.0324
ា	-13.0324
ร	-13.1093
ɡ	-13.1093
ь	-13.1093
ộ	-13.1093
ý	-13.1093
語	-13.1093
ा	-13.1093
ו	-13.1093
성	-13.1093
ã	-13.1912
र	-13.1926
イ	-13.1926
中	-13.1926
ş	-13.1926
å	-13.1926
ă	-13.1926
ǎ	-13.1926
б	-13.1926
ị	-13.1926
美	-13.1926
교	-13.1926
ά	-13.1926
К	-13.1926
*	-13.2797
έ	-13.2835
ル	-13.2836
\	-13.2836
§	-13.2836
ě	-13.2836
ˌ	-13.2836
ω	-13.2836
อ	-13.2836
ễ	-13.2836
≤	-13.2836
א	-13.2836
경	-13.2836
С	-13.2836
장	-13.2836
ิ	-13.2836
[	-13.3798
の	-13.3835
ア	-13.3836
п	-13.3836
대	-13.3836
ى	-13.3836
М	-13.3836
ל	-13.3836
ṭ	-13.3836
저	-13.3836
υ	-13.3836
ř	-13.3836
प	-13.4947
ɔ	-13.4947
ḥ	-13.4947
ス	-13.4947
ר	-13.4947
«	-13.4947
÷	-13.4947
ž	-13.4947
ʻ	-13.4947
ि	-13.4947
ầ	-13.4947
문	-13.4947
ɒ	-13.4947
ע	-13.4947
ắ	-13.4947
ض	-13.4947
น	-13.4947
이	-13.4947
เ	-13.4947
–	-13.6159
ม	-13.6197
ต	-13.6197
公	-13.6197
ַ	-13.6197
ย	-13.6197
国	-13.6197
φ	-13.6197
ی	-13.6197
ấ	-13.6197
ế	-13.6197
И	-13.6197
明	-13.6197
天	-13.6197
ข	-13.6197
ส	-13.7625
ุ	-13.7625
日	-13.7625
ğ	-13.7625
ύ	-13.7625
국	-13.7625
ũ	-13.7625
χ	-13.7625
ы	-13.7625
і	-13.7625
⇧	-13.7625
≥	-13.7625
⌥	-13.7625
♠	-13.7625
ロ	-13.7625
비	-13.7625
û	-13.7625
ė	-13.7625
신	-13.7625
ό	-13.7625
ָ	-13.7625
ờ	-13.7625
文	-13.7625
本	-13.7625
的	-13.7625
ッ	-13.7625
藤	-13.7625
陳	-13.7625
사	-13.7625
ท	-13.7625
ว	-13.7625
‘	-13.9254
=	-13.9254
ั	-13.9292
원	-13.9292
त	-13.9292
พ	-13.9292
ф	-13.9292
ウ	-13.9292
의	-13.9292
द	-13.9292
ム	-13.9292
ŋ	-13.9292
ʿ	-13.9292
Б	-13.9292
Н	-13.9292
ա	-13.9292
क	-13.9292
☰	-13.9292
マ	-13.9292
長	-13.9292
鳳	-13.9292
غ	-13.9292
ล	-13.9292
ṃ	-13.9292
張	-13.9292
物	-13.9292
田	-13.9292
제	-13.9292
َ	-13.9292
原	-13.9292
李	-13.9292
ζ	-13.9292
ง	-13.9292
、	-13.9292
정	-13.9292
・	-14.1292
と	-14.1292
カ	-14.1292
О	-14.1292
ी	-14.1292
ိ	-14.1292
家	-14.1292
מ	-14.1292
נ	-14.1292
ĩ	-14.1292
Д	-14.1292
ц	-14.1292
э	-14.1292
ה	-14.1292
ـ	-14.1292
้	-14.1292
ក	-14.1292
រ	-14.1292
ស	-14.1292
ề	-14.1292
―	-14.1292
⋅	-14.1292
夫	-14.1292
氏	-14.1292
真	-14.1292
여	-14.1292
ǒ	-14.1292
န	-14.1292
実	-14.1292
王	-14.1292
Ф	-14.1292
ǐ	-14.1292
学	-14.1292
海	-14.1292
ж	-14.1292
भ	-14.1292
ก	-14.1292
ด	-14.1292
ク	-14.1292
方	-14.1292
Г	-14.1292
ב	-14.1292
ק	-14.1292
法	-14.1292
理	-14.1292
ド	-14.1292
บ	-14.3792
회	-14.3792
Р	-14.3792
ะ	-14.3792
ი	-14.3792
グ	-14.3792
コ	-14.3792
清	-14.3792
な	-14.3792
勇	-14.3792
立	-14.3792
ő	-14.3792
ּ	-14.3792
か	-14.3792
城	-14.3792
레	-14.3792
만	-14.3792
ġ	-14.3792
ș	-14.3792
ʌ	-14.3792
ज	-14.3792
ल	-14.3792
ុ	-14.3792
ṅ	-14.3792
∇	-14.3792
∘	-14.3792
∣	-14.3792
≈	-14.3792
⟩	-14.3792
こ	-14.3792
シ	-14.3792
リ	-14.3792
京	-14.3792
人	-14.3792
員	-14.3792
宿	-14.3792
小	-14.3792
山	-14.3792
我	-14.3792
會	-14.3792
有	-14.3792
街	-14.3792
輝	-14.3792
雄	-14.3792
살	-14.3792
야	-14.3792
죤	-14.3792
화	-14.3792
ψ	-14.3792
ّ	-14.3792
學	-14.3792
英	-14.3792
파	-14.3792
ُ	-14.3792
ِ	-14.3792
ម	-14.3792
ナ	-14.3792
孟	-14.3792
東	-14.3792
鶴	-14.3792
텔	-14.3792
홍	-14.3792
新	-14.3792
林	-14.3792
高	-14.3792
그	-14.3792
ာ	-14.3792
三	-14.3792
内	-14.3792
四	-14.3792
民	-14.3792
西	-14.3792
고	-14.3792
म	-14.3792
死	-14.3792
ฟ	-14.7125
バ	-14.7125
仔	-14.7125
レ	-14.7125
안	-14.7125
ช	-14.7125
ป	-14.7125
代	-14.7125
¡	-14.7125
ט	-14.7125
伊	-14.7125
없	-14.7125
처	-14.7125
パ	-14.7125
モ	-14.7125
가	-14.7125
보	-14.7125
©	-14.7125
Ц	-14.7125
յ	-14.7125
ն	-14.7125
ذ	-14.7125
ظ	-14.7125
ङ	-14.7125
च	-14.7125
स	-14.7125
ो	-14.7125
র	-14.7125
া	-14.7125
ಕ	-14.7125
ជ	-14.7125
ត	-14.7125
ទ	-14.7125
ន	-14.7125
ậ	-14.7125
ể	-14.7125
ớ	-14.7125
ợ	-14.7125
ὰ	-14.7125
‚	-14.7125
†	-14.7125
‹	-14.7125
›	-14.7125
←	-14.7125
∏	-14.7125
∑	-14.7125
≡	-14.7125
⊇	-14.7125
⏎	-14.7125
ふ	-14.7125
り	-14.7125
ガ	-14.7125
キ	-14.7125
ツ	-14.7125
ポ	-14.7125
世	-14.7125
会	-14.7125
作	-14.7125
你	-14.7125
华	-14.7125
吉	-14.7125
喜	-14.7125
園	-14.7125
女	-14.7125
札	-14.7125
義	-14.7125
藍	-14.7125
과	-14.7125
김	-14.7125
리	-14.7125
스	-14.7125
아	-14.7125
자	-14.7125
주	-14.7125
Γ	-14.7125
和	-14.7125
姫	-14.7125
孫	-14.7125
安	-14.7125
巾	-14.7125
焼	-14.7125
阿	-14.7125
龍	-14.7125
마	-14.7125
П	-14.7125
ְ	-14.7125
ִ	-14.7125
ח	-14.7125
न	-14.7125
ु	-14.7125
း	-14.7125
お	-14.7125
エ	-14.7125
ミ	-14.7125
之	-14.7125
十	-14.7125
千	-14.7125
夏	-14.7125
平	-14.7125
株	-14.7125
華	-14.7125
行	-14.7125
나	-14.7125
라	-14.7125
산	-14.7125
수	-14.7125
양	-14.7125
하	-14.7125
한	-14.7125
ू	-14.7125
皇	-14.7125
羅	-14.7125
赵	-14.7125
ေ	-14.7125
ა	-14.7125
が	-14.7125
み	-14.7125
保	-14.7125
동	-14.7125
법	-14.7125
서	-14.7125
실	-14.7125
조	-14.7125
帝	-14.7125
Л	-14.7125
ю	-14.7125
空	-14.7125
軍	-14.7125
°	-15.2088
โ	-15.2125
ນ	-15.2125
າ	-15.2125
フ	-15.2125
품	-15.2125
野	-15.2125
श	-15.2125
初	-15.2125
恋	-15.2125
う	-15.2125
沢	-15.2125
일	-15.2125
{	-15.2125
Ã	-15.2125
ธ	-15.2125
ダ	-15.2125
哥	-15.2125
宮	-15.2125
想	-15.2125
神	-15.2125
近	-15.2125
道	-15.2125
세	-15.2125
ಠ	-15.2125
魔	-15.2125
黃	-15.2125
내	-15.2125
은	-15.2125
ǝ	-15.2125
¬	-15.2125
ċ	-15.2125
ņ	-15.2125
ů	-15.2125
ʕ	-15.2125
ʹ	-15.2125
ʼ	-15.2125
ʾ	-15.2125
̂	-15.2125
̃	-15.2125
̄	-15.2125
̊	-15.2125
Φ	-15.2125
Є	-15.2125
Ш	-15.2125
ի	-15.2125
ր	-15.2125
ֵ	-15.2125
ץ	-15.2125
ث	-15.2125
ْ	-15.2125
ं	-15.2125
व	-15.2125
ฐ	-15.2125
ู	-15.2125
ງ	-15.2125
ོ	-15.2125
ခ	-15.2125
ပ	-15.2125
ီ	-15.2125
რ	-15.2125
ញ	-15.2125
ហ	-15.2125
ឧ	-15.2125
ី	-15.2125
Ṣ	-15.2125
ṣ	-15.2125
ổ	-15.2125
ỗ	-15.2125
‡	-15.2125
↹	-15.2125
⇒	-15.2125
√	-15.2125
☆	-15.2125
い	-15.2125
け	-15.2125
よ	-15.2125
る	-15.2125
ん	-15.2125
ケ	-15.2125
ゴ	-15.2125
デ	-15.2125
ノ	-15.2125
ハ	-15.2125
ヒ	-15.2125
ャ	-15.2125
ワ	-15.2125
介	-15.2125
先	-15.2125
光	-15.2125
党	-15.2125
全	-15.2125
冬	-15.2125
制	-15.2125
友	-15.2125
同	-15.2125
回	-15.2125
太	-15.2125
姐	-15.2125
媛	-15.2125
字	-15.2125
宗	-15.2125
定	-15.2125
室	-15.2125
帮	-15.2125
弾	-15.2125
心	-15.2125
成	-15.2125
技	-15.2125
持	-15.2125
族	-15.2125
星	-15.2125
曲	-15.2125
木	-15.2125
村	-15.2125
样	-15.2125
梦	-15.2125
榮	-15.2125
槍	-15.2125
殺	-15.2125
永	-15.2125
洋	-15.2125
派	-15.2125
灣	-15.2125
球	-15.2125
生	-15.2125
盗	-15.2125
盟	-15.2125
粹	-15.2125
組	-15.2125
線	-15.2125
翔	-15.2125
肉	-15.2125
臣	-15.2125
芦	-15.2125
芬	-15.2125
荘	-15.2125
蘆	-15.2125
蘇	-15.2125
術	-15.2125
見	-15.2125
赤	-15.2125
起	-15.2125
通	-15.2125
造	-15.2125
邪	-15.2125
部	-15.2125
飛	-15.2125
餅	-15.2125
麗	-15.2125
기	-15.2125
너	-15.2125
락	-15.2125
람	-15.2125
바	-15.2125
방	-15.2125
백	-15.2125
봉	-15.2125
상	-15.2125
소	-15.2125
싫	-15.2125
업	-15.2125
에	-15.2125
요	-15.2125
잘	-15.2125
참	-15.2125
치	-15.2125
해	-15.2125
僕	-15.2125
双	-15.2125
垂	-15.2125
寧	-15.2125
德	-15.2125
揚	-15.2125
景	-15.2125
机	-15.2125
森	-15.2125
濟	-15.2125
烏	-15.2125
百	-15.2125
秀	-15.2125
結	-15.2125
茅	-15.2125
酢	-15.2125
림	-15.2125
예	-15.2125
Ü	-15.2125
ή	-15.2125
ү	-15.2125
ן	-15.2125
ग	-15.2125
တ	-15.2125
ិ	-15.2125
ち	-15.2125
に	-15.2125
チ	-15.2125
上	-15.2125
他	-15.2125
元	-15.2125
名	-15.2125
味	-15.2125
奇	-15.2125
寒	-15.2125
康	-15.2125
弘	-15.2125
正	-15.2125
洞	-15.2125
科	-15.2125
녀	-15.2125
덕	-15.2125
들	-15.2125
무	-15.2125
범	-15.2125
쁜	-15.2125
석	-15.2125
연	-15.2125
울	-15.2125
육	-15.2125
經	-15.2125
명	-15.2125
ֶ	-15.2125
ד	-15.2125
ש	-15.2125
ี	-15.2125
く	-15.2125
つ	-15.2125
も	-15.2125
五	-15.2125
常	-15.2125
托	-15.2125
校	-15.2125
金	-15.2125
공	-15.2125
네	-15.2125
쇼	-15.2125
시	-15.2125
委	-15.2125
隊	-15.2125
ห	-15.2125
후	-16.1961
큼	-16.1962
중	-16.1963
유	-16.1964
왕	-16.1965
앙	-16.1966
선	-16.1967
부	-16.1968
못	-16.1969
남	-16.197
餘	-16.1971
音	-16.1972
陸	-16.1973
辺	-16.1974
製	-16.1975
航	-16.1976
翻	-16.1977
筒	-16.1978
社	-16.1979
畢	-16.198
由	-16.1981
渡	-16.1982
欧	-16.1983
横	-16.1984
式	-16.1985
央	-16.1986
夕	-16.1987
嘉	-16.1988
務	-16.1989
力	-16.199
冰	-16.1991
云	-16.1992
プ	-16.1993
ブ	-16.1994
テ	-16.1995
ジ	-16.1996
≃	-16.1997
∶	-16.1998
Ὠ	-16.1999
ὕ	-16.2
ἐ	-16.2001
ử	-16.2002
ố	-16.2003
ẹ	-16.2004
ḍ	-16.2005
ោ	-16.2006
ល	-16.2007
ប	-16.2008
ნ	-16.2009
ြ	-16.201
ု	-16.2011
အ	-16.2012
ရ	-16.2013
ภ	-16.2014
ब	-16.2015
ܬ	-16.2016
ئ	-16.2017
ֹ	-16.2018
ւ	-16.2019
ո	-16.202
Հ	-16.2021
қ	-16.2022
Қ	-16.2023
ш	-16.2024
Э	-16.2025
Х	-16.2026
У	-16.2027
Т	-16.2028
Χ	-16.2029
ʔ	-16.203
ɣ	-16.2031
Ā	-16.2032
Ö	-16.2033
Ñ	-16.2034
Î	-16.2035
Ç	-16.2036
Â	-16.2037
롯	-16.2038
데	-16.2039
韓	-16.204
限	-16.2041
陈	-16.2042
白	-16.2043
司	-16.2044
ュ	-16.2045
ニ	-16.2046
‭	-16.2047
ỳ	-16.2048
Ọ	-16.2049
ព	-16.205
မ	-16.2051
ํ	-16.2052
य	-16.2053
آ	-16.2054
ξ	-16.2055
Σ	-16.2056
Ν	-16.2057
Η	-16.2058
Č	-16.2059
Í	-16.206
¢	-16.2061
위	-16.2062
香	-16.2063
谢	-16.2064
葫	-16.2065
糖	-16.2066
港	-16.2067
摸	-16.2068
タ	-16.2069
ゼ	-16.207
‰	-16.2071
Ἀ	-16.2072
ẵ	-16.2073
ṇ	-16.2074
ঙ	-16.2075
ء	-16.2076
ё	-16.2077
Я	-16.2078
Τ	-16.2079
Κ	-16.208
͘	-16.2081
Ş	-16.2082
İ	-16.2083
Ú	-16.2084
♯	-16.2085
♭	-16.2086
⊙	-16.2087
∞	-16.2088
„	-16.2089
Ḥ	-16.209
ʒ	-16.2091
Ó	-16.2092
¿	-16.2093
⊕	-16.2094
Ω	-16.2095
ħ	-16.2096
þ	-16.2097
⋯	-16.2098
إ	-16.2099
Š	-16.21
х	-16.2101
®	-16.2102
냐	-16.2103
國	-16.2104
А	-16.2105
»	-16.2106
¥	-16.2107
⋮	-16.2108
ʃ	-16.2109
خ	-16.211
ồ	-16.2111
∗	-16.2112
•	-16.2113
☉	-16.2114
·	-16.2115
Đ	-16.2116
€	-16.2117
Ō	-16.2118
Ż	-16.2119
→	-16.212
ź	-16.2121
£	-16.2122
ä	-16.2123
−	-16.2124
ຊ	-16.2125
ບ	-16.2125
ມ	-16.2125
ຫ	-16.2125
ິ	-16.2125
ຽ	-16.2125
Μ	-16.2125
З	-16.2125
Ӏ	-16.2125
ג	-16.2125
ォ	-16.2125
争	-16.2125
休	-16.2125
卹	-16.2125
塘	-16.2125
形	-16.2125
思	-16.2125
戦	-16.2125
撫	-16.2125
杯	-16.2125
水	-16.2125
熊	-16.2125
猫	-16.2125
瓦	-16.2125
疾	-16.2125
福	-16.2125
諭	-16.2125
退	-16.2125
郊	-16.2125
래	-16.2125
식	-16.2125
약	-16.2125
Ł	-16.2125
Ε	-16.2125
छ	-16.2125
ৌ	-16.2125
ぬ	-16.2125
め	-16.2125
愿	-16.2125
栗	-16.2125
気	-16.2125
游	-16.2125
滨	-16.2125
犬	-16.2125
賀	-16.2125
룡	-16.2125
종	-16.2125
통	-16.2125
평	-16.2125
훈	-16.2125
Æ	-16.2125
đ	-16.2125
ȫ	-16.2125
এ	-16.2125
ὑ	-16.2125
戴	-16.2125
碈	-16.2125
蜂	-16.2125
분	-16.2125
	-16.2125
Ê	-16.2125
Ø	-16.2125
ð	-16.2125
ÿ	-16.2125
Ě	-16.2125
Ĝ	-16.2125
Ğ	-16.2125
Ġ	-16.2125
Ī	-16.2125
Œ	-16.2125
œ	-16.2125
ŭ	-16.2125
ų	-16.2125
Ž	-16.2125
ǁ	-16.2125
ǔ	-16.2125
ǚ	-16.2125
̅	-16.2125
̇	-16.2125
̋	-16.2125
̍	-16.2125
̧	-16.2125
͂	-16.2125
Λ	-16.2125
Υ	-16.2125
ϊ	-16.2125
ώ	-16.2125
Ч	-16.2125
ъ	-16.2125
Վ	-16.2125
դ	-16.2125
թ	-16.2125
լ	-16.2125
մ	-16.2125
ս	-16.2125
տ	-16.2125
ֲ	-16.2125
־	-16.2125
ֿ	-16.2125
ס	-16.2125
ٍ	-16.2125
ٱ	-16.2125
ܠ	-16.2125
ܡ	-16.2125
ܪ	-16.2125
ओ	-16.2125
औ	-16.2125
ट	-16.2125
ण	-16.2125
े	-16.2125
ै	-16.2125
ौ	-16.2125
দ	-16.2125
ব	-16.2125
ল	-16.2125
ী	-16.2125
ু	-16.2125
ર	-16.2125
ૂ	-16.2125
ି	-16.2125
ಡ	-16.2125
ತ	-16.2125
ವ	-16.2125
จ	-16.2125
ซ	-16.2125
ญ	-16.2125
ณ	-16.2125
่	-16.2125
์	-16.2125
ຂ	-16.2125
ວ	-16.2125
ສ	-16.2125
ະ	-16.2125
བ	-16.2125
མ	-16.2125
ཟ	-16.2125
ལ	-16.2125
ས	-16.2125
ྒ	-16.2125
ྲ	-16.2125
ླ	-16.2125
က	-16.2125
င	-16.2125
ထ	-16.2125
ဖ	-16.2125
ယ	-16.2125
ဝ	-16.2125
ျ	-16.2125
ွ	-16.2125
ှ	-16.2125
დ	-16.2125
ე	-16.2125
ვ	-16.2125
თ	-16.2125
ლ	-16.2125
მ	-16.2125
უ	-16.2125
ሃ	-16.2125
ቅ	-16.2125
ና	-16.2125
ን	-16.2125
ធ	-16.2125
យ	-16.2125
ឡ	-16.2125
ួ	-16.2125
ែ	-16.2125
ៅ	-16.2125
ះ	-16.2125
ḇ	-16.2125
ằ	-16.2125
ẻ	-16.2125
ẽ	-16.2125
ỏ	-16.2125
ụ	-16.2125
ủ	-16.2125
ứ	-16.2125
ừ	-16.2125
ự	-16.2125
ỹ	-16.2125
ἅ	-16.2125
ὐ	-16.2125
ὶ	-16.2125
ὸ	-16.2125
ᾶ	-16.2125
ῖ	-16.2125
ῦ	-16.2125
₹	-16.2125
₽	-16.2125
℞	-16.2125
↓	-16.2125
⇔	-16.2125
⇩	-16.2125
∀	-16.2125
∅	-16.2125
∆	-16.2125
∖	-16.2125
∙	-16.2125
∫	-16.2125
≅	-16.2125
⊂	-16.2125
⊆	-16.2125
⊗	-16.2125
⊢	-16.2125
⎇	-16.2125
⏭	-16.2125
■	-16.2125
►	-16.2125
○	-16.2125
☺	-16.2125
♥	-16.2125
⚙	-16.2125
⟨	-16.2125
⟼	-16.2125
」	-16.2125
〜	-16.2125
き	-16.2125
ぎ	-16.2125
ぐ	-16.2125
さ	-16.2125
じ	-16.2125
た	-16.2125
だ	-16.2125
ぴ	-16.2125
ぷ	-16.2125
ぼ	-16.2125
ゃ	-16.2125
ィ	-16.2125
ェ	-16.2125
ギ	-16.2125
ズ	-16.2125
セ	-16.2125
ネ	-16.2125
メ	-16.2125
ヶ	-16.2125
不	-16.2125
与	-16.2125
为	-16.2125
主	-16.2125
丽	-16.2125
九	-16.2125
也	-16.2125
井	-16.2125
令	-16.2125
仰	-16.2125
任	-16.2125
份	-16.2125
伏	-16.2125
优	-16.2125
伟	-16.2125
伽	-16.2125
但	-16.2125
位	-16.2125
佐	-16.2125
佳	-16.2125
便	-16.2125
俗	-16.2125
個	-16.2125
倫	-16.2125
偉	-16.2125
像	-16.2125
儀	-16.2125
優	-16.2125
兴	-16.2125
典	-16.2125
军	-16.2125
冠	-16.2125
助	-16.2125
勞	-16.2125
化	-16.2125
单	-16.2125
単	-16.2125
博	-16.2125
厂	-16.2125
古	-16.2125
句	-16.2125
史	-16.2125
右	-16.2125
后	-16.2125
君	-16.2125
吧	-16.2125
吸	-16.2125
品	-16.2125
哇	-16.2125
哲	-16.2125
商	-16.2125
啟	-16.2125
在	-16.2125
场	-16.2125
圾	-16.2125
坏	-16.2125
垃	-16.2125
垣	-16.2125
基	-16.2125
場	-16.2125
壤	-16.2125
奭	-16.2125
好	-16.2125
妃	-16.2125
妙	-16.2125
姚	-16.2125
嫌	-16.2125
守	-16.2125
宏	-16.2125
尾	-16.2125
屋	-16.2125
岡	-16.2125
岭	-16.2125
峰	-16.2125
崎	-16.2125
崩	-16.2125
嶋	-16.2125
川	-16.2125
州	-16.2125
希	-16.2125
帽	-16.2125
年	-16.2125
幸	-16.2125
幹	-16.2125
庁	-16.2125
庚	-16.2125
府	-16.2125
庵	-16.2125
廉	-16.2125
建	-16.2125
弓	-16.2125
引	-16.2125
強	-16.2125
彗	-16.2125
彙	-16.2125
役	-16.2125
律	-16.2125
微	-16.2125
徹	-16.2125
志	-16.2125
忠	-16.2125
怖	-16.2125
怡	-16.2125
性	-16.2125
怪	-16.2125
恵	-16.2125
悟	-16.2125
悠	-16.2125
您	-16.2125
情	-16.2125
惣	-16.2125
意	-16.2125
慈	-16.2125
慘	-16.2125
懦	-16.2125
戸	-16.2125
所	-16.2125
拉	-16.2125
指	-16.2125
振	-16.2125
控	-16.2125
散	-16.2125
斎	-16.2125
斬	-16.2125
无	-16.2125
昆	-16.2125
是	-16.2125
時	-16.2125
晶	-16.2125
曬	-16.2125
書	-16.2125
曾	-16.2125
月	-16.2125
朝	-16.2125
未	-16.2125
杉	-16.2125
束	-16.2125
枳	-16.2125
染	-16.2125
查	-16.2125
柯	-16.2125
柱	-16.2125
柴	-16.2125
桂	-16.2125
案	-16.2125
業	-16.2125
構	-16.2125
標	-16.2125
橋	-16.2125
橘	-16.2125
機	-16.2125
橫	-16.2125
欢	-16.2125
步	-16.2125
歳	-16.2125
歸	-16.2125
殷	-16.2125
毓	-16.2125
汁	-16.2125
江	-16.2125
沃	-16.2125
沮	-16.2125
治	-16.2125
波	-16.2125
洪	-16.2125
浜	-16.2125
浩	-16.2125
淵	-16.2125
源	-16.2125
漢	-16.2125
漫	-16.2125
濊	-16.2125
無	-16.2125
照	-16.2125
煮	-16.2125
燮	-16.2125
牧	-16.2125
独	-16.2125
玄	-16.2125
珮	-16.2125
琦	-16.2125
瑞	-16.2125
瑩	-16.2125
産	-16.2125
男	-16.2125
病	-16.2125
登	-16.2125
益	-16.2125
盛	-16.2125
目	-16.2125
相	-16.2125
省	-16.2125
知	-16.2125
石	-16.2125
碎	-16.2125
碩	-16.2125
磐	-16.2125
礫	-16.2125
祐	-16.2125
竺	-16.2125
简	-16.2125
簡	-16.2125
粉	-16.2125
粥	-16.2125
紀	-16.2125
納	-16.2125
紓	-16.2125
纾	-16.2125
终	-16.2125
结	-16.2125
置	-16.2125
羘	-16.2125
群	-16.2125
羹	-16.2125
羽	-16.2125
耀	-16.2125
耶	-16.2125
耿	-16.2125
聞	-16.2125
聯	-16.2125
聰	-16.2125
聲	-16.2125
肖	-16.2125
股	-16.2125
育	-16.2125
胆	-16.2125
膝	-16.2125
臺	-16.2125
舜	-16.2125
良	-16.2125
芋	-16.2125
花	-16.2125
芳	-16.2125
苔	-16.2125
苦	-16.2125
茶	-16.2125
萬	-16.2125
葉	-16.2125
蕭	-16.2125
藥	-16.2125
虚	-16.2125
虫	-16.2125
衫	-16.2125
裂	-16.2125
裕	-16.2125
裳	-16.2125
視	-16.2125
言	-16.2125
記	-16.2125
話	-16.2125
調	-16.2125
論	-16.2125
證	-16.2125
識	-16.2125
譚	-16.2125
譯	-16.2125
護	-16.2125
译	-16.2125
诗	-16.2125
语	-16.2125
请	-16.2125
谶	-16.2125
豚	-16.2125
貊	-16.2125
貴	-16.2125
賴	-16.2125
贞	-16.2125
赛	-16.2125
赫	-16.2125
足	-16.2125
路	-16.2125
身	-16.2125
躰	-16.2125
車	-16.2125
这	-16.2125
遊	-16.2125
過	-16.2125
邀	-16.2125
郁	-16.2125
郷	-16.2125
都	-16.2125
里	-16.2125
重	-16.2125
鋒	-16.2125
鑑	-16.2125
钱	-16.2125
開	-16.2125
間	-16.2125
関	-16.2125
间	-16.2125
防	-16.2125
际	-16.2125
陵	-16.2125
随	-16.2125
雪	-16.2125
青	-16.2125
靖	-16.2125
静	-16.2125
韆	-16.2125
順	-16.2125
頭	-16.2125
願	-16.2125
预	-16.2125
飞	-16.2125
驤	-16.2125
马	-16.2125
髪	-16.2125
魅	-16.2125
鮮	-16.2125
鯨	-16.2125
鰻	-16.2125
黒	-16.2125
黨	-16.2125
감	-16.2125
거	-16.2125
군	-16.2125
금	-16.2125
길	-16.2125
끝	-16.2125
날	-16.2125
낭	-16.2125
낮	-16.2125
넙	-16.2125
늘	-16.2125
다	-16.2125
돈	-16.2125
땅	-16.2125
려	-16.2125
령	-16.2125
로	-16.2125
말	-16.2125
맥	-16.2125
먼	-16.2125
목	-16.2125
미	-16.2125
밤	-16.2125
뱅	-16.2125
봄	-16.2125
송	-16.2125
순	-16.2125
쉬	-16.2125
슈	-16.2125
싶	-16.2125
씨	-16.2125
애	-16.2125
엔	-16.2125
영	-16.2125
옥	-16.2125
웃	-16.2125
윙	-16.2125
융	-16.2125
인	-16.2125
족	-16.2125
좋	-16.2125
줘	-16.2125
지	-16.2125
천	-16.2125
체	-16.2125
콜	-16.2125
타	-16.2125
터	-16.2125
테	-16.2125
트	-16.2125
퍼	-16.2125
피	-16.2125
혁	-16.2125
호	-16.2125
흥	-16.2125
️	-16.2125
～	-16.2125
Ð	-16.2125
І	-16.2125
ণ	-16.2125
ଣ	-16.2125
ሪ	-16.2125
Ḩ	-16.2125
Ṭ	-16.2125
习	-16.2125
佃	-16.2125
住	-16.2125
儒	-16.2125
利	-16.2125
劳	-16.2125
勁	-16.2125
北	-16.2125
嚴	-16.2125
娘	-16.2125
孔	-16.2125
宝	-16.2125
富	-16.2125
幞	-16.2125
廣	-16.2125
抗	-16.2125
施	-16.2125
春	-16.2125
昭	-16.2125
杂	-16.2125
歌	-16.2125
毛	-16.2125
河	-16.2125
爆	-16.2125
竹	-16.2125
紅	-16.2125
紗	-16.2125
罩	-16.2125
羊	-16.2125
莊	-16.2125
莽	-16.2125
蒲	-16.2125
蔡	-16.2125
蔽	-16.2125
賢	-16.2125
釗	-16.2125
鈴	-16.2125
集	-16.2125
雙	-16.2125
雲	-16.2125
雷	-16.2125
飥	-16.2125
餺	-16.2125
鷓	-16.2125
갈	-16.2125
겨	-16.2125
느	-16.2125
따	-16.2125
러	-16.2125
루	-16.2125
불	-16.2125
열	-16.2125
재	-16.2125
진	-16.2125
크	-16.2125
현	-16.2125
Ý	-16.2125
Β	-16.2125
Ο	-16.2125
Ж	-16.2125
ת	-16.2125
ঁ	-16.2125
ফ	-16.2125
স	-16.2125
ি	-16.2125
ં	-16.2125
દ	-16.2125
િ	-16.2125
ଫ	-16.2125
ೊ	-16.2125
ค	-16.2125
ไ	-16.2125
စ	-16.2125
ံ	-16.2125
ታ	-16.2125
ខ	-16.2125
គ	-16.2125
ណ	-16.2125
ἰ	-16.2125
あ	-16.2125
し	-16.2125
っ	-16.2125
て	-16.2125
は	-16.2125
や	-16.2125
下	-16.2125
丸	-16.2125
二	-16.2125
伴	-16.2125
侯	-16.2125
偵	-16.2125
克	-16.2125
內	-16.2125
凶	-16.2125
則	-16.2125
口	-16.2125
吳	-16.2125
吴	-16.2125
唐	-16.2125
团	-16.2125
團	-16.2125
墟	-16.2125
外	-16.2125
妹	-16.2125
姉	-16.2125
專	-16.2125
尹	-16.2125
尽	-16.2125
岸	-16.2125
幽	-16.2125
恐	-16.2125
憲	-16.2125
手	-16.2125
探	-16.2125
政	-16.2125
桐	-16.2125
梁	-16.2125
沙	-16.2125
流	-16.2125
濱	-16.2125
瀬	-16.2125
电	-16.2125
章	-16.2125
精	-16.2125
缘	-16.2125
舞	-16.2125
色	-16.2125
藏	-16.2125
解	-16.2125
諸	-16.2125
越	-16.2125
趙	-16.2125
过	-16.2125
鎮	-16.2125
陛	-16.2125
電	-16.2125
霊	-16.2125
麻	-16.2125
강	-16.2125
같	-16.2125
구	-16.2125
꽃	-16.2125
농	-16.2125
는	-16.2125
돌	-16.2125
두	-16.2125
딴	-16.2125
랑	-16.2125
번	-16.2125
변	-16.2125
별	-16.2125
윤	-16.2125
있	-16.2125
째	-16.2125
특	-16.2125
행	-16.2125
헌	-16.2125
휘	-16.2125
Θ	-16.2125
ֱ	-16.2125
ׁ	-16.2125
פ	-16.2125
સ	-16.2125
แ	-16.2125
ဇ	-16.2125
ဒ	-16.2125
「	-16.2125
ベ	-16.2125
ペ	-16.2125
培	-16.2125
放	-16.2125
暨	-16.2125
楽	-16.2125
用	-16.2125
監	-16.2125
蔵	-16.2125
訓	-16.2125
送	-16.2125
障	-16.2125
광	-16.2125
당	-16.2125
핑	-16.2125
ถ	-16.2126
ผ	-16.2126
ื	-16.2126
秘	-16.2126
′	-16.2126
専	-16.2126
武	-16.2126
