<unk>	0
<s>	0
</s>	0
.	-3.13685
s	-3.2272
,	-3.29699
▁the	-3.53409
▁to	-4.01697
'	-4.08269
▁a	-4.10993
▁of	-4.16427
▁and	-4.2521
▁in	-4.42568
▁you	-4.44963
▁I	-4.59902
t	-4.6529
▁is	-4.89283
▁that	-4.96087
▁-	-4.97543
ing	-5.07314
▁it	-5.1331
ed	-5.16984
▁for	-5.24587
▁your	-5.29636
d	-5.33177
?	-5.35364
▁n	-5.44832
▁with	-5.45071
▁on	-5.48074
re	-5.50481
▁be	-5.52513
▁was	-5.53307
m	-5.59913
▁	-5.61246
▁are	-5.6788
▁or	-5.70591
▁have	-5.7135
▁as	-5.74868
▁The	-5.76089
▁do	-5.78122
▁this	-5.82171
▁can	-5.83386
y	-5.86825
▁not	-5.89075
▁(	-5.89297
▁You	-5.90286
▁we	-5.92272
er	-5.97188
▁"	-6.00768
ly	-6.00927
▁me	-6.00954
▁by	-6.03601
▁from	-6.04122
▁at	-6.06801
)	-6.07297
n	-6.07603
▁an	-6.0905
ll	-6.16638
e	-6.21879
r	-6.25466
▁It	-6.25896
▁he	-6.26105
▁will	-6.2697
al	-6.27872
▁about	-6.35223
▁they	-6.35571
▁A	-6.36012
▁my	-6.37806
▁And	-6.38186
▁out	-6.38903
▁one	-6.39059
▁what	-6.40959
▁her	-6.42203
▁all	-6.43185
▁like	-6.43263
▁up	-6.43921
▁but	-6.44564
▁know	-6.49614
▁if	-6.49995
in	-6.50211
ve	-6.50652
▁so	-6.51114
o	-6.53482
▁has	-6.5631
a	-6.56422
▁In	-6.56511
es	-6.59501
▁get	-6.60088
▁just	-6.62666
c	-6.63003
▁We	-6.63076
!	-6.63428
▁she	-6.64464
▁more	-6.64747
▁time	-6.65596
i	-6.67388
:	-6.67955
▁If	-6.70835
g	-6.73084
▁there	-6.73798
"	-6.73974
▁were	-6.74106
▁his	-6.74816
or	-6.74942
▁He	-6.74975
▁which	-6.75896
▁when	-6.76435
▁them	-6.76807
▁who	-6.77005
▁want	-6.79953
▁This	-6.8184
▁their	-6.82466
l	-6.8271
▁also	-6.82934
le	-6.83309
ation	-6.83656
▁people	-6.84187
▁So	-6.85814
▁other	-6.8627
▁had	-6.86429
▁been	-6.87447
▁him	-6.88101
▁would	-6.89584
th	-6.89736
▁re	-6.90597
▁S	-6.91738
▁may	-6.91806
▁no	-6.94131
▁s	-6.94203
▁here	-6.94384
...	-6.98049
▁into	-6.98152
▁some	-6.99052
▁make	-6.99207
b	-6.99356
▁did	-6.99573
▁But	-7.00998
▁C	-7.02621
▁go	-7.02759
▁think	-7.0282
en	-7.03001
▁see	-7.03036
▁right	-7.04678
▁over	-7.05123
▁need	-7.05712
▁She	-7.06068
ion	-7.06153
an	-7.08749
▁first	-7.09238
▁back	-7.09498
▁could	-7.09837
ic	-7.09943
▁than	-7.11415
▁Do	-7.11751
p	-7.12422
▁de	-7.1292
▁how	-7.13812
ar	-7.15183
▁our	-7.15761
▁help	-7.15909
k	-7.16193
-	-7.17173
S	-7.1853
▁way	-7.18888
▁take	-7.20282
ra	-7.20738
▁us	-7.20797
▁now	-7.21355
▁should	-7.21423
ur	-7.23459
▁two	-7.24152
▁these	-7.24722
▁only	-7.26828
▁E	-7.27382
▁where	-7.27484
it	-7.27851
▁They	-7.28147
▁got	-7.2818
on	-7.28693
▁ca	-7.29175
▁then	-7.30761
el	-7.31486
▁going	-7.3172
▁work	-7.31892
▁use	-7.32257
ro	-7.33297
▁--	-7.33469
▁because	-7.34637
▁That	-7.35044
▁good	-7.35237
▁down	-7.35397
li	-7.35786
▁any	-7.36237
▁19	-7.36353
C	-7.3687
▁What	-7.39404
▁after	-7.40128
la	-7.40401
A	-7.40528
▁new	-7.40709
ment	-7.41474
;	-7.41719
ri	-7.42888
u	-7.42972
▁c	-7.43286
▁even	-7.433
h	-7.43808
▁very	-7.44036
z	-7.44842
▁most	-7.45099
I	-7.45587
na	-7.45982
▁such	-7.46959
▁something	-7.47423
▁day	-7.49091
▁before	-7.4953
▁F	-7.5025
et	-7.50638
ers	-7.51037
ce	-7.5127
▁No	-7.51498
ate	-7.51763
▁years	-7.52983
▁life	-7.5312
▁come	-7.53955
▁B	-7.55
▁man	-7.5526
ive	-7.56347
▁does	-7.56391
▁said	-7.56821
▁used	-7.56846
ol	-7.5699
▁T	-7.57714
▁off	-7.57748
▁–	-7.57965
▁un	-7.58733
▁water	-7.59028
▁much	-7.5935
▁say	-7.59415
us	-7.59521
▁1	-7.59713
▁There	-7.59792
te	-7.5983
able	-7.60382
▁really	-7.60404
▁well	-7.60416
ine	-7.6059
ma	-7.60797
de	-7.61036
ck	-7.61794
lo	-7.61933
ne	-7.61992
▁find	-7.62605
ta	-7.62677
P	-7.63382
un	-7.63481
▁For	-7.63717
▁through	-7.63762
▁G	-7.63991
▁many	-7.64604
ity	-7.64757
w	-7.64773
▁being	-7.64778
▁b	-7.65283
),	-7.65983
▁too	-7.65985
D	-7.6615
▁world	-7.66382
▁feel	-7.66594
mi	-7.66806
ist	-7.66809
ry	-7.6699
▁around	-7.68105
▁look	-7.68123
ent	-7.68211
il	-7.68519
ul	-7.69098
ch	-7.69546
▁place	-7.70032
▁its	-7.70461
▁tell	-7.70516
▁things	-7.72201
M	-7.72257
to	-7.72278
se	-7.72502
f	-7.72516
▁those	-7.73435
▁M	-7.73815
▁3	-7.73858
▁little	-7.73896
ir	-7.73997
ia	-7.74234
id	-7.74313
co	-7.7448
▁P	-7.74549
▁part	-7.75688
▁D	-7.75875
▁Well	-7.75932
▁To	-7.76168
at	-7.76389
▁give	-7.76476
ter	-7.76916
▁g	-7.78237
est	-7.78752
▁co	-7.78868
▁2	-7.79373
▁name	-7.79477
▁never	-7.79484
▁Re	-7.79718
▁made	-7.79741
."	-7.79743
▁still	-7.80576
▁gonna	-7.81211
▁own	-7.8166
▁under	-7.81731
▁let	-7.81888
▁Ma	-7.8198
▁long	-7.82257
▁might	-7.82784
T	-7.83058
▁e	-7.8325
▁yourself	-7.84445
▁home	-7.8468
▁O	-7.84683
▁same	-7.85227
▁When	-7.85526
age	-7.86539
▁sure	-7.86611
ian	-7.86778
▁thing	-7.87038
▁Be	-7.87059
▁end	-7.87955
ated	-7.88295
E	-7.88432
▁between	-7.89287
▁person	-7.89569
▁U	-7.89962
▁year	-7.90994
im	-7.91163
▁Now	-7.91336
▁while	-7.91571
um	-7.91655
▁different	-7.92007
▁keep	-7.92219
▁three	-7.92453
ge	-7.92909
).	-7.93074
▁/	-7.95644
man	-7.96144
▁N	-7.96311
ary	-7.96378
▁last	-7.9674
4	-7.97207
ty	-7.97468
sh	-7.97491
2	-7.97554
▁talk	-7.97724
▁every	-7.9773
pe	-7.97783
x	-7.98187
is	-7.98604
O	-7.9885
▁love	-7.9885
▁both	-7.99014
ie	-7.99309
ci	-7.99854
▁each	-8.0015
▁car	-8.00964
me	-8.01457
3	-8.01686
▁De	-8.01759
▁found	-8.01775
no	-8.0185
▁away	-8.01927
▁better	-8.02212
nt	-8.02758
tion	-8.03175
▁put	-8.03354
▁La	-8.03412
▁con	-8.0345
ies	-8.03713
as	-8.05001
▁called	-8.0536
▁body	-8.05609
▁lot	-8.05891
B	-8.06703
ng	-8.06769
ting	-8.06933
▁example	-8.07576
▁best	-8.07644
ke	-8.08029
▁why	-8.08159
▁another	-8.08161
▁Ba	-8.08193
mo	-8.08637
▁must	-8.08881
ga	-8.09251
▁mean	-8.09389
▁p	-8.10018
▁few	-8.10102
R	-8.10501
ni	-8.10723
▁call	-8.10773
▁As	-8.11038
go	-8.11133
5	-8.11297
▁system	-8.11411
N	-8.11653
nd	-8.11979
▁10	-8.12249
ness	-8.1228
▁number	-8.12329
L	-8.12707
▁How	-8.12938
▁during	-8.13105
▁important	-8.13293
▁China	-8.13534
1	-8.13638
▁4	-8.13758
▁thought	-8.14016
▁again	-8.14498
vi	-8.14632
▁human	-8.14722
▁high	-8.1478
▁pro	-8.14907
am	-8.14997
▁kind	-8.15527
▁try	-8.15706
ti	-8.16443
▁start	-8.16656
▁head	-8.16743
▁K	-8.16892
mp	-8.17084
▁old	-8.17739
▁wo	-8.17864
F	-8.17956
▁All	-8.18191
ad	-8.18288
▁am	-8.18382
ide	-8.18444
▁family	-8.18527
ca	-8.18734
▁18	-8.18774
▁R	-8.19014
▁known	-8.1909
▁until	-8.1926
▁doing	-8.19302
ha	-8.19338
do	-8.19728
▁great	-8.19993
▁left	-8.20048
▁include	-8.20297
▁5	-8.20582
▁side	-8.20866
▁My	-8.20945
▁mo	-8.21166
▁point	-8.22044
▁hand	-8.22332
▁always	-8.2258
ka	-8.22592
▁ex	-8.23299
▁using	-8.23828
▁without	-8.24085
▁United	-8.24089
▁light	-8.24264
ant	-8.24297
▁Me	-8.24334
▁actually	-8.24587
▁often	-8.24656
ver	-8.2476
▁Oh	-8.24903
▁show	-8.24955
H	-8.24969
▁Your	-8.25718
▁Ro	-8.25863
▁ma	-8.26461
be	-8.26551
▁change	-8.26666
tic	-8.26728
▁Le	-8.26765
▁night	-8.27434
▁someone	-8.27454
▁anything	-8.28267
▁school	-8.28454
▁Ca	-8.28584
ut	-8.28658
▁An	-8.28913
▁Pa	-8.29029
▁leave	-8.29061
ial	-8.29413
▁Ha	-8.2974
▁Co	-8.29893
▁power	-8.30263
ling	-8.30361
▁On	-8.30795
one	-8.31011
▁friend	-8.3148
▁ra	-8.31957
ating	-8.32037
ism	-8.32085
▁Mr	-8.32228
ous	-8.32259
▁st	-8.32376
▁hard	-8.32524
▁small	-8.32607
ow	-8.32702
▁together	-8.32742
▁become	-8.33101
di	-8.33734
▁ever	-8.33885
ru	-8.33887
ance	-8.34017
▁form	-8.3407
▁enough	-8.34259
▁H	-8.34364
▁government	-8.34422
ish	-8.34621
▁set	-8.34746
▁Why	-8.34784
▁open	-8.35204
▁against	-8.35266
va	-8.35396
▁order	-8.35415
▁Let	-8.3542
ang	-8.3588
he	-8.36426
▁next	-8.36484
▁dis	-8.36557
▁hair	-8.3679
▁later	-8.36828
▁face	-8.37411
▁L	-8.37513
▁since	-8.37719
▁women	-8.37855
▁American	-8.37875
po	-8.38086
▁real	-8.38173
▁Just	-8.38417
▁W	-8.38468
▁second	-8.38742
▁less	-8.39131
▁support	-8.39308
wa	-8.39495
▁getting	-8.39577
son	-8.39615
▁Ra	-8.39649
▁area	-8.39988
▁play	-8.40026
▁skin	-8.40284
▁food	-8.40583
▁line	-8.40709
▁came	-8.40767
▁These	-8.40803
G	-8.40888
▁Yeah	-8.40968
▁blood	-8.41481
▁control	-8.41686
em	-8.41702
▁able	-8.41732
▁20	-8.41753
▁Bo	-8.41781
▁told	-8.41792
▁country	-8.42017
▁Li	-8.42114
▁Al	-8.42219
tra	-8.42302
▁process	-8.42505
ot	-8.42508
▁Ho	-8.42894
▁stay	-8.43006
▁ask	-8.43028
▁turn	-8.43051
bo	-8.4316
▁stop	-8.43222
ec	-8.43226
▁making	-8.43324
▁run	-8.43425
▁per	-8.43553
▁doctor	-8.43592
▁money	-8.43667
▁6	-8.43705
ton	-8.44139
▁St	-8.44205
▁li	-8.4424
▁war	-8.44653
▁done	-8.44761
ure	-8.44874
▁States	-8.44964
op	-8.45108
bi	-8.45193
▁Mo	-8.45424
▁At	-8.45612
▁believe	-8.4617
ig	-8.46227
▁including	-8.46449
6	-8.46593
▁pre	-8.46697
▁mind	-8.46721
om	-8.46749
▁d	-8.46846
▁house	-8.46903
▁f	-8.46953
▁within	-8.47053
ho	-8.47079
%	-8.4727
ba	-8.47673
the	-8.47907
▁care	-8.48209
▁Look	-8.48358
▁close	-8.48744
▁New	-8.48815
▁One	-8.48874
▁trying	-8.48934
▁father	-8.48999
▁cause	-8.49608
▁days	-8.49651
▁million	-8.50067
ence	-8.50119
▁children	-8.50161
▁state	-8.50206
▁Na	-8.5024
up	-8.50271
▁men	-8.50453
▁bad	-8.50614
ster	-8.50684
▁room	-8.5076
v	-8.50775
▁Vi	-8.50849
lu	-8.51006
lic	-8.51258
cy	-8.5138
ard	-8.51467
▁Sa	-8.51702
▁minutes	-8.51705
less	-8.51799
▁live	-8.52029
▁Go	-8.52174
▁idea	-8.52342
▁After	-8.52346
▁Con	-8.52366
▁Mar	-8.52511
▁la	-8.52887
▁having	-8.53511
ach	-8.53527
▁free	-8.53582
▁job	-8.53624
▁guy	-8.53739
pa	-8.53743
▁Ka	-8.54292
▁Se	-8.54507
▁group	-8.54677
▁public	-8.54726
▁di	-8.54845
▁'	-8.54899
▁problem	-8.55266
ven	-8.55446
▁case	-8.55526
▁four	-8.55703
ag	-8.55704
▁everything	-8.55716
▁move	-8.55948
ric	-8.56048
ally	-8.56458
min	-8.56733
ized	-8.57131
▁looking	-8.57168
▁big	-8.57309
ki	-8.57361
▁po	-8.57391
▁kill	-8.57732
▁7	-8.57775
▁ch	-8.57798
▁m	-8.57804
▁Some	-8.57855
▁treatment	-8.57969
▁test	-8.58169
▁Lo	-8.58454
▁reason	-8.5874
▁else	-8.58841
▁experience	-8.58894
line	-8.58927
▁Su	-8.59035
ip	-8.59207
▁large	-8.59395
▁15	-8.5988
▁today	-8.59886
pi	-8.59913
▁took	-8.60077
▁en	-8.60146
mon	-8.60231
▁based	-8.60321
▁went	-8.60816
▁five	-8.61208
ber	-8.61285
▁top	-8.61326
▁V	-8.61747
▁already	-8.6186
▁once	-8.61948
▁several	-8.61965
▁plan	-8.6197
▁star	-8.6205
▁seen	-8.62355
▁Then	-8.62817
▁social	-8.6287
▁allow	-8.62956
▁heart	-8.63044
▁nothing	-8.63091
▁team	-8.63098
▁mother	-8.63154
▁film	-8.63296
les	-8.63392
▁least	-8.63409
▁wanted	-8.6351
os	-8.63707
▁possible	-8.63725
▁means	-8.6378
00	-8.63803
▁clean	-8.63995
dy	-8.64048
▁whole	-8.64226
che	-8.64453
▁became	-8.6459
ak	-8.6468
▁coming	-8.64761
▁However	-8.64764
▁short	-8.64918
▁friends	-8.64932
▁death	-8.65282
▁understand	-8.65386
▁8	-8.65446
ful	-8.65592
▁working	-8.65801
V	-8.66098
▁South	-8.66287
▁information	-8.66287
▁Because	-8.66347
ner	-8.66456
tor	-8.6647
gu	-8.66604
▁Pro	-8.66745
▁Or	-8.66768
per	-8.66774
▁fact	-8.66802
▁game	-8.66826
é	-8.67006
▁present	-8.67009
▁law	-8.67022
▁oil	-8.67387
▁language	-8.67676
▁Mi	-8.67719
com	-8.67732
▁program	-8.67793
sa	-8.6819
▁class	-8.68198
▁past	-8.68398
ions	-8.68401
▁local	-8.68581
U	-8.68659
▁near	-8.68795
▁bit	-8.68805
▁far	-8.68865
▁Her	-8.69096
▁company	-8.69199
▁comp	-8.69233
▁business	-8.69453
▁break	-8.69484
▁course	-8.69712
▁taking	-8.69726
▁music	-8.69742
▁city	-8.69767
▁risk	-8.69888
8	-8.6998
▁young	-8.69995
▁Ta	-8.70249
Laughter	-8.70342
▁air	-8.7039
▁12	-8.70572
▁girl	-8.70676
ice	-8.71041
7	-8.71107
ring	-8.71207
▁hours	-8.71567
ize	-8.71676
wi	-8.7194
ler	-8.72022
▁relationship	-8.72145
▁common	-8.72152
▁market	-8.72226
▁times	-8.72236
fe	-8.72265
▁rest	-8.72351
▁bi	-8.72822
▁pi	-8.72888
ative	-8.72967
▁bring	-8.72983
▁others	-8.73112
mer	-8.73261
bu	-8.73319
▁Po	-8.73377
▁sub	-8.73389
qui	-8.7345
▁pain	-8.73577
▁Te	-8.73717
ff	-8.73768
ator	-8.73776
ical	-8.73814
land	-8.73867
tro	-8.74052
▁age	-8.74129
▁i	-8.7415
▁health	-8.74173
▁result	-8.74531
▁early	-8.74537
▁dead	-8.74774
ite	-8.74865
▁child	-8.7493
ron	-8.7494
ep	-8.74986
io	-8.75111
▁boy	-8.75133
▁started	-8.75233
ap	-8.75336
▁sleep	-8.75413
▁phone	-8.75414
rr	-8.75464
▁week	-8.75651
▁ta	-8.75664
ph	-8.75766
▁Can	-8.7579
▁woman	-8.76266
▁cut	-8.76363
tal	-8.7654
▁cat	-8.76685
▁remember	-8.76814
▁University	-8.76875
▁w	-8.77137
▁hold	-8.77146
,"	-8.77539
▁list	-8.77714
▁dog	-8.77907
W	-8.77999
ud	-8.78014
▁Fi	-8.78039
da	-8.78103
ten	-8.78166
▁computer	-8.78172
▁lead	-8.7844
▁half	-8.78556
▁Vietnam	-8.78728
9	-8.78879
▁Are	-8.78896
red	-8.78897
▁Not	-8.78897
▁term	-8.7909
▁ago	-8.79127
▁saw	-8.7933
oc	-8.79405
▁hear	-8.79506
▁God	-8.79611
▁o	-8.79653
▁building	-8.79721
▁matter	-8.79757
▁talking	-8.80141
▁Poland	-8.80394
▁low	-8.80418
tri	-8.80496
▁space	-8.80533
0	-8.80707
▁brain	-8.8076
hi	-8.80832
▁Hey	-8.80944
▁countries	-8.8108
▁special	-8.81083
▁art	-8.81116
▁Make	-8.8152
▁study	-8.81587
vo	-8.81607
od	-8.81637
▁check	-8.81716
ko	-8.8173
▁May	-8.81772
▁along	-8.81914
ac	-8.8196
▁Try	-8.82134
▁Dr	-8.82363
▁Si	-8.82526
▁single	-8.82694
▁30	-8.8278
j	-8.83282
▁disease	-8.83339
▁read	-8.83439
ld	-8.83442
▁bo	-8.83675
▁though	-8.837
▁period	-8.83733
▁Use	-8.83772
▁pay	-8.83937
ship	-8.84033
ab	-8.8406
▁due	-8.84191
▁north	-8.84197
▁prevent	-8.84261
▁brother	-8.84264
za	-8.84396
▁app	-8.84596
▁step	-8.84652
▁story	-8.84671
▁Get	-8.84783
▁son	-8.84996
▁Did	-8.85004
▁create	-8.85108
▁design	-8.85117
▁self	-8.85137
▁usually	-8.85298
way	-8.85315
▁following	-8.85333
▁War	-8.8536
▁level	-8.85466
lar	-8.85548
cu	-8.85802
▁type	-8.8581
▁offer	-8.85824
▁h	-8.85854
▁World	-8.85925
▁okay	-8.86195
▁mi	-8.86254
and	-8.86362
king	-8.86392
▁Car	-8.86491
K	-8.86494
▁book	-8.86791
▁Chinese	-8.86889
▁question	-8.87006
▁six	-8.87182
▁color	-8.87212
▁likely	-8.87436
▁0	-8.87527
▁v	-8.87583
▁late	-8.87801
▁months	-8.8807
▁guys	-8.88099
▁ba	-8.8834
▁eat	-8.88375
der	-8.88543
▁J	-8.88551
▁safe	-8.88645
lin	-8.88739
con	-8.88771
ology	-8.88866
▁born	-8.89029
▁either	-8.89134
▁situation	-8.89149
gi	-8.89206
▁Wa	-8.89262
▁treat	-8.89281
▁al	-8.89399
▁amount	-8.89412
▁wrong	-8.89481
▁US	-8.89615
▁instead	-8.89621
▁9	-8.89639
▁sp	-8.89703
▁position	-8.89895
▁village	-8.899
rs	-8.90039
▁land	-8.90049
▁pa	-8.90057
▁political	-8.9011
ub	-8.9018
▁bar	-8.90448
ast	-8.9046
▁percent	-8.90619
▁17	-8.90653
▁hope	-8.90655
▁non	-8.90737
▁walk	-8.90756
fa	-8.90774
▁avoid	-8.90814
▁deep	-8.90853
▁partner	-8.90871
▁moment	-8.90954
ny	-8.90995
▁Ar	-8.91003
▁full	-8.91163
▁century	-8.91237
▁Ne	-8.91281
▁inside	-8.91477
▁chance	-8.91483
▁16	-8.91498
▁Z	-8.91583
▁increase	-8.91608
▁protect	-8.91626
▁vi	-8.91742
▁gra	-8.91882
▁provide	-8.91895
▁post	-8.91925
▁anti	-8.91928
act	-8.91959
▁thinking	-8.92007
ran	-8.92457
av	-8.92678
▁party	-8.92711
lf	-8.92798
▁video	-8.92821
ble	-8.92825
▁future	-8.93172
▁k	-8.93179
▁difficult	-8.93241
side	-8.93641
ward	-8.937
▁eye	-8.93802
▁fight	-8.93942
▁probably	-8.93966
▁research	-8.94112
▁Come	-8.94175
ase	-8.94258
ze	-8.9436
▁Da	-8.94374
▁outside	-8.9474
▁soon	-8.94836
▁Yes	-8.94993
▁killed	-8.95005
ture	-8.95187
▁maybe	-8.95483
ex	-8.95485
▁meet	-8.95504
▁fall	-8.9554
▁account	-8.95655
▁energy	-8.95729
ja	-8.958
ding	-8.95805
▁yet	-8.96135
▁especially	-8.96249
▁model	-8.96418
▁Maybe	-8.96428
▁file	-8.9645
▁hands	-8.96486
▁Hu	-8.967
▁Take	-8.96783
▁value	-8.97072
▁white	-8.97231
ious	-8.97243
▁die	-8.97458
▁season	-8.97465
ina	-8.97551
▁history	-8.97751
▁Who	-8.97865
▁Ri	-8.97867
▁attack	-8.97902
▁answer	-8.97906
que	-8.97915
▁Hi	-8.9809
▁imp	-8.98104
▁cost	-8.98313
▁data	-8.98322
▁clear	-8.9834
ile	-8.98553
▁em	-8.98576
▁project	-8.98661
▁given	-8.98734
▁role	-8.9878
▁word	-8.98793
▁dry	-8.98978
▁saying	-8.99106
▁ho	-8.99164
▁drug	-8.9917
▁Di	-8.99393
▁fl	-8.99542
▁ro	-8.99737
▁rather	-8.99761
▁Pi	-8.99793
▁Sp	-8.99815
ities	-8.99845
▁longer	-8.99861
▁happened	-8.99924
▁deal	-8.99938
▁strong	-8.99946
▁population	-8.9997
by	-9.00178
▁learn	-9.00249
▁consider	-9.00252
▁Ja	-9.0046
▁eyes	-9.00524
▁red	-9.00637
▁released	-9.00762
".	-9.00798
bb	-9.00802
▁song	-9.00963
▁National	-9.01134
▁pick	-9.01226
▁record	-9.01512
▁X	-9.01551
▁personal	-9.01569
▁Man	-9.01651
▁fire	-9.01712
▁store	-9.0198
▁cur	-9.01997
au	-9.02023
we	-9.02087
ai	-9.02221
▁series	-9.02247
▁similar	-9.02314
▁With	-9.02389
▁figure	-9.02552
▁act	-9.02568
ving	-9.02677
▁buy	-9.02792
ium	-9.02806
▁please	-9.02985
▁began	-9.03219
end	-9.03437
su	-9.03446
▁front	-9.03509
▁se	-9.03613
iv	-9.03699
ya	-9.03731
▁te	-9.03796
▁whether	-9.0399
▁El	-9.04076
ug	-9.04108
ong	-9.04235
▁alone	-9.04271
▁lost	-9.04423
▁wait	-9.04618
▁taken	-9.04673
ther	-9.04673
▁knew	-9.04879
▁makes	-9.05017
ning	-9.05127
▁main	-9.05449
▁Pe	-9.05471
▁focus	-9.0554
▁14	-9.05675
nce	-9.05714
▁paper	-9.05715
▁hit	-9.0573
▁available	-9.05776
▁key	-9.05785
▁11	-9.05841
▁town	-9.06058
rate	-9.06078
▁piece	-9.06142
▁club	-9.06187
▁(19	-9.06249
ors	-9.06285
▁Ex	-9.06297
▁morning	-9.06434
▁view	-9.06521
for	-9.06703
▁feeling	-9.06744
ise	-9.06827
▁across	-9.06849
▁plant	-9.06886
▁sense	-9.0689
▁development	-9.07064
▁report	-9.07097
▁ten	-9.07206
▁source	-9.07596
▁anyone	-9.07736
▁Gu	-9.07749
▁wife	-9.07762
▁John	-9.07764
▁problems	-9.07901
▁text	-9.08184
▁Jo	-9.08256
yl	-9.08262
▁Mon	-9.08446
▁positive	-9.08517
▁sorry	-9.0852
▁symptoms	-9.08534
▁tri	-9.08563
▁certain	-9.08693
▁effects	-9.08704
▁acid	-9.08923
▁natural	-9.08947
▁By	-9.09032
▁Okay	-9.09109
▁sometimes	-9.09111
▁Je	-9.09212
▁heard	-9.09261
ung	-9.09371
▁black	-9.09448
▁return	-9.09561
▁seem	-9.09653
▁Where	-9.09789
▁daughter	-9.09874
▁medical	-9.09886
▁baby	-9.09889
▁official	-9.09975
▁Ju	-9.10184
▁cover	-9.10282
▁method	-9.10302
▁major	-9.10339
▁ti	-9.10492
▁cell	-9.10544
cul	-9.1061
fi	-9.10878
▁among	-9.10945
▁size	-9.11205
▁national	-9.11374
ew	-9.11405
▁fish	-9.11494
▁infection	-9.11509
▁hot	-9.1153
▁drive	-9.11617
▁Fa	-9.11684
▁begin	-9.11764
▁almost	-9.11774
▁ha	-9.1178
▁follow	-9.11797
▁German	-9.11818
born	-9.11818
▁product	-9.11894
ization	-9.11916
▁His	-9.11941
▁behavior	-9.11944
▁km	-9.11961
▁lower	-9.11999
gen	-9.12094
cent	-9.12101
▁true	-9.12118
▁require	-9.12337
▁image	-9.12412
▁(20	-9.12423
▁region	-9.12492
ight	-9.12497
▁attention	-9.12556
▁contact	-9.12556
▁visit	-9.12647
▁trust	-9.12731
▁access	-9.12731
ft	-9.128
▁general	-9.12837
▁stress	-9.1284
lan	-9.12863
▁physical	-9.12909
▁happen	-9.12972
▁March	-9.13058
▁President	-9.13083
▁box	-9.13111
▁behind	-9.1326
▁send	-9.13327
▁suggest	-9.13436
uc	-9.13443
ries	-9.13533
▁door	-9.13691
▁Mu	-9.13828
▁east	-9.1393
▁stand	-9.14012
▁died	-9.14058
▁Bar	-9.14073
▁burn	-9.14205
▁living	-9.1426
▁field	-9.14344
tu	-9.14539
▁asked	-9.14613
▁sh	-9.14682
out	-9.14731
▁drink	-9.14776
▁Bu	-9.14835
row	-9.1484
▁ready	-9.14885
▁gave	-9.14918
▁economic	-9.14951
rk	-9.14953
▁Ga	-9.15011
chi	-9.15022
▁pressure	-9.1506
ger	-9.151
▁everyone	-9.15212
▁material	-9.15221
0,000	-9.15252
▁fat	-9.15458
tter	-9.15555
▁function	-9.15582
▁Ki	-9.15678
▁ga	-9.15778
▁sound	-9.15842
▁member	-9.16053
▁While	-9.16126
▁13	-9.16153
▁comes	-9.1616
▁Ch	-9.16354
▁office	-9.16614
▁pass	-9.16762
ah	-9.16931
The	-9.16939
▁America	-9.16969
▁add	-9.17015
▁ground	-9.17035
▁Du	-9.17043
▁picture	-9.17222
▁release	-9.17292
▁happy	-9.17314
▁kid	-9.17397
▁hurt	-9.175
▁watch	-9.1752
▁reduce	-9.17665
▁third	-9.17683
▁planet	-9.17726
ox	-9.17752
▁rate	-9.17849
hu	-9.17928
▁tra	-9.1797
▁date	-9.18083
▁su	-9.18123
▁build	-9.18171
▁l	-9.18423
▁police	-9.18424
▁says	-9.18497
our	-9.18498
▁pretty	-9.18517
▁hi	-9.18552
▁En	-9.18793
▁2016	-9.18806
▁card	-9.18842
▁tree	-9.18972
▁lives	-9.19021
▁Earth	-9.19077
▁Qu	-9.19095
▁Keep	-9.19182
gan	-9.19363
▁speak	-9.19381
▁June	-9.19417
▁nice	-9.19492
▁fear	-9.19525
▁West	-9.1962
▁exercise	-9.1964
▁sa	-9.1974
▁occur	-9.19811
▁Cha	-9.19831
▁Even	-9.19868
▁drop	-9.19936
▁worked	-9.19949
▁fine	-9.19981
rd	-9.2002
▁th	-9.20143
ey	-9.20176
▁weeks	-9.20308
▁reach	-9.20311
▁parents	-9.20414
ick	-9.20519
▁ge	-9.20534
▁specific	-9.20654
▁myself	-9.20681
▁claim	-9.20681
000	-9.20703
▁media	-9.2077
▁page	-9.20782
▁military	-9.20871
ping	-9.20944
▁character	-9.20958
▁100	-9.2096
▁surface	-9.21062
▁weight	-9.21125
▁da	-9.21422
▁international	-9.2154
▁couple	-9.21732
nder	-9.22059
▁share	-9.22061
▁sta	-9.22102
▁capital	-9.22117
▁Japan	-9.22214
▁needs	-9.22249
▁products	-9.22339
led	-9.22348
▁touch	-9.22353
▁tend	-9.22507
▁2017	-9.22515
▁inter	-9.22656
pp	-9.2275
▁cold	-9.22862
▁words	-9.2295
▁cases	-9.23088
▁gone	-9.23131
▁fun	-9.23278
",	-9.23325
rge	-9.23483
▁2015	-9.23487
▁Have	-9.23567
▁easy	-9.23575
sta	-9.23597
▁kids	-9.2364
▁English	-9.23673
ome	-9.23717
▁named	-9.23849
▁located	-9.2387
▁areas	-9.23937
▁arm	-9.24115
▁decision	-9.24176
▁develop	-9.24293
ee	-9.24338
▁dark	-9.24373
▁sign	-9.24506
▁travel	-9.24766
▁block	-9.24785
tan	-9.2479
▁op	-9.24816
han	-9.24913
▁Lu	-9.24993
▁Once	-9.25045
▁continue	-9.25169
▁Per	-9.25274
▁secret	-9.25353
▁effective	-9.25358
▁met	-9.25399
▁Bi	-9.25472
▁screen	-9.25552
▁stuff	-9.25871
▁choice	-9.25963
▁exist	-9.25963
▁cancer	-9.26038
▁2012	-9.26166
▁super	-9.26181
▁April	-9.26254
▁effect	-9.26281
▁popular	-9.26359
▁window	-9.26368
▁50	-9.26514
▁hour	-9.26549
▁People	-9.26556
▁simple	-9.26556
▁para	-9.26561
▁2014	-9.26565
▁track	-9.26709
▁mu	-9.26836
ible	-9.26862
▁Polish	-9.26941
men	-9.26966
▁heat	-9.26971
▁Sha	-9.27083
▁fe	-9.27141
▁fi	-9.27325
ition	-9.27388
▁listen	-9.27399
▁lo	-9.27444
▁cells	-9.27463
▁negative	-9.27468
▁potential	-9.27468
▁pull	-9.27485
▁cool	-9.27502
xi	-9.27515
▁unit	-9.27624
▁trans	-9.27636
▁Miss	-9.27696
▁site	-9.27759
▁Most	-9.27799
▁gun	-9.27802
▁district	-9.27876
▁month	-9.2792
cing	-9.27964
▁ways	-9.28097
rin	-9.28134
▁Here	-9.28205
▁practice	-9.28388
▁version	-9.28394
▁Africa	-9.28491
▁temperature	-9.28491
▁Of	-9.28592
ou	-9.28597
▁shot	-9.28623
▁table	-9.28637
▁August	-9.28697
▁itself	-9.28697
▁2011	-9.2871
▁Fe	-9.28745
ley	-9.28819
val	-9.28976
ue	-9.28997
▁president	-9.29006
▁sent	-9.29102
▁degree	-9.2911
▁further	-9.29114
▁wish	-9.2915
▁center	-9.29237
▁remove	-9.29258
▁won	-9.29307
▁however	-9.29377
▁quite	-9.29379
ham	-9.29462
▁Pre	-9.29491
▁wall	-9.29575
ef	-9.29579
▁write	-9.29645
▁developed	-9.29707
cc	-9.29741
▁North	-9.29788
▁save	-9.29925
▁grow	-9.2998
▁sir	-9.30011
▁Th	-9.30108
rn	-9.3015
▁damage	-9.3015
▁warm	-9.30175
▁service	-9.30182
▁technology	-9.30254
ps	-9.30335
▁remain	-9.30335
form	-9.30368
▁San	-9.3041
rus	-9.30422
▁January	-9.30464
▁held	-9.30464
▁lose	-9.30476
du	-9.30816
▁sort	-9.30831
▁normal	-9.30955
▁July	-9.30975
▁October	-9.3099
gg	-9.31121
izing	-9.31152
shi	-9.31206
▁accept	-9.31308
▁2018	-9.31315
▁built	-9.31518
▁Wi	-9.31573
▁works	-9.31662
▁solution	-9.31837
▁address	-9.31847
▁York	-9.31948
▁professional	-9.32
den	-9.32151
▁higher	-9.32228
▁exactly	-9.32342
▁conversation	-9.3237
▁French	-9.32691
▁court	-9.327
ability	-9.32734
nch	-9.32823
▁action	-9.32845
nal	-9.32847
▁goes	-9.32853
▁Gra	-9.33008
▁machine	-9.33013
▁former	-9.33046
▁According	-9.33228
my	-9.33249
▁September	-9.33336
▁title	-9.33343
▁rule	-9.33428
▁running	-9.33478
br	-9.33514
▁Ni	-9.33521
▁25	-9.33658
▁pen	-9.33906
ically	-9.33951
▁community	-9.33986
▁im	-9.34017
▁ship	-9.34126
▁November	-9.34204
▁2013	-9.34322
▁prison	-9.34424
▁click	-9.34532
▁force	-9.34621
▁husband	-9.3464
▁du	-9.34687
▁sun	-9.34713
▁device	-9.34859
use	-9.34869
▁Ste	-9.34885
ok	-9.34918
▁December	-9.35078
▁+	-9.35229
▁sea	-9.35262
▁mass	-9.35387
▁brought	-9.35408
▁trade	-9.35465
▁bed	-9.35517
▁education	-9.35519
▁produce	-9.35521
▁message	-9.35539
let	-9.3568
ev	-9.35709
▁simply	-9.3574
▁healthy	-9.36035
▁print	-9.36111
late	-9.36218
▁sit	-9.36252
▁select	-9.36287
▁sister	-9.36298
▁production	-9.3632
▁meeting	-9.36466
▁completely	-9.36467
▁base	-9.36769
▁organization	-9.3686
ier	-9.36888
ped	-9.36955
mate	-9.36958
▁received	-9.37024
▁culture	-9.37187
▁dream	-9.37187
▁shape	-9.37391
▁growth	-9.37408
▁themselves	-9.37412
▁draw	-9.37413
kin	-9.37449
▁2010	-9.37541
▁security	-9.37637
▁spend	-9.37938
▁sex	-9.38109
▁See	-9.38195
▁charge	-9.38322
▁created	-9.38342
▁south	-9.38428
ade	-9.38443
▁approach	-9.38656
cal	-9.38673
▁considered	-9.38693
▁va	-9.38739
▁enjoy	-9.3877
▁loss	-9.38836
▁ice	-9.38902
time	-9.38935
▁Ko	-9.39028
▁wash	-9.39096
▁condition	-9.39175
ify	-9.39222
ath	-9.39305
▁Dur	-9.39329
▁choose	-9.39345
▁thank	-9.39388
▁current	-9.39482
▁eight	-9.39512
▁changes	-9.39545
▁online	-9.3959
bar	-9.3966
▁various	-9.39686
▁questions	-9.39687
▁host	-9.39707
▁First	-9.39802
▁press	-9.39812
pose	-9.39877
▁mouth	-9.39917
▁quickly	-9.39946
ust	-9.40041
zi	-9.40117
▁issue	-9.40183
▁total	-9.40197
pro	-9.40322
▁gas	-9.40352
▁guess	-9.40383
▁married	-9.40495
▁count	-9.40587
▁needed	-9.40605
ress	-9.40624
▁measure	-9.40666
▁hell	-9.40698
nu	-9.40947
▁members	-9.41002
▁Sta	-9.41038
▁Like	-9.41169
▁difference	-9.41197
▁notice	-9.41218
▁TV	-9.41277
▁playing	-9.41389
▁patients	-9.41475
▁feelings	-9.41535
▁approximately	-9.41543
car	-9.41655
▁From	-9.4178
▁moving	-9.41818
uch	-9.41895
ino	-9.41983
▁interest	-9.42001
▁extra	-9.42006
▁success	-9.42009
▁hospital	-9.42013
▁movement	-9.42039
▁improve	-9.42189
▁entire	-9.42239
if	-9.42288
▁feet	-9.42321
▁related	-9.42368
▁above	-9.42492
▁diet	-9.42552
▁worth	-9.42554
▁wanna	-9.42603
▁2004	-9.42628
▁levels	-9.4271
▁24	-9.42727
▁activity	-9.42728
cor	-9.42746
▁Many	-9.42776
istic	-9.42785
▁Wo	-9.42795
▁album	-9.42841
▁sha	-9.42873
▁cross	-9.4296
wo	-9.43144
ana	-9.43184
J	-9.43186
▁Am	-9.43289
▁addition	-9.43345
ual	-9.43382
▁writing	-9.43436
▁player	-9.43453
▁gotta	-9.43513
▁science	-9.43555
▁appear	-9.4357
▁stage	-9.43613
▁Sea	-9.43696
zo	-9.4373
▁Europe	-9.44065
▁ce	-9.44079
▁billion	-9.44102
▁global	-9.44155
▁structure	-9.44181
▁Thank	-9.44281
▁fast	-9.4434
▁published	-9.44503
▁subject	-9.44517
▁location	-9.44637
pen	-9.44652
/	-9.4475
yn	-9.4507
▁necessary	-9.45121
▁spread	-9.45122
und	-9.45271
▁County	-9.45345
▁voice	-9.45365
port	-9.45372
▁2009	-9.45379
▁active	-9.45439
▁protein	-9.45609
ane	-9.4574
▁seven	-9.45762
▁beautiful	-9.45853
ants	-9.45874
▁mar	-9.45913
ris	-9.45951
▁issues	-9.45995
▁administrative	-9.45997
ging	-9.46022
▁led	-9.46183
ctor	-9.4624
▁apply	-9.46313
▁Tell	-9.46325
▁chemical	-9.46343
▁match	-9.46349
▁price	-9.46368
ple	-9.46467
20	-9.46564
▁range	-9.46583
▁challenge	-9.46589
▁network	-9.4659
▁final	-9.46604
▁code	-9.4668
▁tried	-9.46681
▁serious	-9.46714
▁search	-9.46847
▁Since	-9.46861
▁photo	-9.46882
zy	-9.46898
▁threat	-9.46962
▁spot	-9.47007
▁response	-9.47207
▁Tra	-9.47223
▁pr	-9.47314
cl	-9.47347
▁fo	-9.47426
▁evidence	-9.47456
▁ball	-9.47472
work	-9.47473
▁shoot	-9.4758
ji	-9.47639
▁band	-9.47651
▁Y	-9.47684
▁pot	-9.47696
▁Good	-9.47746
▁respect	-9.47829
▁minute	-9.47877
ica	-9.47879
tur	-9.47888
▁factor	-9.4793
▁explain	-9.47954
▁rock	-9.48034
▁giving	-9.4808
▁green	-9.48081
▁City	-9.48133
fer	-9.48157
▁Ru	-9.48212
▁Ph	-9.48231
▁caused	-9.48244
▁individual	-9.48404
▁le	-9.48531
▁environment	-9.48572
▁street	-9.48581
▁affect	-9.48641
▁Give	-9.48653
▁letter	-9.48726
oid	-9.4879
▁African	-9.48833
ified	-9.48955
▁Japanese	-9.48966
?"	-9.48973
ek	-9.49003
▁served	-9.49074
▁=	-9.49091
▁artist	-9.4917
dic	-9.4932
hy	-9.49348
▁worry	-9.49465
▁middle	-9.49592
▁tea	-9.49644
▁effort	-9.49718
▁India	-9.49729
▁bottom	-9.49846
▁truth	-9.49846
▁species	-9.50252
▁goal	-9.50474
▁Ke	-9.50565
▁bank	-9.50615
▁mark	-9.50623
ku	-9.50789
▁stick	-9.50908
▁sexual	-9.50959
ł	-9.51109
▁modern	-9.51133
▁poor	-9.51163
cept	-9.51268
▁ob	-9.51326
▁standard	-9.51415
q	-9.51459
ular	-9.51632
ory	-9.51737
▁Right	-9.52075
▁trouble	-9.52164
▁meaning	-9.52188
▁regional	-9.52262
cle	-9.52277
▁private	-9.52294
▁achieve	-9.52295
▁sugar	-9.52306
▁ver	-9.52379
▁moved	-9.52385
▁2008	-9.52443
▁supposed	-9.52444
▁attempt	-9.52556
▁written	-9.52587
▁expect	-9.52638
▁win	-9.52712
▁gain	-9.52786
▁played	-9.52866
▁fruit	-9.53081
▁rep	-9.53331
cha	-9.53368
▁students	-9.53445
▁event	-9.53448
▁himself	-9.53475
ification	-9.53485
▁cup	-9.53513
▁document	-9.53608
▁ju	-9.53664
▁contain	-9.53948
ound	-9.53996
▁International	-9.54138
qu	-9.54145
▁blue	-9.54147
▁rec	-9.54191
▁February	-9.54271
▁style	-9.54276
▁finger	-9.54286
▁training	-9.54293
▁represent	-9.54352
ned	-9.54599
▁General	-9.54673
▁Award	-9.54851
▁40	-9.54938
▁afraid	-9.54939
▁tonight	-9.54944
▁particular	-9.54973
▁involved	-9.5504
▁mis	-9.55049
▁changed	-9.55064
▁activities	-9.55072
▁agent	-9.55191
▁Central	-9.55206
▁European	-9.55307
uff	-9.55419
▁results	-9.55429
▁murder	-9.5561
▁suffer	-9.55611
▁movie	-9.55612
▁fit	-9.55843
▁wear	-9.55892
▁immediately	-9.56103
▁21	-9.56108
ea	-9.56163
▁command	-9.56165
▁push	-9.5618
▁upon	-9.56226
ov	-9.56231
▁reported	-9.56266
▁link	-9.5629
▁produced	-9.56337
▁fix	-9.56485
▁promise	-9.56566
▁ability	-9.56622
▁original	-9.56715
▁foot	-9.56716
▁rights	-9.56766
fu	-9.57039
▁career	-9.57054
lon	-9.571
light	-9.57157
▁micro	-9.57263
▁r	-9.57403
▁games	-9.57489
▁looks	-9.57494
▁directly	-9.57576
ez	-9.57684
ney	-9.57725
▁reaction	-9.57781
▁School	-9.57792
wn	-9.57831
▁Ti	-9.57881
▁hang	-9.57897
▁bra	-9.57919
▁foreign	-9.5793
cro	-9.58115
▁gene	-9.58252
▁generally	-9.58316
▁society	-9.58345
▁studies	-9.58345
▁East	-9.58357
▁2019	-9.5836
▁je	-9.58416
▁types	-9.58446
▁mine	-9.58524
▁pet	-9.58537
arch	-9.58574
▁bag	-9.58621
▁central	-9.58623
gue	-9.58694
▁influence	-9.58761
Y	-9.58798
▁detail	-9.58814
ever	-9.589
▁State	-9.5892
▁Art	-9.59006
▁lies	-9.59134
ably	-9.59167
▁slow	-9.59181
▁western	-9.59192
▁Voivodeship	-9.59319
▁u	-9.59347
nda	-9.59376
▁decided	-9.59417
▁2007	-9.59478
▁whatever	-9.59487
par	-9.59563
▁female	-9.596
ky	-9.59636
ough	-9.59792
▁relax	-9.59881
▁sold	-9.59925
▁dance	-9.59983
▁hundred	-9.60022
cra	-9.60039
cus	-9.60074
▁complex	-9.60163
▁maintain	-9.60163
▁tu	-9.60212
▁aware	-9.60329
▁separate	-9.60446
▁Asia	-9.60592
▁mistake	-9.60592
▁eating	-9.6074
▁France	-9.60746
▁associated	-9.60824
rop	-9.60836
▁straight	-9.60871
▁foods	-9.60879
▁beginning	-9.60893
30	-9.61019
▁west	-9.61047
▁Act	-9.61073
▁groups	-9.61156
▁animals	-9.61235
ski	-9.614
▁°	-9.61443
▁disc	-9.61445
▁worse	-9.6159
oon	-9.61629
▁ri	-9.61636
▁daily	-9.61728
▁road	-9.61781
▁bacteria	-9.61875
▁drugs	-9.61922
▁shall	-9.62144
▁round	-9.62204
▁option	-9.62301
▁director	-9.62314
▁parts	-9.62354
▁seems	-9.62368
▁nation	-9.62417
▁target	-9.62592
bor	-9.62617
▁systems	-9.62648
▁rich	-9.62675
▁discovered	-9.62711
▁felt	-9.6274
▁concern	-9.62747
▁asking	-9.62767
▁dad	-9.62837
▁King	-9.62885
▁organ	-9.629
▁services	-9.62981
▁British	-9.63026
▁task	-9.63034
▁y	-9.63068
▁salt	-9.63082
X	-9.63092
vis	-9.63136
▁purpose	-9.63177
▁enter	-9.63187
▁2006	-9.63338
▁glass	-9.63463
▁impact	-9.63489
▁throughout	-9.63543
▁turned	-9.63599
▁teacher	-9.63671
▁companies	-9.63755
▁throw	-9.63773
▁trial	-9.63788
▁television	-9.63902
▁suit	-9.64033
▁border	-9.64048
▁fly	-9.64073
low	-9.64083
▁typically	-9.64137
▁happens	-9.6416
▁path	-9.64172
▁Gmina	-9.64196
▁sweet	-9.64197
cin	-9.6427
▁Cu	-9.64383
▁speed	-9.64495
meter	-9.64548
▁carry	-9.64738
▁setting	-9.64776
▁website	-9.64785
▁user	-9.64888
▁respond	-9.64932
▁refer	-9.65025
▁announced	-9.65048
▁limit	-9.65109
lam	-9.65207
▁according	-9.65229
▁tomorrow	-9.65229
▁content	-9.65232
▁station	-9.65257
▁root	-9.65275
▁growing	-9.65523
▁imagine	-9.65526
▁wrote	-9.65526
▁Col	-9.65613
▁Han	-9.65617
▁wa	-9.65634
▁fr	-9.65672
▁shown	-9.65691
nia	-9.65834
▁Ben	-9.6587
▁conditions	-9.65893
tes	-9.66006
▁II	-9.66123
wer	-9.66272
▁floor	-9.66274
▁Our	-9.66278
▁flow	-9.66294
10	-9.66417
ib	-9.66426
▁train	-9.66433
50	-9.66551
▁Har	-9.66551
pha	-9.66607
▁egg	-9.66632
▁Ad	-9.66894
▁Put	-9.66961
▁terms	-9.66988
▁particularly	-9.67002
▁Phil	-9.67006
▁Please	-9.67027
arian	-9.67056
▁news	-9.67144
▁section	-9.67178
▁scale	-9.67185
▁log	-9.67218
pl	-9.6727
press	-9.6735
ake	-9.67564
▁finally	-9.67633
▁Dis	-9.67688
▁Other	-9.6771
▁smell	-9.67787
▁Bra	-9.67905
▁alcohol	-9.68091
▁somebody	-9.68091
▁successful	-9.68096
▁Che	-9.68172
▁object	-9.68228
▁books	-9.68231
▁Game	-9.68311
bra	-9.68385
▁adult	-9.68398
▁perform	-9.6845
▁spa	-9.68519
put	-9.6853
▁telling	-9.68609
▁Fu	-9.68627
▁Pri	-9.68628
▁clo	-9.68799
▁tax	-9.68819
▁interested	-9.6883
▁medication	-9.68849
▁kilometres	-9.68857
▁designed	-9.68938
▁hum	-9.68994
▁Minister	-9.69012
ye	-9.69142
▁wh	-9.69208
uck	-9.6921
▁events	-9.69362
duct	-9.6948
▁brand	-9.69511
▁forward	-9.69656
▁dress	-9.69663
▁towards	-9.69727
▁flu	-9.69813
▁Ask	-9.69912
▁increased	-9.70061
▁waiting	-9.70206
mber	-9.70211
▁legal	-9.70239
▁fa	-9.70348
ili	-9.70372
▁Em	-9.7039
▁gold	-9.70504
▁policy	-9.70566
▁express	-9.70566
▁fresh	-9.70567
▁layer	-9.7057
▁larger	-9.70678
▁prefer	-9.70731
ria	-9.70738
▁easier	-9.70879
▁deliver	-9.71039
▁alive	-9.71044
▁bird	-9.71066
ological	-9.71119
▁anymore	-9.71195
▁Russian	-9.71242
▁cook	-9.71311
▁Although	-9.71352
▁London	-9.71352
like	-9.71366
▁fair	-9.71408
▁complete	-9.71414
ency	-9.71492
▁comfortable	-9.71536
▁forget	-9.71546
bel	-9.71601
▁lu	-9.71693
▁gu	-9.71827
▁goals	-9.71909
▁equal	-9.71986
▁demand	-9.7199
▁den	-9.72068
▁seek	-9.72102
▁sw	-9.72206
▁Cor	-9.72225
▁leaving	-9.72303
▁regular	-9.72377
▁lock	-9.72418
▁Gi	-9.72488
▁interesting	-9.72509
▁Com	-9.72558
▁spent	-9.72572
▁application	-9.72623
▁multi	-9.72623
▁traditional	-9.72705
▁finish	-9.72856
▁Air	-9.72857
▁sell	-9.72932
▁leg	-9.72957
▁soil	-9.72984
▁significant	-9.73018
tern	-9.73026
▁camera	-9.73057
▁victim	-9.73103
▁powerful	-9.7324
har	-9.73258
▁largest	-9.73382
▁although	-9.73586
▁detect	-9.736
▁board	-9.73645
▁patient	-9.73731
▁High	-9.73778
▁House	-9.73782
▁auto	-9.73879
▁bus	-9.73884
og	-9.73919
▁girls	-9.73941
▁uh	-9.7398
fin	-9.74017
cho	-9.7409
▁performance	-9.74097
▁Party	-9.74108
qua	-9.74114
▁Find	-9.74154
ute	-9.74157
▁(1	-9.74321
▁feed	-9.74331
▁button	-9.74351
▁miss	-9.74365
▁join	-9.74416
▁virus	-9.74421
▁perfect	-9.74477
dent	-9.74536
▁nature	-9.74562
▁soft	-9.74565
▁disorder	-9.74723
▁progress	-9.74723
▁lack	-9.74724
▁Chi	-9.74732
▁Ya	-9.74907
▁wide	-9.74922
mark	-9.75132
▁essential	-9.75214
▁severe	-9.75224
ob	-9.75262
▁below	-9.75339
▁states	-9.75361
▁Avoid	-9.75378
▁wonder	-9.7539
▁Reg	-9.75457
▁distance	-9.75543
nic	-9.75571
▁Remember	-9.75707
▁average	-9.7571
▁learning	-9.75713
▁install	-9.75714
▁pop	-9.75795
▁22	-9.75867
▁handle	-9.75942
▁Ge	-9.75944
▁harm	-9.76072
af	-9.76097
▁serve	-9.76099
▁prove	-9.76287
▁Q	-9.76373
illa	-9.76452
▁Instead	-9.76535
▁Internet	-9.76536
▁Any	-9.76604
▁author	-9.76641
lock	-9.76672
▁seat	-9.76672
▁operation	-9.76717
▁Think	-9.76869
ari	-9.76979
ó	-9.76985
▁weapon	-9.77036
▁clothes	-9.77102
nie	-9.77154
iz	-9.77213
▁Ab	-9.77236
▁animal	-9.7728
▁lived	-9.77381
▁sick	-9.77403
log	-9.77411
▁shows	-9.77415
▁Korea	-9.77533
▁regard	-9.77539
▁starting	-9.77579
▁cap	-9.77602
▁Two	-9.77606
▁included	-9.77663
fo	-9.77702
▁thoughts	-9.77761
▁quality	-9.77874
▁variety	-9.78043
▁catch	-9.78097
rum	-9.7821
▁multiple	-9.7822
▁recent	-9.78223
▁ring	-9.78283
▁looked	-9.78435
▁Park	-9.78442
ura	-9.78464
ay	-9.78483
▁Republic	-9.7855
▁fund	-9.78552
pped	-9.78633
▁economy	-9.7872
▁mom	-9.78783
bin	-9.78961
ional	-9.79038
▁Australia	-9.7906
▁Click	-9.79062
▁river	-9.79094
stan	-9.79115
▁plants	-9.79144
▁memory	-9.79233
▁ear	-9.79243
▁2005	-9.79264
len	-9.79267
▁scar	-9.79275
▁strength	-9.79311
▁described	-9.79381
▁Add	-9.79383
oma	-9.79387
▁muscle	-9.79394
▁article	-9.79403
▁contract	-9.79403
til	-9.79449
▁Russia	-9.79521
▁wood	-9.79543
ō	-9.79573
▁display	-9.79585
▁cop	-9.7969
ose	-9.79723
▁cream	-9.79746
▁currently	-9.79769
▁established	-9.79819
▁direct	-9.79993
▁numbers	-9.80218
▁pattern	-9.80262
▁freedom	-9.80278
▁concept	-9.80305
▁Soviet	-9.80434
▁Ver	-9.80435
▁Ku	-9.80461
▁Union	-9.80528
▁60	-9.80531
▁wind	-9.80603
▁easily	-9.80607
▁corner	-9.80615
▁loved	-9.80628
bal	-9.80766
▁Frank	-9.80793
ano	-9.80803
ulation	-9.80907
▁decade	-9.80955
▁Mac	-9.81056
▁park	-9.81128
▁Red	-9.81143
▁breath	-9.81143
11	-9.81161
▁23	-9.8119
▁onto	-9.81262
▁involve	-9.81345
▁management	-9.81345
van	-9.81393
▁District	-9.81476
▁stories	-9.81477
▁Vietnamese	-9.81492
▁hole	-9.81501
fl	-9.81505
▁connection	-9.81537
▁island	-9.81603
▁habit	-9.81662
▁belong	-9.81739
▁comm	-9.81788
ttle	-9.81793
ace	-9.81807
etic	-9.82084
pping	-9.82092
▁Open	-9.82114
osis	-9.82186
verse	-9.82189
▁camp	-9.82195
▁emotional	-9.82238
ker	-9.82268
▁rid	-9.82374
▁Bro	-9.82405
▁radio	-9.82409
mar	-9.82412
ray	-9.82512
▁Pu	-9.8253
▁football	-9.82537
▁Min	-9.82562
jo	-9.82653
▁bottle	-9.82722
▁Mor	-9.82788
yo	-9.82789
▁engage	-9.82884
▁allowed	-9.82989
▁opportunity	-9.83061
▁Consider	-9.83061
▁Gen	-9.83219
▁financial	-9.83239
ank	-9.83312
▁&	-9.83338
▁sport	-9.83403
▁ran	-9.83576
▁fan	-9.83584
▁birth	-9.83592
▁reflect	-9.83595
▁connect	-9.83596
▁decide	-9.83649
lay	-9.83706
▁technique	-9.83773
▁Will	-9.8389
▁2000	-9.84003
▁Star	-9.84006
▁bomb	-9.84154
▁vote	-9.84198
▁bio	-9.84221
▁direction	-9.84229
▁Sun	-9.8426
▁Syria	-9.84267
▁spec	-9.84299
ame	-9.8434
▁depend	-9.84361
vel	-9.84382
▁smaller	-9.84388
ama	-9.8446
▁citizen	-9.84491
▁qua	-9.84603
gar	-9.84643
▁hate	-9.84727
▁determine	-9.84735
12	-9.84791
▁leading	-9.84851
▁pu	-9.84858
▁cho	-9.85015
▁tissue	-9.85032
▁prior	-9.85034
▁kiss	-9.85039
▁calm	-9.8506
▁coffee	-9.85214
▁conf	-9.85256
her	-9.85277
▁Za	-9.85371
▁signs	-9.85382
board	-9.85463
▁pack	-9.85478
path	-9.85516
itis	-9.85525
▁discuss	-9.85555
▁surprise	-9.85577
ów	-9.85638
▁campaign	-9.85759
▁Germany	-9.85797
▁Sam	-9.85843
▁finished	-9.85858
sign	-9.85874
igh	-9.85934
▁Women	-9.85957
▁miles	-9.85971
▁novel	-9.86076
▁conduct	-9.86163
▁trip	-9.86186
ban	-9.86195
▁invest	-9.86302
▁purchase	-9.86308
▁dinner	-9.86491
▁instance	-9.86494
▁neck	-9.86502
▁failure	-9.86508
▁Tu	-9.86711
▁seconds	-9.8679
▁mid	-9.86848
II	-9.86854
▁Sometimes	-9.8686
▁whose	-9.86912
▁Year	-9.86934
▁forces	-9.86938
▁note	-9.86955
▁email	-9.87063
▁theory	-9.87087
ix	-9.87162
▁lie	-9.87324
hen	-9.87365
$	-9.87383
▁Time	-9.87384
right	-9.87399
▁generation	-9.87414
▁Shi	-9.87432
▁added	-9.87453
▁blow	-9.87477
▁paint	-9.87477
▁peace	-9.87578
í	-9.87595
▁combination	-9.87599
atory	-9.87653
amine	-9.87679
▁officer	-9.87713
▁everybody	-9.87785
▁software	-9.87785
▁Only	-9.87854
▁sales	-9.87898
▁experiment	-9.87971
▁basic	-9.88147
▁ahead	-9.88153
▁nine	-9.88169
ope	-9.88199
▁jump	-9.88202
ude	-9.88213
▁wound	-9.88225
▁horse	-9.88346
▁Serie	-9.88356
▁battle	-9.88359
▁rules	-9.88433
▁beat	-9.8844
▁More	-9.88466
▁realize	-9.88499
▁Windows	-9.88532
ella	-9.88556
▁seeing	-9.88623
▁male	-9.88653
over	-9.88672
of	-9.8868
▁Un	-9.88693
now	-9.88726
▁knowledge	-9.88908
▁earn	-9.88964
▁consist	-9.89061
▁Before	-9.89096
▁firm	-9.89096
▁ensure	-9.891
clo	-9.89134
▁king	-9.89276
▁earlier	-9.89285
iff	-9.89298
▁returned	-9.89412
▁Another	-9.89474
▁learned	-9.89534
▁reading	-9.89572
▁eventually	-9.89663
▁honest	-9.89663
▁dangerous	-9.89678
▁yes	-9.89724
▁receive	-9.89751
rie	-9.89815
ik	-9.89826
▁milk	-9.89853
▁honor	-9.89855
ese	-9.89867
▁ideas	-9.89893
▁Va	-9.89915
▁Ye	-9.9002
▁Does	-9.90106
▁civil	-9.90386
▁standing	-9.90427
cer	-9.90438
▁pin	-9.90461
part	-9.90463
▁bone	-9.905
▁Sch	-9.90548
▁Every	-9.90592
▁shut	-9.906
▁causes	-9.90627
▁fill	-9.90668
nne	-9.90698
rma	-9.90774
▁rise	-9.91149
▁Black	-9.91191
▁repeat	-9.91222
▁label	-9.91277
▁flat	-9.91324
▁crazy	-9.91384
▁char	-9.91409
▁Kh	-9.91437
▁wearing	-9.91533
▁roll	-9.91539
▁signal	-9.91558
▁survive	-9.91577
▁balance	-9.91577
▁features	-9.91609
▁developing	-9.91832
▁Roman	-9.91868
19	-9.91875
á	-9.91884
▁stock	-9.91965
▁double	-9.91967
▁industry	-9.92158
▁kept	-9.92159
▁crime	-9.92183
▁older	-9.92245
▁followed	-9.9226
▁correct	-9.92353
▁tight	-9.92556
▁mission	-9.92569
▁options	-9.92619
▁writer	-9.92646
ball	-9.92651
▁quick	-9.92693
▁resources	-9.92737
▁Great	-9.92745
▁favorite	-9.92758
▁statement	-9.92798
▁feature	-9.92817
▁OK	-9.92857
▁engineer	-9.92908
▁meat	-9.92918
▁mental	-9.92927
▁holding	-9.92966
▁bright	-9.92989
Arabic	-9.93119
▁perhaps	-9.93135
▁becoming	-9.93144
▁Those	-9.93146
▁rat	-9.9322
▁metal	-9.93269
▁psych	-9.93306
▁origin	-9.93334
tical	-9.93347
ook	-9.93438
▁founded	-9.93521
▁Start	-9.93548
OS	-9.93607
▁therapy	-9.93656
▁length	-9.93725
▁judge	-9.93923
▁Would	-9.93923
▁employ	-9.94106
ita	-9.9416
17	-9.94164
▁highly	-9.94209
pper	-9.94264
lia	-9.94315
▁twice	-9.94319
▁conflict	-9.9432
▁square	-9.9432
matic	-9.94409
▁Over	-9.94453
ogen	-9.94537
chan	-9.94538
▁required	-9.94619
▁map	-9.94704
▁climate	-9.94718
Applause	-9.94917
▁election	-9.94987
▁bro	-9.9507
▁Uh	-9.95108
▁huh	-9.95118
▁Western	-9.95127
▁somewhere	-9.95163
▁discover	-9.95171
▁wave	-9.95186
▁responsible	-9.95317
▁receptor	-9.95318
▁desire	-9.9533
cz	-9.95374
▁actions	-9.95507
▁photograph	-9.95525
▁speech	-9.95719
▁huge	-9.9572
▁solve	-9.95735
ologist	-9.9584
▁finding	-9.9587
▁sad	-9.96036
▁Win	-9.96042
▁via	-9.96094
▁additional	-9.96096
▁Pomeranian	-9.96123
▁attract	-9.96276
▁counter	-9.96279
")	-9.96375
▁toward	-9.96464
▁orbit	-9.96503
▁cry	-9.96716
▁communication	-9.96732
▁institution	-9.96739
▁summer	-9.96745
▁Check	-9.96799
▁race	-9.96837
▁collect	-9.96914
cut	-9.96974
▁commonly	-9.96976
rous	-9.97013
▁showed	-9.97035
▁meant	-9.97086
▁scene	-9.9714
▁extend	-9.97141
▁1990	-9.97175
▁greater	-9.97198
▁weak	-9.97257
▁Nor	-9.97331
▁port	-9.97408
phy	-9.97456
dia	-9.97501
▁branch	-9.97563
bit	-9.97565
▁beyond	-9.97754
▁Mc	-9.97785
▁sitting	-9.97825
▁compete	-9.97847
▁watching	-9.97912
uring	-9.97937
vin	-9.97963
48	-9.97981
▁rank	-9.98108
▁chain	-9.98168
▁2020	-9.98202
▁2003	-9.98205
▁paid	-9.98291
▁farm	-9.98358
▁trigger	-9.98378
▁etc	-9.98398
▁x	-9.98425
▁iron	-9.98441
▁recently	-9.98468
▁schedule	-9.9858
▁dollars	-9.9873
▁causing	-9.98792
▁arms	-9.98797
▁keeping	-9.98918
▁Sir	-9.98971
▁college	-9.98995
▁Comp	-9.99016
▁Bre	-9.9908
▁items	-9.99111
▁master	-9.99121
▁28	-9.99167
▁Mary	-9.99196
▁review	-9.99255
▁emotions	-9.99292
▁labor	-9.99335
ax	-9.99395
▁favor	-9.99396
▁plastic	-9.99413
▁happening	-9.99426
▁Tri	-9.99495
▁pan	-9.99592
▁accident	-9.99621
▁anybody	-9.99621
▁teeth	-9.99622
▁heavy	-9.99623
▁guide	-9.9967
▁indicate	-9.99711
▁teach	-9.99748
▁speaking	-9.99756
▁compound	-9.99857
ties	-9.99873
▁rain	-10
▁medicine	-10.0004
▁Sc	-10.0008
ene	-10.0016
▁cycle	-10.0018
▁escape	-10.0025
▁remind	-10.0026
egra	-10.0027
▁recover	-10.0031
oph	-10.0032
▁laugh	-10.0047
German	-10.0051
▁route	-10.0052
▁menu	-10.0057
▁walking	-10.0063
▁waste	-10.0064
pon	-10.0068
▁northern	-10.0068
▁guard	-10.007
ole	-10.0078
▁commercial	-10.0089
▁primary	-10.0089
▁reveal	-10.0089
▁dish	-10.0095
▁pair	-10.0101
▁drama	-10.0112
▁protest	-10.0132
▁recommend	-10.0138
▁nose	-10.014
▁26	-10.0149
▁Listen	-10.0158
▁thus	-10.0164
▁workers	-10.0164
▁mix	-10.0172
▁mountain	-10.0174
▁pur	-10.0183
▁breathing	-10.0186
▁grand	-10.0193
tail	-10.0193
▁independent	-10.0195
▁studied	-10.0195
▁painting	-10.0195
▁changing	-10.0195
▁$1	-10.02
▁cent	-10.02
▁Paul	-10.0214
▁era	-10.0216
▁channel	-10.0217
▁depression	-10.0217
hal	-10.0221
graph	-10.0221
▁scientist	-10.0238
▁reality	-10.0242
ime	-10.0245
▁Paris	-10.0248
▁affected	-10.0249
▁bear	-10.025
▁tap	-10.0251
▁relation	-10.0259
▁breast	-10.026
▁wild	-10.026
▁sentence	-10.0264
rine	-10.0276
▁continued	-10.0278
mination	-10.0278
▁broken	-10.028
▁Mag	-10.0281
▁Italian	-10.0282
▁rare	-10.0292
▁competition	-10.0303
▁ocean	-10.0303
je	-10.0305
▁invent	-10.0315
▁contains	-10.0318
▁poly	-10.0321
▁thousands	-10.0328
▁27	-10.0329
▁useful	-10.0329
▁shift	-10.0346
▁chair	-10.0346
▁leaders	-10.0352
▁Dan	-10.0352
dom	-10.0357
burg	-10.0361
▁anxiety	-10.0368
▁interview	-10.0369
▁lawyer	-10.0369
▁Army	-10.0371
▁fully	-10.0371
▁putting	-10.0374
▁dose	-10.0387
▁jo	-10.0389
▁colon	-10.0398
}	-10.0412
▁sounds	-10.0424
war	-10.0427
▁Mil	-10.0432
kh	-10.0432
▁flower	-10.0433
▁decrease	-10.0434
▁switch	-10.0434
▁Court	-10.0435
▁flight	-10.044
▁encourage	-10.0456
▁religious	-10.0456
▁par	-10.0461
▁legs	-10.0464
well	-10.0474
▁carbon	-10.0478
ense	-10.0479
▁skills	-10.048
▁boat	-10.0486
ivity	-10.049
▁Bill	-10.0498
▁transport	-10.0502
▁appearance	-10.0504
▁Dar	-10.0505
▁understanding	-10.0508
▁fell	-10.0509
ridge	-10.0516
▁objects	-10.0517
▁Congress	-10.0522
▁opinion	-10.0522
▁soldier	-10.0524
▁Lord	-10.0527
▁killing	-10.0528
▁shoes	-10.0536
▁Gar	-10.0536
▁suspect	-10.0544
▁unless	-10.0547
▁student	-10.0549
▁customer	-10.0559
ifi	-10.0566
▁Szczecin	-10.0566
▁visual	-10.0567
take	-10.0567
▁Mom	-10.0568
▁agree	-10.0579
▁trick	-10.058
▁calling	-10.0583
▁James	-10.0589
▁assume	-10.0594
▁plane	-10.0604
▁liquid	-10.0611
▁Korean	-10.0612
▁comment	-10.0617
une	-10.0621
▁interests	-10.0621
▁boss	-10.0623
▁formula	-10.0631
▁Vo	-10.0637
▁owner	-10.0637
▁wake	-10.0641
▁Wal	-10.0645
▁spin	-10.0653
▁taste	-10.0654
▁topic	-10.0655
▁vet	-10.0663
▁credit	-10.0678
▁Yu	-10.0691
▁Indian	-10.0695
▁gift	-10.0701
▁unique	-10.0703
▁Work	-10.0703
▁pal	-10.0704
▁comb	-10.0718
▁ride	-10.0719
▁Talk	-10.0724
▁god	-10.0727
ju	-10.0727
▁individuals	-10.0732
▁chi	-10.0739
▁spray	-10.0748
lies	-10.0749
▁nuclear	-10.075
een	-10.0751
▁appears	-10.0767
▁yeah	-10.0769
▁hide	-10.0778
▁scientific	-10.0791
▁Bel	-10.0796
▁soap	-10.0802
▁Best	-10.0813
▁raise	-10.0819
ula	-10.0827
▁audience	-10.0837
▁replace	-10.0844
▁Hy	-10.0848
▁fighting	-10.085
▁lay	-10.0858
▁acting	-10.0859
▁stomach	-10.086
▁Follow	-10.086
▁caught	-10.086
▁funny	-10.0864
▁Also	-10.0864
▁Plan	-10.0868
▁icon	-10.0868
▁mess	-10.0869
▁Part	-10.0872
16	-10.088
lov	-10.0883
▁safety	-10.0895
▁Ce	-10.0896
▁Yo	-10.0897
▁George	-10.0906
▁Wait	-10.0914
▁Up	-10.0914
top	-10.0914
▁ill	-10.0939
65	-10.0942
▁placed	-10.0944
▁Which	-10.0952
▁yellow	-10.0953
▁2001	-10.0956
rick	-10.096
▁Island	-10.0968
▁limited	-10.0971
▁medications	-10.099
15	-10.0995
▁slightly	-10.0998
▁adopt	-10.0999
az	-10.0999
▁Gal	-10.1002
▁helping	-10.1003
▁passed	-10.1004
pre	-10.1009
▁magazine	-10.1022
▁expand	-10.1022
▁gather	-10.1025
▁download	-10.1027
We	-10.103
▁Bur	-10.103
▁Human	-10.1033
▁establish	-10.1035
bri	-10.1037
▁garden	-10.1045
▁1980	-10.1051
▁bath	-10.1053
can	-10.1068
▁ingredient	-10.1068
▁marriage	-10.1068
▁famous	-10.1068
▁Kingdom	-10.1069
▁hunt	-10.1069
▁defeat	-10.1069
▁Latin	-10.1077
otic	-10.1081
▁appropriate	-10.1092
▁Though	-10.1093
▁2002	-10.1096
▁fluid	-10.1098
▁request	-10.1121
▁Ser	-10.1122
cie	-10.1123
▁Pan	-10.1129
▁Peter	-10.1129
▁Pol	-10.1131
▁cities	-10.1133
head	-10.1135
▁honey	-10.1141
▁destroy	-10.1153
▁copy	-10.1155
▁families	-10.1162
▁participate	-10.1162
▁Second	-10.1162
▁prop	-10.118
▁church	-10.1186
▁creating	-10.1186
▁tank	-10.1187
▁shop	-10.1191
▁construction	-10.1192
▁apart	-10.1194
▁mood	-10.1197
▁lip	-10.1204
▁motion	-10.1209
▁presence	-10.121
▁thick	-10.1212
pan	-10.1222
▁mode	-10.1228
▁taught	-10.1233
▁juice	-10.1237
▁anywhere	-10.1237
▁hat	-10.1248
▁web	-10.1253
▁expert	-10.1257
▁calorie	-10.1257
▁highest	-10.1264
▁prepared	-10.1264
▁fail	-10.1277
▁identify	-10.1281
▁supply	-10.1281
▁reached	-10.1281
▁lady	-10.1291
▁Google	-10.1305
▁showing	-10.1305
ised	-10.1306
▁actress	-10.1308
▁Sal	-10.1324
▁property	-10.1332
▁broke	-10.1333
inate	-10.1335
▁opening	-10.1338
▁load	-10.1345
▁believed	-10.1345
▁elements	-10.1348
▁Council	-10.1353
▁vehicle	-10.1353
▁edge	-10.1355
▁faster	-10.136
▁army	-10.1373
▁antibiotic	-10.1377
▁muscles	-10.1378
▁dig	-10.1383
ctic	-10.1397
▁quiet	-10.1401
▁frame	-10.1403
▁magic	-10.1404
▁joined	-10.1413
▁slowly	-10.142
▁England	-10.1425
▁ancient	-10.1426
▁adapt	-10.1426
▁defend	-10.1426
▁transform	-10.1428
▁bill	-10.1429
▁careful	-10.1434
▁Bri	-10.1436
▁performed	-10.1443
▁appeared	-10.1443
▁bodies	-10.145
▁sample	-10.1451
▁expected	-10.1458
▁lab	-10.1459
nny	-10.146
▁protection	-10.1462
▁provided	-10.1468
▁Kr	-10.1487
25	-10.1488
▁leader	-10.149
▁cast	-10.1491
▁Val	-10.1493
▁alternative	-10.1498
▁investment	-10.1506
▁administration	-10.1523
▁smart	-10.1524
▁component	-10.1547
▁nail	-10.1549
▁abuse	-10.1558
▁200	-10.1567
▁Set	-10.157
▁Dad	-10.1571
▁smile	-10.1573
▁manage	-10.1573
▁Wil	-10.1575
ada	-10.1576
▁fu	-10.1588
▁Char	-10.1595
▁violence	-10.1597
▁Queen	-10.1598
lum	-10.16
▁Tom	-10.1603
You	-10.1611
▁Kar	-10.1621
▁appointed	-10.1621
▁Institute	-10.1621
▁signed	-10.164
▁disappear	-10.1646
▁nervous	-10.1646
▁ourselves	-10.1646
▁damn	-10.1646
▁drag	-10.165
▁singer	-10.1653
but	-10.1656
▁earth	-10.1661
▁missing	-10.167
▁opened	-10.1671
tha	-10.1671
▁authorities	-10.1673
craft	-10.1673
▁referred	-10.1674
lip	-10.1675
▁wire	-10.1676
eu	-10.1695
▁angry	-10.1697
fra	-10.1699
▁80	-10.1699
▁treated	-10.1703
ich	-10.171
▁coast	-10.1713
ón	-10.172
▁Olympic	-10.1721
▁hypo	-10.1721
▁Center	-10.1721
▁hero	-10.1721
stitut	-10.1722
▁benefit	-10.1726
▁score	-10.1733
▁attend	-10.1741
▁mostly	-10.1744
▁upper	-10.1745
▁zone	-10.1746
▁predict	-10.1746
▁Health	-10.1746
▁clinical	-10.1764
place	-10.1764
▁benefits	-10.1766
▁Chile	-10.1766
▁collection	-10.1767
▁(3	-10.1768
▁surgery	-10.1771
▁Washington	-10.1771
▁employee	-10.1773
▁recognize	-10.1773
▁DNA	-10.1775
▁connected	-10.1775
▁closed	-10.1783
▁chest	-10.1792
▁anyway	-10.1795
▁symbol	-10.1796
pec	-10.1798
▁mask	-10.18
▁crack	-10.18
▁divide	-10.1801
▁stain	-10.1812
▁client	-10.1821
▁digital	-10.1821
▁Social	-10.1821
▁Turk	-10.1823
▁introduced	-10.1835
berg	-10.1842
hood	-10.1846
▁volume	-10.1846
▁amazing	-10.1846
▁therefore	-10.1846
▁liver	-10.1847
▁formed	-10.1849
▁Christian	-10.185
14	-10.187
▁politician	-10.1872
▁minor	-10.1872
▁towel	-10.1874
▁strip	-10.1883
▁Place	-10.1886
▁recommended	-10.1888
day	-10.189
pri	-10.1893
▁drinking	-10.1896
▁status	-10.1897
chlor	-10.1906
▁journal	-10.1914
ius	-10.192
▁previous	-10.1923
60	-10.1924
house	-10.1924
▁Cal	-10.1925
▁Lin	-10.1927
▁(2	-10.1928
▁stopped	-10.1928
▁Men	-10.1929
▁plate	-10.1939
▁distract	-10.1948
▁graduate	-10.1948
gh	-10.1949
▁failed	-10.1958
▁routine	-10.1974
▁Bru	-10.1979
▁clothing	-10.1992
▁Nintendo	-10.1999
▁Research	-10.1999
▁distinct	-10.1999
▁drain	-10.1999
▁capture	-10.2002
▁describe	-10.2002
▁cultural	-10.2003
▁compared	-10.2017
▁universe	-10.2025
▁vegetables	-10.2028
▁critical	-10.2032
vir	-10.2044
▁Ve	-10.2046
▁chief	-10.2052
▁Law	-10.2053
▁react	-10.2057
13	-10.2073
▁Office	-10.2077
▁Watch	-10.2077
▁division	-10.2078
ility	-10.2079
▁internal	-10.2081
▁thin	-10.2087
▁Hong	-10.2102
]	-10.2102
▁Michael	-10.2102
▁Warsaw	-10.2102
▁substance	-10.2102
▁Fo	-10.2107
▁except	-10.2114
▁Under	-10.2115
▁Never	-10.2119
78	-10.2121
elle	-10.2124
▁trap	-10.2128
▁Group	-10.2128
▁herself	-10.2128
▁reject	-10.2128
▁defined	-10.2131
80	-10.2133
▁ended	-10.2143
▁saved	-10.2145
phen	-10.2153
▁emergency	-10.2154
▁supplement	-10.2154
▁nobody	-10.2154
▁solid	-10.2156
▁bigger	-10.2161
script	-10.2173
▁stone	-10.218
ę	-10.218
▁stupid	-10.2181
▁Nigeria	-10.2181
▁overall	-10.2182
▁raised	-10.2186
▁del	-10.2187
room	-10.2202
▁alter	-10.2203
▁electric	-10.2203
▁White	-10.2207
▁Street	-10.2207
▁secure	-10.2233
▁increasing	-10.2235
▁epi	-10.2237
▁rice	-10.2247
▁Jan	-10.2251
SA	-10.2258
▁California	-10.2259
▁confidence	-10.2259
▁principle	-10.2259
▁approved	-10.2259
▁brush	-10.2259
▁attach	-10.2261
▁Bal	-10.2271
▁helpful	-10.2276
▁Department	-10.2286
▁advantage	-10.2286
▁worried	-10.2286
▁closer	-10.2291
terior	-10.2295
▁launch	-10.2308
▁joint	-10.2309
▁sweat	-10.2313
▁brown	-10.2313
▁impress	-10.2317
▁vision	-10.232
▁debut	-10.2321
▁critic	-10.2331
▁contribute	-10.2339
▁monitor	-10.2339
▁biggest	-10.2339
▁electro	-10.2344
▁1999	-10.2345
▁Apple	-10.2353
▁Got	-10.2354
▁forest	-10.2355
▁Cast	-10.236
▁Music	-10.2362
▁Ly	-10.2363
▁department	-10.2365
▁ban	-10.2366
▁29	-10.237
▁div	-10.2371
bol	-10.2371
ken	-10.2372
▁Super	-10.2375
▁Jack	-10.2379
▁vent	-10.238
▁core	-10.2382
▁covered	-10.2382
▁Mark	-10.2384
▁actor	-10.2391
▁politics	-10.2392
▁phase	-10.2392
ette	-10.2394
hr	-10.2398
ida	-10.2411
▁episode	-10.2419
▁Spanish	-10.2419
▁blind	-10.2419
▁tip	-10.243
ography	-10.2431
AT	-10.2434
▁Perhaps	-10.2445
▁struggle	-10.2445
▁Bureau	-10.2445
▁steal	-10.2446
▁income	-10.2448
▁Del	-10.245
via	-10.2459
▁butter	-10.2459
▁concentration	-10.2472
▁procedure	-10.2472
▁restaurant	-10.2472
▁Greek	-10.2472
▁bowl	-10.2473
▁doubt	-10.2474
▁Trans	-10.2475
▁70	-10.248
vol	-10.2484
mple	-10.2491
▁Free	-10.2496
▁interaction	-10.2497
▁basis	-10.25
▁mixture	-10.2501
▁bridge	-10.2505
▁wrap	-10.2506
▁depending	-10.2512
▁elected	-10.2522
▁selling	-10.2524
▁activist	-10.2526
▁vitamin	-10.2526
▁William	-10.2526
▁grew	-10.2527
▁listening	-10.253
book	-10.2534
▁Association	-10.2553
▁Van	-10.2555
18	-10.2555
▁sum	-10.2561
▁Say	-10.2565
▁exhibit	-10.2581
▁fuel	-10.2589
▁tie	-10.2589
▁confirmed	-10.2596
▁Thu	-10.2602
▁relatively	-10.2603
nov	-10.2604
▁App	-10.2605
ola	-10.261
▁kick	-10.2612
▁tools	-10.2637
▁regime	-10.2644
▁Play	-10.2644
▁majority	-10.265
▁Kong	-10.2652
long	-10.2657
▁syn	-10.2661
▁oxygen	-10.2663
▁loose	-10.2665
▁Inter	-10.2666
hold	-10.2669
▁fiber	-10.2676
▁mg	-10.2678
▁Love	-10.2679
▁shoulder	-10.2679
load	-10.2684
▁advice	-10.269
▁operate	-10.2693
AR	-10.2695
▁agreement	-10.2697
▁till	-10.2701
▁scan	-10.2707
lash	-10.2712
▁manager	-10.2714
▁transfer	-10.2716
▁defense	-10.2718
▁upset	-10.273
▁Str	-10.2733
▁League	-10.2745
▁crush	-10.2745
▁faith	-10.2745
▁argue	-10.2747
▁extremely	-10.2765
▁forced	-10.2772
▁David	-10.2773
▁crisis	-10.2773
itch	-10.2773
▁properties	-10.2773
▁refuse	-10.2773
pla	-10.2777
▁lift	-10.278
▁River	-10.2785
cted	-10.2795
▁College	-10.2801
▁parent	-10.2802
▁Day	-10.2803
▁van	-10.2811
▁Canada	-10.283
▁Sara	-10.2835
99	-10.2852
▁serving	-10.2857
▁wedding	-10.2857
▁broad	-10.2862
▁losing	-10.2863
▁Out	-10.2866
▁Apply	-10.2882
▁focused	-10.2883
▁pregnancy	-10.2884
▁throat	-10.2884
▁Pacific	-10.2884
▁Robert	-10.2886
▁operating	-10.2887
▁Asian	-10.2889
▁UK	-10.29
▁revolution	-10.2913
▁Hold	-10.2914
oxy	-10.2916
omy	-10.2917
▁1960	-10.2919
▁fever	-10.2924
▁Ter	-10.2929
plo	-10.2938
▁smooth	-10.2941
▁university	-10.2941
bil	-10.2941
▁Type	-10.2941
▁Both	-10.2946
▁shower	-10.2957
68	-10.2963
▁Beijing	-10.2969
▁newspaper	-10.2969
▁professor	-10.2969
▁Captain	-10.2969
▁southern	-10.2969
▁[	-10.297
▁lung	-10.2978
▁Alex	-10.2979
▁Grand	-10.2979
46	-10.2982
▁Mal	-10.2995
▁naturally	-10.2995
▁Could	-10.2997
▁tough	-10.3
▁proper	-10.3015
▁Luc	-10.302
▁mechanism	-10.3026
▁applied	-10.3026
▁promote	-10.3035
off	-10.3042
▁reform	-10.3053
▁census	-10.3054
▁environmental	-10.3056
▁replaced	-10.3057
▁Know	-10.3059
▁expression	-10.3059
AN	-10.3063
▁robot	-10.3069
▁Gold	-10.307
ñ	-10.3083
▁appreciate	-10.3083
▁province	-10.3083
▁dispute	-10.3084
▁Show	-10.309
▁mono	-10.3092
ference	-10.3102
Z	-10.3102
CO	-10.3106
water	-10.3106
▁syndrome	-10.3111
▁circle	-10.3111
▁consult	-10.3111
▁90	-10.3124
▁exchange	-10.314
▁frequently	-10.3152
▁removed	-10.3159
▁sky	-10.3164
NA	-10.3166
▁restrict	-10.317
▁(4	-10.3175
▁semi	-10.3176
63	-10.3178
emia	-10.3178
74	-10.3185
▁coat	-10.3188
▁absorb	-10.3198
▁criminal	-10.3198
▁instructions	-10.3199
▁spoke	-10.3205
▁neuro	-10.3219
▁Joe	-10.3227
ü	-10.3227
▁strategy	-10.3227
▁System	-10.3227
▁Sorry	-10.3227
print	-10.3236
ographic	-10.3238
▁Nu	-10.3242
▁spending	-10.3242
▁busy	-10.3248
▁boil	-10.325
▁govern	-10.3254
▁Boy	-10.3256
▁Championship	-10.3257
▁seeds	-10.3258
onic	-10.3265
▁wonderful	-10.3267
▁neighbor	-10.3285
▁instrument	-10.3285
▁profile	-10.3285
▁grown	-10.329
▁engine	-10.329
▁hydro	-10.3291
gging	-10.3294
Q	-10.3306
▁Colombia	-10.3314
▁nerve	-10.332
▁tired	-10.332
▁planning	-10.3322
▁hotel	-10.3337
▁beauty	-10.3344
▁spell	-10.3345
▁tape	-10.3349
ES	-10.3368
▁Science	-10.3373
▁completed	-10.3375
▁pla	-10.3396
wood	-10.3399
▁tro	-10.3401
▁Ministry	-10.3403
▁historical	-10.3403
▁metres	-10.3409
▁strange	-10.3423
uk	-10.3431
▁gentle	-10.3431
▁sustain	-10.3432
▁analysis	-10.3432
▁hearing	-10.3432
▁aspect	-10.3433
▁tradition	-10.3446
▁Christ	-10.3461
▁Hol	-10.3462
α	-10.3462
▁primarily	-10.3462
▁fashion	-10.3462
▁poison	-10.3463
▁Cuba	-10.3468
itz	-10.3491
▁context	-10.3492
▁bought	-10.3492
▁cash	-10.3492
▁arrest	-10.3495
▁1998	-10.3497
vision	-10.3502
▁mad	-10.3504
▁surrounding	-10.3508
aries	-10.3518
▁driving	-10.3521
▁prompt	-10.3522
▁Division	-10.3523
▁shared	-10.3526
▁settle	-10.3529
▁hall	-10.3538
▁Kim	-10.3548
▁Ze	-10.355
67	-10.355
▁consequence	-10.3551
▁hormone	-10.3551
▁impossible	-10.3551
▁perspective	-10.3551
▁truly	-10.3551
▁license	-10.3551
▁soul	-10.3552
▁cloud	-10.3554
▁reduced	-10.3558
57	-10.3562
box	-10.3562
zu	-10.3565
▁Ah	-10.357
▁chart	-10.3577
▁vary	-10.3579
▁equipment	-10.3581
▁vessel	-10.3581
▁mobile	-10.3581
▁Select	-10.3581
▁boyfriend	-10.3582
▁publish	-10.3585
▁specifically	-10.3587
▁none	-10.3588
:00	-10.3591
▁pound	-10.3599
▁urge	-10.3602
▁pig	-10.3605
BC	-10.3607
▁Facebook	-10.3611
▁Egypt	-10.3612
▁quarter	-10.3612
▁domestic	-10.3612
▁traffic	-10.3612
▁*	-10.3613
▁rob	-10.3615
▁1997	-10.3616
▁relative	-10.3617
▁recorded	-10.3617
▁greatest	-10.3618
▁clearly	-10.3618
▁proud	-10.3625
77	-10.363
▁mention	-10.3639
▁originally	-10.3639
▁Master	-10.364
▁accomplish	-10.3642
▁permanent	-10.3642
▁brief	-10.3642
▁worst	-10.3642
▁weird	-10.3646
phon	-10.3648
▁luck	-10.3656
▁concerned	-10.367
▁Ji	-10.367
▁plenty	-10.3672
▁possibly	-10.3672
▁Three	-10.3673
▁container	-10.3673
▁Write	-10.3674
▁killer	-10.3683
▁widely	-10.3687
▁Cho	-10.3689
▁moon	-10.3689
▁Call	-10.369
▁sat	-10.3691
▁anger	-10.3697
▁comfort	-10.3697
▁exposure	-10.3702
▁Francis	-10.3702
▁smoke	-10.3703
▁knee	-10.3704
▁conference	-10.3706
▁1970	-10.3708
field	-10.3727
▁stream	-10.3728
▁previously	-10.3732
▁sensitive	-10.3733
▁Op	-10.3733
40	-10.3735
▁Turn	-10.3737
▁guest	-10.3741
▁marry	-10.3745
▁Sho	-10.3745
▁genetic	-10.3757
75	-10.3759
▁spirit	-10.3763
▁confident	-10.3763
▁implement	-10.3763
▁belief	-10.3764
▁weather	-10.3764
corp	-10.3769
▁initial	-10.377
▁pregnant	-10.3794
▁punish	-10.3794
▁prescribe	-10.3794
▁girlfriend	-10.3795
▁glad	-10.3795
▁fourth	-10.3795
▁staff	-10.3799
▁dealing	-10.38
agon	-10.3804
▁31	-10.3812
▁element	-10.3831
▁cri	-10.3855
ي	-10.3856
▁Mexico	-10.3856
▁association	-10.3856
▁Pen	-10.3856
▁adjust	-10.3856
▁saving	-10.386
active	-10.3862
win	-10.3864
▁winter	-10.3867
▁champion	-10.3887
▁powder	-10.3887
▁injury	-10.3887
▁Choose	-10.3887
▁leadership	-10.3889
▁Cup	-10.3897
▁bond	-10.3902
▁danger	-10.3915
▁promotion	-10.3918
66	-10.3921
▁generate	-10.3922
▁advance	-10.3932
iness	-10.3934
▁fault	-10.3949
▁lying	-10.3968
▁grade	-10.3971
47	-10.3975
fully	-10.3978
▁strike	-10.398
▁particle	-10.3981
▁folder	-10.3983
▁Dia	-10.3983
▁consumer	-10.3985
▁spring	-10.3988
▁Tap	-10.3996
▁Arab	-10.4002
▁capacity	-10.4012
▁responsibility	-10.4012
▁interact	-10.4019
▁pray	-10.4019
▁bringing	-10.4029
law	-10.4035
▁teaching	-10.4042
▁collaborat	-10.4043
▁talent	-10.4043
▁Stop	-10.4046
▁testing	-10.4048
▁ticket	-10.4075
71	-10.4088
▁regularly	-10.4092
▁subsequent	-10.4106
▁shirt	-10.4106
▁entirely	-10.4109
▁scared	-10.4117
5%	-10.412
▁lucky	-10.4135
▁scholar	-10.4138
▁afford	-10.4138
▁despite	-10.4138
▁chronic	-10.4138
ux	-10.4145
list	-10.4161
▁apartment	-10.4178
05	-10.4182
▁profit	-10.4182
56	-10.4186
▁chicken	-10.4202
▁sector	-10.4205
▁basically	-10.4205
▁mild	-10.4209
▁joke	-10.4214
▁Committee	-10.4234
▁Middle	-10.4234
▁witness	-10.4234
▁Louis	-10.4234
70	-10.4238
▁illness	-10.4238
▁reference	-10.425
▁BC	-10.4259
▁forever	-10.426
▁molecule	-10.4266
▁expensive	-10.4266
▁identity	-10.4266
▁kilo	-10.4266
▁slave	-10.4267
58	-10.4268
▁kidney	-10.4268
▁Prince	-10.4285
▁personality	-10.4286
Do	-10.4294
▁tall	-10.4295
▁cooking	-10.4296
▁Learn	-10.4299
bro	-10.4301
▁stuck	-10.4304
gram	-10.4306
▁tre	-10.4309
▁Cap	-10.431
ech	-10.4317
▁Ven	-10.4318
▁driver	-10.4323
▁Statistics	-10.4331
▁possess	-10.4331
▁romantic	-10.4331
▁immune	-10.4331
▁interpret	-10.4331
▁1994	-10.4335
▁Nations	-10.4337
▁thousand	-10.4358
▁fabric	-10.4363
▁normally	-10.4374
▁wine	-10.438
▁parties	-10.438
▁castle	-10.4381
▁formal	-10.4388
▁Old	-10.4388
01	-10.4393
▁argument	-10.4396
▁convert	-10.4396
▁resistance	-10.4397
▁Everyone	-10.44
▁truck	-10.4428
power	-10.443
33	-10.4443
under	-10.4444
▁fundamental	-10.4461
▁Museum	-10.4461
▁combined	-10.4461
▁justice	-10.4473
▁tear	-10.4473
▁Dam	-10.4482
▁Four	-10.449
▁entered	-10.4491
▁enable	-10.4494
▁Nguyen	-10.4494
▁shock	-10.4494
▁gently	-10.4494
▁dying	-10.4497
▁fellow	-10.4498
▁Pra	-10.4507
▁stem	-10.4514
▁500	-10.4523
back	-10.4525
▁Service	-10.4527
▁identified	-10.4527
▁About	-10.4529
▁sight	-10.4535
▁authority	-10.4537
▁fool	-10.4541
▁lesson	-10.4549
▁certainly	-10.4557
▁NGC	-10.456
▁cheap	-10.456
▁mainly	-10.4561
▁sand	-10.4563
▁1995	-10.4566
▁represented	-10.4569
▁Port	-10.4582
down	-10.4587
▁adding	-10.4591
▁ideal	-10.4597
▁Count	-10.46
08	-10.4601
▁attended	-10.4602
▁actual	-10.4606
▁exact	-10.4615
▁library	-10.4627
▁empty	-10.4627
▁deserve	-10.4627
▁otherwise	-10.4627
ille	-10.4628
▁Today	-10.4632
▁bound	-10.4642
▁tail	-10.4643
▁consume	-10.4656
▁managed	-10.4659
▁religion	-10.466
▁terrible	-10.466
▁hyper	-10.466
▁storm	-10.4661
▁lunch	-10.4662
▁height	-10.4667
▁noise	-10.4667
▁reward	-10.4673
▁format	-10.4675
▁motor	-10.4678
▁Maria	-10.4685
▁distribution	-10.4694
▁stretch	-10.4694
▁intention	-10.4694
ena	-10.4699
▁row	-10.47
▁inhibitor	-10.47
▁45	-10.4722
▁Last	-10.4724
▁equation	-10.4727
▁emerge	-10.4728
▁outcome	-10.4729
▁background	-10.4735
▁injection	-10.4738
▁Pla	-10.474
21	-10.4752
▁pepper	-10.4761
▁explore	-10.4761
▁atmosphere	-10.4761
▁winning	-10.4765
▁passion	-10.4783
rack	-10.4787
▁estimated	-10.4789
▁enzyme	-10.4795
▁processes	-10.4807
49	-10.4808
▁quit	-10.4811
ctive	-10.4817
▁inhibit	-10.4822
app	-10.4826
▁Pop	-10.4828
most	-10.4829
▁convince	-10.4829
▁jail	-10.4829
▁decline	-10.4829
▁giant	-10.483
▁annual	-10.483
▁ruin	-10.4835
▁remained	-10.4841
▁massive	-10.4845
04	-10.4849
▁democracy	-10.4863
▁preserv	-10.4865
▁grain	-10.4866
▁Jon	-10.4871
▁Mother	-10.4872
▁capable	-10.4873
5,000	-10.489
▁candidate	-10.4897
▁mirror	-10.4897
▁proposed	-10.4897
▁Xi	-10.4905
▁solar	-10.4906
▁controlled	-10.4906
▁stronger	-10.4907
▁directed	-10.4908
▁Bank	-10.4909
▁league	-10.4932
▁Chief	-10.4934
▁absolutely	-10.4943
▁totally	-10.4951
▁Carl	-10.4958
▁arrested	-10.4963
▁pea	-10.4964
▁literature	-10.4966
▁birthday	-10.4967
▁activat	-10.4968
▁Italy	-10.4979
▁uncle	-10.498
▁Sil	-10.4987
▁organized	-10.4997
▁Province	-10.5001
▁bread	-10.5001
▁proceed	-10.5001
▁‘	-10.5003
▁wealth	-10.5003
▁settlement	-10.5008
▁Note	-10.5019
▁filled	-10.5035
▁eliminate	-10.5036
▁illegal	-10.5036
▁zero	-10.5036
▁Church	-10.5036
▁visible	-10.5036
▁Green	-10.5037
▁discussion	-10.504
▁tiny	-10.5041
▁CD	-10.5047
▁Stay	-10.5052
▁owe	-10.5062
▁remaining	-10.5066
▁investigation	-10.507
▁apparent	-10.507
▁debt	-10.5074
▁extreme	-10.5081
▁Born	-10.5086
▁coordinat	-10.5105
▁intelligence	-10.5105
▁infected	-10.5105
▁Film	-10.5106
▁minister	-10.5107
▁roof	-10.5108
He	-10.5127
▁mixed	-10.5129
▁UN	-10.5132
▁industrial	-10.514
▁platform	-10.514
▁hydrogen	-10.5142
▁List	-10.5148
▁Hall	-10.5157
rup	-10.5165
▁definitely	-10.5176
▁journey	-10.5176
▁cheese	-10.5176
▁incident	-10.5176
▁Everything	-10.5176
▁boost	-10.5177
flu	-10.5177
▁agreed	-10.5182
▁package	-10.5184
▁Prime	-10.5201
PA	-10.521
▁flavor	-10.5211
itude	-10.5211
▁headache	-10.5211
▁realized	-10.5212
▁carefully	-10.5214
poli	-10.5215
▁1996	-10.5216
▁hydr	-10.5219
▁painful	-10.5223
▁1950	-10.5226
▁extract	-10.5236
▁rose	-10.5245
▁seriously	-10.5246
▁Empire	-10.5246
▁regulat	-10.5252
▁destroyed	-10.5261
▁dear	-10.5263
▁suddenly	-10.5263
▁poll	-10.5273
▁skill	-10.5279
▁bleeding	-10.5282
▁definition	-10.5282
▁numerous	-10.5282
▁creative	-10.5282
▁technical	-10.5282
▁gender	-10.5286
▁chip	-10.5289
▁containing	-10.5307
▁trace	-10.531
24	-10.5317
▁Company	-10.5318
▁wheel	-10.5318
▁transition	-10.5321
▁awarded	-10.5322
▁Martin	-10.5326
▁stole	-10.5334
▁Someone	-10.5335
▁dust	-10.5339
▁construct	-10.5344
cast	-10.5347
▁properly	-10.5349
▁medium	-10.5354
▁grab	-10.5355
▁addict	-10.5361
▁32	-10.537
▁boot	-10.5387
ń	-10.5389
▁abandon	-10.539
▁kitchen	-10.539
▁opposite	-10.539
▁relieve	-10.539
▁Nothing	-10.5391
▁nurse	-10.5392
▁Force	-10.5392
90	-10.5411
▁update	-10.542
59	-10.5421
What	-10.5425
▁screw	-10.5426
▁contrast	-10.5426
▁exposed	-10.5426
▁strain	-10.5426
▁pool	-10.5427
▁confirm	-10.5444
stone	-10.5444
▁poet	-10.5449
07	-10.5455
▁seal	-10.5461
ا	-10.5462
▁Commission	-10.5462
▁galaxy	-10.5462
▁suicide	-10.5462
▁bathroom	-10.5462
▁Hav	-10.547
▁consistent	-10.5471
▁foundation	-10.5488
▁contest	-10.5499
ibility	-10.5499
▁formation	-10.5506
▁producer	-10.5521
▁indicat	-10.5534
▁Taiwan	-10.5535
▁succeed	-10.5535
▁federal	-10.5535
▁reducing	-10.5535
▁evil	-10.5535
▁nearby	-10.5543
95	-10.5546
▁cloth	-10.5563
ą	-10.5571
▁Father	-10.5577
▁Lee	-10.5586
98	-10.5592
▁missed	-10.5594
pher	-10.5596
▁vaccine	-10.5608
▁enemy	-10.5608
▁random	-10.5609
▁Development	-10.5611
play	-10.5612
▁toxic	-10.5629
▁prepare	-10.5634
▁apple	-10.5638
▁excess	-10.564
▁Academy	-10.5645
▁electronic	-10.5647
▁blame	-10.5648
▁rub	-10.5652
▁Run	-10.566
▁Whatever	-10.5662
▁chosen	-10.5664
▁Ol	-10.5665
▁Long	-10.5679
▁appointment	-10.5682
▁sauce	-10.5683
▁flash	-10.5685
▁pure	-10.5696
▁Far	-10.5711
▁trained	-10.5712
▁column	-10.5719
▁Hanoi	-10.572
▁manner	-10.572
▁launched	-10.5725
69	-10.5737
▁spoken	-10.5748
▁Bob	-10.5755
▁ignore	-10.5757
▁password	-10.5757
▁sharp	-10.5758
town	-10.5773
▁Lady	-10.5781
▁Rome	-10.5784
▁Festival	-10.5794
▁urban	-10.5794
▁carried	-10.5794
CBS	-10.5796
▁export	-10.5802
▁Harry	-10.5806
cap	-10.5808
▁script	-10.581
No	-10.5817
▁Big	-10.5825
▁arrived	-10.5829
▁Using	-10.583
▁scratch	-10.5832
▁Richard	-10.5832
▁forgive	-10.5836
ło	-10.5837
▁bull	-10.5838
augh	-10.5848
▁gate	-10.5851
name	-10.5854
▁mentioned	-10.5865
▁colleague	-10.5869
▁providing	-10.5869
▁fiction	-10.5869
▁practical	-10.5869
▁repair	-10.5869
▁appeal	-10.587
▁Jesus	-10.5871
▁observed	-10.5872
▁35	-10.5873
▁Anti	-10.5876
ER	-10.5879
▁journalist	-10.5882
▁constant	-10.5883
▁classes	-10.5891
▁letting	-10.5892
▁Zo	-10.5893
▁Education	-10.5907
▁happiness	-10.5907
▁register	-10.5907
▁sequence	-10.5907
▁crash	-10.5907
▁crowd	-10.5907
▁split	-10.5908
▁selected	-10.591
▁weekend	-10.5915
▁swim	-10.5916
▁Brazil	-10.5941
▁Government	-10.5945
▁complain	-10.5945
▁Treat	-10.5948
▁planned	-10.5952
▁Syrian	-10.5955
▁Max	-10.5956
▁Adam	-10.5979
▁occasion	-10.5981
▁sale	-10.5983
▁satellite	-10.5983
hydrate	-10.5983
▁Leave	-10.5985
mail	-10.5991
▁angle	-10.5995
▁immediate	-10.5997
09	-10.5998
▁bite	-10.5998
zar	-10.6
LA	-10.6002
▁determined	-10.6009
rze	-10.602
ö	-10.6022
▁dimension	-10.6022
▁1991	-10.6022
▁pleasure	-10.6022
▁Spain	-10.6022
▁Eat	-10.6023
▁loud	-10.6028
morph	-10.6032
▁Guy	-10.6043
ground	-10.6054
▁Catholic	-10.606
▁Eastern	-10.606
▁session	-10.606
▁retain	-10.6061
▁custom	-10.6074
▁Jim	-10.6078
▁knife	-10.6099
▁volunteer	-10.6099
▁cotton	-10.6099
▁Something	-10.6099
▁Secretary	-10.61
26	-10.6103
▁1992	-10.6104
▁mini	-10.6104
▁1993	-10.6105
▁increasingly	-10.6135
▁Club	-10.6138
▁dozen	-10.6139
ison	-10.6147
RI	-10.6169
ultural	-10.6173
ر	-10.6176
▁literally	-10.6176
▁storage	-10.6177
▁Royal	-10.6177
▁architecture	-10.6178
▁pump	-10.6183
06	-10.619
▁tab	-10.6191
▁flag	-10.6199
▁cutting	-10.6201
▁(18	-10.6202
▁lake	-10.6205
▁slip	-10.6211
▁hip	-10.6212
▁Despite	-10.6216
▁policies	-10.6216
▁monster	-10.6216
▁sodium	-10.6216
▁usual	-10.6216
▁obtained	-10.6219
▁characteristic	-10.6219
rang	-10.6225
28	-10.6252
▁correspond	-10.6255
▁folk	-10.6255
▁steam	-10.6255
▁moral	-10.626
▁editor	-10.6267
▁encounter	-10.6294
▁strategic	-10.6294
▁worldwide	-10.6294
▁Command	-10.6295
35	-10.6297
▁speaker	-10.6299
▁bullet	-10.63
▁Life	-10.6309
▁peak	-10.6317
▁Home	-10.6326
▁communities	-10.6334
▁coronavirus	-10.6334
piration	-10.6334
▁cable	-10.6334
▁existence	-10.6342
grade	-10.635
rov	-10.6354
▁Water	-10.6359
▁recognized	-10.637
▁creature	-10.6373
▁evolution	-10.6373
▁opportunities	-10.6373
▁welcome	-10.6373
▁Summer	-10.6373
▁internet	-10.6374
▁Henry	-10.6374
omi	-10.6388
▁Opera	-10.6403
▁academic	-10.6413
▁counsel	-10.6413
▁demonstrate	-10.6413
▁everywhere	-10.6417
▁organic	-10.6423
▁effectively	-10.6432
▁advanced	-10.6435
▁businesses	-10.6435
▁promoted	-10.6441
▁administer	-10.6453
▁afternoon	-10.6453
▁crew	-10.6454
▁rescue	-10.6454
▁urine	-10.6455
▁debate	-10.6456
▁stable	-10.6472
▁Public	-10.6493
▁variable	-10.6493
▁Next	-10.6494
▁neighborhood	-10.6494
where	-10.6501
cause	-10.6505
quest	-10.6509
▁surround	-10.6512
02	-10.6527
▁intended	-10.6533
▁producing	-10.6534
▁Actually	-10.6534
▁Nobody	-10.6534
▁Ghana	-10.6534
▁climb	-10.6534
▁creation	-10.6535
▁Saint	-10.6535
▁typical	-10.655
▁Shu	-10.6552
position	-10.6554
23	-10.6559
ntin	-10.6566
▁portion	-10.6571
ś	-10.6574
▁Microsoft	-10.6574
▁virtual	-10.6574
▁HIV	-10.6574
▁Israel	-10.6574
▁assess	-10.6579
▁medal	-10.6596
▁strengthen	-10.6596
▁rapidly	-10.6598
▁invited	-10.6609
▁babies	-10.6615
▁prince	-10.6615
▁orange	-10.6618
owski	-10.6619
▁representative	-10.662
22	-10.6621
▁poem	-10.6633
▁400	-10.6641
▁museum	-10.6656
view	-10.6662
cover	-10.6672
27	-10.669
#	-10.6697
▁Communist	-10.6697
▁knock	-10.6697
▁enhance	-10.6697
▁senior	-10.6697
▁granted	-10.6697
▁tongue	-10.6698
▁lemon	-10.6703
▁healing	-10.6707
▁Director	-10.6707
▁breathe	-10.671
▁combat	-10.672
▁initially	-10.673
▁browser	-10.6738
▁Studies	-10.6738
▁broadcast	-10.6738
▁sharing	-10.6744
▁soda	-10.6761
03	-10.6768
▁cluster	-10.6779
▁narrow	-10.6779
▁Christmas	-10.6779
▁facing	-10.6782
▁Read	-10.6785
lateral	-10.68
▁Later	-10.6801
▁obviously	-10.6803
point	-10.6806
▁payment	-10.6817
▁complicated	-10.6821
▁prescription	-10.6821
▁tension	-10.6824
ancy	-10.6828
▁Cause	-10.6831
▁rapid	-10.6838
phil	-10.6851
▁regulation	-10.6857
▁celebrate	-10.6862
▁familiar	-10.6862
▁tumor	-10.6863
▁excuse	-10.6863
▁dropped	-10.6867
▁winner	-10.6868
▁suppose	-10.6898
▁Venezuela	-10.6904
▁category	-10.6904
▁vinegar	-10.6904
▁yesterday	-10.6904
▁convention	-10.6904
▁unusual	-10.6904
▁1945	-10.6904
▁filter	-10.6904
▁Food	-10.6907
▁melt	-10.6934
▁corn	-10.6937
▁Peru	-10.6941
▁inches	-10.6945
▁flood	-10.6946
▁patch	-10.6947
▁Charles	-10.695
▁$2	-10.6956
▁improvement	-10.6968
▁dirty	-10.6969
▁Press	-10.6988
▁constellation	-10.6988
▁inflammation	-10.6988
▁Should	-10.6988
▁confront	-10.6988
▁attitude	-10.6989
▁300	-10.6995
▁Hor	-10.7019
▁Ang	-10.7024
▁bug	-10.7027
▁withdraw	-10.7031
▁queen	-10.7031
eva	-10.704
ethyl	-10.7046
▁Professor	-10.7073
▁Society	-10.7073
▁Control	-10.7074
▁stake	-10.7076
▁prime	-10.7079
▁snow	-10.7098
▁diploma	-10.7112
▁admit	-10.7116
▁diagnose	-10.7116
▁hungry	-10.7116
▁smoking	-10.7116
▁external	-10.7116
▁Scott	-10.7116
▁Always	-10.7117
▁obvious	-10.7134
▁perfectly	-10.7138
▁Back	-10.7138
▁exception	-10.7149
▁loan	-10.715
▁insect	-10.7151
▁coach	-10.7153
▁physician	-10.7159
▁territory	-10.7159
▁bunch	-10.7159
▁biological	-10.7163
▁grass	-10.7169
▁introduce	-10.7176
▁Para	-10.7197
▁centuries	-10.7202
▁resolution	-10.7202
▁rabbit	-10.7202
▁pretend	-10.7202
▁fake	-10.7224
▁opera	-10.7233
▁Earl	-10.7235
▁executive	-10.7245
▁possibility	-10.7245
▁reduction	-10.7245
gger	-10.7247
▁odd	-10.7248
▁theater	-10.7251
▁airport	-10.7251
▁stranger	-10.7259
▁guilty	-10.7263
▁clock	-10.7274
▁fold	-10.7283
dication	-10.7283
▁affair	-10.7289
▁Hospital	-10.7289
▁Security	-10.7289
▁distribute	-10.7289
▁unknown	-10.7289
▁therapist	-10.7289
▁relief	-10.7289
▁silver	-10.7289
96	-10.7291
▁Prize	-10.7293
▁proof	-10.7296
▁suck	-10.7301
▁objective	-10.7304
▁duty	-10.7304
▁plain	-10.7311
▁communicate	-10.7332
▁puppy	-10.7332
▁uncomfortable	-10.7332
▁hidden	-10.7332
▁fifth	-10.7332
▁advise	-10.7335
85	-10.7337
▁Town	-10.7347
▁cough	-10.7351
▁Mike	-10.7357
▁Land	-10.7363
▁lean	-10.7363
▁Thi	-10.7367
▁fought	-10.7376
▁reserve	-10.7376
▁slide	-10.7379
▁household	-10.738
▁Camp	-10.7384
▁occurred	-10.7385
▁latter	-10.7386
▁significantly	-10.74
93	-10.7408
32	-10.7409
а	-10.742
▁accurate	-10.742
▁Muslim	-10.742
uce	-10.742
▁nausea	-10.742
▁entry	-10.7421
▁Bring	-10.7425
▁1989	-10.7427
▁factory	-10.7436
▁trail	-10.7443
▁secondary	-10.7457
▁define	-10.7461
▁dating	-10.7464
▁distinguish	-10.7465
▁excited	-10.7465
▁Thomas	-10.7465
▁troops	-10.7465
▁Major	-10.7465
▁commitment	-10.747
▁hook	-10.7473
▁gotten	-10.7473
fish	-10.7475
▁grave	-10.7478
▁string	-10.7485
▁tube	-10.7493
▁nucle	-10.7502
▁budget	-10.7509
▁technologies	-10.7509
▁1979	-10.7509
▁divorce	-10.7509
▁swear	-10.7509
▁Florida	-10.7509
▁importance	-10.7511
▁measurement	-10.7532
▁manufacturer	-10.7536
▁Rob	-10.7542
▁observe	-10.755
▁Record	-10.7554
▁console	-10.7554
97	-10.7556
stream	-10.7562
▁edition	-10.7571
▁Moon	-10.7578
▁exam	-10.7584
▁Jewish	-10.7599
▁Uganda	-10.7599
▁rinse	-10.76
▁vice	-10.7606
án	-10.7617
86	-10.762
▁arrange	-10.7638
TV	-10.7639
▁desert	-10.7644
▁kit	-10.7652
▁featur	-10.7664
▁Entertainment	-10.7689
▁breakfast	-10.7689
▁consumption	-10.7689
▁neutral	-10.7689
▁Britain	-10.7689
▁evolve	-10.7689
▁Girl	-10.7689
▁Covid	-10.7689
89	-10.7692
▁Brother	-10.7692
fold	-10.7722
▁server	-10.7724
▁restore	-10.773
▁mineral	-10.7735
▁casual	-10.7736
▁wipe	-10.774
ique	-10.7743
▁desk	-10.7746
▁import	-10.778
▁cooperation	-10.778
▁phrase	-10.778
▁prominent	-10.778
▁Iraq	-10.778
▁Southern	-10.7781
▁hiding	-10.7788
hou	-10.7793
▁friendship	-10.7797
▁Walk	-10.7805
▁Fran	-10.7814
▁chose	-10.7822
è	-10.7826
▁efficient	-10.7826
▁necessarily	-10.7826
▁entertain	-10.7826
▁eastern	-10.7826
▁fur	-10.7833
▁indeed	-10.7842
▁delay	-10.7848
▁assist	-10.7852
▁neither	-10.7872
▁survey	-10.7872
▁vocal	-10.7872
▁concert	-10.7872
▁moderate	-10.7874
▁Light	-10.7884
▁warning	-10.7886
icular	-10.7891
▁roughly	-10.7892
▁Uni	-10.7895
▁hack	-10.7899
▁Tak	-10.7912
▁experiencing	-10.7918
▁supplies	-10.7918
▁remote	-10.7918
▁vast	-10.7921
▁Nazi	-10.7924
▁Power	-10.7924
88	-10.7935
▁Such	-10.7956
▁Arch	-10.7961
▁collapse	-10.7965
▁incorporate	-10.7965
▁insurance	-10.7965
▁Blue	-10.7965
▁1975	-10.7975
▁Shin	-10.7982
izz	-10.7986
▁Foreign	-10.8011
▁YouTube	-10.8011
▁equivalent	-10.8011
▁observation	-10.8011
▁parliament	-10.8011
▁passenger	-10.8011
▁studio	-10.8011
▁Oliver	-10.8011
▁constitution	-10.8012
▁Android	-10.8012
▁crystal	-10.8012
▁plus	-10.8014
▁leak	-10.8019
▁collective	-10.8023
▁frequency	-10.8058
▁horizon	-10.8058
▁overwhelm	-10.8058
▁pocket	-10.8058
▁crown	-10.8059
▁Cape	-10.8063
abilities	-10.8063
▁breed	-10.8064
▁fee	-10.8071
▁constantly	-10.8089
▁tech	-10.8095
▁whenever	-10.8098
▁Sport	-10.8101
▁Whether	-10.8106
▁drunk	-10.8106
▁thorough	-10.8106
▁dedicated	-10.8106
▁derived	-10.8106
▁Remove	-10.8106
▁blank	-10.8106
▁Smith	-10.8106
▁Again	-10.8106
▁hoping	-10.8112
▁Post	-10.8118
▁examine	-10.8125
ville	-10.8128
maker	-10.8129
▁manufacturing	-10.8153
76	-10.8155
▁mail	-10.8165
direct	-10.8166
firm	-10.8167
▁cancel	-10.8193
▁calculate	-10.8201
▁guarantee	-10.8201
▁Special	-10.8201
▁inspired	-10.8201
▁respectively	-10.8201
▁swelling	-10.8201
▁intense	-10.8204
▁1987	-10.8207
▁highlight	-10.8211
product	-10.8215
▁fri	-10.8245
▁Texas	-10.8248
▁TED	-10.8248
▁Business	-10.8248
▁stroke	-10.8248
▁density	-10.8249
▁Police	-10.8252
▁Little	-10.8254
▁excessive	-10.8255
worm	-10.8261
▁Still	-10.8263
▁Book	-10.8271
▁Assembly	-10.8296
▁contribution	-10.8296
▁tournament	-10.8296
▁vulnerable	-10.8296
▁permission	-10.8296
▁jealous	-10.8296
▁Sunday	-10.8298
▁graphic	-10.8298
▁childhood	-10.8299
▁alarm	-10.8301
▁attractive	-10.8309
▁Vol	-10.8323
▁Ken	-10.8324
▁crop	-10.8326
▁Economic	-10.8345
▁aggressive	-10.8345
▁buried	-10.8345
▁diabetes	-10.8345
▁captain	-10.8345
▁minimum	-10.8345
▁shadow	-10.8345
▁pursue	-10.8346
▁aircraft	-10.8348
also	-10.835
▁1988	-10.8351
▁compress	-10.8352
▁yard	-10.8353
▁blog	-10.8368
▁Princess	-10.8369
▁Santa	-10.838
▁acknowledge	-10.8393
▁extension	-10.8393
▁iPhone	-10.8393
▁pandemic	-10.8393
▁compliment	-10.8393
▁variation	-10.8393
▁opposition	-10.8394
▁Change	-10.8395
▁1986	-10.84
▁baking	-10.8404
just	-10.8422
▁deposit	-10.8422
locate	-10.8426
kov	-10.8442
▁disappoint	-10.8442
▁injured	-10.8442
▁error	-10.8442
▁composed	-10.8442
▁Southeast	-10.8442
volving	-10.8444
▁pitch	-10.8448
▁toilet	-10.8458
▁skip	-10.8471
▁Doctor	-10.8474
92	-10.8481
▁psychological	-10.8493
▁corruption	-10.8495
▁radical	-10.8495
▁1985	-10.8498
▁edit	-10.8517
▁ratio	-10.8517
▁instruct	-10.8538
▁Supreme	-10.854
▁calcium	-10.854
▁circumstances	-10.854
▁resolve	-10.854
▁Tokyo	-10.854
▁freak	-10.854
▁depth	-10.8541
▁physics	-10.8541
▁assistance	-10.8543
▁1,000	-10.8544
▁Common	-10.8546
▁Order	-10.8555
▁shame	-10.8565
▁assault	-10.859
▁conclude	-10.859
▁sufficient	-10.859
▁valuable	-10.859
▁meters	-10.8608
87	-10.861
▁sail	-10.8617
▁membrane	-10.864
▁Through	-10.864
▁moisture	-10.864
▁memories	-10.864
▁sword	-10.864
▁sink	-10.8644
▁flour	-10.8646
▁copies	-10.865
▁ease	-10.8672
etween	-10.8685
Ś	-10.869
م	-10.869
ú	-10.869
▁automatically	-10.869
▁Children	-10.869
▁exciting	-10.869
▁precise	-10.869
▁rural	-10.869
▁bleach	-10.869
▁disaster	-10.869
▁rush	-10.869
▁barrier	-10.869
▁kitten	-10.8691
▁Six	-10.8693
▁assert	-10.87
ggle	-10.87
person	-10.8721
▁potassium	-10.874
à	-10.874
▁Global	-10.874
▁disturb	-10.874
▁Constitution	-10.874
▁classified	-10.8747
▁Rose	-10.8758
94	-10.8764
▁pipe	-10.8779
83	-10.8779
▁Singapore	-10.879
▁diagnosis	-10.879
▁extensive	-10.879
▁gradually	-10.879
▁maximum	-10.879
▁principal	-10.879
▁stood	-10.879
▁hardware	-10.8791
▁asleep	-10.8791
▁loyal	-10.8791
▁Depend	-10.8791
▁plot	-10.8792
▁sunlight	-10.8794
▁induce	-10.8795
▁Unless	-10.8796
▁panel	-10.8807
▁relevant	-10.8841
▁Joseph	-10.8841
azine	-10.8841
▁snack	-10.8841
▁psycho	-10.8846
▁alongside	-10.8853
▁dirt	-10.8868
▁facility	-10.8892
▁intellectual	-10.8892
▁outbreak	-10.8892
▁understood	-10.8892
▁minimize	-10.8892
▁innocent	-10.8892
▁swimming	-10.8892
▁overcome	-10.8893
▁permit	-10.8893
▁Focus	-10.8894
▁Program	-10.8895
▁1983	-10.8899
▁poetry	-10.8899
▁USB	-10.8915
▁ASEAN	-10.8943
▁Virgin	-10.8943
▁Witnesses	-10.8943
▁chocolate	-10.8943
▁Foundation	-10.8943
▁essay	-10.8943
▁depict	-10.8944
▁praise	-10.8944
▁naked	-10.8946
▁rising	-10.8954
▁150	-10.8955
▁commit	-10.8958
This	-10.8959
▁manufacture	-10.8964
▁sudden	-10.897
▁latest	-10.8973
▁Sky	-10.8984
ن	-10.8995
▁excellent	-10.8995
▁nutrients	-10.8995
▁attribut	-10.8995
▁colour	-10.8995
▁Chris	-10.8995
▁committed	-10.8996
▁criticism	-10.9
▁electricity	-10.9005
▁peaceful	-10.9009
▁insert	-10.9027
▁slice	-10.9029
▁shake	-10.9031
▁terror	-10.9042
ía	-10.9046
ż	-10.9047
▁Moscow	-10.9047
▁fulfill	-10.9047
▁violent	-10.9047
▁guitar	-10.9047
▁radiation	-10.9047
▁royal	-10.9047
▁acute	-10.9049
▁ultimately	-10.9058
▁panic	-10.906
▁dynamic	-10.9099
▁Cambodia	-10.9099
▁buddy	-10.9099
▁incredible	-10.9099
▁incredibly	-10.9099
▁transmit	-10.91
▁plug	-10.91
▁gentlemen	-10.9101
▁betray	-10.9101
▁drum	-10.9106
▁forgot	-10.9106
Polish	-10.9114
▁massage	-10.9118
▁pants	-10.9125
▁obtain	-10.9147
▁recognition	-10.9151
▁Friday	-10.9151
▁committee	-10.9151
▁false	-10.9151
▁commission	-10.9152
▁gym	-10.9154
▁arrive	-10.9156
▁passage	-10.9173
▁rip	-10.9182
ā	-10.9204
▁Administration	-10.9204
▁judgment	-10.9204
▁vomiting	-10.9204
▁Jamaica	-10.9204
▁revenue	-10.9204
▁ghost	-10.9204
▁expense	-10.9204
▁interrupt	-10.9204
▁Class	-10.9204
▁pilot	-10.9204
▁boundaries	-10.9204
▁Until	-10.9206
▁1976	-10.9211
▁mouse	-10.9217
▁Night	-10.9225
lysis	-10.9229
▁differ	-10.925
▁Minh	-10.9251
▁continuous	-10.9257
▁declared	-10.9257
▁independence	-10.9257
▁sacrifice	-10.9257
▁battery	-10.9257
▁FDA	-10.9257
▁recipe	-10.9257
▁Repeat	-10.9257
▁patent	-10.9257
▁exclusive	-10.9258
▁analog	-10.9259
ission	-10.9268
▁emotion	-10.9269
▁prize	-10.927
́	-10.931
▁Parliament	-10.931
▁receiving	-10.931
▁Austria	-10.931
▁finance	-10.931
▁manipulat	-10.9311
▁kingdom	-10.9311
▁awake	-10.9315
▁dye	-10.9347
nomic	-10.9358
▁continent	-10.9363
▁poverty	-10.9363
▁suppress	-10.9363
▁1982	-10.9363
▁Obama	-10.9363
▁Besides	-10.9365
▁terrorist	-10.9368
cribe	-10.9369
▁Democratic	-10.9375
▁stability	-10.9376
cogn	-10.9406
▁ال	-10.9417
▁Everybody	-10.9417
▁artificial	-10.9417
▁laptop	-10.9417
▁Canadian	-10.9417
▁Emperor	-10.9417
▁lecture	-10.9417
▁parallel	-10.9417
▁Space	-10.9421
▁tub	-10.943
▁farmers	-10.9435
▁belt	-10.9443
▁quote	-10.9444
▁conclusion	-10.9471
▁approval	-10.9471
▁assassin	-10.9471
▁sculpt	-10.9471
▁1984	-10.9471
▁facial	-10.9471
▁borrow	-10.9471
▁Drink	-10.9472
▁trend	-10.9477
▁Angel	-10.9481
▁Angeles	-10.9486
▁democratic	-10.9526
▁bastard	-10.9526
▁victory	-10.9526
▁Therefore	-10.9526
▁cousin	-10.9526
▁disrupt	-10.9526
▁Help	-10.9527
▁hired	-10.9536
▁trauma	-10.9544
β	-10.958
▁Football	-10.958
▁survival	-10.958
▁preparation	-10.958
▁removing	-10.958
▁allergic	-10.958
▁regret	-10.958
▁description	-10.958
▁courage	-10.958
▁extent	-10.9581
▁Governorate	-10.9584
▁Indonesia	-10.9635
▁Project	-10.9635
▁Thailand	-10.9635
▁harvest	-10.9635
▁temporary	-10.9635
▁Understand	-10.9635
▁Origin	-10.9635
▁isolated	-10.9636
▁shopping	-10.9638
▁bike	-10.9654
▁rough	-10.9669
▁spectrum	-10.969
▁Navy	-10.9691
▁sensor	-10.9691
▁Northern	-10.9691
▁shelter	-10.9691
▁Kenya	-10.9695
▁angel	-10.9701
▁Wash	-10.9719
▁tract	-10.9729
▁conscious	-10.9743
▁derivative	-10.9746
▁ethnic	-10.9746
▁confused	-10.9746
▁mutual	-10.9746
▁steel	-10.9747
aritime	-10.9757
▁1940	-10.9758
▁Guard	-10.976
▁freeze	-10.9795
▁Edit	-10.9799
▁physi	-10.9801
×	-10.9802
▁Mountain	-10.9802
▁Revolution	-10.9802
▁concentrate	-10.9802
▁earthquake	-10.9802
▁proposal	-10.9802
▁1972	-10.9802
▁perceive	-10.9802
▁underlying	-10.9806
▁flee	-10.9817
▁dump	-10.9818
writer	-10.9821
▁loop	-10.9831
▁Media	-10.9832
iyah	-10.9834
▁Nick	-10.9851
▁Corporation	-10.9858
▁diarrhea	-10.9858
▁goddamn	-10.9858
▁transplant	-10.9858
▁yield	-10.9858
▁dancing	-10.9858
▁Draw	-10.9859
▁Unlike	-10.986
▁Without	-10.9866
▁invite	-10.9868
▁clinic	-10.9874
flow	-10.9904
▁festival	-10.9915
▁heavily	-10.9915
▁database	-10.9915
▁innovation	-10.9915
▁Clean	-10.9915
▁resource	-10.9916
▁leaf	-10.9917
▁Brown	-10.9918
▁transferred	-10.9918
▁Sign	-10.9919
ã	-10.9971
▁apologize	-10.9971
▁somewhat	-10.9971
▁universal	-10.9971
▁attorney	-10.9971
▁agency	-10.9972
▁palace	-10.9973
▁determin	-10.9973
▁wax	-10.9989
therapy	-10.9991
▁compassion	-11.0029
▁scream	-11.0029
▁Jupiter	-11.0029
migrant	-11.0029
▁deputy	-11.0029
▁northeast	-11.0029
▁Hello	-11.0031
gnan	-11.0034
▁acne	-11.0035
▁audio	-11.0071
▁Afghanistan	-11.0086
▁Jehovah	-11.0086
▁frozen	-11.0086
▁nutrition	-11.0086
▁Speak	-11.0086
▁snake	-11.0086
▁Daniel	-11.0087
▁Plus	-11.0088
▁legend	-11.0091
▁assistant	-11.0093
▁cycl	-11.0112
▁delete	-11.0112
▁frequent	-11.0119
▁discharge	-11.0144
▁enemies	-11.0144
▁thumb	-11.0144
▁somehow	-11.0144
▁estate	-11.0144
▁outdoor	-11.0145
▁vertical	-11.015
▁Among	-11.0151
▁civilian	-11.0155
▁inject	-11.0186
ب	-11.0202
▁Chicago	-11.0202
▁interface	-11.0202
▁shampoo	-11.0202
▁uncertain	-11.0202
▁Trump	-11.0202
▁beneath	-11.0202
▁liberal	-11.0202
▁rational	-11.0206
▁jar	-11.021
▁dependent	-11.0217
▁intend	-11.0222
ç	-11.026
ة	-11.026
▁Example	-11.026
▁fraction	-11.026
▁Cross	-11.0261
▁strict	-11.0261
▁witch	-11.0264
▁instant	-11.0267
▁dollar	-11.028
▁cheat	-11.0286
▁Additionally	-11.0319
▁infrastructure	-11.0319
▁swallow	-11.0319
▁Convention	-11.0319
▁basket	-11.0319
▁recruit	-11.0319
▁margin	-11.0319
▁olive	-11.032
▁Number	-11.032
▁torture	-11.0323
▁scrap	-11.0323
▁vein	-11.0325
▁arrangement	-11.0327
▁everyday	-11.0327
`	-11.0378
▁Caribbean	-11.0378
▁initiative	-11.0378
▁stimulate	-11.0378
▁lymph	-11.0378
▁Dutch	-11.0379
▁odor	-11.038
▁infant	-11.0381
▁Anyway	-11.0384
▁Brazilian	-11.0384
▁weakness	-11.0387
▁estimate	-11.039
▁Things	-11.0393
which	-11.0401
weight	-11.0409
▁clip	-11.0421
▁Champion	-11.0437
inflammatory	-11.0438
▁pollution	-11.0438
▁ordinary	-11.0438
▁Civil	-11.0438
▁Berlin	-11.0438
▁Short	-11.0439
▁feedback	-11.0439
▁spiritual	-11.044
▁persist	-11.044
▁adverse	-11.0441
▁temple	-11.0441
▁advocate	-11.0498
▁facilities	-11.0498
▁negotiation	-11.0498
▁chapter	-11.0498
▁Charlie	-11.0498
▁athlete	-11.0498
▁Arthur	-11.0498
▁investigate	-11.0498
▁heaven	-11.0498
▁Flor	-11.0519
sexual	-11.0522
▁lens	-11.0538
▁competitive	-11.0558
▁extraordinary	-11.0558
▁phenomenon	-11.0558
▁societies	-11.0558
▁Twitter	-11.0558
▁disagree	-11.0558
▁uniform	-11.0558
▁Rachel	-11.0558
▁ladies	-11.0558
media	-11.056
▁keyboard	-11.0562
▁rival	-11.0562
▁Silesia	-11.0563
▁alien	-11.0564
▁tourist	-11.0566
▁Matt	-11.0575
▁porn	-11.0578
▁cigarette	-11.0619
▁circuit	-11.0619
▁headquarter	-11.0619
▁protocol	-11.0619
▁diameter	-11.0619
▁domain	-11.062
▁Jackson	-11.0624
operative	-11.0626
▁flea	-11.0627
burn	-11.0665
▁Technology	-11.068
▁antagonist	-11.068
▁dialect	-11.068
▁discipline	-11.068
▁surveillance	-11.068
▁twenty	-11.068
▁Square	-11.068
▁Edward	-11.068
▁carrier	-11.0681
▁resistant	-11.0682
▁punch	-11.0683
▁float	-11.0684
▁descend	-11.0741
▁entrance	-11.0741
▁landscape	-11.0741
▁scrub	-11.0741
▁sensation	-11.0741
▁idiot	-11.0741
▁dumb	-11.0756
▁$3	-11.0779
ū	-11.0803
▁corporation	-11.0803
▁discomfort	-11.0803
▁grandfather	-11.0803
▁philosophy	-11.0803
▁Federal	-11.0803
▁pillow	-11.0803
▁introduction	-11.0804
▁diplomatic	-11.0808
▁announce	-11.0817
▁entrepreneur	-11.0865
▁explanation	-11.0865
▁dissolve	-11.0865
▁radius	-11.0865
▁spouse	-11.0865
▁barely	-11.0866
▁Albert	-11.0868
▁methyl	-11.0868
▁architect	-11.0924
▁estrogen	-11.0927
▁CEO	-11.0927
▁superior	-11.0927
▁wrist	-11.0928
▁Victoria	-11.0928
▁plasma	-11.0928
▁emission	-11.0929
▁occasionally	-11.0931
▁resist	-11.0935
▁awful	-11.0942
و	-11.099
▁Organization	-11.099
▁compromise	-11.099
▁priest	-11.0991
▁submit	-11.0991
▁naval	-11.0991
▁bump	-11.0992
▁$5	-11.0992
▁expectations	-11.0992
▁nasal	-11.0992
▁Daddy	-11.0995
▁plum	-11.1002
▁organize	-11.1014
▁algorithm	-11.1054
▁History	-11.1054
▁Ocean	-11.1054
▁ruling	-11.1054
▁flesh	-11.1054
▁clue	-11.1055
▁arise	-11.1116
▁intervention	-11.1117
▁opponent	-11.1117
▁servant	-11.1117
▁telescope	-11.1117
▁Somebody	-11.1117
▁draft	-11.1117
▁harsh	-11.1117
▁Linux	-11.1118
▁blend	-11.1123
и	-11.1181
▁Imagine	-11.1181
▁Kraków	-11.1181
▁Welcome	-11.1181
▁magnitude	-11.1181
▁refugee	-11.1181
▁1981	-11.1181
▁1/2	-11.1181
▁hurry	-11.1181
▁ritual	-11.1181
▁drill	-11.1181
▁Marshal	-11.1183
▁Jews	-11.1183
▁Valley	-11.1184
▁ought	-11.1189
worth	-11.121
▁awesome	-11.1246
▁ceremony	-11.1246
▁desperate	-11.1246
▁monkey	-11.1246
▁Malaysia	-11.1246
▁Colonel	-11.1246
▁1941	-11.1246
▁deploy	-11.1246
▁garlic	-11.1246
▁blade	-11.1246
▁Third	-11.1248
▁rubber	-11.1249
cision	-11.1254
о	-11.1311
▁sovereign	-11.1311
▁Affairs	-11.1311
▁Unfortunately	-11.1311
▁cuisine	-11.1311
▁genuine	-11.1311
▁unfortunate	-11.1311
▁overnight	-11.1311
▁funeral	-11.1311
▁Front	-11.1312
▁Claire	-11.1376
▁abnormal	-11.1376
▁molecular	-11.1376
▁quarantine	-11.1376
▁reinforce	-11.1376
▁sponsor	-11.1376
▁unexpected	-11.1376
▁underneath	-11.1376
▁perception	-11.1376
▁composition	-11.1376
▁honour	-11.1376
▁sought	-11.1377
ński	-11.1377
▁Monday	-11.1379
▁consciousness	-11.138
▁Wood	-11.1386
static	-11.1406
▁Pakistan	-11.1442
▁adventure	-11.1442
▁removal	-11.1442
▁recall	-11.1444
▁audit	-11.1445
▁tomato	-11.1445
▁arrow	-11.1445
н	-11.1508
▁council	-11.1508
▁default	-11.1508
▁seizure	-11.1508
▁lifestyle	-11.1508
▁Zealand	-11.1508
▁sneak	-11.1508
sław	-11.1508
▁absence	-11.1508
▁proportion	-11.1508
▁Czech	-11.1508
▁Senate	-11.1509
▁María	-11.1511
▁bedroom	-11.1511
&	-11.1538
pyr	-11.1569
▁Saturday	-11.1575
▁crucial	-11.1575
▁dismiss	-11.1575
▁gmina	-11.1575
▁Limit	-11.1576
▁Jimmy	-11.1577
▁placing	-11.1577
▁index	-11.1582
▁abstract	-11.1642
▁concrete	-11.1642
▁qualities	-11.1642
▁sibling	-11.1642
▁injuries	-11.1642
▁Puerto	-11.1642
▁assignment	-11.1642
▁abroad	-11.1642
▁duration	-11.1642
▁assigned	-11.1643
▁Medical	-11.1643
▁Invest	-11.1643
▁forgotten	-11.1644
▁scenario	-11.1709
▁contemporary	-11.1709
▁irritate	-11.1709
▁respiratory	-11.1709
ˈ	-11.1709
▁1939	-11.1709
▁Excuse	-11.171
▁dried	-11.171
▁cyst	-11.1714
▁Observ	-11.1778
▁motivation	-11.1778
▁gravity	-11.1778
cillin	-11.1826
▁exploit	-11.1846
▁corporate	-11.1846
▁destruction	-11.1846
▁execution	-11.1846
▁mathematics	-11.1846
▁puzzle	-11.1846
▁strategies	-11.1846
▁vacuum	-11.1846
▁bubble	-11.1846
▁alleged	-11.1846
▁earliest	-11.1846
▁valid	-11.1846
▁portray	-11.1848
▁elsewhere	-11.1849
▁lord	-11.1853
▁elect	-11.1888
▁assumption	-11.1915
▁grandmother	-11.1915
▁holiday	-11.1915
▁Sweden	-11.1915
▁chloride	-11.1915
▁scheme	-11.1915
▁Build	-11.1916
▁Dragon	-11.1918
connect	-11.1948
▁Netherlands	-11.1984
▁explosion	-11.1984
▁struggling	-11.1984
▁cabinet	-11.1984
▁intensity	-11.1984
▁yoga	-11.1984
▁Agency	-11.1985
▁silent	-11.1985
▁viral	-11.1985
▁compare	-11.2007
azole	-11.202
▁guilt	-11.2027
▁Detective	-11.2054
▁agencies	-11.2054
▁magnetic	-11.2054
▁trunk	-11.2054
▁accused	-11.2054
▁exhaust	-11.2054
▁tunnel	-11.2054
▁twist	-11.2054
▁grateful	-11.2054
▁admitted	-11.2055
▁twin	-11.2056
▁efficacy	-11.2125
▁entitled	-11.2125
▁DVD	-11.2125
▁Kepler	-11.2125
▁retired	-11.2125
▁translation	-11.2125
▁vacation	-11.2125
▁polish	-11.2125
▁Dream	-11.2125
3,000	-11.2127
▁faint	-11.2127
▁Michel	-11.2128
▁informed	-11.2129
▁interfere	-11.2153
▁chemistry	-11.2196
▁ecosystem	-11.2196
▁evaluate	-11.2196
▁irritation	-11.2196
▁metabolism	-11.2196
▁privilege	-11.2196
▁substantial	-11.2196
▁synthetic	-11.2196
▁velocity	-11.2196
▁Alexander	-11.2196
▁meditation	-11.2196
▁1962	-11.2196
▁chamber	-11.2196
▁warrior	-11.2196
▁Title	-11.2197
▁flirt	-11.2198
ficial	-11.2237
ل	-11.2267
▁Argentina	-11.2267
▁Mexican	-11.2267
▁enterprise	-11.2267
▁favour	-11.2267
▁miracle	-11.2267
▁reputation	-11.2267
▁anxious	-11.2267
▁Anything	-11.2267
▁banana	-11.227
▁associate	-11.2291
▁enormous	-11.2339
▁esteem	-11.2339
▁mathematical	-11.2339
▁Military	-11.2339
▁Library	-11.2339
▁dentist	-11.2339
▁desktop	-11.234
▁southwest	-11.234
▁Universe	-11.234
▁behave	-11.234
▁Agent	-11.2341
including	-11.2374
▁municipal	-11.2412
▁telephone	-11.2412
▁varieties	-11.2412
▁yogurt	-11.2412
▁frighten	-11.2412
▁improving	-11.2412
▁shrink	-11.2412
▁Pharma	-11.2412
▁Palace	-11.2412
▁raising	-11.2412
▁Digital	-11.2485
▁Harvard	-11.2485
▁brilliant	-11.2485
▁sandwich	-11.2485
▁synthesis	-11.2485
▁tablespoon	-11.2485
▁Management	-11.2485
▁VND	-11.2485
▁transaction	-11.2485
▁FBI	-11.2485
▁Practice	-11.2558
▁arrival	-11.2558
▁circulation	-11.2558
▁burden	-11.2558
▁stadium	-11.2558
▁worship	-11.2558
▁dairy	-11.2558
▁strand	-11.2558
▁inherit	-11.2558
▁resort	-11.2559
▁capabilities	-11.2559
▁silly	-11.2559
▁Centre	-11.2559
▁crap	-11.2576
cellular	-11.2576
▁shoe	-11.2588
▁Palm	-11.2613
▁yell	-11.2632
▁expansion	-11.2632
▁teenager	-11.2632
▁Federation	-11.2632
▁signature	-11.2632
▁rifle	-11.2632
▁Miami	-11.2632
▁Model	-11.2633
▁spill	-11.2634
▁quo	-11.2672
rgic	-11.2679
▁teaspoon	-11.2707
▁territorial	-11.2707
▁Support	-11.2707
▁1954	-11.2707
▁Network	-11.2707
▁carpet	-11.2708
▁afterwards	-11.2709
Music	-11.2745
▁absolute	-11.2757
ä	-11.2782
▁Imperial	-11.2782
▁awkward	-11.2782
▁comparison	-11.2782
▁continuing	-11.2782
▁furniture	-11.2782
▁surprising	-11.2782
▁1942	-11.2782
▁valley	-11.2782
▁silence	-11.2782
▁Either	-11.2782
▁invasion	-11.2782
▁Information	-11.2782
▁barrel	-11.2783
▁grid	-11.2783
▁Andrew	-11.2785
▁symptom	-11.2842
▁pseudo	-11.2858
▁remarkable	-11.2858
▁digesti	-11.2888
~	-11.2934
▁Buddhist	-11.2934
▁dwarf	-11.2934
▁narrative	-11.2934
▁universities	-11.2934
▁Journal	-11.2934
▁manifest	-11.2934
▁organisation	-11.2934
▁struck	-11.2934
▁choosing	-11.2934
▁ulcer	-11.2934
▁asshole	-11.2934
▁housing	-11.2935
▁insulin	-11.2936
hydro	-11.298
▁COVID	-11.3011
▁challenging	-11.3011
▁economies	-11.3011
▁fracture	-11.3011
▁occupation	-11.3011
▁tattoo	-11.3011
▁upstairs	-11.3011
▁NASA	-11.3011
▁Standard	-11.3011
▁profound	-11.3011
▁promoting	-11.3011
▁1952	-11.3011
▁darling	-11.3011
▁segment	-11.3011
▁cheek	-11.3011
▁spiral	-11.3011
▁southeast	-11.3011
▁mystery	-11.3012
▁resume	-11.3015
▁limb	-11.3062
toxic	-11.3063
▁adequate	-11.3088
▁embrace	-11.3088
▁imagination	-11.3088
▁rhythm	-11.3088
▁structural	-11.3088
▁monument	-11.3088
▁preparing	-11.3089
▁Family	-11.3089
▁scalp	-11.3089
▁neurons	-11.3091
ə	-11.3567
μ	-11.3815
ê	-11.3983
р	-11.4242
е	-11.4418
س	-11.4418
ع	-11.478
د	-11.4966
в	-11.5546
+	-11.5609
ô	-11.5747
ː	-11.6056
ī	-11.6818
±	-11.6931
с	-11.7163
ح	-11.7642
ك	-11.7642
â	-11.7642
л	-11.7765
>	-11.7765
ï	-11.7765
ć	-11.7765
к	-11.789
ت	-11.8275
æ	-11.854
ɪ	-11.8675
€	-11.8675
(	-11.8914
Á	-11.9092
|	-11.9092
т	-11.9234
ệ	-11.9234
ش	-11.9379
γ	-11.9379
ف	-11.9526
š	-11.9676
д	-11.9676
ج	-11.9827
ë	-11.9827
π	-12.0137
ο	-12.0296
ق	-12.0457
É	-12.113
č	-12.113
τ	-12.113
⁄	-12.1305
ρ	-12.1484
σ	-12.1666
ε	-12.1851
ν	-12.2039
_	-12.2428
^	-12.2428
ß	-12.2428
м	-12.2832
ز	-12.2832
<	-12.2832
ς	-12.2832
⌘	-12.2832
子	-12.304
ı	-12.304
‐	-12.304
♪	-12.3253
ì	-12.347
า	-12.3693
й	-12.392
ط	-12.4152
ʊ	-12.4153
η	-12.4153
δ	-12.4634
λ	-12.4635
·	-12.4885
ص	-12.5141
ه	-12.5141
ø	-12.5674
ɛ	-12.5674
ò	-12.6238
ù	-12.6238
ý	-12.6238
ē	-12.6238
г	-12.6238
ー	-12.6238
ư	-12.6238
Å	-12.6532
ι	-12.6532
ả	-12.6532
ン	-12.6532
у	-12.6532
ч	-12.6835
ă	-12.6835
ь	-12.7147
大	-12.7147
ź	-12.747
أ	-12.747
κ	-12.747
@	-12.7803
ạ	-12.7803
동	-12.8148
ŏ	-12.8148
я	-12.8148
θ	-12.8505
⊞	-12.8505
î	-12.8505
з	-12.8876
خ	-12.8876
्	-12.8876
อ	-12.926
ル	-12.926
เ	-12.966
ร	-12.966
美	-12.966
ラ	-12.966
ě	-13.0077
어	-13.0077
В	-13.0512
ɑ	-13.0512
Δ	-13.0512
≤	-13.0512
ί	-13.0966
õ	-13.0966
∈	-13.0966
ş	-13.1443
φ	-13.1443
ы	-13.1443
ά	-13.1443
ộ	-13.1443
К	-13.1443
น	-13.1942
С	-13.1943
å	-13.1943
학	-13.1943
ễ	-13.1943
中	-13.1943
ơ	-13.1943
ˌ	-13.1943
イ	-13.1943
ト	-13.1943
п	-13.2469
र	-13.2469
υ	-13.2469
ɒ	-13.2469
전	-13.2469
성	-13.2469
б	-13.3024
ม	-13.3024
ž	-13.3024
ǎ	-13.3024
А	-13.3613
ω	-13.3613
\	-13.3613
ى	-13.3613
ọ	-13.3613
이	-13.3613
М	-13.3613
교	-13.3613
ʃ	-13.3613
ό	-13.4238
ย	-13.4238
ิ	-13.4238
έ	-13.4238
ế	-13.4238
י	-13.4238
‘	-13.4867
ו	-13.4904
غ	-13.4904
้	-13.4904
ា	-13.4904
§	-13.4904
ğ	-13.4904
ɡ	-13.4904
√	-13.4904
語	-13.4904
の	-13.4904
タ	-13.4904
ʻ	-13.4904
*	-13.5581
[	-13.5581
=	-13.5581
ท	-13.5619
х	-13.5619
저	-13.5619
ा	-13.5619
国	-13.5619
天	-13.5619
ḥ	-13.5619
ị	-13.5619
대	-13.5619
ั	-13.5619
ส	-13.6388
і	-13.6388
ア	-13.6388
Ω	-13.6388
⇧	-13.6388
的	-13.6388
ง	-13.6388
公	-13.6388
Б	-13.7221
ี	-13.7221
ע	-13.7221
ว	-13.7221
藤	-13.7221
ắ	-13.7221
本	-13.7221
ض	-13.7221
ṭ	-13.7221
ス	-13.7221
장	-13.7221
문	-13.813
พ	-13.813
か	-13.813
文	-13.813
ก	-13.813
경	-13.813
û	-13.813
ř	-13.813
ɔ	-13.813
人	-13.813
ζ	-13.813
И	-13.813
ա	-13.813
क	-13.813
♠	-13.813
小	-13.813
國	-13.813
א	-13.813
ि	-13.813
ッ	-13.913
ʒ	-13.913
ר	-13.913
会	-13.913
明	-13.913
þ	-13.913
神	-13.913
長	-13.913
아	-13.913
Ö	-13.913
ũ	-13.913
ж	-13.913
ц	-13.913
ầ	-13.913
≥	-13.913
ロ	-13.913
我	-13.913
ė	-13.913
ַ	-13.913
प	-13.913
ờ	-13.913
ל	-13.913
ต	-13.913
–	-14.0204
ი	-14.0241
ข	-14.0241
ด	-14.0241
カ	-14.0241
之	-14.0241
ล	-14.0241
田	-14.0241
ή	-14.0241
จ	-14.0241
原	-14.0241
家	-14.0241
王	-14.0241
국	-14.0241
제	-14.0241
«	-14.0241
ŋ	-14.0241
χ	-14.0241
ấ	-14.0241
리	-14.0241
ム	-14.0241
ी	-14.0241
त	-14.0241
・	-14.0241
ド	-14.1491
城	-14.1491
ジ	-14.1491
東	-14.1491
ξ	-14.1491
ク	-14.1491
ĩ	-14.1491
ș	-14.1491
Л	-14.1491
ה	-14.1491
ی	-14.1491
∇	-14.1491
法	-14.1491
海	-14.1491
म	-14.1491
ุ	-14.1491
ウ	-14.1491
方	-14.1491
李	-14.1491
氏	-14.1491
立	-14.1491
의	-14.1491
ʿ	-14.1491
Г	-14.1491
Ф	-14.1491
מ	-14.1491
真	-14.1491
비	-14.1491
사	-14.1491
Д	-14.1491
Н	-14.1491
と	-14.1491
日	-14.1491
テ	-14.1491
ა	-14.292
京	-14.292
시	-14.292
ช	-14.292
一	-14.292
Í	-14.292
О	-14.292
ห	-14.292
、	-14.292
エ	-14.292
プ	-14.292
道	-14.292
ǐ	-14.292
П	-14.292
ъ	-14.292
こ	-14.292
マ	-14.292
四	-14.292
有	-14.292
고	-14.292
기	-14.292
ф	-14.292
ָ	-14.292
ث	-14.292
บ	-14.292
ะ	-14.292
←	-14.292
⌥	-14.292
⟩	-14.292
作	-14.292
学	-14.292
學	-14.292
生	-14.292
陳	-14.292
산	-14.292
張	-14.292
高	-14.292
龍	-14.292
נ	-14.292
ガ	-14.292
신	-14.292
ё	-14.292
่	-14.292
み	-14.292
ṃ	-14.292
원	-14.292
物	-14.292
َ	-14.4587
द	-14.4587
女	-14.4587
भ	-14.4587
り	-14.4587
你	-14.4587
ल	-14.4587
ो	-14.4587
赵	-14.4587
왕	-14.4587
ő	-14.4587
ǝ	-14.4587
ء	-14.4587
ὰ	-14.4587
―	-14.4587
‡	-14.4587
∣	-14.4587
≈	-14.4587
上	-14.4587
主	-14.4587
山	-14.4587
島	-14.4587
會	-14.4587
軍	-14.4587
雄	-14.4587
가	-14.4587
자	-14.4587
화	-14.4587
̄	-14.4587
ψ	-14.4587
ナ	-14.4587
鳳	-14.4587
정	-14.4587
コ	-14.4587
ゼ	-14.4587
나	-14.4587
회	-14.4587
э	-14.6587
ိ	-14.6587
第	-14.6587
ב	-14.6587
າ	-14.6587
ק	-14.6587
不	-14.6587
แ	-14.6587
ម	-14.6587
ミ	-14.6587
レ	-14.6587
만	-14.6587
ـ	-14.6587
न	-14.6587
ู	-14.6587
ស	-14.6587
う	-14.6587
メ	-14.6587
三	-14.6587
世	-14.6587
制	-14.6587
号	-14.6587
宮	-14.6587
川	-14.6587
星	-14.6587
焼	-14.6587
레	-14.6587
진	-14.6587
ṣ	-14.6587
お	-14.6587
水	-14.6587
赤	-14.6587
내	-14.6587
마	-14.6587
ŭ	-14.6587
ǒ	-14.6587
ป	-14.6587
န	-14.6587
ក	-14.6587
រ	-14.6587
ủ	-14.6587
ứ	-14.6587
∘	-14.6587
⊆	-14.6587
な	-14.6587
全	-14.6587
华	-14.6587
司	-14.6587
夫	-14.6587
新	-14.6587
橋	-14.6587
糖	-14.6587
義	-14.6587
英	-14.6587
鶴	-14.6587
그	-14.6587
여	-14.6587
ʾ	-14.6587
˧	-14.6587
ふ	-14.6587
実	-14.6587
理	-14.6587
서	-14.6587
수	-14.6587
内	-14.6587
西	-14.6587
네	-14.6587
조	-14.6587
Р	-14.6587
ն	-14.6587
グ	-14.6587
シ	-14.6587
代	-14.6587
死	-14.6587
野	-14.6587
세	-14.6587
ツ	-14.6587
°	-14.905
რ	-14.9086
ผ	-14.9086
ブ	-14.9087
ِ	-14.9087
リ	-14.9087
ワ	-14.9087
情	-14.9087
楽	-14.9087
Θ	-14.9087
ת	-14.9087
ग	-14.9087
ไ	-14.9087
์	-14.9087
ញ	-14.9087
デ	-14.9087
平	-14.9087
보	-14.9087
치	-14.9087
¡	-14.9087
ְ	-14.9087
ज	-14.9087
ុ	-14.9087
あ	-14.9087
た	-14.9087
パ	-14.9087
外	-14.9087
州	-14.9087
村	-14.9087
民	-14.9087
白	-14.9087
科	-14.9087
처	-14.9087
勇	-14.9087
구	-14.9087
양	-14.9087
©	-14.9087
ġ	-14.9087
ʌ	-14.9087
˥	-14.9087
̃	-14.9087
̍	-14.9087
ի	-14.9087
ր	-14.9087
ּ	-14.9087
ذ	-14.9087
ُ	-14.9087
ာ	-14.9087
ậ	-14.9087
ỉ	-14.9087
℞	-14.9087
⏎	-14.9087
ん	-14.9087
フ	-14.9087
モ	-14.9087
伊	-14.9087
名	-14.9087
嘉	-14.9087
回	-14.9087
士	-14.9087
太	-14.9087
孟	-14.9087
守	-14.9087
宿	-14.9087
春	-14.9087
是	-14.9087
林	-14.9087
正	-14.9087
派	-14.9087
線	-14.9087
艇	-14.9087
花	-14.9087
街	-14.9087
言	-14.9087
起	-14.9087
輝	-14.9087
青	-14.9087
黒	-14.9087
면	-14.9087
방	-14.9087
야	-14.9087
일	-14.9087
죤	-14.9087
주	-14.9087
텔	-14.9087
파	-14.9087
한	-14.9087
호	-14.9087
ש	-14.9087
十	-14.9087
千	-14.9087
成	-14.9087
ю	-14.9087
バ	-14.9087
欢	-14.9087
스	-14.9087
홍	-14.9087
ǁ	-14.9087
ɜ	-14.9087
부	-14.9087
ʼ	-14.9087
լ	-14.9087
յ	-14.9087
光	-14.9087
員	-14.9087
校	-14.9087
車	-14.9087
살	-14.9087
명	-14.9087
清	-14.9087
ງ	-15.242
თ	-15.242
봉	-15.242
छ	-15.242
ຫ	-15.242
Π	-15.242
ခ	-15.242
保	-15.242
前	-15.242
音	-15.242
魔	-15.242
僕	-15.242
和	-15.242
ֶ	-15.242
़	-15.242
း	-15.242
ṛ	-15.242
ち	-15.242
ら	-15.242
ャ	-15.242
古	-15.242
坂	-15.242
杯	-15.242
色	-15.242
ɯ	-15.242
ώ	-15.242
ס	-15.242
ܪ	-15.242
ङ	-15.242
ब	-15.242
व	-15.242
श	-15.242
ू	-15.242
ლ	-15.242
下	-15.242
丸	-15.242
喜	-15.242
在	-15.242
姐	-15.242
帝	-15.242
想	-15.242
揚	-15.242
時	-15.242
来	-15.242
經	-15.242
芦	-15.242
賀	-15.242
部	-15.242
려	-15.242
실	-15.242
ポ	-15.242
五	-15.242
夏	-15.242
安	-15.242
藍	-15.242
윤	-15.242
¬	-15.242
Ã	-15.242
Ü	-15.242
ț	-15.242
ʔ	-15.242
̂	-15.242
Γ	-15.242
Φ	-15.242
ү	-15.242
ד	-15.242
ח	-15.242
ט	-15.242
ظ	-15.242
ْ	-15.242
ܬ	-15.242
র	-15.242
া	-15.242
ಕ	-15.242
ු	-15.242
ฟ	-15.242
တ	-15.242
ေ	-15.242
ជ	-15.242
ទ	-15.242
ន	-15.242
ổ	-15.242
ớ	-15.242
ợ	-15.242
ὐ	-15.242
‚	-15.242
‹	-15.242
›	-15.242
∏	-15.242
∑	-15.242
∼	-15.242
≡	-15.242
⊇	-15.242
い	-15.242
め	-15.242
ェ	-15.242
キ	-15.242
ダ	-15.242
ノ	-15.242
乐	-15.242
事	-15.242
云	-15.242
位	-15.242
先	-15.242
党	-15.242
八	-15.242
友	-15.242
吉	-15.242
商	-15.242
委	-15.242
姫	-15.242
娘	-15.242
室	-15.242
寧	-15.242
巾	-15.242
年	-15.242
心	-15.242
无	-15.242
曲	-15.242
木	-15.242
札	-15.242
朱	-15.242
机	-15.242
永	-15.242
沙	-15.242
渡	-15.242
瀬	-15.242
火	-15.242
烈	-15.242
爱	-15.242
球	-15.242
皇	-15.242
秀	-15.242
紅	-15.242
結	-15.242
羅	-15.242
翔	-15.242
臣	-15.242
華	-15.242
行	-15.242
見	-15.242
赛	-15.242
越	-15.242
趙	-15.242
足	-15.242
通	-15.242
造	-15.242
雨	-15.242
鞠	-15.242
飛	-15.242
공	-15.242
과	-15.242
김	-15.242
라	-15.242
법	-15.242
안	-15.242
에	-15.242
영	-15.242
유	-15.242
있	-15.242
해	-15.242
현	-15.242
˩	-15.242
东	-15.242
孫	-15.242
母	-15.242
盗	-15.242
貴	-15.242
阿	-15.242
월	-15.242
차	-15.242
Ц	-15.242
も	-15.242
哥	-15.242
德	-15.242
电	-15.242
組	-15.242
金	-15.242
黃	-15.242
덕	-15.242
미	-15.242
석	-15.242
없	-15.242
特	-15.242
知	-15.242
納	-15.242
등	-15.242
ត	-15.242
が	-15.242
く	-15.242
ギ	-15.242
争	-15.242
洋	-15.242
马	-15.242
박	-15.242
ִ	-15.242
つ	-15.242
च	-15.242
仔	-15.242
園	-15.242
ວ	-15.742
쇼	-15.742
פ	-15.742
は	-15.742
ပ	-15.742
ვ	-15.742
し	-15.742
だ	-15.742
向	-15.742
業	-15.742
熊	-15.742
産	-15.742
걸	-15.742
最	-15.742
ן	-15.742
ۇ	-15.742
ܣ	-15.742
げ	-15.742
ま	-15.742
化	-15.742
同	-15.742
字	-15.742
定	-15.742
工	-15.742
市	-15.742
常	-15.742
康	-15.742
托	-15.742
持	-15.742
構	-15.742
洞	-15.742
流	-15.742
浮	-15.742
漢	-15.742
目	-15.742
眼	-15.742
粹	-15.742
荘	-15.742
视	-15.742
邪	-15.742
陵	-15.742
바	-15.742
ð	-15.742
ゆ	-15.742
博	-15.742
土	-15.742
政	-15.742
竹	-15.742
노	-15.742
백	-15.742
{	-15.742
¶	-15.742
ċ	-15.742
ņ	-15.742
ů	-15.742
ų	-15.742
ǔ	-15.742
ʕ	-15.742
ʹ	-15.742
̊	-15.742
Є	-15.742
Ш	-15.742
ץ	-15.742
ܕ	-15.742
ं	-15.742
ै	-15.742
ু	-15.742
ත	-15.742
ค	-15.742
ญ	-15.742
ฐ	-15.742
ถ	-15.742
ใ	-15.742
ོ	-15.742
င	-15.742
ီ	-15.742
ቅ	-15.742
ហ	-15.742
ឧ	-15.742
ី	-15.742
ỏ	-15.742
ỗ	-15.742
ỡ	-15.742
ừ	-15.742
ữ	-15.742
ỹ	-15.742
ἕ	-15.742
ὁ	-15.742
ὶ	-15.742
↹	-15.742
⇒	-15.742
∂	-15.742
∓	-15.742
≠	-15.742
⊂	-15.742
⎙	-15.742
☆	-15.742
♥	-15.742
よ	-15.742
ケ	-15.742
ゴ	-15.742
ズ	-15.742
チ	-15.742
ハ	-15.742
ヒ	-15.742
ヶ	-15.742
九	-15.742
仁	-15.742
介	-15.742
便	-15.742
倫	-15.742
偉	-15.742
元	-15.742
冬	-15.742
凶	-15.742
出	-15.742
初	-15.742
到	-15.742
劉	-15.742
单	-15.742
双	-15.742
吸	-15.742
味	-15.742
哲	-15.742
场	-15.742
均	-15.742
垣	-15.742
奇	-15.742
奖	-15.742
好	-15.742
妹	-15.742
媛	-15.742
宗	-15.742
密	-15.742
寒	-15.742
寺	-15.742
尹	-15.742
尾	-15.742
崇	-15.742
帮	-15.742
府	-15.742
开	-15.742
弘	-15.742
志	-15.742
忠	-15.742
恋	-15.742
憲	-15.742
战	-15.742
技	-15.742
敏	-15.742
族	-15.742
早	-15.742
景	-15.742
月	-15.742
朔	-15.742
未	-15.742
样	-15.742
梦	-15.742
機	-15.742
次	-15.742
殺	-15.742
治	-15.742
温	-15.742
濱	-15.742
灣	-15.742
烏	-15.742
煮	-15.742
独	-15.742
瓦	-15.742
男	-15.742
盟	-15.742
石	-15.742
粥	-15.742
精	-15.742
者	-15.742
肉	-15.742
肖	-15.742
臺	-15.742
芬	-15.742
茅	-15.742
茶	-15.742
葉	-15.742
蘆	-15.742
蘇	-15.742
術	-15.742
親	-15.742
話	-15.742
诗	-15.742
豊	-15.742
賢	-15.742
身	-15.742
酢	-15.742
鎮	-15.742
长	-15.742
间	-15.742
隊	-15.742
雷	-15.742
電	-15.742
风	-15.742
餅	-15.742
馬	-15.742
麗	-15.742
다	-15.742
두	-15.742
들	-15.742
뛰	-15.742
락	-15.742
람	-15.742
러	-15.742
로	-15.742
림	-15.742
민	-15.742
범	-15.742
블	-15.742
빵	-15.742
상	-15.742
송	-15.742
싫	-15.742
암	-15.742
업	-15.742
연	-15.742
요	-15.742
울	-15.742
은	-15.742
잘	-15.742
즈	-15.742
지	-15.742
참	-15.742
쳐	-15.742
초	-15.742
터	-15.742
트	-15.742
포	-15.742
품	-15.742
피	-15.742
œ	-15.742
ಠ	-15.742
优	-15.742
佑	-15.742
佳	-15.742
利	-15.742
垂	-15.742
尚	-15.742
弾	-15.742
徐	-15.742
棋	-15.742
森	-15.742
槍	-15.742
歌	-15.742
河	-15.742
波	-15.742
濟	-15.742
猎	-15.742
百	-15.742
解	-15.742
速	-15.742
雲	-15.742
鬼	-15.742
목	-15.742
소	-15.742
예	-15.742
오	-15.742
합	-15.742
թ	-15.742
ֵ	-15.742
ٍ	-15.742
ک	-15.742
ិ	-15.742
に	-15.742
ぼ	-15.742
る	-15.742
他	-15.742
宝	-15.742
所	-15.742
너	-15.742
녀	-15.742
랑	-15.742
쁜	-15.742
씨	-15.742
육	-15.742
ट	-15.742
け	-15.742
ネ	-15.742
戦	-15.742
沢	-15.742
福	-15.742
超	-15.742
近	-15.742
送	-15.742
관	-15.742
무	-15.742
혁	-15.742
放	-15.742
秘	-15.742
โ	-15.742
榮	-15.742
蔵	-15.742
武	-15.742
큼	-16.7216
충	-16.7217
좋	-16.7218
못	-16.7219
당	-16.722
남	-16.7221
같	-16.7222
魏	-16.7223
餘	-16.7224
颂	-16.7225
須	-16.7226
陸	-16.7227
际	-16.7228
間	-16.7229
辺	-16.723
豆	-16.7231
裕	-16.7232
航	-16.7233
耀	-16.7234
翻	-16.7235
结	-16.7236
筒	-16.7237
畢	-16.7238
牧	-16.7239
思	-16.724
建	-16.7241
少	-16.7242
婧	-16.7243
央	-16.7244
夕	-16.7245
場	-16.7246
团	-16.7247
務	-16.7248
冰	-16.7249
军	-16.725
信	-16.7251
ィ	-16.7252
わ	-16.7253
や	-16.7254
≃	-16.7255
∶	-16.7256
Ὠ	-16.7257
ὕ	-16.7258
Ἰ	-16.7259
ἐ	-16.726
ẹ	-16.7261
ល	-16.7262
ប	-16.7263
ნ	-16.7264
დ	-16.7265
ု	-16.7266
အ	-16.7267
ရ	-16.7268
ິ	-16.7269
ະ	-16.727
ສ	-16.7271
ມ	-16.7272
ບ	-16.7273
็	-16.7274
ह	-16.7275
ष	-16.7276
ड	-16.7277
ئ	-16.7278
ז	-16.7279
ֹ	-16.728
ւ	-16.7281
ս	-16.7282
ո	-16.7283
Հ	-16.7284
қ	-16.7285
Қ	-16.7286
Э	-16.7287
Х	-16.7288
Т	-16.7289
З	-16.729
Χ	-16.7291
Ε	-16.7292
̣	-16.7293
ɣ	-16.7294
Ī	-16.7295
Ø	-16.7296
Â	-16.7297
후	-16.7298
탑	-16.7299
코	-16.73
즌	-16.7301
중	-16.7302
앙	-16.7303
선	-16.7304
韓	-16.7305
陈	-16.7306
製	-16.7307
祐	-16.7308
弓	-16.7309
ニ	-16.731
き	-16.7311
Ṣ	-16.7312
ḍ	-16.7313
ោ	-16.7314
ြ	-16.7315
ํ	-16.7316
ื	-16.7317
У	-16.7318
Ν	-16.7319
Η	-16.732
Ž	-16.7321
Ñ	-16.7322
¢	-16.7323
하	-16.7324
종	-16.7325
위	-16.7326
롯	-16.7327
데	-16.7328
限	-16.7329
谢	-16.733
葫	-16.7331
空	-16.7332
欧	-16.7333
横	-16.7334
摸	-16.7335
力	-16.7336
ュ	-16.7337
‰	-16.7338
ῖ	-16.7339
ὑ	-16.734
ử	-16.7341
ẵ	-16.7342
ព	-16.7343
မ	-16.7344
ນ	-16.7345
ธ	-16.7346
ঙ	-16.7347
ु	-16.7348
آ	-16.7349
Σ	-16.735
͘	-16.7351
Ş	-16.7352
Č	-16.7353
Ć	-16.7354
Ā	-16.7355
Ð	-16.7356
香	-16.7357
港	-16.7358
♯	-16.7359
⊙	-16.736
‭	-16.7361
Ἀ	-16.7362
ỳ	-16.7363
Ọ	-16.7364
स	-16.7365
य	-16.7366
ш	-16.7367
Я	-16.7368
Μ	-16.7369
İ	-16.737
Ú	-16.7371
Î	-16.7372
Ç	-16.7373
∞	-16.7374
„	-16.7375
ố	-16.7376
ề	-16.7377
ṅ	-16.7378
ภ	-16.7379
式	-16.738
ể	-16.7381
ṇ	-16.7382
ّ	-16.7383
إ	-16.7384
Κ	-16.7385
ħ	-16.7386
社	-16.7387
株	-16.7388
⋯	-16.7389
⋅	-16.739
Ḥ	-16.7391
Ó	-16.7392
¿	-16.7393
由	-16.7394
Τ	-16.7395
đ	-16.7396
»	-16.7397
♭	-16.7398
†	-16.7399
ύ	-16.74
냐	-16.7401
☰	-16.7402
⋮	-16.7403
Š	-16.7404
÷	-16.7405
®	-16.7406
⊕	-16.7407
¥	-16.7408
ồ	-16.7409
∗	-16.741
☉	-16.7411
•	-16.7412
Đ	-16.7413
Ō	-16.7414
Ż	-16.7415
£	-16.7416
→	-16.7417
Ł	-16.7418
ٱ	-16.7419
ຂ	-16.7419
ຊ	-16.7419
ຼ	-16.7419
ຽ	-16.7419
້	-16.7419
ბ	-16.7419
′	-16.7419
ֆ	-16.742
ג	-16.742
ฮ	-16.742
უ	-16.742
შ	-16.742
ធ	-16.742
Ἑ	-16.742
を	-16.742
刑	-16.742
培	-16.742
暨	-16.742
猫	-16.742
看	-16.742
終	-16.742
致	-16.742
警	-16.742
趜	-16.742
趤	-16.742
辞	-16.742
邀	-16.742
障	-16.742
飴	-16.742
黑	-16.742
늘	-16.742
땅	-16.742
핑	-16.742
­	-16.742
˨	-16.742
Ο	-16.742
Ч	-16.742
җ	-16.742
խ	-16.742
հ	-16.742
ܐ	-16.742
ܚ	-16.742
ܦ	-16.742
ख	-16.742
ण	-16.742
े	-16.742
ौ	-16.742
ব	-16.742
ৌ	-16.742
ဖ	-16.742
ქ	-16.742
ხ	-16.742
គ	-16.742
យ	-16.742
ឡ	-16.742
ἄ	-16.742
ἰ	-16.742
ᾱ	-16.742
ⱬ	-16.742
じ	-16.742
っ	-16.742
て	-16.742
ぬ	-16.742
ぷ	-16.742
ゃ	-16.742
れ	-16.742
セ	-16.742
ヌ	-16.742
仇	-16.742
伝	-16.742
伤	-16.742
伴	-16.742
克	-16.742
円	-16.742
則	-16.742
劍	-16.742
功	-16.742
势	-16.742
半	-16.742
収	-16.742
受	-16.742
口	-16.742
右	-16.742
図	-16.742
墟	-16.742
壤	-16.742
壬	-16.742
壹	-16.742
夷	-16.742
姉	-16.742
岡	-16.742
岸	-16.742
幽	-16.742
悲	-16.742
惣	-16.742
掃	-16.742
摩	-16.742
期	-16.742
杀	-16.742
杉	-16.742
染	-16.742
桐	-16.742
椎	-16.742
気	-16.742
油	-16.742
淚	-16.742
深	-16.742
為	-16.742
照	-16.742
班	-16.742
用	-16.742
町	-16.742
祖	-16.742
笹	-16.742
箭	-16.742
老	-16.742
薩	-16.742
説	-16.742
軒	-16.742
轅	-16.742
週	-16.742
選	-16.742
酱	-16.742
鑑	-16.742
開	-16.742
霊	-16.742
靖	-16.742
돈	-16.742
랜	-16.742
브	-16.742
엠	-16.742
콜	-16.742
페	-16.742
플	-16.742
행	-16.742
헌	-16.742
훈	-16.742
Ä	-16.742
Œ	-16.742
ප	-16.742
Ḩ	-16.742
万	-16.742
品	-16.742
垃	-16.742
崩	-16.742
张	-16.742
抗	-16.742
枳	-16.742
柯	-16.742
柴	-16.742
登	-16.742
莊	-16.742
虚	-16.742
贸	-16.742
過	-16.742
鄭	-16.742
鈴	-16.742
감	-16.742
크	-16.742
	-16.742
	-16.742
¤	-16.742
À	-16.742
Æ	-16.742
È	-16.742
Ô	-16.742
Þ	-16.742
ÿ	-16.742
Ě	-16.742
Ĝ	-16.742
ĝ	-16.742
Ğ	-16.742
Ġ	-16.742
ľ	-16.742
ň	-16.742
ţ	-16.742
ű	-16.742
ŷ	-16.742
Ź	-16.742
ƒ	-16.742
ǚ	-16.742
ȫ	-16.742
ɖ	-16.742
ɲ	-16.742
ʂ	-16.742
ʈ	-16.742
ʐ	-16.742
̅	-16.742
̇	-16.742
̋	-16.742
̓	-16.742
̧	-16.742
͂	-16.742
Λ	-16.742
Ξ	-16.742
Υ	-16.742
Ψ	-16.742
ϊ	-16.742
щ	-16.742
Ұ	-16.742
Ӏ	-16.742
Կ	-16.742
Ն	-16.742
Վ	-16.742
դ	-16.742
ե	-16.742
մ	-16.742
տ	-16.742
־	-16.742
ֿ	-16.742
ׁ	-16.742
ٌ	-16.742
ٴ	-16.742
پ	-16.742
ہ	-16.742
ܝ	-16.742
ܟ	-16.742
ܠ	-16.742
ܡ	-16.742
ܹ	-16.742
ܼ	-16.742
आ	-16.742
ओ	-16.742
औ	-16.742
ठ	-16.742
ঁ	-16.742
ই	-16.742
এ	-16.742
ণ	-16.742
ত	-16.742
দ	-16.742
ফ	-16.742
ল	-16.742
ী	-16.742
ં	-16.742
દ	-16.742
ર	-16.742
સ	-16.742
િ	-16.742
ૂ	-16.742
ଣ	-16.742
ଫ	-16.742
ି	-16.742
ಡ	-16.742
ತ	-16.742
ವ	-16.742
ೊ	-16.742
උ	-16.742
ක	-16.742
ජ	-16.742
න	-16.742
ම	-16.742
ය	-16.742
ර	-16.742
ල	-16.742
ා	-16.742
ි	-16.742
ฆ	-16.742
ฉ	-16.742
ซ	-16.742
ณ	-16.742
ษ	-16.742
ฬ	-16.742
๘	-16.742
ທ	-16.742
ໍ	-16.742
བ	-16.742
མ	-16.742
ཟ	-16.742
ལ	-16.742
ས	-16.742
ྒ	-16.742
ྲ	-16.742
ླ	-16.742
က	-16.742
စ	-16.742
ဇ	-16.742
ထ	-16.742
ဒ	-16.742
ယ	-16.742
ဝ	-16.742
ံ	-16.742
ျ	-16.742
ွ	-16.742
ှ	-16.742
ე	-16.742
მ	-16.742
ს	-16.742
ሃ	-16.742
ል	-16.742
ሪ	-16.742
ር	-16.742
ቤ	-16.742
ታ	-16.742
ና	-16.742
ን	-16.742
ዋ	-16.742
ፍ	-16.742
ខ	-16.742
ណ	-16.742
ែ	-16.742
ៅ	-16.742
ḃ	-16.742
ḇ	-16.742
ḳ	-16.742
ḷ	-16.742
Ṭ	-16.742
ặ	-16.742
ẻ	-16.742
ẽ	-16.742
ụ	-16.742
ự	-16.742
ἅ	-16.742
ἡ	-16.742
ὸ	-16.742
ᾶ	-16.742
ῥ	-16.742
ῦ	-16.742
ῶ	-16.742
※	-16.742
‿	-16.742
₹	-16.742
₽	-16.742
↓	-16.742
↠	-16.742
↵	-16.742
⇌	-16.742
⇔	-16.742
⇩	-16.742
∀	-16.742
∅	-16.742
∆	-16.742
∖	-16.742
∙	-16.742
∤	-16.742
∧	-16.742
∨	-16.742
∫	-16.742
≅	-16.742
⊗	-16.742
⊢	-16.742
⎇	-16.742
⏭	-16.742
■	-16.742
▲	-16.742
▴	-16.742
►	-16.742
▼	-16.742
○	-16.742
☺	-16.742
☿	-16.742
⚙	-16.742
⟨	-16.742
⟼	-16.742
」	-16.742
〜	-16.742
え	-16.742
ぎ	-16.742
ぐ	-16.742
さ	-16.742
ず	-16.742
そ	-16.742
ば	-16.742
ぴ	-16.742
ぶ	-16.742
ほ	-16.742
ォ	-16.742
ゲ	-16.742
ゾ	-16.742
ベ	-16.742
ホ	-16.742
与	-16.742
业	-16.742
两	-16.742
串	-16.742
为	-16.742
丽	-16.742
也	-16.742
习	-16.742
二	-16.742
井	-16.742
亚	-16.742
交	-16.742
亲	-16.742
们	-16.742
仰	-16.742
任	-16.742
份	-16.742
伏	-16.742
休	-16.742
众	-16.742
但	-16.742
住	-16.742
佐	-16.742
佗	-16.742
余	-16.742
侍	-16.742
侯	-16.742
俐	-16.742
俗	-16.742
偵	-16.742
傘	-16.742
傳	-16.742
像	-16.742
儀	-16.742
儒	-16.742
優	-16.742
兄	-16.742
六	-16.742
关	-16.742
兴	-16.742
典	-16.742
农	-16.742
冠	-16.742
刺	-16.742
割	-16.742
办	-16.742
助	-16.742
劳	-16.742
勁	-16.742
動	-16.742
勞	-16.742
医	-16.742
協	-16.742
南	-16.742
単	-16.742
卯	-16.742
卹	-16.742
厂	-16.742
县	-16.742
句	-16.742
史	-16.742
合	-16.742
后	-16.742
君	-16.742
吧	-16.742
吴	-16.742
吹	-16.742
呈	-16.742
周	-16.742
命	-16.742
咲	-16.742
哇	-16.742
哨	-16.742
問	-16.742
喝	-16.742
器	-16.742
嚴	-16.742
囷	-16.742
團	-16.742
地	-16.742
圾	-16.742
坏	-16.742
基	-16.742
堂	-16.742
夺	-16.742
奈	-16.742
奪	-16.742
奭	-16.742
妃	-16.742
妙	-16.742
姑	-16.742
姚	-16.742
婴	-16.742
嫌	-16.742
宏	-16.742
官	-16.742
实	-16.742
宠	-16.742
宣	-16.742
富	-16.742
将	-16.742
專	-16.742
尽	-16.742
屋	-16.742
岛	-16.742
岭	-16.742
峰	-16.742
崎	-16.742
嶋	-16.742
巌	-16.742
差	-16.742
希	-16.742
帥	-16.742
席	-16.742
帽	-16.742
幸	-16.742
幹	-16.742
庁	-16.742
庚	-16.742
度	-16.742
庫	-16.742
庭	-16.742
庵	-16.742
廉	-16.742
廠	-16.742
廣	-16.742
引	-16.742
弟	-16.742
弦	-16.742
強	-16.742
彗	-16.742
彙	-16.742
形	-16.742
影	-16.742
役	-16.742
律	-16.742
従	-16.742
微	-16.742
徹	-16.742
快	-16.742
忽	-16.742
怖	-16.742
怡	-16.742
性	-16.742
怪	-16.742
恐	-16.742
恩	-16.742
恵	-16.742
悟	-16.742
悠	-16.742
意	-16.742
愛	-16.742
愿	-16.742
慈	-16.742
慘	-16.742
慧	-16.742
懦	-16.742
戒	-16.742
戰	-16.742
戴	-16.742
手	-16.742
承	-16.742
拉	-16.742
拓	-16.742
指	-16.742
振	-16.742
探	-16.742
控	-16.742
搵	-16.742
撫	-16.742
撮	-16.742
敌	-16.742
散	-16.742
斎	-16.742
斬	-16.742
昆	-16.742
易	-16.742
晋	-16.742
晓	-16.742
晚	-16.742
晶	-16.742
智	-16.742
曬	-16.742
書	-16.742
曼	-16.742
曾	-16.742
望	-16.742
末	-16.742
杂	-16.742
束	-16.742
极	-16.742
果	-16.742
柑	-16.742
柱	-16.742
标	-16.742
树	-16.742
栗	-16.742
案	-16.742
梁	-16.742
榜	-16.742
樓	-16.742
標	-16.742
橘	-16.742
步	-16.742
歳	-16.742
殊	-16.742
殷	-16.742
毓	-16.742
汁	-16.742
求	-16.742
江	-16.742
沃	-16.742
沮	-16.742
泉	-16.742
泊	-16.742
泰	-16.742
泱	-16.742
津	-16.742
洪	-16.742
浜	-16.742
浦	-16.742
浩	-16.742
淀	-16.742
淵	-16.742
游	-16.742
湯	-16.742
源	-16.742
溥	-16.742
滨	-16.742
滩	-16.742
漪	-16.742
漫	-16.742
潜	-16.742
濃	-16.742
灯	-16.742
烟	-16.742
然	-16.742
燮	-16.742
版	-16.742
牛	-16.742
犬	-16.742
狱	-16.742
狼	-16.742
猛	-16.742
玄	-16.742
玉	-16.742
珮	-16.742
琦	-16.742
瑞	-16.742
瑩	-16.742
瓊	-16.742
画	-16.742
界	-16.742
疾	-16.742
病	-16.742
益	-16.742
监	-16.742
盛	-16.742
監	-16.742
相	-16.742
盾	-16.742
省	-16.742
瞿	-16.742
码	-16.742
碈	-16.742
碎	-16.742
碩	-16.742
磐	-16.742
礫	-16.742
祎	-16.742
禄	-16.742
禕	-16.742
离	-16.742
竜	-16.742
章	-16.742
简	-16.742
篠	-16.742
簡	-16.742
簪	-16.742
粉	-16.742
粕	-16.742
紀	-16.742
紓	-16.742
紗	-16.742
纪	-16.742
纾	-16.742
终	-16.742
经	-16.742
绝	-16.742
缘	-16.742
置	-16.742
羊	-16.742
羘	-16.742
羡	-16.742
群	-16.742
羹	-16.742
羽	-16.742
耿	-16.742
聞	-16.742
聯	-16.742
聰	-16.742
聲	-16.742
股	-16.742
育	-16.742
胆	-16.742
膝	-16.742
自	-16.742
舉	-16.742
舜	-16.742
舞	-16.742
船	-16.742
艦	-16.742
良	-16.742
芋	-16.742
芳	-16.742
芸	-16.742
苔	-16.742
苦	-16.742
茜	-16.742
草	-16.742
荒	-16.742
莽	-16.742
菜	-16.742
萬	-16.742
葱	-16.742
蒲	-16.742
蔡	-16.742
蕭	-16.742
藏	-16.742
藥	-16.742
虫	-16.742
蜜	-16.742
融	-16.742
衫	-16.742
裂	-16.742
裳	-16.742
視	-16.742
訓	-16.742
記	-16.742
詩	-16.742
論	-16.742
諸	-16.742
謎	-16.742
證	-16.742
識	-16.742
譚	-16.742
譯	-16.742
議	-16.742
護	-16.742
譽	-16.742
证	-16.742
译	-16.742
语	-16.742
说	-16.742
请	-16.742
谁	-16.742
谎	-16.742
谶	-16.742
豚	-16.742
貞	-16.742
財	-16.742
賴	-16.742
贝	-16.742
贞	-16.742
败	-16.742
赫	-16.742
走	-16.742
赱	-16.742
赲	-16.742
赳	-16.742
赴	-16.742
赶	-16.742
赸	-16.742
赹	-16.742
赺	-16.742
赻	-16.742
赼	-16.742
赽	-16.742
赾	-16.742
赿	-16.742
趃	-16.742
趄	-16.742
趆	-16.742
趇	-16.742
趈	-16.742
趉	-16.742
趋	-16.742
趌	-16.742
趍	-16.742
趎	-16.742
趏	-16.742
趐	-16.742
趑	-16.742
趒	-16.742
趓	-16.742
趔	-16.742
趕	-16.742
趖	-16.742
趗	-16.742
趘	-16.742
趚	-16.742
趛	-16.742
趝	-16.742
趣	-16.742
趥	-16.742
趦	-16.742
趧	-16.742
趨	-16.742
趩	-16.742
趪	-16.742
趫	-16.742
趬	-16.742
趭	-16.742
趮	-16.742
趯	-16.742
趰	-16.742
趱	-16.742
趲	-16.742
距	-16.742
路	-16.742
躰	-16.742
輪	-16.742
輸	-16.742
车	-16.742
農	-16.742
込	-16.742
过	-16.742
这	-16.742
退	-16.742
運	-16.742
遍	-16.742
遠	-16.742
郎	-16.742
郡	-16.742
都	-16.742
采	-16.742
里	-16.742
重	-16.742
鉄	-16.742
鋒	-16.742
钟	-16.742
钦	-16.742
钱	-16.742
锋	-16.742
锦	-16.742
镇	-16.742
関	-16.742
闯	-16.742
队	-16.742
防	-16.742
陛	-16.742
陰	-16.742
随	-16.742
集	-16.742
雙	-16.742
雪	-16.742
静	-16.742
面	-16.742
革	-16.742
鞍	-16.742
韆	-16.742
順	-16.742
頭	-16.742
類	-16.742
预	-16.742
频	-16.742
飞	-16.742
食	-16.742
飲	-16.742
養	-16.742
駆	-16.742
駒	-16.742
驤	-16.742
骋	-16.742
髪	-16.742
髻	-16.742
魅	-16.742
魚	-16.742
鯨	-16.742
鰻	-16.742
鷓	-16.742
麻	-16.742
黨	-16.742
龙	-16.742
ꠋ	-16.742
ꠎ	-16.742
ꠚ	-16.742
ꠟ	-16.742
ꠣ	-16.742
갈	-16.742
강	-16.742
거	-16.742
격	-16.742
광	-16.742
군	-16.742
길	-16.742
꽃	-16.742
끝	-16.742
날	-16.742
납	-16.742
낮	-16.742
넙	-16.742
녕	-16.742
농	-16.742
느	-16.742
는	-16.742
더	-16.742
돌	-16.742
드	-16.742
래	-16.742
럼	-16.742
렬	-16.742
룡	-16.742
루	-16.742
를	-16.742
막	-16.742
말	-16.742
맥	-16.742
먼	-16.742
몬	-16.742
밤	-16.742
뱅	-16.742
버	-16.742
번	-16.742
변	-16.742
별	-16.742
봄	-16.742
북	-16.742
뷰	-16.742
생	-16.742
손	-16.742
쉬	-16.742
슈	-16.742
싶	-16.742
애	-16.742
약	-16.742
언	-16.742
엔	-16.742
열	-16.742
옥	-16.742
웃	-16.742
웨	-16.742
윙	-16.742
읍	-16.742
인	-16.742
작	-16.742
잖	-16.742
재	-16.742
족	-16.742
죠	-16.742
줘	-16.742
째	-16.742
천	-16.742
체	-16.742
최	-16.742
키	-16.742
타	-16.742
탄	-16.742
탓	-16.742
테	-16.742
특	-16.742
퍼	-16.742
평	-16.742
험	-16.742
혜	-16.742
휘	-16.742
흥	-16.742
️	-16.742
̀	-16.742
І	-16.742
ዕ	-16.742
ጋ	-16.742
ḗ	-16.742
ṓ	-16.742
ằ	-16.742
ゥ	-16.742
令	-16.742
伟	-16.742
伪	-16.742
伽	-16.742
佃	-16.742
個	-16.742
內	-16.742
北	-16.742
吳	-16.742
啟	-16.742
失	-16.742
妇	-16.742
孔	-16.742
孙	-16.742
幞	-16.742
施	-16.742
旅	-16.742
昭	-16.742
朝	-16.742
毛	-16.742
濊	-16.742
無	-16.742
爆	-16.742
狩	-16.742
琊	-16.742
瑯	-16.742
祥	-16.742
秋	-16.742
竺	-16.742
總	-16.742
罩	-16.742
耶	-16.742
蔽	-16.742
蜂	-16.742
装	-16.742
角	-16.742
許	-16.742
貊	-16.742
郁	-16.742
郷	-16.742
酒	-16.742
釗	-16.742
飥	-16.742
餺	-16.742
鮮	-16.742
齊	-16.742
간	-16.742
겨	-16.742
골	-16.742
따	-16.742
딴	-16.742
반	-16.742
분	-16.742
불	-16.742
완	-16.742
Ê	-16.742
Ý	-16.742
Β	-16.742
Ж	-16.742
Ա	-16.742
ֲ	-16.742
স	-16.742
ি	-16.742
ួ	-16.742
ះ	-16.742
ἀ	-16.742
ソ	-16.742
可	-16.742
唐	-16.742
垚	-16.742
戸	-16.742
查	-16.742
桂	-16.742
桜	-16.742
橫	-16.742
琵	-16.742
琶	-16.742
网	-16.742
罗	-16.742
能	-16.742
調	-16.742
迎	-16.742
陆	-16.742
院	-16.742
꾸	-16.742
낭	-16.742
넷	-16.742
령	-16.742
순	-16.742
통	-16.742
ǃ	-16.742
ֱ	-16.742
ペ	-16.742
塘	-16.742
您	-16.742
歸	-16.742
级	-16.742
諭	-16.742
趂	-16.742
趞	-16.742
趟	-16.742
趠	-16.742
趡	-16.742
趢	-16.742
遊	-16.742
郊	-16.742
願	-16.742
금	-16.742
물	-16.742
설	-16.742
식	-16.742
융	-16.742
Ζ	-16.742
−	-16.742
「	-16.742
専	-16.742
趀	-16.742
趁	-16.742
