<unk>	0
<s>	0
</s>	0
.	-3.12732
s	-3.19313
,	-3.29056
▁the	-3.56644
▁to	-4.03102
'	-4.03317
▁a	-4.10307
▁of	-4.19087
▁and	-4.2863
▁you	-4.43035
▁in	-4.43626
▁I	-4.51736
t	-4.60284
▁is	-4.88175
▁that	-4.9326
▁-	-4.9741
ing	-5.03854
▁it	-5.10221
ed	-5.20429
▁for	-5.26812
?	-5.27849
d	-5.28586
▁your	-5.34656
▁n	-5.38351
re	-5.43906
▁with	-5.48358
▁on	-5.50718
m	-5.52564
▁was	-5.53109
▁be	-5.53701
▁are	-5.66961
▁	-5.69195
▁have	-5.70588
▁do	-5.72608
▁this	-5.75032
▁or	-5.75282
▁we	-5.78402
▁as	-5.7985
y	-5.80644
▁The	-5.82511
▁can	-5.83536
▁not	-5.87287
▁You	-5.87898
▁(	-5.92635
er	-5.95183
▁me	-5.95823
n	-6.0082
ly	-6.03015
▁"	-6.05357
)	-6.06413
▁from	-6.07642
▁by	-6.09055
▁at	-6.09281
ll	-6.09757
▁an	-6.11023
e	-6.13096
▁It	-6.2192
▁he	-6.22591
▁And	-6.25234
r	-6.27613
al	-6.2951
▁my	-6.3042
▁about	-6.30474
▁they	-6.30656
ve	-6.34032
▁will	-6.34251
▁what	-6.34817
▁out	-6.35435
o	-6.35575
▁one	-6.3564
▁all	-6.36926
▁like	-6.37568
a	-6.38487
▁A	-6.39947
▁but	-6.41286
▁her	-6.41478
▁know	-6.42152
▁up	-6.43952
▁so	-6.47643
▁if	-6.48625
▁just	-6.55207
▁We	-6.56369
!	-6.56646
▁get	-6.57144
▁In	-6.58587
es	-6.62168
▁has	-6.62169
in	-6.62264
▁she	-6.62445
▁more	-6.64473
▁time	-6.64619
b	-6.65632
or	-6.66535
:	-6.67431
▁there	-6.68297
i	-6.70382
g	-6.72493
▁He	-6.73734
▁were	-6.73906
▁So	-6.74225
▁If	-6.74328
▁his	-6.75322
▁when	-6.75455
▁them	-6.7607
▁want	-6.76421
▁who	-6.76426
c	-6.77704
▁which	-6.78736
...	-6.78889
"	-6.79292
▁This	-6.79978
▁s	-6.80149
le	-6.81228
▁their	-6.82967
▁people	-6.83027
▁him	-6.83973
th	-6.85115
l	-6.85356
▁here	-6.85492
▁would	-6.86302
▁had	-6.87881
p	-6.88222
▁also	-6.88829
▁other	-6.88913
▁been	-6.89465
▁S	-6.91707
▁no	-6.92854
▁go	-6.92891
▁But	-6.93357
▁did	-6.93404
▁think	-6.9499
▁right	-6.96763
ation	-6.9694
▁some	-6.97354
▁make	-6.97373
▁see	-6.9856
▁re	-6.99831
▁may	-6.99857
▁into	-7.00195
en	-7.01005
ic	-7.01131
▁de	-7.01639
▁need	-7.01943
▁She	-7.03355
▁our	-7.03914
▁over	-7.0423
ri	-7.05315
▁Do	-7.05625
▁could	-7.06338
▁back	-7.06479
▁how	-7.10016
▁first	-7.1002
▁us	-7.11236
▁than	-7.1208
▁way	-7.14976
an	-7.16579
▁take	-7.17043
▁these	-7.17394
▁help	-7.17691
▁now	-7.17709
ion	-7.17733
S	-7.19523
on	-7.20059
k	-7.20268
w	-7.21254
▁--	-7.22079
▁where	-7.22299
el	-7.22306
u	-7.22424
▁got	-7.22707
▁two	-7.23063
▁going	-7.23117
-	-7.23325
▁They	-7.2377
▁only	-7.2426
▁C	-7.24914
▁ca	-7.25411
ra	-7.25535
il	-7.25797
ar	-7.25841
▁should	-7.26131
▁then	-7.27094
it	-7.27686
▁That	-7.27807
▁19	-7.28232
ch	-7.30075
la	-7.3021
ur	-7.30699
▁What	-7.31289
z	-7.31326
▁work	-7.31678
▁good	-7.32077
▁E	-7.32631
▁because	-7.33901
▁down	-7.35815
▁very	-7.36161
▁any	-7.36523
▁use	-7.36539
mi	-7.38721
C	-7.39026
ro	-7.3911
ne	-7.3934
▁G	-7.3955
li	-7.39821
A	-7.39867
ment	-7.40169
h	-7.40262
▁something	-7.41343
▁even	-7.42334
▁after	-7.43073
▁new	-7.43337
us	-7.44638
ce	-7.45328
▁life	-7.45859
▁c	-7.47305
▁years	-7.47518
▁most	-7.48487
▁No	-7.48874
▁come	-7.49697
▁really	-7.50367
ma	-7.50651
▁day	-7.50655
I	-7.50764
ive	-7.51164
ate	-7.51611
▁F	-7.51676
ers	-7.52798
▁does	-7.52842
▁before	-7.53485
▁say	-7.53621
▁such	-7.54905
able	-7.5504
te	-7.55137
ent	-7.55148
▁man	-7.55392
▁off	-7.55702
;	-7.55761
▁much	-7.5607
et	-7.56591
▁e	-7.56604
ul	-7.57784
▁There	-7.57977
▁find	-7.5956
▁used	-7.60552
ist	-7.60769
ity	-7.60891
▁world	-7.61001
▁tell	-7.6117
▁well	-7.61273
▁B	-7.61326
▁For	-7.61811
ta	-7.62928
ol	-7.63338
P	-7.63386
▁through	-7.63453
▁un	-7.63591
▁around	-7.64125
▁too	-7.64599
▁said	-7.64743
▁many	-7.65741
ck	-7.6589
▁look	-7.6613
na	-7.66141
▁things	-7.66326
▁Well	-7.66809
▁–	-7.67149
x	-7.67151
D	-7.67248
ine	-7.67536
▁1	-7.6763
ry	-7.68293
▁water	-7.684
▁those	-7.69528
▁being	-7.69594
▁little	-7.69682
▁place	-7.69748
id	-7.71562
se	-7.72389
▁D	-7.73096
▁feel	-7.73378
▁never	-7.73672
ge	-7.74564
un	-7.747
▁P	-7.76436
▁gonna	-7.7646
M	-7.76812
▁give	-7.77135
."	-7.77215
ter	-7.77806
ke	-7.78113
▁let	-7.78127
ian	-7.78137
▁still	-7.78679
3	-7.78689
▁T	-7.78856
lo	-7.79033
▁name	-7.7918
age	-7.79605
),	-7.79665
me	-7.79929
▁3	-7.80067
▁O	-7.8019
▁Now	-7.80276
▁thing	-7.8032
▁made	-7.80411
▁To	-7.80462
▁Ma	-7.80751
▁part	-7.80811
▁end	-7.80844
co	-7.8113
as	-7.82359
▁long	-7.82586
▁under	-7.82591
▁might	-7.82844
f	-7.83101
est	-7.83222
um	-7.83579
to	-7.83732
▁con	-7.83902
▁own	-7.84173
ia	-7.84363
▁same	-7.84899
T	-7.85068
▁Re	-7.85251
ies	-7.85295
▁home	-7.85342
at	-7.85487
▁When	-7.8552
▁M	-7.85574
de	-7.8562
2	-7.85992
▁sure	-7.86324
▁different	-7.87082
tic	-7.87305
▁person	-7.88526
▁2	-7.88655
▁p	-7.89194
E	-7.89374
▁yourself	-7.90368
▁between	-7.91102
▁year	-7.91625
▁keep	-7.91635
ir	-7.91659
▁three	-7.91689
ie	-7.91936
▁thought	-7.91962
ci	-7.92502
▁Be	-7.92557
▁st	-7.92886
ti	-7.9299
no	-7.93105
▁its	-7.94027
▁found	-7.94752
▁K	-7.95079
▁every	-7.95108
ty	-7.95819
ca	-7.9646
▁love	-7.96667
▁U	-7.97187
ting	-7.97656
▁/	-7.97971
ness	-7.97989
▁last	-7.98051
▁away	-7.98414
ng	-7.98693
▁while	-7.99076
▁why	-7.9917
▁better	-8.00238
▁each	-8.00398
▁talk	-8.00811
▁mean	-8.00872
▁lot	-8.01225
ated	-8.01959
▁co	-8.02032
▁ma	-8.02331
4	-8.02372
▁called	-8.02534
▁car	-8.02549
▁How	-8.02561
▁put	-8.02955
▁both	-8.03887
▁De	-8.04871
man	-8.04972
im	-8.05465
nt	-8.05676
nd	-8.05821
ary	-8.05904
v	-8.06041
O	-8.06177
ni	-8.06404
▁call	-8.06527
am	-8.06965
).	-8.07072
▁N	-8.07385
ted	-8.07578
mp	-8.07993
▁best	-8.07994
mo	-8.08014
1	-8.08271
▁kind	-8.08447
▁body	-8.08471
L	-8.08596
▁again	-8.09271
▁10	-8.10026
▁wo	-8.1021
▁few	-8.10551
▁actually	-8.10594
▁example	-8.10677
va	-8.10728
▁doing	-8.11184
▁old	-8.11345
▁All	-8.11768
▁another	-8.12218
▁high	-8.12959
N	-8.13202
▁must	-8.13633
▁Ro	-8.13654
▁My	-8.13728
▁start	-8.13925
▁important	-8.14073
▁system	-8.14106
be	-8.14558
▁pro	-8.15133
ha	-8.15152
▁g	-8.15622
▁ex	-8.1565
is	-8.15744
▁4	-8.15779
▁head	-8.15936
▁As	-8.16052
5	-8.16053
▁human	-8.16194
▁am	-8.1633
▁La	-8.17103
▁family	-8.1714
▁second	-8.17141
R	-8.17226
▁number	-8.17307
▁Pa	-8.17365
▁always	-8.17487
▁try	-8.17847
B	-8.18253
vi	-8.18467
▁great	-8.1847
▁until	-8.18888
▁left	-8.19008
▁known	-8.19289
▁R	-8.19628
ant	-8.19791
ut	-8.20403
▁Ca	-8.20484
▁Oh	-8.20836
ial	-8.20879
▁point	-8.21054
▁side	-8.21609
go	-8.21719
▁pre	-8.21998
ance	-8.22089
▁night	-8.22131
pe	-8.22224
ver	-8.22426
▁hand	-8.22563
cu	-8.22847
bi	-8.22855
▁Ha	-8.23584
▁someone	-8.23645
▁anything	-8.23928
▁during	-8.24057
sh	-8.24093
▁show	-8.24324
▁Your	-8.2456
▁Le	-8.2465
F	-8.24843
do	-8.24906
▁Ba	-8.24952
ous	-8.25107
ka	-8.25128
om	-8.25755
ide	-8.25779
▁5	-8.25866
▁mo	-8.26033
▁using	-8.26342
ga	-8.26511
▁Mr	-8.26584
▁b	-8.26663
▁school	-8.26791
▁18	-8.27106
ow	-8.27262
▁often	-8.27267
▁without	-8.27366
▁friend	-8.27584
▁enough	-8.28851
son	-8.28878
tra	-8.28924
▁together	-8.28938
▁leave	-8.29031
▁Let	-8.29078
▁change	-8.29214
▁St	-8.29218
▁include	-8.29703
▁Co	-8.30215
▁hard	-8.30317
▁ever	-8.30324
▁within	-8.30763
di	-8.30817
ton	-8.30998
▁An	-8.31253
one	-8.31392
▁Why	-8.31404
▁next	-8.31572
▁Just	-8.3173
ru	-8.31794
da	-8.31845
▁Yeah	-8.31934
▁light	-8.31952
▁play	-8.32462
wa	-8.32485
H	-8.32952
▁H	-8.32966
po	-8.33026
▁small	-8.33099
▁real	-8.33099
G	-8.33482
▁L	-8.33507
▁become	-8.33553
ism	-8.33724
ish	-8.3425
ag	-8.34255
ling	-8.34345
ad	-8.3441
▁women	-8.34538
▁per	-8.34737
ig	-8.35228
▁W	-8.35284
ard	-8.35633
▁dis	-8.35676
▁came	-8.3575
ence	-8.35812
ho	-8.36381
▁Mo	-8.3646
▁Al	-8.36759
▁open	-8.36906
▁later	-8.37045
▁set	-8.37114
▁power	-8.37117
▁told	-8.37266
▁Na	-8.37669
▁Me	-8.37715
ating	-8.37773
▁done	-8.38275
ki	-8.38519
▁state	-8.38754
▁order	-8.38891
▁cause	-8.393
7	-8.39416
▁These	-8.39478
▁face	-8.39498
▁believe	-8.39545
▁ask	-8.39681
▁form	-8.39969
op	-8.40229
▁north	-8.40471
▁money	-8.40642
▁Li	-8.40704
per	-8.40721
▁food	-8.41001
▁Ra	-8.41008
▁blood	-8.41052
▁stay	-8.41402
tion	-8.41877
▁getting	-8.41882
▁20	-8.41905
▁mind	-8.4194
bo	-8.42018
▁since	-8.42086
ally	-8.4209
▁Go	-8.42565
▁care	-8.42638
▁United	-8.42981
▁On	-8.43194
▁Se	-8.4326
▁less	-8.43671
▁Look	-8.43802
▁stop	-8.43841
und	-8.43998
mon	-8.44007
ph	-8.44255
▁turn	-8.45182
▁today	-8.45242
▁process	-8.45276
▁trying	-8.45304
lu	-8.45565
▁doctor	-8.458
▁big	-8.45938
che	-8.46012
▁able	-8.46163
▁looking	-8.46314
▁line	-8.46412
▁against	-8.46577
▁house	-8.46582
▁Bo	-8.46686
the	-8.46875
▁Ho	-8.46936
▁run	-8.47061
▁At	-8.47071
▁making	-8.47094
▁One	-8.47132
▁live	-8.47267
▁father	-8.47279
▁ra	-8.47369
▁hair	-8.47468
▁d	-8.47606
ba	-8.47612
▁area	-8.47775
pa	-8.47824
▁room	-8.48334
▁men	-8.48703
ster	-8.49179
▁bad	-8.49205
▁control	-8.49265
▁bi	-8.49272
▁f	-8.49464
▁close	-8.4977
▁job	-8.49823
▁children	-8.50213
▁po	-8.50281
▁support	-8.50395
▁test	-8.50596
▁idea	-8.50617
▁free	-8.50627
▁di	-8.50676
▁American	-8.51052
less	-8.51096
ec	-8.51277
▁everything	-8.51321
▁guy	-8.51497
ot	-8.52003
▁else	-8.52229
%	-8.52259
▁went	-8.52506
▁war	-8.52572
▁problem	-8.52626
▁la	-8.52673
▁skin	-8.52675
▁Mar	-8.53004
▁minutes	-8.53198
▁6	-8.53235
▁New	-8.53348
▁group	-8.535
▁star	-8.5353
▁days	-8.53969
les	-8.54053
▁wanted	-8.54193
dy	-8.54251
ak	-8.54437
▁bring	-8.54488
▁Vi	-8.54499
Laughter	-8.54526
up	-8.54574
▁kill	-8.54648
▁li	-8.54899
▁country	-8.55196
▁move	-8.55239
ure	-8.55402
▁understand	-8.55548
▁million	-8.55586
▁including	-8.56139
▁After	-8.56267
▁Because	-8.56466
▁Sa	-8.56521
▁having	-8.56584
▁reason	-8.56829
▁four	-8.57057
▁experience	-8.57345
▁case	-8.5744
▁Or	-8.5761
▁took	-8.57678
▁game	-8.57837
6	-8.57889
▁China	-8.58154
▁business	-8.58311
▁whole	-8.58566
▁team	-8.58569
▁already	-8.58635
▁Po	-8.58912
ang	-8.59035
▁film	-8.59086
▁8	-8.59123
▁nothing	-8.59295
red	-8.59389
ical	-8.59454
▁bit	-8.5956
▁'	-8.59625
lic	-8.59667
▁fact	-8.59884
os	-8.59893
em	-8.601
▁mother	-8.60161
▁based	-8.60183
▁Ka	-8.60269
▁means	-8.60698
▁Con	-8.60759
ful	-8.60988
▁seen	-8.61137
▁government	-8.61351
▁Lo	-8.61414
▁information	-8.61471
▁once	-8.61587
▁7	-8.61806
▁Si	-8.61898
▁ta	-8.62451
▁hear	-8.62591
▁class	-8.63224
▁Then	-8.63257
he	-8.633
▁ba	-8.63338
▁V	-8.63366
▁Some	-8.63458
▁working	-8.63482
ized	-8.63529
line	-8.63534
tor	-8.6385
é	-8.64099
▁Poland	-8.64198
▁15	-8.64615
▁friends	-8.64691
▁five	-8.64763
▁story	-8.64778
▁heart	-8.64792
▁coming	-8.64954
▁course	-8.64973
▁Ta	-8.65526
▁Su	-8.65579
▁large	-8.65627
tro	-8.65671
▁least	-8.65752
▁States	-8.65875
gu	-8.65936
▁vi	-8.65979
8	-8.66332
▁top	-8.66358
▁en	-8.66727
▁remember	-8.66825
ber	-8.66863
ring	-8.66899
▁became	-8.67043
min	-8.67145
▁music	-8.67186
▁allow	-8.67331
mer	-8.67337
▁girl	-8.67366
que	-8.67482
▁dead	-8.67498
ner	-8.67591
▁present	-8.67864
▁young	-8.67935
▁Not	-8.67975
▁short	-8.68027
▁Mi	-8.68057
▁death	-8.68299
mina	-8.68563
▁social	-8.68798
▁ago	-8.68945
▁sub	-8.6895
▁pain	-8.69031
▁Her	-8.6939
▁city	-8.69559
▁started	-8.69626
▁12	-8.69685
hi	-8.69789
▁South	-8.69936
▁plan	-8.69979
▁Wa	-8.70087
▁brain	-8.70162
▁m	-8.70163
▁gra	-8.70173
wi	-8.70262
▁language	-8.70271
▁possible	-8.70355
▁Are	-8.70396
▁village	-8.7044
▁Can	-8.70693
V	-8.70792
ative	-8.70896
▁talking	-8.70916
▁clean	-8.70975
▁sa	-8.70992
▁several	-8.71088
▁saw	-8.71101
bu	-8.71188
▁v	-8.71231
▁comp	-8.71268
▁taking	-8.71301
▁pay	-8.71471
▁rest	-8.7176
▁deal	-8.71803
▁woman	-8.71829
ab	-8.71863
ice	-8.71936
▁public	-8.71968
ator	-8.72198
qui	-8.72675
▁However	-8.72697
▁boy	-8.7279
tal	-8.73026
and	-8.73264
nk	-8.73428
▁half	-8.735
land	-8.73501
ten	-8.73574
▁th	-8.736
port	-8.73825
▁health	-8.73839
00	-8.7392
▁k	-8.74019
▁art	-8.74106
ite	-8.74127
U	-8.74166
▁sign	-8.74277
▁break	-8.74394
▁km	-8.74585
ip	-8.74604
lar	-8.74806
▁j	-8.74839
▁matter	-8.74858
gi	-8.74919
▁hours	-8.75111
▁past	-8.75261
▁computer	-8.75304
▁market	-8.75391
ize	-8.75423
▁risk	-8.75514
▁common	-8.7563
▁term	-8.75682
▁times	-8.75779
ub	-8.75854
▁week	-8.75912
▁sleep	-8.76014
io	-8.76056
▁company	-8.76193
▁mi	-8.7629
▁treatment	-8.76388
ff	-8.76412
▁God	-8.76462
▁relationship	-8.76464
▁lead	-8.76478
▁design	-8.76722
▁far	-8.76785
con	-8.77144
▁i	-8.77261
▁Pro	-8.77442
▁fl	-8.7757
▁air	-8.77593
▁Da	-8.77653
▁sound	-8.78003
▁child	-8.78146
ler	-8.78185
▁Get	-8.78399
▁phone	-8.78481
▁Ja	-8.78655
lin	-8.78663
▁bo	-8.78805
oc	-8.78833
▁cut	-8.78836
▁building	-8.78935
▁Hey	-8.79064
▁early	-8.79147
▁Te	-8.79438
▁Z	-8.79511
way	-8.7957
▁Did	-8.79605
▁okay	-8.79644
▁Gu	-8.79663
▁Fi	-8.79736
cy	-8.79766
▁others	-8.80256
▁wrong	-8.80417
▁single	-8.80456
▁space	-8.80607
▁w	-8.8061
▁list	-8.80631
▁30	-8.80703
▁te	-8.80904
ld	-8.80997
▁age	-8.81007
▁read	-8.81436
▁University	-8.81761
ron	-8.81806
▁law	-8.81819
▁question	-8.82111
▁oil	-8.82117
▁late	-8.82325
▁guys	-8.82407
▁east	-8.82431
ze	-8.82499
we	-8.82509
▁create	-8.82648
ble	-8.82769
ship	-8.82805
▁Ar	-8.82895
W	-8.82913
▁percent	-8.82953
gen	-8.83061
▁son	-8.83092
▁check	-8.83442
ions	-8.83449
▁result	-8.83673
com	-8.83893
▁hope	-8.84065
▁step	-8.84197
▁Make	-8.84204
▁video	-8.8438
▁program	-8.84436
▁moment	-8.84442
▁Dr	-8.84489
▁thinking	-8.84509
der	-8.84649
▁local	-8.84671
ep	-8.848
▁West	-8.84897
ger	-8.85085
fe	-8.85556
▁born	-8.85824
▁inside	-8.86009
ac	-8.86054
tri	-8.86059
▁model	-8.86109
▁maybe	-8.86161
▁type	-8.86236
ny	-8.86306
▁Who	-8.86535
▁hold	-8.86544
▁low	-8.86596
▁safe	-8.86654
ase	-8.86736
ward	-8.86835
tu	-8.86862
▁probably	-8.86892
▁Pi	-8.86973
▁eat	-8.87028
▁future	-8.87161
▁book	-8.87214
▁along	-8.87218
▁study	-8.87591
▁War	-8.87795
za	-8.87855
ology	-8.87896
▁research	-8.87958
ach	-8.8799
su	-8.88266
▁Ne	-8.88269
▁add	-8.88276
▁brother	-8.88364
▁Come	-8.88627
▁usually	-8.88634
▁period	-8.88663
▁pa	-8.88943
▁special	-8.88979
▁9	-8.88998
vo	-8.89082
ran	-8.89143
▁yet	-8.89543
ko	-8.89607
▁six	-8.89974
▁though	-8.90018
▁With	-8.9017
▁Maybe	-8.90187
▁act	-8.9025
rs	-8.90355
▁offer	-8.90357
▁disease	-8.90432
▁sp	-8.90545
king	-8.90608
K	-8.90669
ex	-8.90928
ight	-8.91065
▁cat	-8.91148
ction	-8.91172
fi	-8.91194
ious	-8.91274
sta	-8.91306
▁Jo	-8.91309
▁Try	-8.9151
▁o	-8.91582
▁Sp	-8.91645
▁color	-8.91756
rr	-8.91785
▁X	-8.91794
▁data	-8.91888
▁store	-8.92302
▁district	-8.92337
▁walk	-8.92359
▁contain	-8.92432
▁saying	-8.9253
▁situation	-8.92547
fa	-8.92572
▁app	-8.92633
▁months	-8.92812
▁happened	-8.92903
▁either	-8.93109
pi	-8.93126
▁amount	-8.93286
▁eye	-8.93335
tin	-8.93377
▁level	-8.93388
▁arm	-8.93408
▁energy	-8.93498
▁instead	-8.93604
▁baby	-8.93655
▁killed	-8.93774
▁Use	-8.93824
▁Ga	-8.93979
▁century	-8.93994
0	-8.94056
ap	-8.94096
▁J	-8.94173
▁full	-8.94412
ations	-8.94576
ities	-8.94696
cent	-8.94757
av	-8.94819
▁Yes	-8.94848
▁soon	-8.94868
▁remain	-8.95247
rate	-8.95293
val	-8.95328
out	-8.95338
▁word	-8.9538
▁please	-8.95391
▁due	-8.95443
▁cost	-8.95496
▁position	-8.95555
▁imp	-8.95605
▁May	-8.95778
▁World	-8.95788
our	-8.96103
ox	-8.96162
▁outside	-8.96189
▁fall	-8.96447
▁following	-8.96456
▁cur	-8.96535
▁likely	-8.96657
▁Hi	-8.96682
▁Take	-8.96775
lf	-8.96835
▁anti	-8.96902
▁answer	-8.96917
▁partner	-8.96976
▁lost	-8.9702
▁buy	-8.97101
▁protect	-8.97226
▁prevent	-8.97799
▁value	-8.97911
▁chance	-8.97955
▁die	-8.98027
▁clear	-8.98114
▁Car	-8.98251
▁provide	-8.98257
j	-8.9836
ud	-8.98489
▁capital	-8.9854
tan	-8.9858
▁heard	-8.98596
▁self	-8.98633
,"	-8.9879
▁Fa	-8.99002
▁difficult	-8.99212
▁se	-8.9926
▁al	-8.99265
▁knew	-8.99325
▁countries	-8.99445
▁dog	-8.99453
ning	-8.99559
▁increase	-8.9957
ile	-8.9964
▁eyes	-8.99658
▁meet	-8.99663
▁Okay	-8.99739
▁wait	-8.99748
▁pick	-9.00004
▁non	-9.00056
▁speak	-9.00077
▁17	-9.00098
▁red	-9.00181
▁alone	-9.00188
▁0	-9.00291
▁fire	-9.00336
▁avoid	-9.00344
▁ho	-9.00365
▁action	-9.00366
end	-9.00562
▁given	-9.00571
▁figure	-9.00608
▁consider	-9.00707
▁learn	-9.00749
▁sense	-9.00866
▁Man	-9.00867
▁reduce	-9.00891
▁deep	-9.0112
▁pass	-9.01182
▁sorry	-9.01335
eg	-9.01388
▁land	-9.01525
▁pe	-9.01532
▁history	-9.01641
▁project	-9.01678
▁Ri	-9.01827
ise	-9.01885
▁hands	-9.01921
▁fight	-9.02097
▁County	-9.02201
▁role	-9.02249
▁wife	-9.02255
ium	-9.02295
▁hi	-9.02299
▁em	-9.02586
▁His	-9.02747
▁record	-9.02758
▁white	-9.02845
▁black	-9.02981
▁tr	-9.03006
side	-9.03077
▁personal	-9.03167
▁account	-9.03186
,000	-9.03237
▁Where	-9.03304
▁treat	-9.034
▁individual	-9.0342
▁tri	-9.03439
▁series	-9.03512
▁pretty	-9.0397
ai	-9.04259
▁ten	-9.04303
▁gr	-9.0441
▁cell	-9.04486
▁Ex	-9.04633
rn	-9.04816
row	-9.04956
▁across	-9.04997
han	-9.05003
▁l	-9.05104
▁town	-9.05116
▁released	-9.05148
▁piece	-9.05155
▁bar	-9.05343
▁population	-9.05357
▁post	-9.05462
▁force	-9.05498
▁16	-9.05686
tter	-9.05803
▁front	-9.05834
▁whether	-9.05873
▁anyone	-9.0605
▁hit	-9.06092
ov	-9.06121
▁especially	-9.06153
▁rather	-9.06178
ther	-9.06326
▁club	-9.06596
▁daughter	-9.06677
▁Mon	-9.0668
▁problems	-9.06799
▁file	-9.06851
▁attack	-9.06921
▁almost	-9.07044
▁began	-9.0706
▁pi	-9.07097
▁makes	-9.07221
▁view	-9.07295
rk	-9.07471
▁comes	-9.07551
▁dry	-9.07578
▁morning	-9.0761
▁asked	-9.0761
▁similar	-9.0765
▁drink	-9.077
▁longer	-9.07736
▁myself	-9.07854
▁south	-9.07895
▁strong	-9.08006
".	-9.08126
ition	-9.08174
▁By	-9.082
▁seem	-9.08206
ral	-9.08255
▁Pre	-9.08308
▁paper	-9.08334
▁kids	-9.08373
▁trans	-9.08402
ja	-9.08424
▁sha	-9.08595
▁sometimes	-9.08595
▁r	-9.08636
▁administrative	-9.08647
▁gave	-9.08969
by	-9.09007
▁focus	-9.09036
▁German	-9.091
▁source	-9.0917
iv	-9.09214
dic	-9.09278
▁happen	-9.09653
▁image	-9.097
▁feeling	-9.0971
▁US	-9.09881
▁ga	-9.09957
▁product	-9.10108
▁trust	-9.10211
▁send	-9.10242
▁method	-9.10252
ization	-9.10313
▁interest	-9.10565
▁planet	-9.10579
ft	-9.1063
▁key	-9.10641
▁certain	-9.10724
▁appear	-9.10739
▁material	-9.10839
ley	-9.10896
▁Th	-9.11036
▁character	-9.11124
▁drive	-9.11134
ries	-9.11141
▁Mu	-9.11275
▁function	-9.11358
▁political	-9.11472
▁Bar	-9.11541
pro	-9.11593
▁available	-9.11641
▁physical	-9.11684
born	-9.11757
▁among	-9.11841
▁lives	-9.11845
▁Voivodeship	-9.11896
▁living	-9.11939
den	-9.11953
▁size	-9.1211
▁Pe	-9.12147
▁everyone	-9.12317
▁Di	-9.12393
▁100	-9.12636
▁behind	-9.12665
▁ti	-9.12696
late	-9.12742
▁text	-9.12799
cc	-9.12837
▁development	-9.12841
▁near	-9.12856
▁party	-9.12963
▁effective	-9.12967
▁taken	-9.12974
▁Je	-9.131
▁Here	-9.13159
▁begin	-9.13173
▁National	-9.13267
▁fish	-9.13418
▁build	-9.1353
ick	-9.13555
ple	-9.13719
▁approximately	-9.13742
▁Br	-9.1386
▁western	-9.1388
▁main	-9.13913
▁words	-9.13915
▁El	-9.13966
▁John	-9.14134
▁(19	-9.14186
▁access	-9.14219
▁Earth	-9.14263
▁watch	-9.14317
▁weight	-9.14476
▁ready	-9.14542
▁field	-9.14576
▁door	-9.14589
▁plant	-9.14654
▁Ki	-9.14697
▁picture	-9.14787
▁cover	-9.14793
▁mass	-9.14933
▁hurt	-9.14963
▁drug	-9.15018
▁return	-9.15073
▁Fe	-9.15134
▁object	-9.15258
ug	-9.15299
▁11	-9.15344
▁attention	-9.15358
▁contact	-9.15446
▁box	-9.15449
▁Ju	-9.15585
▁fat	-9.15726
▁season	-9.15731
act	-9.15911
▁simple	-9.15932
▁Chinese	-9.16045
▁true	-9.16077
▁natural	-9.16089
▁13	-9.16205
▁gun	-9.16223
▁happy	-9.16242
▁couple	-9.16242
▁cancer	-9.16302
▁positive	-9.16464
▁nice	-9.16484
▁cells	-9.16526
▁major	-9.16637
▁behavior	-9.16732
▁Ni	-9.16767
▁follow	-9.16837
▁suggest	-9.17045
▁gone	-9.17095
▁says	-9.17356
▁14	-9.17382
▁date	-9.17438
gra	-9.176
form	-9.17628
▁medical	-9.17642
▁pressure	-9.17689
▁sh	-9.17738
▁ha	-9.17762
▁song	-9.18072
▁Hu	-9.18114
▁stress	-9.18173
▁lower	-9.18215
▁En	-9.18279
yl	-9.18383
▁ri	-9.18386
nder	-9.18425
ev	-9.18499
▁stand	-9.18838
▁fun	-9.18844
▁cor	-9.18874
▁died	-9.18959
▁leg	-9.18965
chi	-9.19008
ified	-9.19019
▁weeks	-9.19096
▁Bu	-9.19107
▁pull	-9.19135
▁fine	-9.19176
▁lose	-9.19261
ture	-9.19348
▁cha	-9.19371
▁Africa	-9.19639
▁card	-9.19748
▁works	-9.19899
▁third	-9.19952
▁su	-9.19969
▁report	-9.20013
▁Have	-9.20024
▁share	-9.20153
The	-9.20179
▁exercise	-9.20368
▁worked	-9.20403
▁America	-9.20717
▁effects	-9.20754
▁stuff	-9.20904
9	-9.20965
ah	-9.20984
▁specific	-9.21159
▁shot	-9.2123
▁fear	-9.21242
▁general	-9.21252
▁symptoms	-9.21339
▁touch	-9.21342
▁lies	-9.21619
▁track	-9.21635
▁Wi	-9.21701
ou	-9.21832
ping	-9.21913
▁screen	-9.21954
ung	-9.2201
▁select	-9.22051
▁gu	-9.22163
▁Cha	-9.22282
▁While	-9.22284
▁media	-9.22373
▁goes	-9.22426
▁needs	-9.22444
▁surface	-9.22472
▁save	-9.22537
ea	-9.22553
ath	-9.22558
▁50	-9.22571
▁visit	-9.22573
▁parents	-9.22717
▁burn	-9.22831
ric	-9.22848
▁rate	-9.23079
▁choice	-9.231
▁super	-9.2321
gan	-9.23279
▁hot	-9.23288
▁easy	-9.23375
▁sir	-9.23437
▁exist	-9.235
▁sort	-9.23533
▁office	-9.23667
▁member	-9.2372
ee	-9.23927
▁op	-9.23956
▁h	-9.24631
▁quite	-9.24784
▁machine	-9.24816
▁Per	-9.25047
▁drop	-9.25318
▁secret	-9.2535
▁sit	-9.25598
▁Keep	-9.25602
▁national	-9.25686
▁tend	-9.25768
▁Even	-9.25794
▁Du	-9.25888
▁tree	-9.25905
▁decision	-9.25935
rd	-9.25995
▁represent	-9.26213
▁reach	-9.26213
▁practice	-9.26377
▁ground	-9.26425
▁infection	-9.26475
▁police	-9.26525
▁fe	-9.26563
▁met	-9.2663
ability	-9.26697
▁da	-9.26734
▁kid	-9.26785
ants	-9.26798
▁Miss	-9.26948
▁2016	-9.27224
▁Sha	-9.2726
▁acid	-9.27364
▁popular	-9.27369
▁cool	-9.27445
▁travel	-9.27514
▁lo	-9.27616
lan	-9.27632
▁inter	-9.27638
▁region	-9.27725
istic	-9.27757
▁technology	-9.27812
▁named	-9.27851
time	-9.27902
▁Qu	-9.27959
▁English	-9.28012
▁muscle	-9.28112
▁dark	-9.28125
▁President	-9.28312
▁site	-9.28317
▁conversation	-9.28362
fer	-9.284
my	-9.28503
ctor	-9.28519
▁occur	-9.28592
for	-9.28632
▁regional	-9.28703
▁write	-9.28827
▁Pomeranian	-9.28865
▁factor	-9.2896
▁exactly	-9.29086
tur	-9.29183
▁running	-9.29251
▁sent	-9.29336
▁page	-9.2938
▁du	-9.29519
▁hour	-9.29551
▁Of	-9.29623
▁le	-9.2965
▁cold	-9.29676
▁listen	-9.29842
▁fi	-9.29876
▁Ko	-9.29897
▁wish	-9.30019
▁sun	-9.3006
▁San	-9.30155
▁North	-9.30245
nal	-9.30302
▁potential	-9.30439
▁medication	-9.30542
▁built	-9.30696
▁device	-9.30696
▁message	-9.30718
▁People	-9.3085
led	-9.30868
▁release	-9.30961
▁won	-9.30974
▁va	-9.31018
▁March	-9.3106
▁August	-9.31107
▁official	-9.31107
▁2015	-9.31117
ible	-9.3134
▁questions	-9.31358
og	-9.31362
▁grow	-9.31424
▁guess	-9.31475
▁completely	-9.31575
▁thank	-9.31612
▁table	-9.3188
▁(20	-9.31882
ana	-9.31981
▁warm	-9.32058
▁degree	-9.32143
▁further	-9.32198
▁accept	-9.32353
▁husband	-9.32508
▁located	-9.32561
▁Lu	-9.32579
▁Bi	-9.3266
▁entire	-9.32738
▁Once	-9.32797
bra	-9.33107
cing	-9.33274
▁version	-9.33301
▁negative	-9.33401
▁wall	-9.33474
▁solution	-9.33559
▁science	-9.33612
▁2014	-9.3362
▁notice	-9.33638
▁normal	-9.33688
▁June	-9.33842
▁require	-9.33898
▁ce	-9.33936
cl	-9.33969
▁block	-9.34104
▁ro	-9.34112
▁wa	-9.34137
▁sister	-9.34321
▁Ti	-9.34346
▁Most	-9.34417
▁ship	-9.3452
▁See	-9.34566
▁dream	-9.34621
ina	-9.34659
▁im	-9.34675
▁simply	-9.34728
",	-9.34828
▁education	-9.34834
▁brought	-9.34995
▁itself	-9.34996
xi	-9.35
ham	-9.35016
sis	-9.35066
ey	-9.35106
au	-9.35209
▁Japan	-9.35318
ome	-9.35427
▁enter	-9.35475
▁community	-9.35478
▁kilometres	-9.35478
▁service	-9.35669
ew	-9.35734
▁fast	-9.3575
izing	-9.35847
▁loss	-9.35879
▁Gra	-9.35915
▁window	-9.35925
▁heat	-9.36064
▁mu	-9.36174
▁+	-9.36272
▁u	-9.36273
ging	-9.36288
▁Thank	-9.36289
▁title	-9.36351
wn	-9.36529
▁remove	-9.36554
▁above	-9.36569
▁train	-9.36641
▁products	-9.36641
▁created	-9.36668
▁2012	-9.36683
▁explain	-9.36724
▁25	-9.36819
▁online	-9.36927
▁cop	-9.37106
?"	-9.37173
▁develop	-9.37224
hu	-9.37247
▁wanna	-9.37276
▁president	-9.37381
▁moving	-9.37381
▁movement	-9.37411
▁diet	-9.37418
▁2017	-9.37446
▁married	-9.37491
nce	-9.37539
▁count	-9.3757
▁Tell	-9.37617
▁Like	-9.3782
▁Wo	-9.3785
▁unit	-9.37869
▁claim	-9.37961
▁continue	-9.37976
▁temperature	-9.37986
▁needed	-9.38064
▁difference	-9.38101
▁career	-9.38169
ough	-9.38238
▁voice	-9.38373
▁month	-9.384
▁spend	-9.38417
ugh	-9.38538
▁York	-9.38546
▁developed	-9.38595
▁2011	-9.38775
▁ways	-9.38805
▁structure	-9.38818
▁economic	-9.38873
▁draw	-9.38986
▁organ	-9.38991
▁cases	-9.39041
▁damage	-9.39041
▁feet	-9.39047
▁clo	-9.39112
▁Ste	-9.3916
▁approach	-9.39208
ya	-9.39225
▁Ch	-9.39271
▁cook	-9.39389
▁culture	-9.39488
▁however	-9.39666
▁professional	-9.39686
rop	-9.397
▁First	-9.39713
fu	-9.39723
▁Tu	-9.39754
shi	-9.39755
▁areas	-9.39756
▁click	-9.39769
▁fr	-9.39796
▁themselves	-9.39825
zy	-9.39868
▁higher	-9.39953
▁ice	-9.40027
▁held	-9.40466
▁Dur	-9.40488
▁military	-9.40502
zi	-9.40561
ory	-9.40582
▁Good	-9.40602
▁shape	-9.40765
tric	-9.40891
▁perfect	-9.409
▁2010	-9.40973
á	-9.41012
▁healthy	-9.41019
▁January	-9.41126
▁considered	-9.41149
▁September	-9.41183
▁tried	-9.41247
▁environment	-9.41332
▁para	-9.41412
▁ball	-9.41413
▁effect	-9.41452
▁species	-9.41553
▁miss	-9.41572
▁Ru	-9.41616
▁playing	-9.41619
▁br	-9.4171
▁production	-9.41718
▁October	-9.41755
▁network	-9.41927
▁pan	-9.41978
▁international	-9.41984
▁organization	-9.42053
▁eight	-9.42191
▁quickly	-9.42246
▁French	-9.42272
▁center	-9.42304
▁player	-9.42403
▁trouble	-9.42503
▁produce	-9.4252
▁changes	-9.4256
▁beautiful	-9.42734
▁global	-9.42854
uch	-9.42931
▁stage	-9.43104
▁address	-9.43141
▁sales	-9.43188
▁worth	-9.43197
▁writing	-9.43198
du	-9.43353
▁improve	-9.4337
▁July	-9.43511
ual	-9.436
▁Ben	-9.43701
▁base	-9.43709
▁games	-9.43731
▁activity	-9.43731
▁African	-9.43828
▁mouth	-9.4384
men	-9.43907
▁hell	-9.4399
▁shoot	-9.44016
ier	-9.44036
▁seven	-9.44135
▁2013	-9.44202
▁host	-9.44256
▁Sta	-9.4429
ped	-9.4458
▁final	-9.44613
▁feelings	-9.44634
pp	-9.44653
▁received	-9.44676
mate	-9.44685
ku	-9.44717
▁worry	-9.449
▁print	-9.44915
▁choose	-9.44963
▁search	-9.45026
▁green	-9.45145
▁=	-9.45261
▁street	-9.45375
▁leader	-9.45433
0,000	-9.45533
cept	-9.45537
ino	-9.45562
▁match	-9.45562
ef	-9.45864
▁stick	-9.45905
▁giving	-9.4597
▁hang	-9.45986
▁letter	-9.46012
let	-9.46015
▁Polish	-9.46045
▁poor	-9.46059
▁billion	-9.46088
J	-9.46182
50	-9.46188
light	-9.46267
▁supposed	-9.46363
▁April	-9.46509
qu	-9.46582
use	-9.46695
car	-9.46742
▁band	-9.46813
▁photo	-9.46851
wo	-9.46861
▁various	-9.46931
ek	-9.47008
▁TV	-9.4702
▁price	-9.47054
▁artist	-9.47112
▁levels	-9.4718
▁micro	-9.4725
▁mark	-9.4726
▁rec	-9.47278
▁significant	-9.47354
▁enjoy	-9.47415
▁disc	-9.475
▁finger	-9.47551
▁Szczecin	-9.47597
mber	-9.47619
▁Many	-9.47667
ack	-9.47705
▁middle	-9.47845
▁pot	-9.47887
▁charge	-9.47946
▁sex	-9.47978
▁extra	-9.48018
▁serve	-9.48037
▁According	-9.48268
▁condition	-9.48295
▁response	-9.4839
▁2018	-9.4846
▁meeting	-9.48474
▁current	-9.48518
▁published	-9.48534
▁mar	-9.48635
▁Give	-9.48704
▁Am	-9.48738
▁complex	-9.48759
zz	-9.48784
▁From	-9.48884
▁issue	-9.48953
▁minute	-9.48993
▁murder	-9.49005
▁foot	-9.49021
ify	-9.49074
ically	-9.49078
▁gas	-9.49102
ue	-9.4912
▁rep	-9.49306
duc	-9.49499
▁cross	-9.495
▁expect	-9.49555
20	-9.49595
▁dad	-9.49734
▁truth	-9.49748
nu	-9.49818
par	-9.49844
▁wash	-9.49919
▁Bro	-9.4996
▁location	-9.49996
▁sea	-9.5004
▁win	-9.50065
▁Since	-9.50144
▁comm	-9.50206
▁2009	-9.50258
bar	-9.50262
▁challenge	-9.50495
▁24	-9.50566
▁growth	-9.50686
▁spot	-9.50729
▁hospital	-9.50746
▁security	-9.50746
▁serious	-9.50756
▁whatever	-9.50776
▁Tra	-9.50803
▁rule	-9.50817
▁evidence	-9.50934
▁November	-9.50934
▁former	-9.50957
German	-9.50969
▁gotta	-9.51125
▁moved	-9.51188
▁looks	-9.51237
▁gene	-9.51271
▁success	-9.51285
▁pen	-9.51304
▁led	-9.51353
▁range	-9.51382
▁album	-9.51438
ade	-9.51471
ay	-9.51507
ane	-9.5152
ok	-9.51592
▁afraid	-9.51691
▁related	-9.51692
ong	-9.51846
▁protein	-9.51945
▁2004	-9.52032
▁fo	-9.52059
▁subject	-9.52262
/	-9.52302
▁December	-9.52326
▁tu	-9.52371
ear	-9.52395
ned	-9.52496
▁tonight	-9.52525
▁attempt	-9.52645
tes	-9.52675
▁Europe	-9.52755
▁happens	-9.52759
▁results	-9.52759
▁Art	-9.52939
▁press	-9.52964
▁west	-9.53023
▁members	-9.53032
▁mine	-9.53055
▁bed	-9.53121
▁himself	-9.53158
▁40	-9.53428
▁respect	-9.53479
▁particular	-9.53496
▁fit	-9.53541
▁changed	-9.53618
▁fix	-9.53669
▁rock	-9.53674
▁Ph	-9.53743
kin	-9.53763
work	-9.53803
▁2008	-9.5382
fr	-9.53844
ency	-9.5392
▁Award	-9.54057
▁imagine	-9.54061
▁(1	-9.54088
▁decided	-9.54094
▁ver	-9.54132
▁measure	-9.54195
▁active	-9.54517
ification	-9.54548
▁telling	-9.54593
▁bottom	-9.54646
▁goal	-9.5482
▁sold	-9.549
▁promise	-9.54915
▁bag	-9.55142
▁achieve	-9.5517
▁blue	-9.5517
▁spread	-9.55243
ace	-9.55548
gr	-9.55575
▁ju	-9.55601
ular	-9.55686
▁y	-9.5569
▁bla	-9.5569
▁Our	-9.55694
▁dance	-9.55725
▁apply	-9.55824
▁cup	-9.5586
rac	-9.55911
▁mis	-9.55936
des	-9.55941
▁court	-9.56035
▁target	-9.56091
tru	-9.56127
▁addition	-9.56203
mar	-9.56246
ude	-9.56248
▁spa	-9.56481
▁training	-9.5674
▁benefit	-9.56822
▁necessary	-9.56822
▁asking	-9.56862
▁School	-9.57022
pose	-9.576
vis	-9.57683
▁detail	-9.57692
▁fruit	-9.5776
▁patients	-9.57782
▁City	-9.57796
▁bra	-9.57869
▁movie	-9.58098
cor	-9.58327
▁students	-9.58338
▁Pri	-9.58406
▁road	-9.58465
▁chemical	-9.58638
▁document	-9.58774
▁upon	-9.58802
cal	-9.58848
▁standard	-9.58877
▁gain	-9.58899
▁wear	-9.59111
▁television	-9.59114
▁push	-9.59162
▁flow	-9.59165
▁tomorrow	-9.5925
▁Please	-9.59319
▁involved	-9.59328
▁alive	-9.59397
▁seems	-9.59451
▁path	-9.59453
▁International	-9.59455
▁affect	-9.59461
▁trade	-9.5955
▁worse	-9.59665
▁bird	-9.59692
▁caused	-9.59698
uff	-9.59715
▁ability	-9.59726
▁original	-9.59877
▁female	-9.60004
▁felt	-9.60008
▁total	-9.60083
her	-9.60172
▁Har	-9.60206
har	-9.60213
▁India	-9.60233
▁sexual	-9.60237
▁code	-9.60274
gue	-9.60298
▁element	-9.60349
cro	-9.60353
▁successful	-9.60377
▁slow	-9.60551
▁Japanese	-9.60562
▁sell	-9.60713
í	-9.60764
▁girls	-9.6077
▁played	-9.60805
▁meaning	-9.60836
▁modern	-9.6084
▁reaction	-9.60882
mark	-9.6093
▁wonder	-9.61117
▁bank	-9.61143
▁issues	-9.61196
▁straight	-9.6125
▁2007	-9.61411
▁rich	-9.61415
nic	-9.61576
▁February	-9.61599
▁glass	-9.616
▁Add	-9.61677
ably	-9.61731
ense	-9.61875
▁hundred	-9.61949
▁King	-9.62002
▁event	-9.62006
▁$	-9.62202
▁produced	-9.62214
zo	-9.62276
▁systems	-9.6236
▁Right	-9.62428
▁associated	-9.62494
▁written	-9.62512
▁General	-9.62585
cle	-9.62661
▁2006	-9.62681
▁types	-9.62789
▁forget	-9.62834
ney	-9.62839
30	-9.62899
▁beginning	-9.63031
▁nature	-9.63066
Y	-9.63128
▁society	-9.63149
fin	-9.63209
▁pattern	-9.63291
10	-9.63388
jo	-9.63489
yn	-9.63539
▁directly	-9.63567
▁effort	-9.63576
▁throw	-9.63606
▁agent	-9.63645
len	-9.63786
▁companies	-9.63933
nate	-9.63997
▁stories	-9.64005
▁anymore	-9.64078
ain	-9.64094
▁°	-9.64149
▁Sam	-9.64275
ever	-9.64279
▁21	-9.64279
▁waiting	-9.64371
▁Y	-9.64443
▁pu	-9.64524
put	-9.64567
▁determine	-9.64679
fo	-9.64732
▁lu	-9.64835
▁separate	-9.6494
▁studies	-9.65085
▁France	-9.65158
▁uh	-9.65232
▁prefer	-9.65342
▁ci	-9.65535
▁served	-9.6554
▁limit	-9.65558
▁catch	-9.65579
ash	-9.65584
▁bacteria	-9.65598
▁deliver	-9.65668
▁news	-9.65689
▁teacher	-9.65737
▁parts	-9.65804
▁daily	-9.66031
▁agree	-9.66104
ato	-9.66111
▁alcohol	-9.66176
nia	-9.66179
▁purpose	-9.66183
ria	-9.66187
ulation	-9.66195
▁style	-9.66258
▁throughout	-9.66349
▁conditions	-9.66437
cin	-9.6646
▁floor	-9.6647
▁eating	-9.66472
hydr	-9.66528
▁turned	-9.66617
▁log	-9.66758
▁Other	-9.66768
ji	-9.66816
▁link	-9.66891
set	-9.66944
▁somebody	-9.66985
▁sweet	-9.66985
▁camera	-9.67028
▁discovered	-9.67045
▁option	-9.67084
▁activities	-9.67132
▁impact	-9.67154
▁lack	-9.67223
▁Vietnam	-9.67275
▁Ad	-9.67313
▁smell	-9.67504
▁sick	-9.67534
▁virus	-9.67655
ju	-9.6769
▁border	-9.67725
▁command	-9.67748
▁flu	-9.67836
▁round	-9.67905
▁leaving	-9.67948
▁gold	-9.6815
ez	-9.68201
bin	-9.68274
gar	-9.68377
▁interested	-9.684
▁starting	-9.68475
▁immediately	-9.68629
▁carry	-9.68724
▁speed	-9.68927
oli	-9.69115
▁perform	-9.69216
▁Dad	-9.69344
▁pet	-9.69414
▁mom	-9.69457
uc	-9.69548
▁tea	-9.69551
▁refer	-9.69555
▁foods	-9.69576
▁victim	-9.696
▁mix	-9.69632
▁fa	-9.69734
▁drugs	-9.69808
duct	-9.70025
▁Central	-9.70056
▁content	-9.70061
▁performance	-9.70083
if	-9.70112
▁Cla	-9.70154
▁groups	-9.70211
▁bur	-9.70226
▁terms	-9.70237
▁Cl	-9.70241
▁mistake	-9.70292
▁Ke	-9.70388
▁spent	-9.70405
▁feed	-9.70471
▁patient	-9.70487
▁generally	-9.70526
press	-9.7055
▁animals	-9.70553
▁join	-9.70568
▁civil	-9.70671
▁typically	-9.70761
▁prove	-9.70867
pir	-9.70993
▁section	-9.71003
▁cho	-9.7104
▁ran	-9.71063
▁aware	-9.71081
▁finish	-9.71117
▁wrote	-9.71127
▁shown	-9.71179
cho	-9.71293
▁Although	-9.71358
▁customer	-9.71411
q	-9.71599
X	-9.71633
▁private	-9.71666
▁root	-9.71776
▁trial	-9.71777
rin	-9.71823
nie	-9.71874
▁Put	-9.71875
▁Will	-9.71919
▁interesting	-9.72002
▁equal	-9.72055
▁sugar	-9.72068
▁Two	-9.72128
ologist	-9.72225
▁recognize	-9.72365
▁events	-9.72404
ł	-9.72411
▁easier	-9.72443
amine	-9.72552
ib	-9.72628
▁pur	-9.72669
▁attract	-9.72785
ological	-9.72868
▁harm	-9.72869
▁wh	-9.72881
Applause	-9.72911
▁weapon	-9.73069
▁bus	-9.73156
▁designed	-9.73167
▁European	-9.73168
▁user	-9.73258
▁complete	-9.73263
▁forward	-9.73326
▁relax	-9.73382
▁fresh	-9.73384
▁hum	-9.73432
▁towards	-9.73481
hy	-9.73564
▁station	-9.73567
▁growing	-9.73654
▁connect	-9.73685
▁weak	-9.73845
ó	-9.7395
▁Minister	-9.74013
▁suit	-9.74036
▁Dis	-9.74066
▁auto	-9.74178
▁powerful	-9.74225
▁influence	-9.7433
▁books	-9.74336
▁looked	-9.74409
▁Mor	-9.74533
▁Min	-9.74552
▁essential	-9.74569
▁maintain	-9.74808
▁numbers	-9.74877
▁farm	-9.74945
oid	-9.75015
lia	-9.75018
▁Ver	-9.75153
▁hate	-9.75177
▁II	-9.75181
▁brand	-9.7527
east	-9.75326
▁London	-9.75448
▁reported	-9.7552
▁ob	-9.75541
van	-9.75556
▁Com	-9.75602
▁seat	-9.75647
day	-9.75672
▁everybody	-9.75689
▁described	-9.75696
▁scale	-9.75697
▁learning	-9.75843
▁peace	-9.75865
▁wide	-9.75884
▁operation	-9.75944
▁Col	-9.75951
▁High	-9.75965
take	-9.75982
like	-9.76038
▁salt	-9.76085
▁setting	-9.76099
▁tax	-9.76121
▁lived	-9.7615
lip	-9.76154
▁Any	-9.7616
▁software	-9.76173
▁egg	-9.76178
▁finally	-9.76181
▁Han	-9.76211
lor	-9.76315
▁Che	-9.76349
rated	-9.76422
ose	-9.76557
▁website	-9.76578
▁bomb	-9.766
▁technique	-9.76659
▁dress	-9.76825
▁particularly	-9.76882
▁novel	-9.76933
▁60	-9.76948
▁variety	-9.76985
▁director	-9.76987
▁largest	-9.77029
▁Cor	-9.77041
▁surprise	-9.77067
▁mid	-9.77146
▁engineer	-9.77183
▁football	-9.77237
▁below	-9.77273
oma	-9.77332
▁Fu	-9.77353
▁quality	-9.77394
▁respond	-9.77394
ili	-9.77471
▁adult	-9.77477
▁Air	-9.77505
▁express	-9.77589
▁camp	-9.77641
▁pop	-9.77642
▁shows	-9.7772
▁application	-9.77722
hel	-9.77745
▁chi	-9.77809
▁Does	-9.77817
ope	-9.77854
▁painting	-9.7786
▁Bra	-9.77868
▁scar	-9.77876
▁lock	-9.77886
▁detect	-9.77911
▁handle	-9.77944
▁install	-9.77978
rine	-9.77979
▁involve	-9.78206
▁British	-9.78216
▁coffee	-9.78216
▁task	-9.78227
▁author	-9.78235
▁Game	-9.7824
▁traditional	-9.78321
▁East	-9.78402
▁si	-9.78572
▁purchase	-9.78629
▁Ya	-9.78665
▁cla	-9.7869
▁scientist	-9.78712
▁email	-9.78713
▁connection	-9.7883
▁rat	-9.78995
▁larger	-9.79043
▁Act	-9.79069
▁spec	-9.79152
▁yes	-9.79196
▁board	-9.79261
▁Sea	-9.79337
cur	-9.79377
ano	-9.79384
▁crazy	-9.79462
▁average	-9.79465
▁severe	-9.79472
ari	-9.79494
▁distance	-9.79546
fl	-9.79587
▁cap	-9.79668
▁engage	-9.79713
je	-9.79737
▁direct	-9.79786
▁huh	-9.79797
▁Frank	-9.79798
▁Uh	-9.79801
▁dollars	-9.79875
▁habit	-9.79881
▁belong	-9.80143
▁legal	-9.80191
▁river	-9.80266
▁seeing	-9.80297
▁management	-9.80343
lit	-9.80447
▁Avoid	-9.8047
lon	-9.80495
▁progress	-9.80554
▁dinner	-9.80723
▁services	-9.80762
▁concern	-9.80768
ō	-9.80808
▁Instead	-9.80893
▁Click	-9.80906
▁ideas	-9.80917
▁comfortable	-9.8092
▁pack	-9.80942
▁bone	-9.81069
▁Val	-9.81192
ama	-9.81199
▁button	-9.81232
▁experiment	-9.81232
▁hole	-9.81287
▁regular	-9.81503
ella	-9.81538
▁fair	-9.81707
▁Park	-9.81731
▁birth	-9.81739
▁jump	-9.81791
▁Find	-9.81791
▁onto	-9.81869
▁increased	-9.81955
▁animal	-9.82044
ray	-9.82242
▁Ab	-9.82317
rc	-9.82357
ura	-9.82378
▁invest	-9.82379
▁horse	-9.82431
qua	-9.82479
over	-9.82528
▁dig	-9.82543
▁2019	-9.82619
▁miles	-9.82621
▁lie	-9.82675
▁Sc	-9.82699
▁State	-9.82719
▁House	-9.82721
▁easily	-9.82862
ker	-9.829
▁generation	-9.82949
▁rid	-9.83032
▁map	-9.83052
▁initial	-9.83127
▁learned	-9.83328
fec	-9.83405
▁ear	-9.83496
▁corner	-9.83504
▁announced	-9.83523
▁Would	-9.83556
▁advance	-9.83643
▁clothes	-9.83644
ye	-9.83676
▁park	-9.83701
pl	-9.83779
▁Ge	-9.838
▁disorder	-9.83818
▁layer	-9.83873
▁opportunity	-9.83992
▁perhaps	-9.83992
▁Internet	-9.83993
pen	-9.84011
▁Pu	-9.84066
▁promote	-9.84262
▁radio	-9.84311
pped	-9.84334
▁Mac	-9.84339
▁beat	-9.84353
▁plants	-9.84386
▁industry	-9.8443
lock	-9.84432
▁glo	-9.84505
▁multi	-9.84511
bor	-9.84513
▁Every	-9.84671
▁multiple	-9.84705
▁Year	-9.84773
▁although	-9.84782
cha	-9.84803
▁soft	-9.84813
▁Russian	-9.84962
▁blow	-9.85075
▁Sun	-9.85087
▁ring	-9.85165
▁2005	-9.85167
▁Ask	-9.85174
▁mental	-9.85237
▁contract	-9.85494
▁Korea	-9.85507
▁crime	-9.85579
▁regard	-9.8558
▁basic	-9.85658
▁fund	-9.85675
▁leading	-9.85819
▁concept	-9.85905
hal	-9.85917
▁instance	-9.86116
▁Think	-9.86203
▁memory	-9.86205
dia	-9.86206
meter	-9.86214
▁happening	-9.86242
▁wound	-9.86242
▁correct	-9.863
▁Ye	-9.86327
pla	-9.86337
tern	-9.86349
▁collect	-9.8636
ttle	-9.86362
▁signal	-9.8641
▁paint	-9.86435
▁Remember	-9.86471
board	-9.8649
▁eventually	-9.86561
right	-9.86582
▁vote	-9.86635
▁Va	-9.86636
▁realize	-9.86667
▁article	-9.86831
can	-9.86865
low	-9.86881
▁Germany	-9.86932
▁wave	-9.86942
ute	-9.87031
▁fan	-9.87087
▁included	-9.87095
▁neck	-9.87113
ball	-9.87199
▁ahead	-9.87212
▁trip	-9.87388
ood	-9.87393
▁whose	-9.87465
▁theory	-9.87485
▁survive	-9.87553
sign	-9.8756
▁consist	-9.87608
▁soil	-9.87624
▁Listen	-9.87791
▁Sch	-9.87853
▁breath	-9.87856
▁wind	-9.87902
▁Mc	-9.87953
▁loved	-9.87975
▁somewhere	-9.87985
▁earn	-9.88017
▁smaller	-9.88037
▁seek	-9.88066
▁goals	-9.88105
▁dangerous	-9.88116
▁orbit	-9.88257
▁demand	-9.88285
yo	-9.88335
▁decade	-9.88511
▁sitting	-9.88542
▁discuss	-9.88556
ature	-9.88619
▁foreign	-9.88646
▁solve	-9.88662
ime	-9.88695
atory	-9.88731
▁tissue	-9.88738
▁honest	-9.88738
▁central	-9.8884
▁direction	-9.89023
▁22	-9.89097
▁financial	-9.89105
11	-9.89125
▁decide	-9.89152
▁honor	-9.89199
▁emotional	-9.89339
▁Paris	-9.89356
▁Paul	-9.89373
▁&	-9.89392
▁repeat	-9.89404
▁Q	-9.89523
▁Win	-9.89547
▁display	-9.89581
▁Comp	-9.89665
▁currently	-9.89745
▁allowed	-9.89848
▁Chi	-9.89955
▁beyond	-9.9003
▁strength	-9.90031
▁arrest	-9.90033
▁bio	-9.90054
▁shall	-9.90087
▁male	-9.90097
rant	-9.90135
ban	-9.90203
▁increasing	-9.90216
▁followed	-9.90239
▁2000	-9.90294
▁writer	-9.90379
▁Australia	-9.90402
arch	-9.90714
▁23	-9.90787
pping	-9.90849
▁Chris	-9.90881
▁Vo	-9.90926
▁neuro	-9.91056
▁Which	-9.91057
▁discover	-9.91083
▁roll	-9.91085
▁kept	-9.91152
▁OK	-9.91169
▁Star	-9.91177
▁Bill	-9.91216
▁standing	-9.91351
▁wood	-9.91458
▁bottle	-9.91638
▁double	-9.9172
▁photograph	-9.91724
▁iron	-9.9177
igh	-9.91785
▁climate	-9.91811
▁Women	-9.91826
rum	-9.91843
▁election	-9.91947
12	-9.92042
▁quick	-9.92044
▁depend	-9.92052
▁pin	-9.92057
▁huge	-9.92164
▁Sometimes	-9.92191
▁Mil	-9.92222
af	-9.92327
▁smart	-9.92387
▁Kar	-9.92419
▁Nor	-9.92543
▁according	-9.9257
▁favorite	-9.92585
▁invent	-9.92598
▁Only	-9.92696
▁statu	-9.92721
bal	-9.92756
▁rules	-9.92843
▁battle	-9.92875
▁cream	-9.92954
▁Those	-9.92966
ik	-9.92967
▁Tru	-9.92983
▁king	-9.93123
▁knowledge	-9.93144
▁pill	-9.93297
pec	-9.93405
▁Time	-9.93809
▁kiss	-9.93824
▁walking	-9.93855
▁watching	-9.93891
ional	-9.93931
gon	-9.93951
▁fill	-9.94004
▁remind	-9.94021
▁threat	-9.94106
▁calm	-9.9414
▁features	-9.94162
iz	-9.94252
▁Before	-9.94301
▁Open	-9.94307
▁metal	-9.9433
▁grand	-9.94358
▁More	-9.94366
▁receive	-9.94474
▁Roman	-9.94504
▁established	-9.94546
nna	-9.94763
▁bear	-9.94785
▁feature	-9.94789
▁chain	-9.94974
▁Tri	-9.95037
▁island	-9.95113
▁policy	-9.95177
▁finished	-9.95189
ock	-9.9519
II	-9.95321
▁shut	-9.95331
▁officer	-9.95362
hen	-9.95405
▁cities	-9.95428
ivity	-9.95582
▁Start	-9.95665
verse	-9.9568
▁carbon	-9.95695
▁greater	-9.95708
▁square	-9.95766
▁firm	-9.95768
▁channel	-9.95863
▁Another	-9.95864
▁combination	-9.95962
▁Asia	-9.95981
▁meant	-9.96007
top	-9.96067
▁port	-9.96132
▁ban	-9.96203
▁prison	-9.96255
▁prior	-9.96358
▁indicate	-9.96408
▁meat	-9.96434
▁scene	-9.96457
place	-9.9649
▁resources	-9.96519
unk	-9.9671
▁Ku	-9.9682
▁conflict	-9.96853
itis	-9.96888
▁bright	-9.96906
illa	-9.96918
▁Tom	-9.96979
▁Consider	-9.97052
▁summer	-9.97053
▁showed	-9.97228
▁mission	-9.9732
▁visual	-9.97353
▁nine	-9.97457
▁race	-9.97497
▁judge	-9.97552
▁added	-9.97572
▁reading	-9.976
▁reflect	-9.97652
▁teeth	-9.97653
▁Yo	-9.97735
▁balance	-9.97753
▁desire	-9.97763
▁developing	-9.97827
▁suffer	-9.98014
▁Gen	-9.98039
▁trigger	-9.98054
▁Serie	-9.98089
▁studied	-9.98155
▁nation	-9.98207
▁master	-9.98213
▁Syria	-9.98214
▁college	-9.98255
▁rank	-9.98277
▁Black	-9.9828
▁Wal	-9.98288
pper	-9.98348
▁finding	-9.98365
graph	-9.98422
▁length	-9.98457
▁rise	-9.98545
cular	-9.9868
▁Windows	-9.98761
▁del	-9.98761
▁teach	-9.98862
▁items	-9.98867
ook	-9.98914
of	-9.98989
now	-9.99223
▁citizen	-9.99269
▁breast	-9.99279
rap	-9.99326
matic	-9.99435
▁killing	-9.9945
▁Za	-9.99548
▁DNA	-9.99607
▁older	-9.99631
mination	-9.99632
▁qua	-9.99635
▁holding	-9.99832
▁Dar	-9.99861
▁rare	-9.99861
ole	-9.99886
▁returned	-9.99931
▁wearing	-10.0007
▁vegetable	-10.0019
▁reveal	-10.002
▁dish	-10.0024
")	-10.0029
▁amazing	-10.0029
▁anybody	-10.0029
▁paid	-10.0033
▁cry	-10.0036
▁ocean	-10.004
▁hunt	-10.004
▁becoming	-10.004
▁Latin	-10.0053
▁Fo	-10.0072
▁(2	-10.0081
▁ourselves	-10.0081
▁fly	-10.0083
▁options	-10.0083
▁caught	-10.0083
▁mess	-10.0091
▁Republic	-10.0091
▁marriage	-10.0091
▁mountain	-10.0112
▁pair	-10.0113
▁2003	-10.0117
▁calling	-10.0117
▁guard	-10.0128
▁commercial	-10.0133
▁cent	-10.0133
▁laugh	-10.0136
pon	-10.0143
▁Italian	-10.0144
▁Ser	-10.0155
iff	-10.0161
▁primary	-10.0164
ese	-10.0165
mission	-10.017
▁putting	-10.0174
▁spin	-10.0179
▁responsible	-10.0185
▁twice	-10.0185
ene	-10.0219
ifi	-10.022
▁highly	-10.0229
40	-10.0236
ita	-10.0237
▁plane	-10.024
phy	-10.0245
▁label	-10.0245
▁founded	-10.0251
▁medicine	-10.0258
▁earlier	-10.0269
▁hero	-10.0276
▁gift	-10.028
▁adapt	-10.028
▁Great	-10.028
▁Western	-10.0281
scribe	-10.0281
▁escape	-10.029
▁student	-10.0295
▁famous	-10.0301
udi	-10.0302
▁Mer	-10.0312
part	-10.0313
▁recently	-10.0314
▁emotions	-10.0316
▁flower	-10.0317
▁counter	-10.0328
▁therapy	-10.0335
▁extend	-10.0343
Arabic	-10.0349
▁employ	-10.0352
▁changing	-10.0354
▁Nintendo	-10.0364
ów	-10.0366
▁char	-10.0371
▁lab	-10.0376
▁menu	-10.0385
▁campaign	-10.0386
▁receptor	-10.0386
▁transform	-10.0399
▁Over	-10.0406
pine	-10.0418
▁commonly	-10.0419
▁supply	-10.0428
▁nose	-10.0434
▁boss	-10.0435
▁lady	-10.0438
▁(3	-10.0446
▁Red	-10.0458
▁recent	-10.0463
▁recover	-10.0483
▁shop	-10.0488
vic	-10.0489
▁additional	-10.05
▁favor	-10.0502
▁plastic	-10.0504
▁speech	-10.0514
▁George	-10.0514
▁acting	-10.0525
▁Shi	-10.0526
▁communication	-10.0536
▁drinking	-10.0544
▁milk	-10.0558
▁branch	-10.0558
▁interview	-10.0569
▁believed	-10.0574
▁psych	-10.0575
▁accident	-10.0579
▁actress	-10.058
▁Sal	-10.058
▁thousands	-10.0583
▁Ce	-10.0584
▁fell	-10.0586
▁Gi	-10.0589
▁heavy	-10.059
▁Also	-10.0606
▁Wait	-10.0608
▁Dan	-10.0612
▁shift	-10.0612
▁David	-10.0612
▁unless	-10.0614
▁predict	-10.0624
▁thus	-10.0647
▁keeping	-10.0647
▁conduct	-10.0651
We	-10.0653
▁economy	-10.0656
▁creating	-10.0656
burg	-10.0658
▁Bel	-10.0661
▁Party	-10.068
vision	-10.0689
▁download	-10.0706
▁chair	-10.0709
▁Sir	-10.071
▁District	-10.0711
▁yeah	-10.0711
▁labor	-10.0716
▁tight	-10.0734
▁reality	-10.074
▁flat	-10.074
pho	-10.0753
▁27	-10.0762
▁ensure	-10.0766
48	-10.0772
▁Korean	-10.0775
▁identify	-10.0777
▁audience	-10.0777
▁origin	-10.079
▁formed	-10.0792
▁sentence	-10.0793
▁26	-10.0796
▁broken	-10.0801
▁Union	-10.0801
▁Though	-10.0802
cri	-10.0808
▁anxiety	-10.081
▁guide	-10.0818
gest	-10.0818
▁soldier	-10.0823
osis	-10.0824
ula	-10.0826
▁anywhere	-10.0827
▁required	-10.0828
▁Check	-10.0828
▁wild	-10.0833
▁lawyer	-10.0844
▁transport	-10.0848
▁boat	-10.0854
▁unique	-10.0855
▁useful	-10.0855
▁skills	-10.0864
▁expert	-10.0866
▁institution	-10.0867
▁credit	-10.0877
▁appeared	-10.0888
▁component	-10.0889
▁causing	-10.0901
war	-10.0908
▁opinion	-10.0911
▁Mary	-10.0912
▁liver	-10.092
▁shoes	-10.0925
▁missing	-10.0928
▁Indian	-10.0928
▁par	-10.0938
▁vitamin	-10.0945
▁statement	-10.0956
app	-10.096
▁Pan	-10.0964
▁singer	-10.0964
een	-10.098
uk	-10.0982
▁taught	-10.099
read	-10.0996
▁fighting	-10.0998
▁connected	-10.1001
▁Google	-10.1001
▁Soviet	-10.1013
▁x	-10.1013
▁(4	-10.1014
▁freedom	-10.1024
▁broke	-10.1026
▁owner	-10.1035
▁edge	-10.1038
rup	-10.104
▁cycle	-10.1047
▁fu	-10.1066
▁opening	-10.1069
▁yellow	-10.1071
▁Hy	-10.1074
▁California	-10.1081
▁etc	-10.1083
▁tap	-10.1085
▁1990	-10.1085
▁review	-10.1087
▁sad	-10.1089
▁quiet	-10.1093
off	-10.1094
load	-10.1102
▁church	-10.1104
▁stock	-10.1109
▁taste	-10.1114
▁tank	-10.1123
▁toward	-10.1124
▁decrease	-10.1127
▁Up	-10.1128
▁fully	-10.1137
▁tools	-10.1139
▁recommend	-10.1141
▁200	-10.1144
▁appearance	-10.1146
▁compete	-10.1147
▁faster	-10.1153
▁magic	-10.1154
▁joined	-10.1163
▁speaking	-10.1173
bol	-10.1174
▁nearly	-10.118
rick	-10.1182
▁Place	-10.1183
▁28	-10.1184
▁schedule	-10.1185
▁surgery	-10.1185
▁selling	-10.1212
▁switch	-10.1219
▁trick	-10.1225
head	-10.1228
▁thin	-10.1238
▁critical	-10.124
▁universe	-10.1254
▁divide	-10.1259
▁Jack	-10.1261
▁replace	-10.1261
▁highest	-10.1261
▁Gar	-10.1266
▁cast	-10.1269
▁client	-10.1278
ani	-10.1281
▁understanding	-10.1284
▁hide	-10.1287
▁bodies	-10.1301
▁breathing	-10.1302
15	-10.1303
▁Mom	-10.1303
▁Lord	-10.1306
▁Sara	-10.131
▁bath	-10.131
▁passed	-10.1316
ctic	-10.132
▁mini	-10.1327
range	-10.1327
▁Best	-10.1332
▁wake	-10.1334
▁scientific	-10.1336
▁waste	-10.1337
▁via	-10.1344
▁competition	-10.1348
▁hyper	-10.1349
▁genetic	-10.1352
▁topic	-10.1361
room	-10.1373
17	-10.1374
ę	-10.1383
]	-10.1383
▁calorie	-10.1383
▁James	-10.1384
▁assume	-10.1388
▁rain	-10.1397
▁pal	-10.1408
▁era	-10.1408
19	-10.1409
vol	-10.1413
You	-10.1414
clo	-10.1418
▁depression	-10.1418
box	-10.1421
▁army	-10.1423
▁limited	-10.1425
but	-10.1428
▁disappear	-10.143
▁participate	-10.143
▁adopt	-10.1431
▁drag	-10.1433
▁juice	-10.1435
▁bro	-10.1462
▁dose	-10.148
▁property	-10.1481
▁slowly	-10.1484
▁continued	-10.1504
▁earth	-10.1505
▁icon	-10.1521
▁Russia	-10.1525
▁families	-10.1525
▁frame	-10.1526
▁Colombia	-10.1537
▁Work	-10.1541
▁slightly	-10.1561
39	-10.1566
▁forest	-10.1571
berg	-10.1585
omy	-10.1593
▁react	-10.1602
▁lay	-10.1602
▁Chile	-10.1603
▁regulat	-10.1603
▁capture	-10.1612
▁wire	-10.1613
▁raise	-10.1614
▁copy	-10.1615
▁bigger	-10.1618
▁Yu	-10.1622
▁ancient	-10.1622
▁establish	-10.1627
▁Cal	-10.1633
arian	-10.1636
well	-10.1638
house	-10.1656
ridge	-10.1659
▁1980	-10.1664
hood	-10.1677
▁stomach	-10.1682
▁actor	-10.1683
▁introduced	-10.1688
▁destroy	-10.1688
▁cloud	-10.1699
▁Mark	-10.1703
▁occasion	-10.1706
▁Could	-10.1707
▁apart	-10.1712
▁Kim	-10.1723
▁careful	-10.1742
▁Street	-10.1743
64	-10.1747
OS	-10.1753
▁honey	-10.1757
▁opened	-10.1758
▁independent	-10.1763
▁garden	-10.1767
▁vision	-10.1771
60	-10.1772
▁White	-10.178
ised	-10.1784
▁talked	-10.1791
▁stupid	-10.1792
▁digital	-10.1792
▁upper	-10.1793
▁spray	-10.1794
ility	-10.1798
▁episode	-10.1804
▁defeat	-10.1805
▁smile	-10.1805
▁safety	-10.1806
▁cultural	-10.1808
▁Queen	-10.1818
▁rapid	-10.182
▁hat	-10.182
▁2002	-10.1822
▁nerve	-10.1822
▁River	-10.1829
▁80	-10.1841
▁expand	-10.1841
▁Talk	-10.1842
▁closed	-10.1847
where	-10.1851
▁chest	-10.1854
▁gather	-10.1857
▁encourage	-10.1866
▁Christian	-10.1866
▁Ah	-10.1873
ón	-10.1874
▁ride	-10.1874
▁manage	-10.1875
bro	-10.1877
▁Follow	-10.1878
▁obtain	-10.1878
▁performed	-10.1882
▁suspect	-10.1891
▁employee	-10.1892
▁thick	-10.1896
▁Mag	-10.1898
▁describe	-10.19
▁$1	-10.1902
▁[	-10.1904
▁Law	-10.1905
▁quant	-10.1907
▁Kingdom	-10.1916
▁colon	-10.1916
▁impress	-10.1917
▁failure	-10.1917
▁Army	-10.192
65	-10.1927
cher	-10.1929
▁Never	-10.1931
▁2001	-10.1945
▁alternative	-10.1953
▁volume	-10.1953
▁brush	-10.1954
▁Peter	-10.1954
▁collection	-10.1961
▁electric	-10.1961
▁90	-10.1974
▁magazine	-10.1978
▁grew	-10.1994
▁symbol	-10.2003
▁anyway	-10.2004
▁strip	-10.2005
fold	-10.2013
▁flight	-10.2013
▁crack	-10.2028
▁route	-10.2034
▁core	-10.2037
▁Ve	-10.204
▁stone	-10.2048
▁Bur	-10.2053
▁showing	-10.2055
▁prepared	-10.2062
▁debut	-10.2064
▁wedding	-10.2071
▁rub	-10.2072
▁placed	-10.2076
▁Congress	-10.2078
lies	-10.2089
▁stopped	-10.2096
▁rot	-10.2101
dding	-10.2105
▁Plan	-10.211
▁prop	-10.212
wood	-10.2132
▁comment	-10.214
emp	-10.2141
nny	-10.2146
▁scan	-10.2151
▁dirt	-10.2151
▁nobody	-10.2167
▁liquid	-10.2167
▁northern	-10.2168
▁funny	-10.2172
▁comb	-10.2172
bon	-10.2184
▁fluid	-10.2188
▁electro	-10.2191
▁clothing	-10.2193
▁Boy	-10.2201
▁Alex	-10.2203
▁bill	-10.2205
▁vehicle	-10.2206
▁Bal	-10.2206
▁Luc	-10.2207
▁referred	-10.2209
chan	-10.2215
▁zone	-10.2219
▁robot	-10.2237
▁motion	-10.2248
▁Port	-10.225
terior	-10.2251
78	-10.2256
▁reached	-10.2259
▁lift	-10.2264
16	-10.2265
▁launch	-10.2266
▁van	-10.2269
▁smoke	-10.227
▁poly	-10.2274
▁Know	-10.2275
▁saved	-10.228
long	-10.228
▁Olympic	-10.2283
▁div	-10.2289
▁compound	-10.2296
▁Men	-10.2303
▁70	-10.2306
▁Michael	-10.2308
▁Institute	-10.2309
▁admit	-10.2309
▁damn	-10.2309
▁presence	-10.2309
▁Science	-10.2321
▁formula	-10.2342
ła	-10.2344
▁violence	-10.2347
▁Second	-10.2347
▁Island	-10.2355
▁Research	-10.236
▁request	-10.236
▁Court	-10.2361
phen	-10.2368
▁towel	-10.2368
76	-10.2369
▁score	-10.2372
▁advantage	-10.2373
▁kick	-10.2378
▁syn	-10.2382
▁plate	-10.2386
▁extremely	-10.2391
phe	-10.2392
▁Ty	-10.2399
▁England	-10.2399
▁realized	-10.2407
▁compared	-10.2409
▁Kh	-10.241
25	-10.2423
▁mostly	-10.2425
▁hypo	-10.2428
▁basically	-10.2429
▁settlement	-10.2431
▁coin	-10.2437
▁Sorry	-10.2439
▁loose	-10.2441
▁Today	-10.2445
▁oxygen	-10.2452
▁distinct	-10.2452
▁till	-10.2456
▁tape	-10.2464
▁nuclear	-10.2465
▁supplement	-10.2465
▁circle	-10.2465
ü	-10.2478
▁sample	-10.2478
▁division	-10.248
▁losing	-10.2485
▁revolution	-10.2491
▁previous	-10.2493
▁journal	-10.25
▁relation	-10.2504
▁Greek	-10.2504
▁Lin	-10.2508
▁worried	-10.2517
▁solid	-10.2519
bul	-10.252
fully	-10.2531
olog	-10.2535
▁raised	-10.2536
win	-10.2538
▁Part	-10.2546
▁religious	-10.2557
stitut	-10.2558
▁lip	-10.2561
▁fail	-10.2566
▁Each	-10.257
▁Inter	-10.2574
Q	-10.2576
▁consumer	-10.2584
▁critic	-10.2584
ography	-10.2597
▁bought	-10.2597
▁Un	-10.2597
otic	-10.2605
▁Ter	-10.2606
▁soul	-10.2608
▁biggest	-10.2613
▁reward	-10.262
▁Joe	-10.2626
▁Egypt	-10.2637
▁greatest	-10.2643
▁pray	-10.2643
▁therefore	-10.2651
hold	-10.2658
▁clearly	-10.2671
▁defend	-10.2677
▁worst	-10.2677
▁except	-10.2682
▁thousand	-10.2686
▁overall	-10.2692
▁procedure	-10.2717
▁affected	-10.2718
▁fiber	-10.2723
▁Music	-10.2724
▁load	-10.2724
▁wonderful	-10.273
▁hormone	-10.2731
▁William	-10.2731
▁minor	-10.2731
▁doubt	-10.2733
▁Say	-10.2736
99	-10.2741
▁criminal	-10.2744
▁Ze	-10.2752
▁parent	-10.2764
▁truly	-10.2772
▁joint	-10.2774
13	-10.2779
▁lung	-10.2782
▁recommended	-10.2782
80	-10.2784
▁Spanish	-10.2785
▁mode	-10.2786
▁covered	-10.2792
▁sweat	-10.2799
▁29	-10.2803
▁appropriate	-10.2812
▁herself	-10.2812
▁phase	-10.2812
▁fault	-10.2812
▁advice	-10.2826
▁appreciate	-10.2826
▁steal	-10.2827
ken	-10.283
▁forgot	-10.283
▁Play	-10.2831
▁exhibit	-10.2839
77	-10.2843
▁scared	-10.2849
▁interaction	-10.2852
▁truck	-10.2853
▁sustain	-10.2867
▁fashion	-10.2867
▁treated	-10.2867
▁bridge	-10.287
▁perspective	-10.288
▁Den	-10.2881
▁mood	-10.2884
▁Cap	-10.2887
▁wrap	-10.2889
water	-10.2893
▁por	-10.2924
▁Under	-10.2934
▁newspaper	-10.2935
▁sky	-10.2936
▁apartment	-10.2942
▁listening	-10.2945
▁stretch	-10.2949
▁Group	-10.2949
omb	-10.295
▁Canada	-10.2951
▁coast	-10.2952
▁guest	-10.2961
▁construction	-10.2969
▁relatively	-10.2973
▁driving	-10.2977
14	-10.2978
▁nail	-10.2979
▁agreement	-10.2988
▁interact	-10.299
▁nervous	-10.2991
▁possibly	-10.2991
▁alter	-10.2993
▁epi	-10.2997
▁Reg	-10.3012
▁fuel	-10.3013
SA	-10.3014
▁Super	-10.3017
vil	-10.3019
craft	-10.3019
▁angry	-10.302
▁Cho	-10.302
▁closer	-10.3023
▁shoulder	-10.3025
▁protection	-10.3026
▁department	-10.3032
▁particle	-10.3033
▁elected	-10.3034
▁killer	-10.3038
▁Prince	-10.3045
ö	-10.3046
▁politician	-10.306
▁professor	-10.306
▁profit	-10.306
ush	-10.3064
▁Pol	-10.3078
▁tie	-10.3084
▁monitor	-10.3088
▁lucky	-10.3088
▁failed	-10.309
▁relative	-10.3092
cia	-10.3098
▁abuse	-10.31
▁grab	-10.3101
▁knee	-10.3104
▁expected	-10.3114
AR	-10.3114
▁attach	-10.3117
▁ingredient	-10.313
▁col	-10.3143
▁App	-10.3143
68	-10.3147
▁basis	-10.3149
▁soap	-10.3164
▁danger	-10.3184
▁bowl	-10.3186
▁Human	-10.3197
▁Show	-10.3202
pan	-10.3224
▁routine	-10.3229
▁clinical	-10.3229
▁Out	-10.3236
▁tip	-10.324
▁quarter	-10.3243
▁Day	-10.3244
▁attend	-10.3247
▁broad	-10.3247
▁environmental	-10.3248
▁Robert	-10.3258
▁helpful	-10.3268
▁proud	-10.3268
▁glad	-10.3272
▁income	-10.3274
▁internal	-10.3277
▁Their	-10.3299
▁Council	-10.33
▁consequence	-10.33
▁principle	-10.33
▁Office	-10.33
▁manager	-10.3304
▁semi	-10.3305
▁none	-10.3306
active	-10.3313
ñ	-10.3314
▁contribute	-10.3314
▁Nigeria	-10.3314
▁operating	-10.3317
▁settle	-10.332
▁provided	-10.3323
▁faith	-10.3328
▁Master	-10.3342
▁appointed	-10.3343
▁deserve	-10.3343
▁planning	-10.335
▁hotel	-10.335
▁Hold	-10.3351
▁signed	-10.3365
▁crisis	-10.3371
▁refuse	-10.3372
▁lying	-10.3374
▁vent	-10.3383
▁context	-10.3386
▁beauty	-10.3386
▁argue	-10.3387
▁shared	-10.3393
NA	-10.3396
▁certainly	-10.3396
▁totally	-10.3408
▁actual	-10.3408
▁1970	-10.3421
67	-10.3427
▁otherwise	-10.3429
▁completed	-10.3436
▁seeds	-10.344
▁Perhaps	-10.3444
▁Championship	-10.3444
▁Gold	-10.3448
▁ticket	-10.3458
▁historical	-10.3459
▁upset	-10.3461
▁busy	-10.347
▁frequently	-10.347
▁impossible	-10.3473
itch	-10.3475
75	-10.3476
▁mono	-10.3476
▁confidence	-10.3487
▁university	-10.3487
▁secure	-10.3488
▁defined	-10.3489
▁Mother	-10.3496
BC	-10.3521
▁proper	-10.3525
▁depending	-10.3527
▁marry	-10.3528
▁College	-10.3531
▁emergency	-10.3545
▁crush	-10.3545
▁lunch	-10.3546
▁Call	-10.3548
▁chicken	-10.356
▁stuck	-10.356
▁luck	-10.357
▁rob	-10.357
▁Arab	-10.3571
▁Center	-10.3575
▁brown	-10.3576
▁Sho	-10.3584
▁restaurant	-10.3589
▁struggle	-10.3589
▁profile	-10.3589
▁generate	-10.3595
▁boil	-10.3596
▁Er	-10.3597
▁spending	-10.3598
▁Both	-10.3602
▁blind	-10.3604
▁bond	-10.3605
▁fellow	-10.3608
▁coat	-10.3616
▁Grand	-10.3618
▁afford	-10.3619
▁witness	-10.3619
▁spell	-10.362
▁Cra	-10.3622
▁forced	-10.3626
chlor	-10.3632
kh	-10.3651
▁Association	-10.3663
▁approved	-10.3663
▁vessel	-10.3663
▁recorded	-10.3664
ette	-10.3669
▁tired	-10.3671
▁Turn	-10.3683
▁Pla	-10.3684
▁Department	-10.3693
▁driver	-10.3693
▁protest	-10.3694
blo	-10.3701
▁Ly	-10.3701
▁Cri	-10.3705
▁terrible	-10.3708
▁chief	-10.3709
▁ill	-10.3717
▁Father	-10.3727
▁height	-10.3734
▁association	-10.3737
▁vary	-10.3739
:00	-10.3742
▁tiny	-10.3743
▁exchange	-10.3752
▁Watch	-10.3753
▁weather	-10.3768
▁strategy	-10.3782
script	-10.3792
▁absorb	-10.3797
▁joke	-10.3798
▁focused	-10.3801
▁properties	-10.3812
▁reject	-10.3813
▁sand	-10.3814
▁workers	-10.3816
▁Nu	-10.3818
▁specifically	-10.382
▁Washington	-10.3827
▁substance	-10.3827
▁cash	-10.383
▁capacity	-10.3842
▁BC	-10.3843
▁1998	-10.3847
▁1960	-10.3851
▁subsequent	-10.3858
▁applied	-10.3858
▁operate	-10.3858
▁Bureau	-10.3858
ius	-10.3861
▁forever	-10.3863
▁mention	-10.3865
▁1999	-10.3865
▁investment	-10.3868
▁antibiotic	-10.3873
▁platform	-10.3873
▁aspect	-10.3873
▁Sur	-10.3876
▁Love	-10.3885
▁traffic	-10.3888
▁List	-10.3897
47	-10.3902
▁strike	-10.3903
book	-10.3908
▁Bru	-10.3913
▁journey	-10.3918
▁strange	-10.3918
▁saving	-10.3919
aries	-10.3931
▁grain	-10.3932
▁neighbor	-10.3933
▁Born	-10.3939
▁expression	-10.3948
▁diploma	-10.3948
▁CD	-10.3949
56	-10.395
▁hall	-10.395
itz	-10.3975
▁dear	-10.3978
▁shock	-10.3981
▁shower	-10.3988
▁promotion	-10.3994
▁mobile	-10.3994
print	-10.3997
▁analysis	-10.401
▁boyfriend	-10.401
▁solar	-10.4014
▁Stay	-10.4019
▁spirit	-10.4024
▁identity	-10.4025
▁passion	-10.4025
▁container	-10.4029
▁pig	-10.4031
▁Ken	-10.4032
▁engine	-10.4034
▁Pen	-10.4037
▁instructions	-10.4057
▁stream	-10.4064
▁poison	-10.4071
▁hydro	-10.4072
▁removed	-10.4076
list	-10.4078
back	-10.4087
▁despite	-10.4088
▁weird	-10.409
▁Apple	-10.4102
▁Type	-10.4105
▁mask	-10.4109
18	-10.4117
▁League	-10.4117
▁fool	-10.413
▁Big	-10.4131
▁instrument	-10.4133
▁zero	-10.4133
▁mixture	-10.4135
▁Pop	-10.4143
▁sight	-10.4157
▁consult	-10.4164
▁Church	-10.4164
▁shirt	-10.4164
▁massive	-10.4168
▁chart	-10.4172
▁Del	-10.4176
▁staff	-10.418
▁fourth	-10.4185
▁2020	-10.4185
ancy	-10.4194
▁expensive	-10.4195
▁mirror	-10.4195
▁enable	-10.4196
▁trap	-10.4206
most	-10.4208
▁equation	-10.4211
▁Select	-10.4211
▁transfer	-10.4212
▁Martin	-10.4213
▁Old	-10.4217
▁absolutely	-10.4223
▁injury	-10.4227
▁Lab	-10.4233
▁attended	-10.424
▁Someone	-10.4241
▁Note	-10.4245
▁Warsaw	-10.4258
▁Three	-10.4258
▁cutting	-10.4264
▁moon	-10.4265
▁Uni	-10.4266
▁license	-10.4274
▁neighborhood	-10.4274
▁background	-10.4281
58	-10.4285
▁500	-10.4289
field	-10.4303
▁accomplish	-10.4305
▁folk	-10.4305
▁Health	-10.4306
57	-10.4318
▁Hong	-10.4319
▁possess	-10.4321
▁belief	-10.4321
▁Stop	-10.4328
emia	-10.4334
▁arch	-10.4335
▁serving	-10.4337
▁brief	-10.4337
rze	-10.434
▁Op	-10.4366
▁equipment	-10.4368
▁plenty	-10.4368
▁distract	-10.4369
▁normally	-10.4377
▁sequence	-10.4384
▁Captain	-10.4384
ibility	-10.4385
▁stain	-10.4394
gging	-10.4406
49	-10.4409
▁suddenly	-10.4416
play	-10.4429
▁pregnant	-10.4432
▁About	-10.4435
▁lesson	-10.444
phon	-10.4442
▁Choose	-10.4449
▁evolution	-10.4464
▁confident	-10.4464
▁interpret	-10.4464
▁roof	-10.4466
▁restrict	-10.4466
▁grade	-10.4466
▁Char	-10.4468
loc	-10.4469
}	-10.448
▁bleeding	-10.448
▁medium	-10.4481
▁directed	-10.4489
▁producer	-10.4495
▁conscious	-10.4496
▁dimension	-10.4496
▁welcome	-10.4496
▁fiction	-10.4501
▁explore	-10.4512
▁talent	-10.4513
elle	-10.4513
▁pool	-10.4514
▁forgive	-10.4514
▁ideal	-10.4524
46	-10.4528
▁System	-10.4529
▁Italy	-10.4542
▁quit	-10.4542
▁communities	-10.4545
▁census	-10.4545
▁stem	-10.4555
▁emerge	-10.4562
▁Philip	-10.4562
▁Middle	-10.4562
▁confirmed	-10.4574
▁gentle	-10.4577
▁enemy	-10.4577
▁flag	-10.458
▁winning	-10.4581
AT	-10.4584
▁spoke	-10.4585
▁widely	-10.4593
▁molecule	-10.4593
vir	-10.4596
59	-10.4599
▁Academy	-10.461
▁intelligence	-10.461
▁activist	-10.4626
▁powder	-10.4626
▁champion	-10.4626
▁gender	-10.4626
▁convert	-10.4628
70	-10.4629
▁dying	-10.4629
▁Last	-10.4631
▁hip	-10.4637
▁atmosphere	-10.4642
▁prompt	-10.4643
▁majority	-10.4644
BA	-10.4645
▁bound	-10.4654
63	-10.4654
▁comfort	-10.467
▁definitely	-10.4675
▁opposite	-10.4675
▁responsibility	-10.4675
▁smooth	-10.4675
▁tear	-10.4675
▁publish	-10.4686
▁scholar	-10.4691
▁screw	-10.4691
▁birthday	-10.4692
▁sale	-10.4694
▁suffering	-10.4698
▁Hol	-10.4704
▁Actually	-10.4708
▁fabric	-10.4708
▁throat	-10.4708
▁1997	-10.4713
▁debt	-10.4714
▁fever	-10.4722
66	-10.4724
▁Mexico	-10.4724
▁politics	-10.4724
▁giant	-10.4725
▁poll	-10.4725
He	-10.4729
▁fundamental	-10.4741
▁satellite	-10.4741
▁stronger	-10.4746
▁Brazil	-10.4753
▁adjust	-10.4757
▁administration	-10.4757
▁Social	-10.4758
▁Trans	-10.4758
kie	-10.476
▁accus	-10.476
▁convince	-10.4774
▁pregnancy	-10.4774
▁NGC	-10.4774
▁folder	-10.4774
▁rice	-10.4787
▁Facebook	-10.479
▁chronic	-10.479
▁Museum	-10.479
▁31	-10.4794
▁Everyone	-10.4795
01	-10.48
▁immune	-10.4807
▁syndrome	-10.4807
▁skill	-10.481
▁script	-10.4812
▁naturally	-10.4814
▁grown	-10.4819
▁winter	-10.4819
▁previously	-10.4821
▁Maria	-10.4823
▁jail	-10.4824
▁ruin	-10.4824
▁Christmas	-10.484
▁concerned	-10.4848
▁properly	-10.4851
▁tail	-10.4851
What	-10.4873
▁monster	-10.4874
▁Lady	-10.4878
flu	-10.489
▁drain	-10.489
▁kidney	-10.4892
▁religion	-10.4907
▁empty	-10.4907
▁motor	-10.4925
▁capable	-10.4934
iya	-10.4937
▁suicide	-10.4941
▁buck	-10.4941
▁southern	-10.4941
54	-10.4962
▁Ven	-10.4964
▁Service	-10.4974
▁Everything	-10.4974
▁Green	-10.4976
▁Nothing	-10.4976
▁Thu	-10.4977
▁Cup	-10.4991
▁numerous	-10.4991
▁tall	-10.4996
▁mechanism	-10.5008
▁Kong	-10.5029
▁stole	-10.5031
▁Carl	-10.5033
ographic	-10.5034
▁mg	-10.5038
▁hy	-10.5042
▁familiar	-10.5042
▁Learn	-10.5043
owo	-10.5043
ło	-10.5054
▁distribution	-10.5059
▁sensitive	-10.5059
▁UK	-10.5059
▁apparent	-10.5059
▁wine	-10.506
▁entirely	-10.5069
RI	-10.5071
α	-10.5076
▁reference	-10.5081
▁kitchen	-10.5093
▁split	-10.5096
▁flying	-10.51
▁uncle	-10.5106
▁owe	-10.5106
▁teaching	-10.5116
▁Rome	-10.5126
▁punish	-10.5127
▁filled	-10.5139
▁dust	-10.5142
▁defense	-10.5144
▁console	-10.5145
troph	-10.5146
▁1994	-10.5149
▁surrounding	-10.5151
▁1995	-10.5151
▁insect	-10.5151
▁regime	-10.5157
▁concentration	-10.5162
▁pleasure	-10.5162
AN	-10.5167
▁Free	-10.5179
ension	-10.5184
ux	-10.5184
▁Cuba	-10.5187
ground	-10.5188
▁literature	-10.5196
▁cheap	-10.5196
▁prisoner	-10.5197
▁relieve	-10.5197
▁Film	-10.5197
▁Syrian	-10.5203
▁tradition	-10.5209
Z	-10.5213
▁argument	-10.5213
power	-10.5216
▁processes	-10.5222
▁exam	-10.523
▁govern	-10.5238
69	-10.5244
▁intention	-10.5248
▁Ban	-10.5251
▁1996	-10.5253
▁blame	-10.5258
▁industrial	-10.5265
▁minister	-10.5269
▁replaced	-10.5272
▁mainly	-10.5275
▁encounter	-10.5283
▁girlfriend	-10.5283
▁Pra	-10.529
▁library	-10.53
▁implement	-10.53
lash	-10.5311
▁anger	-10.5312
▁regularly	-10.5315
▁consume	-10.5318
▁originally	-10.533
▁abandon	-10.5335
▁wheel	-10.5335
21	-10.5345
▁Eat	-10.5366
▁exact	-10.5375
▁resist	-10.5375
▁45	-10.5389
▁Ji	-10.5397
▁exposure	-10.5405
▁literally	-10.5405
▁permanent	-10.5405
▁Something	-10.5406
▁spoken	-10.5414
▁cable	-10.5414
▁spring	-10.5415
▁formation	-10.5422
▁journalist	-10.5429
▁constant	-10.5434
ą	-10.5441
▁cheese	-10.5441
28	-10.5445
▁*	-10.5447
▁opera	-10.545
▁extreme	-10.5452
▁conference	-10.5458
▁annual	-10.546
▁geo	-10.546
▁ratio	-10.5466
▁identified	-10.5476
▁knife	-10.5476
view	-10.5477
5%	-10.5488
▁Israel	-10.5494
▁bathroom	-10.5494
▁Max	-10.5504
cade	-10.5504
▁formal	-10.5507
▁domestic	-10.5512
▁launched	-10.5516
▁awarded	-10.5516
▁Governor	-10.5529
▁Bob	-10.5545
▁Division	-10.5549
▁32	-10.5551
▁personality	-10.5553
▁colleague	-10.5565
▁wealth	-10.5568
▁Four	-10.5568
▁metres	-10.5574
▁nurse	-10.5585
▁leadership	-10.5587
▁Dia	-10.559
▁destroyed	-10.5592
▁apple	-10.5596
▁letting	-10.5596
▁moral	-10.5598
ń	-10.56
▁communicate	-10.5601
▁observed	-10.5602
▁Vietnamese	-10.5602
▁candidate	-10.5619
▁rose	-10.5638
▁Asian	-10.5656
▁controlled	-10.5663
▁arrived	-10.5673
▁illness	-10.5677
▁mentioned	-10.5685
▁Life	-10.5686
▁inhibit	-10.5698
▁format	-10.5703
500	-10.5703
▁decline	-10.5728
▁organized	-10.5733
ada	-10.5738
▁combined	-10.5746
▁gently	-10.5746
▁sharp	-10.5766
▁Whatever	-10.5781
▁technical	-10.5782
▁retail	-10.5783
▁rescue	-10.5784
▁Bank	-10.5789
▁angle	-10.5794
▁urge	-10.5799
▁Louis	-10.5801
dependence	-10.5805
▁bullet	-10.5806
▁evil	-10.5808
▁Statistics	-10.5819
▁succeed	-10.5819
▁Apply	-10.5832
▁managed	-10.584
▁Prize	-10.5842
▁Cause	-10.5847
▁Jane	-10.5852
▁primarily	-10.5856
▁Next	-10.5856
▁seal	-10.5858
24	-10.5871
ي	-10.5874
▁creature	-10.5874
▁studio	-10.5874
graduate	-10.5875
▁assess	-10.5879
▁nearby	-10.5879
▁Count	-10.5883
▁estimated	-10.5891
▁random	-10.5893
▁justice	-10.5894
▁resistance	-10.5896
▁complicated	-10.5911
▁definition	-10.5911
dynamic	-10.5911
down	-10.5913
▁obviously	-10.5916
▁seriously	-10.5927
▁volunteer	-10.593
▁urban	-10.593
▁storm	-10.5931
▁Mike	-10.5939
vor	-10.5944
▁bunch	-10.5948
▁happiness	-10.5967
▁filter	-10.5967
▁carried	-10.5968
▁Tap	-10.5974
name	-10.5974
▁classes	-10.5975
▁poet	-10.5976
▁crash	-10.5986
▁carefully	-10.5988
▁facing	-10.6007
▁Write	-10.6007
▁sector	-10.6009
▁editor	-10.6014
▁evolve	-10.6023
▁trace	-10.6029
▁Beijing	-10.6042
▁technologies	-10.6042
▁silver	-10.6042
▁authorities	-10.6045
▁castle	-10.6047
▁visible	-10.6061
▁chosen	-10.6063
▁prepare	-10.6067
▁construct	-10.6071
▁Festival	-10.608
▁virtual	-10.608
▁HIV	-10.608
▁suck	-10.6081
▁drama	-10.6082
▁Club	-10.6084
▁Van	-10.6105
▁rev	-10.6115
▁Prime	-10.6116
▁35	-10.6117
▁1992	-10.6117
▁Should	-10.6117
eau	-10.6119
▁package	-10.6127
▁update	-10.6128
▁noise	-10.613
▁investigation	-10.6136
▁CO	-10.6142
▁inhibitor	-10.6148
▁invited	-10.6155
`	-10.6155
▁creative	-10.6155
▁proceed	-10.6156
▁reform	-10.6156
07	-10.6164
▁consistent	-10.6166
▁toxic	-10.6179
06	-10.6187
▁knock	-10.6193
▁excuse	-10.6193
▁Run	-10.6204
cause	-10.6205
▁characteristic	-10.6217
▁slip	-10.622
▁eliminate	-10.6231
▁pocket	-10.6231
▁contrast	-10.6231
23	-10.6236
08	-10.6247
▁enzyme	-10.6251
▁Saint	-10.6252
▁Treat	-10.6254
▁bread	-10.6255
▁peak	-10.626
▁surround	-10.6263
90	-10.6263
▁tumor	-10.627
espite	-10.6271
▁transition	-10.6275
▁Matt	-10.6278
▁Est	-10.6283
▁Back	-10.6298
▁incident	-10.6308
▁Pacific	-10.6308
▁outcome	-10.631
▁manner	-10.631
▁chip	-10.6314
▁glu	-10.6316
▁mild	-10.6319
ER	-10.6321
▁Harry	-10.6322
▁galaxy	-10.6328
▁Girl	-10.6328
▁discussion	-10.6328
▁hydrogen	-10.633
town	-10.6333
▁complain	-10.6347
▁sharing	-10.6356
▁painful	-10.6359
▁democracy	-10.6366
▁Nobody	-10.6366
▁biological	-10.6371
▁1989	-10.6373
32	-10.6389
▁breathe	-10.6397
▁typical	-10.6401
▁exception	-10.6408
▁planned	-10.6412
▁broadcast	-10.6425
▁storage	-10.6425
▁headache	-10.6425
▁Royal	-10.6426
▁Home	-10.6429
stone	-10.6437
95	-10.6438
▁ya	-10.6439
▁obvious	-10.644
▁infected	-10.6444
▁tongue	-10.6446
▁confirm	-10.6448
▁everywhere	-10.645
▁organic	-10.6451
▁ignore	-10.6464
▁Ghana	-10.6464
▁session	-10.6464
▁electronic	-10.6466
09	-10.6476
▁boot	-10.6482
▁romantic	-10.6483
▁unknown	-10.6483
▁weekend	-10.6492
▁Venezuela	-10.6503
▁Microsoft	-10.6523
▁slave	-10.6524
▁excess	-10.6537
▁1993	-10.6542
▁Eastern	-10.6543
▁flash	-10.6549
▁suppose	-10.6551
▁Jim	-10.6553
35	-10.6558
▁Long	-10.6558
▁incredible	-10.6562
▁drunk	-10.6562
▁odd	-10.6564
▁Bla	-10.657
▁correspond	-10.6582
▁museum	-10.6582
▁variable	-10.6582
▁climb	-10.6582
▁league	-10.6602
▁Princess	-10.6606
▁flavor	-10.6622
▁remote	-10.6622
▁sauce	-10.6622
▁objective	-10.6627
plication	-10.6632
▁possibility	-10.6642
▁contest	-10.6663
▁Jesus	-10.6663
▁Chief	-10.6663
point	-10.6664
▁Charles	-10.6685
▁parties	-10.6692
▁incorporat	-10.6702
▁puppy	-10.6702
▁hiding	-10.6704
▁flood	-10.6705
▁400	-10.6706
▁rap	-10.6735
▁Camp	-10.6735
ś	-10.6742
▁Richard	-10.6742
▁improvement	-10.6743
▁Empire	-10.6762
▁Government	-10.6762
▁inspired	-10.6762
▁winner	-10.6768
▁practical	-10.6782
▁crowd	-10.6782
▁custom	-10.6788
▁Water	-10.6795
▁entertain	-10.6803
▁internet	-10.6803
▁Police	-10.6805
▁Spain	-10.6807
▁Leave	-10.6823
▁orange	-10.6828
hear	-10.6833
▁authority	-10.6835
▁password	-10.6843
▁Creat	-10.6851
▁affair	-10.6863
▁worldwide	-10.6864
▁dozen	-10.6865
▁1950	-10.6866
▁Nations	-10.6868
▁bull	-10.6883
▁Catholic	-10.6884
▁extract	-10.6899
▁yesterday	-10.6904
ا	-10.6904
▁column	-10.6904
▁proposed	-10.6904
▁repair	-10.6904
▁therapist	-10.6905
▁introduce	-10.6915
▁medal	-10.6919
▁Using	-10.6924
▁Uganda	-10.6925
▁attitude	-10.6945
▁prince	-10.6945
▁gate	-10.6965
▁opportunities	-10.6966
▁Company	-10.6966
▁Scott	-10.6966
▁friendship	-10.6982
▁appointment	-10.6987
▁illegal	-10.6987
▁intended	-10.6987
▁creation	-10.6988
▁Read	-10.6999
▁whenever	-10.7
▁vaccine	-10.7007
▁Education	-10.7007
▁childhood	-10.7031
27	-10.7032
▁unusual	-10.7049
▁error	-10.7049
▁loud	-10.7054
▁proof	-10.7076
▁circumstances	-10.709
▁federal	-10.709
▁hidden	-10.709
▁patent	-10.7091
▁boost	-10.7092
▁dropped	-10.7094
▁Jackson	-10.7095
▁300	-10.7098
▁celebrate	-10.7111
▁reducing	-10.7111
▁Android	-10.7132
▁conserv	-10.7133
▁prime	-10.7133
▁melt	-10.7136
ddle	-10.7153
▁Command	-10.7154
▁gentlemen	-10.7154
▁pump	-10.7163
▁buried	-10.7174
▁breed	-10.7177
▁hack	-10.7179
▁plain	-10.7195
▁Adam	-10.7199
▁providing	-10.7216
▁understood	-10.7216
▁refuge	-10.7216
▁exposed	-10.7216
▁Anti	-10.7232
▁appeal	-10.7238
▁tube	-10.7244
▁hook	-10.7244
98	-10.7247
▁accurate	-10.7259
▁confront	-10.7259
▁Having	-10.7259
▁crew	-10.7259
05	-10.7272
▁Children	-10.728
▁phrase	-10.728
29	-10.7286
▁gotten	-10.7293
▁budget	-10.7301
▁strain	-10.7301
▁pepper	-10.7304
▁usual	-10.7308
▁Later	-10.7317
▁Land	-10.7317
02	-10.7321
ر	-10.7322
▁1945	-10.7322
▁string	-10.7333
▁secondary	-10.7342
▁Society	-10.7344
26	-10.7351
▁portion	-10.7361
▁(18	-10.7363
▁babies	-10.7365
▁reserve	-10.7365
▁Anna	-10.7366
▁architecture	-10.7367
▁ultimately	-10.7376
▁lake	-10.7382
▁poem	-10.7383
▁centuries	-10.7387
▁sensor	-10.7387
▁Henry	-10.7387
▁Still	-10.7387
▁fake	-10.7404
▁equivalent	-10.7408
▁observation	-10.7408
▁register	-10.7408
▁somehow	-10.7408
89	-10.7413
▁constantly	-10.7416
▁meters	-10.7425
88	-10.7427
▁Shu	-10.7429
fish	-10.7436
▁scratch	-10.7451
▁Summer	-10.7451
▁determin	-10.7467
▁dramatic	-10.747
▁Earl	-10.747
▁gang	-10.7472
▁uncomfortable	-10.7473
▁external	-10.7473
▁trauma	-10.7473
▁swim	-10.7473
▁trail	-10.7473
▁importance	-10.7475
▁mineral	-10.7477
▁architect	-10.7493
▁strengthen	-10.7494
▁afternoon	-10.7495
▁shopping	-10.7497
▁Sky	-10.7498
▁wipe	-10.7501
▁fur	-10.7509
86	-10.7512
▁immediate	-10.7514
▁necessarily	-10.7516
▁1991	-10.7516
▁fifth	-10.7516
▁Development	-10.7519
▁Book	-10.7535
ville	-10.7538
▁convention	-10.7538
grade	-10.7543
▁loan	-10.755
▁concert	-10.756
▁relief	-10.756
▁hardware	-10.756
▁examine	-10.756
▁Professor	-10.7582
▁consumption	-10.7582
▁physician	-10.7582
▁Texas	-10.7582
▁queen	-10.7582
▁pretend	-10.7582
▁terrorist	-10.7587
▁constellation	-10.7604
▁excited	-10.7604
▁desert	-10.7605
▁alongside	-10.7613
▁lean	-10.7617
▁manufacturing	-10.7626
▁steam	-10.7626
▁Opera	-10.7643
▁category	-10.7648
▁Ministry	-10.7648
▁debate	-10.7652
▁snow	-10.7653
▁warning	-10.7661
▁Shin	-10.7708
▁vocal	-10.7714
▁coach	-10.7714
▁theater	-10.7743
▁duty	-10.7754
▁swear	-10.7759
$	-10.7769
04	-10.7771
▁cluster	-10.7781
▁senior	-10.7781
▁crystal	-10.7782
position	-10.7782
▁occurred	-10.779
▁instruct	-10.7803
▁breakfast	-10.7803
▁snake	-10.7803
▁narrow	-10.7803
▁manufacturer	-10.7807
▁vet	-10.7816
▁diagnose	-10.7826
▁experiencing	-10.7826
▁kitten	-10.7826
▁retain	-10.7826
▁stranger	-10.7832
stream	-10.7837
▁chose	-10.7839
▁frequency	-10.7848
▁divorce	-10.7848
▁swelling	-10.7848
CBS	-10.785
▁advise	-10.7851
▁Order	-10.7863
▁combat	-10.7865
▁browser	-10.7871
▁Muslim	-10.7871
▁graduated	-10.7871
▁Sega	-10.7879
▁TED	-10.7893
▁Southern	-10.7894
03	-10.7899
▁vast	-10.7903
▁edition	-10.7908
▁counsel	-10.7916
▁executive	-10.7916
▁sacrifice	-10.7916
▁restore	-10.7929
▁Committee	-10.7939
▁physics	-10.7939
▁prescription	-10.7939
▁fought	-10.7961
▁survey	-10.7984
▁smoking	-10.7984
▁prize	-10.7985
▁hoping	-10.7991
▁efficient	-10.7994
▁Everybody	-10.8007
▁survival	-10.8007
▁Santa	-10.8012
▁academic	-10.803
▁corrupt	-10.803
85	-10.8034
▁territory	-10.8053
▁precise	-10.8053
▁shadow	-10.8053
▁Thomas	-10.8053
▁pursue	-10.8054
▁1,000	-10.8058
▁Director	-10.8063
▁deposit	-10.8064
▁incredibly	-10.8076
▁1987	-10.8076
▁radiation	-10.8076
▁Commission	-10.8077
▁injection	-10.8086
▁province	-10.8099
▁fraction	-10.8099
▁‘	-10.8101
▁pitch	-10.8106
▁dispute	-10.8124
▁Angeles	-10.8134
▁featur	-10.8134
▁Food	-10.8136
▁Major	-10.8145
▁plus	-10.8147
▁tension	-10.8149
▁collective	-10.8159
▁obsess	-10.8168
▁variation	-10.8168
▁Power	-10.8169
▁aggressive	-10.8191
▁calcium	-10.8191
▁hungry	-10.8191
▁intense	-10.8196
▁Little	-10.8197
▁indeed	-10.8204
97	-10.8214
è	-10.8215
▁relevant	-10.8215
▁Public	-10.8215
▁producing	-10.8215
▁×	-10.8215
▁plot	-10.8216
▁representative	-10.8223
▁electricity	-10.8224
▁measurement	-10.8237
▁dating	-10.8237
▁distribute	-10.8238
▁Studies	-10.8238
96	-10.8251
▁Special	-10.8262
▁Walk	-10.8276
▁Islam	-10.8286
▁insert	-10.8305
▁enhance	-10.8309
▁idiot	-10.8309
▁Blue	-10.8309
▁sodium	-10.8309
▁delay	-10.8311
▁Town	-10.8327
▁Tokyo	-10.8332
pharmac	-10.8332
▁shelter	-10.8333
▁Daniel	-10.8333
▁Always	-10.8333
▁pipe	-10.8355
▁valuable	-10.8356
▁Until	-10.8356
▁Light	-10.8373
▁gradually	-10.838
▁cotton	-10.838
▁slide	-10.8384
▁Phil	-10.8392
▁define	-10.8401
▁Oliver	-10.8403
▁Secretary	-10.8405
▁analog	-10.8405
▁nuts	-10.8406
▁lemon	-10.8414
▁administer	-10.8427
▁collapse	-10.8427
▁composed	-10.8427
▁feedback	-10.8428
▁graphic	-10.8429
▁$2	-10.8451
▁derived	-10.8451
▁existence	-10.8463
▁Entertainment	-10.8499
▁illustrat	-10.8499
maker	-10.85
fact	-10.8505
▁desk	-10.8513
▁guarantee	-10.8523
▁asleep	-10.8523
▁1988	-10.8531
▁inflammation	-10.8547
▁ghost	-10.8547
▁lifestyle	-10.8547
▁Remove	-10.8547
▁baking	-10.856
volving	-10.8571
▁household	-10.8575
▁leak	-10.8581
▁calculate	-10.8595
▁distinguish	-10.8595
▁jealous	-10.8595
▁policies	-10.8595
▁memories	-10.8595
▁psycho	-10.8604
▁stood	-10.8605
▁yard	-10.8607
▁landscape	-10.862
▁tournament	-10.862
▁compliment	-10.862
▁depict	-10.8621
▁edit	-10.8628
direct	-10.8641
▁sculpt	-10.8644
▁Unless	-10.8648
▁airport	-10.8657
▁YouTube	-10.8668
▁committed	-10.8668
▁innocent	-10.8669
Video	-10.8669
▁alarm	-10.8674
▁Brazilian	-10.8674
▁respectively	-10.8693
▁sudden	-10.8693
▁dump	-10.8709
▁withdraw	-10.8717
▁infant	-10.872
▁rip	-10.8739
▁Jewish	-10.8742
▁bastard	-10.8742
▁freak	-10.8742
▁recipe	-10.8742
▁colour	-10.8744
▁insurance	-10.8767
▁Again	-10.8767
▁twin	-10.8768
▁toilet	-10.8783
▁poverty	-10.8791
▁observe	-10.8815
▁algorithm	-10.8816
▁interface	-10.8816
▁Joseph	-10.8816
▁disturb	-10.8816
▁roughly	-10.8816
▁ladies	-10.8816
▁priest	-10.8816
▁clock	-10.8828
▁buddy	-10.8841
▁neither	-10.8841
▁resolve	-10.8841
▁crown	-10.8841
▁trend	-10.8849
▁maximum	-10.8866
▁USB	-10.8882
▁automatically	-10.8891
▁bleach	-10.8891
ã	-10.8916
▁chocolate	-10.8916
▁recognition	-10.8916
▁Castle	-10.8916
▁rural	-10.8916
▁float	-10.892
▁moderate	-10.8922
▁Night	-10.8939
▁Argentina	-10.8941
▁compassion	-10.8941
▁Foundation	-10.8941
▁transmit	-10.8943
▁aircraft	-10.8944
▁prominent	-10.8966
▁suppress	-10.8966
▁Chicago	-10.8991
▁neutral	-10.8991
▁compress	-10.8992
▁plug	-10.8992
▁1986	-10.8999
▁supplies	-10.9016
▁Team	-10.9017
▁reverse	-10.9018
▁Emperor	-10.9042
▁Florida	-10.9042
▁punch	-10.9042
▁resolution	-10.9067
▁Dragon	-10.9067
▁cheat	-10.908
▁activate	-10.9093
▁loyal	-10.9093
▁patch	-10.9095
▁Revolution	-10.9118
▁laptop	-10.9118
▁dedicated	-10.9118
▁density	-10.9118
▁Charlie	-10.9118
▁rush	-10.912
▁excessive	-10.9125
▁angel	-10.913
́	-10.9143
▁Imagine	-10.9143
▁snack	-10.9144
▁dollar	-10.9148
▁everyday	-10.9155
cultural	-10.916
▁horizon	-10.9169
▁Record	-10.9169
▁induce	-10.9187
▁Region	-10.9194
▁cousin	-10.9195
▁Media	-10.9197
▁leaf	-10.9197
▁expectations	-10.9202
▁1975	-10.9207
79	-10.9213
▁Understand	-10.9221
▁turtle	-10.9221
ggle	-10.9236
▁goddamn	-10.9246
▁borrow	-10.9246
▁arrive	-10.9247
94	-10.9255
dependent	-10.9268
▁contribution	-10.9272
▁potassium	-10.9272
▁reduction	-10.9272
▁exclusive	-10.9298
▁enforce	-10.9298
▁latter	-10.9312
▁disappoint	-10.9324
▁sufficient	-10.9324
▁description	-10.9324
▁Smith	-10.9325
▁disrupt	-10.9325
▁praise	-10.9325
▁invite	-10.9328
▁Francisco	-10.9328
▁1985	-10.9332
▁flee	-10.9341
▁Security	-10.935
▁abstract	-10.935
▁1984	-10.935
▁perceive	-10.935
▁Iraq	-10.9351
5,000	-10.9365
ā	-10.9377
▁extensive	-10.9377
▁troops	-10.9377
▁Through	-10.9377
▁dancing	-10.9377
▁permission	-10.9383
▁Francis	-10.9399
▁chemist	-10.9403
▁excellent	-10.9403
▁disaster	-10.9403
▁tract	-10.9404
▁societies	-10.9429
▁1983	-10.9429
▁Rachel	-10.9429
▁pilot	-10.943
▁estate	-10.943
▁mouse	-10.9442
▁bug	-10.9453
▁revenue	-10.9456
▁confess	-10.9456
▁emotion	-10.9457
▁Anyway	-10.9461
▁manufacture	-10.9478
▁innovation	-10.9482
▁receiving	-10.9482
▁sword	-10.9482
▁stroke	-10.9482
▁false	-10.9482
▁Jimmy	-10.9483
▁sink	-10.9492
aught	-10.9502
▁scream	-10.9509
▁recruit	-10.9509
▁kidnap	-10.9519
▁artificial	-10.9535
▁magnitude	-10.9535
▁proposal	-10.9535
▁extension	-10.9535
▁vinegar	-10.9562
▁estimate	-10.9565
▁enemies	-10.9589
▁assistant	-10.9589
▁swimming	-10.9589
▁sunlight	-10.9593
▁Nazi	-10.9614
▁Business	-10.9615
▁nausea	-10.9615
▁boundaries	-10.9616
▁conclude	-10.9642
▁continuous	-10.9642
▁exciting	-10.9642
▁Berlin	-10.9643
▁philosophy	-10.9669
▁witch	-10.9672
ú	-10.9696
▁Assembly	-10.9696
▁assassin	-10.9696
▁iPhone	-10.9696
▁eastern	-10.9697
▁legend	-10.9704
▁quote	-10.9722
▁violent	-10.9723
▁funeral	-10.9724
▁Besides	-10.9724
▁Hello	-10.9727
▁Kenya	-10.9729
▁poetry	-10.973
▁1979	-10.9731
▁explanation	-10.975
▁Britain	-10.9778
▁concrete	-10.9778
▁principal	-10.9778
▁removing	-10.9778
▁finance	-10.9778
▁barrier	-10.9778
▁depth	-10.9778
▁Change	-10.9779
▁Help	-10.978
▁casual	-10.978
▁Pomorski	-10.9805
▁infrastructure	-10.9805
▁Repeat	-10.9805
▁Claire	-10.9805
▁audio	-10.9806
▁psychological	-10.9807
▁commission	-10.9832
▁regret	-10.9832
▁thumb	-10.9832
▁concentrate	-10.9833
▁royal	-10.9833
▁interrupt	-10.986
▁entry	-10.9861
▁Unlike	-10.9861
▁Arthur	-10.9888
bacter	-10.9897
owski	-10.9905
ū	-10.9915
▁Choszczno	-10.9915
▁Communist	-10.9915
▁bubble	-10.9915
▁diagnosis	-10.9915
▁minimum	-10.9915
▁Finally	-10.9915
▁Sunday	-10.9917
ç	-10.9943
▁battery	-10.9943
▁Front	-10.9944
▁gym	-10.9945
▁blog	-10.9945
▁naked	-10.9946
▁Angel	-10.997
Ś	-10.9971
▁acknowledge	-10.9971
▁vulnerable	-10.9971
▁scrap	-10.9971
▁loop	-10.9984
▁fulfill	-10.9998
▁twenty	-10.9998
▁Agent	-11.0001
▁alien	-11.0004
sexual	-11.0021
▁derivative	-11.0026
▁temporary	-11.0026
▁facial	-11.0026
▁Therefore	-11.0027
▁interfere	-11.0031
flow	-11.0047
▁courage	-11.0054
▁elder	-11.0055
▁barely	-11.0056
▁opponent	-11.0082
ż	-11.0111
β	-11.0111
▁Depend	-11.0111
▁betray	-11.0114
▁criticism	-11.0116
▁Common	-11.0119
▁differ	-11.0131
▁skip	-11.0134
▁diabetes	-11.0139
▁motivate	-11.0139
connect	-11.0163
▁drill	-11.0167
▁strict	-11.017
▁resembl	-11.0196
▁Singapore	-11.0224
▁uniform	-11.0224
▁awful	-11.0245
▁guitar	-11.0253
▁Speak	-11.0253
▁carrier	-11.0254
▁dye	-11.0262
therapy	-11.0276
▁grandfather	-11.0281
ن	-11.0281
▁Supreme	-11.031
▁judgment	-11.031
▁universal	-11.031
▁Observ	-11.031
▁preserve	-11.031
▁temple	-11.031
▁Taiwan	-11.0339
▁conclusion	-11.0339
▁grandmother	-11.0339
▁continent	-11.0339
▁expense	-11.0339
▁1982	-11.0339
This	-11.0364
▁dialect	-11.0368
▁sponsor	-11.0368
▁darling	-11.0368
▁agency	-11.0369
▁cancel	-11.0371
▁transferred	-11.0372
▁associate	-11.0375
▁assert	-11.038
▁Province	-11.0397
▁gravity	-11.0397
▁Global	-11.0426
▁Twitter	-11.0426
▁database	-11.0426
▁margin	-11.0426
▁instant	-11.0428
▁frequent	-11.0431
▁Control	-11.0456
▁steel	-11.0456
▁keyboard	-11.0488
▁compare	-11.0493
▁Administration	-11.0514
▁intellectual	-11.0514
▁monkey	-11.0514
▁kingdom	-11.0514
▁Focus	-11.0514
which	-11.0538
▁frozen	-11.0543
▁rinse	-11.0544
▁default	-11.0572
▁athlete	-11.0573
▁CEO	-11.0573
▁Cross	-11.0573
▁Linux	-11.0573
▁odor	-11.0573
▁Parliament	-11.0602
▁moisture	-11.0602
▁reputation	-11.0602
▁outdoor	-11.0602
▁Short	-11.0603
▁Drawsk	-11.0628
▁shampoo	-11.0632
▁underneath	-11.0632
▁Square	-11.0632
▁torture	-11.0635
communica	-11.064
▁ordinary	-11.0661
▁lecture	-11.0662
claim	-11.0667
▁parliament	-11.0691
▁DVD	-11.0691
▁Edward	-11.0692
▁resource	-11.0702
▁Mountain	-11.0721
▁harvest	-11.0721
▁swallow	-11.0721
▁Dutch	-11.0722
▁bump	-11.0722
▁Albert	-11.0724
▁clinic	-11.0751
▁Hospital	-11.0751
▁privacy	-11.0751
▁Project	-11.0751
▁Somebody	-11.0751
▁apologize	-11.0751
▁ال	-11.0751
▁captain	-11.0751
▁bedroom	-11.0754
▁arrangement	-11.0781
▁phenomenon	-11.0781
▁dentist	-11.0782
▁import	-11.0789
▁stimulate	-11.0812
▁requirements	-11.0813
▁radical	-11.0817
▁strategic	-11.0842
م	-11.0842
▁Austria	-11.0842
▁mutual	-11.0842
▁Northern	-11.0842
▁portray	-11.0844
▁Jupiter	-11.0872
▁somewhat	-11.0872
▁Friday	-11.0872
▁injured	-11.0872
▁wrist	-11.0872
▁dumb	-11.0876
▁Among	-11.0877
▁terror	-11.0896
▁hug	-11.0896
▁Amazon	-11.0903
▁Football	-11.0903
▁advertising	-11.0903
▁mathematics	-11.0903
▁heaven	-11.0903
ä	-11.0933
▁rabbit	-11.0933
▁veterinar	-11.0933
▁kilometers	-11.0933
▁radius	-11.0933
▁Program	-11.0933
▁ritual	-11.0933
▁kilo	-11.0935
▁extraordinary	-11.0964
▁NASA	-11.0964
▁essay	-11.0964
▁programming	-11.0967
&	-11.0991
▁Moscow	-11.0995
▁collaboration	-11.0995
▁contemporary	-11.0995
▁composition	-11.0995
▁domain	-11.0997
▁vertical	-11.0998
▁awake	-11.1001
▁earthquake	-11.1026
▁yield	-11.1026
▁parallel	-11.1026
▁Whether	-11.1057
▁coordinate	-11.1057
▁Civil	-11.1057
▁blend	-11.1062
formerly	-11.1065
▁descend	-11.1088
▁María	-11.1088
▁flirt	-11.109
▁announce	-11.1099
▁discipline	-11.1119
▁investigate	-11.1119
▁Pakistan	-11.115
▁negotiation	-11.115
▁velocity	-11.115
▁yogurt	-11.115
▁passenger	-11.115
▁twist	-11.115
▁perception	-11.115
▁cycl	-11.1154
▁Imperial	-11.1181
▁festival	-11.1181
а	-11.1181
▁literary	-11.1181
▁beneath	-11.1182
▁ought	-11.1189
▁desperate	-11.1213
▁motivation	-11.1213
▁Canadian	-11.1213
▁uncertain	-11.1213
▁jewel	-11.1245
▁cyst	-11.125
Polish	-11.1274
Music	-11.1274
▁flesh	-11.1276
▁vein	-11.1282
▁diameter	-11.1308
▁FBI	-11.1308
▁extent	-11.1309
▁palace	-11.131
ة	-11.134
▁Welcome	-11.134
▁abilities	-11.134
▁constitution	-11.134
▁Marshal	-11.1341
▁trapped	-11.1342
▁Between	-11.1372
▁cooperation	-11.1372
▁absolute	-11.138
à	-11.15
ب	-11.1763
ˈ	-11.183
и	-11.2136
#	-11.2559
Ł	-11.2632
ə	-11.3543
و	-11.3663
ل	-11.3785
→	-11.4859
£	-11.5228
о	-11.5418
â	-11.5466
μ	-11.5466
е	-11.5466
+	-11.5926
н	-11.6113
ː	-11.6321
Ż	-11.6427
>	-11.6916
р	-11.6916
د	-11.7028
ɪ	-11.7084
ê	-11.7141
ć	-11.7668
ع	-11.7728
É	-11.7789
♪	-11.7911
с	-11.8097
س	-11.8097
ô	-11.8287
в	-11.8287
л	-11.8351
ت	-11.8745
ο	-11.8812
ī	-11.9085
к	-11.9224
š	-11.9366
ï	-11.9581
(	-11.9843
ë	-11.9952
ß	-12.0181
ح	-12.0181
±	-12.0258
~	-12.0337
|	-12.0415
γ	-12.0415
ج	-12.0415
^	-12.0495
_	-12.0655
ق	-12.0737
π	-12.0985
ı	-12.1069
ك	-12.1239
т	-12.1325
ف	-12.1325
æ	-12.1588
ν	-12.2231
δ	-12.2519
ش	-12.2617
*	-12.2682
ز	-12.2716
д	-12.2816
⁄	-12.2816
č	-12.3122
<	-12.3226
ρ	-12.3226
τ	-12.3438
€	-12.3438
ς	-12.3438
σ	-12.3438
λ	-12.3875
ε	-12.3988
⌘	-12.4101
ι	-12.4332
ì	-12.4332
ー	-12.4569
ź	-12.4812
θ	-12.4812
Đ	-12.4935
ò	-12.506
ʊ	-12.5315
κ	-12.5445
ン	-12.571
ē	-12.5845
ệ	-12.6262
η	-12.6404
м	-12.6549
ù	-12.6696
子	-12.6696
у	-12.7151
þ	-12.7307
ه	-12.7307
·	-12.7466
ч	-12.7791
õ	-12.7958
أ	-12.7958
ɑ	-12.7958
ط	-12.83
ả	-12.8654
й	-12.8836
ø	-12.9209
ɛ	-12.9402
ư	-12.9598
@	-12.9598
‐	-12.9798
ル	-12.9798
Ö	-13.0002
ă	-13.0002
я	-13.0002
ǎ	-13.0423
ラ	-13.064
ý	-13.064
⊞	-13.0863
ร	-13.1322
å	-13.1322
ω	-13.1322
า	-13.1561
ト	-13.1561
φ	-13.1561
ό	-13.1561
イ	-13.1561
خ	-13.1804
ồ	-13.1804
з	-13.1804
ь	-13.2054
ơ	-13.2054
ί	-13.2311
υ	-13.2311
≤	-13.2311
≥	-13.2311
ά	-13.2311
大	-13.2311
§	-13.2574
ş	-13.2574
ʃ	-13.2574
î	-13.2844
ạ	-13.2844
ы	-13.2844
К	-13.2844
ọ	-13.3122
อ	-13.3408
ʻ	-13.3408
ˌ	-13.3408
п	-13.3408
ו	-13.3408
י	-13.3408
ṭ	-13.3408
ス	-13.3408
г	-13.4005
リ	-13.4005
이	-13.4005
ŋ	-13.4005
⇧	-13.4005
の	-13.4005
=	-13.4283
В	-13.4317
Å	-13.4317
ิ	-13.4317
ɒ	-13.464
น	-13.464
Δ	-13.464
∈	-13.464
ğ	-13.464
А	-13.464
û	-13.4973
王	-13.4973
เ	-13.4973
‘	-13.5284
М	-13.5318
ʒ	-13.5318
ế	-13.5318
ア	-13.5318
Š	-13.5675
ž	-13.5675
χ	-13.5675
ท	-13.5675
ى	-13.5675
√	-13.5675
⋮	-13.5675
С	-13.5675
–	-13.6011
ũ	-13.6046
ộ	-13.6046
ɡ	-13.6046
会	-13.6046
ม	-13.6046
ั	-13.643
ị	-13.643
‡	-13.643
フ	-13.643
ロ	-13.643
姫	-13.643
[	-13.6796
¡	-13.7682
ム	-13.7682
ض	-13.7682
式	-13.7682
ย	-13.8136
・	-13.8136
И	-13.8136
美	-13.8136
天	-13.8136
א	-13.8612
ζ	-13.8612
田	-13.8612
マ	-13.8613
ा	-13.9112
ě	-13.9112
ǔ	-13.9112
Б	-13.9112
親	-13.9112
ố	-13.9112
山	-13.9112
ל	-13.9112
語	-13.9112
б	-13.9639
ц	-13.9639
«	-13.9639
ő	-13.9639
ш	-13.9639
ی	-13.9639
동	-13.9639
्	-14.0194
\	-14.0194
Č	-14.0194
َ	-14.0194
†	-14.0194
ウ	-14.0194
一	-14.0194
어	-14.0194
ע	-14.0194
і	-14.0194
ジ	-14.0194
文	-14.0194
木	-14.0783
ล	-14.0783
東	-14.0783
사	-14.0783
מ	-14.0783
ث	-14.0783
ấ	-14.0783
ứ	-14.0783
다	-14.0783
ǐ	-14.0783
ד	-14.0783
ǃ	-14.0783
小	-14.0783
カ	-14.0783
학	-14.0783
国	-14.0783
ド	-14.0783
ή	-14.1408
주	-14.1408
Í	-14.1408
Ó	-14.1408
ф	-14.1408
ん	-14.1408
李	-14.1408
ǒ	-14.1408
성	-14.1408
ɔ	-14.1408
ָ	-14.1408
シ	-14.1408
う	-14.1408
ガ	-14.1408
고	-14.1408
ッ	-14.1408
し	-14.1408
レ	-14.1408
ク	-14.1408
的	-14.1408
タ	-14.1408
ต	-14.2074
서	-14.2074
ʿ	-14.2074
П	-14.2074
ה	-14.2074
้	-14.2074
ầ	-14.2074
∆	-14.2074
民	-14.2074
х	-14.2074
中	-14.2074
기	-14.2074
김	-14.2074
ר	-14.2074
コ	-14.2074
内	-14.2074
テ	-14.2074
ด	-14.2788
์	-14.2788
ง	-14.2789
四	-14.2789
ė	-14.2789
İ	-14.2789
Н	-14.2789
キ	-14.2789
人	-14.2789
교	-14.2789
έ	-14.2789
ַ	-14.2789
ก	-14.2789
♠	-14.2789
⟩	-14.2789
明	-14.2789
아	-14.2789
ð	-14.2789
ี	-14.2789
三	-14.2789
נ	-14.2789
ナ	-14.2789
行	-14.2789
エ	-14.2789
ύ	-14.3558
스	-14.3558
ř	-14.3558
제	-14.3558
지	-14.3558
ת	-14.3558
प	-14.3558
리	-14.3558
장	-14.3558
정	-14.3558
お	-14.3558
э	-14.3558
ミ	-14.3558
왕	-14.3558
ж	-14.3558
र	-14.3558
া	-14.4391
ส	-14.4391
̃	-14.4391
神	-14.4391
씨	-14.4391
의	-14.4391
Т	-14.4391
시	-14.4391
ψ	-14.4391
่	-14.4391
⌥	-14.4391
⏎	-14.4391
い	-14.4391
公	-14.4391
官	-14.4391
ב	-14.4391
ש	-14.4391
上	-14.4391
宮	-14.4391
海	-14.4391
대	-14.4391
Р	-14.4391
ְ	-14.4391
生	-14.4391
О	-14.4391
き	-14.4391
と	-14.4391
त	-14.53
บ	-14.53
か	-14.53
グ	-14.53
ɜ	-14.53
ी	-14.53
라	-14.53
ἀ	-14.53
ן	-14.53
พ	-14.53
∨	-14.53
主	-14.53
力	-14.53
ǁ	-14.53
경	-14.53
문	-14.53
전	-14.53
学	-14.53
藤	-14.53
ּ	-14.53
்	-14.53
ุ	-14.63
有	-14.63
울	-14.63
신	-14.63
ș	-14.63
Г	-14.63
不	-14.63
國	-14.63
ξ	-14.63
ם	-14.63
ئ	-14.63
≈	-14.63
八	-14.63
إ	-14.63
ṣ	-14.63
千	-14.63
た	-14.63
地	-14.63
州	-14.63
平	-14.63
日	-14.63
本	-14.63
村	-14.63
理	-14.63
ャ	-14.63
Л	-14.63
ギ	-14.63
光	-14.63
物	-14.63
新	-14.63
が	-14.63
ว	-14.7411
に	-14.7411
न	-14.7411
ি	-14.7411
ま	-14.7411
下	-14.7411
나	-14.7411
인	-14.7411
ю	-14.7411
方	-14.7411
西	-14.7411
ŭ	-14.7411
ț	-14.7411
ỹ	-14.7411
‹	-14.7411
›	-14.7411
り	-14.7411
司	-14.7411
温	-14.7411
花	-14.7411
에	-14.7411
ώ	-14.7411
ُ	-14.7411
之	-14.7411
五	-14.7411
法	-14.7411
ّ	-14.7411
隊	-14.7411
ゼ	-14.7411
チ	-14.7411
モ	-14.7411
공	-14.7411
、	-14.7411
く	-14.7411
ู	-14.8661
Д	-14.8661
צ	-14.8661
も	-14.8661
œ	-14.8661
े	-14.8661
端	-14.8661
Ü	-14.8661
ि	-14.8661
徳	-14.8661
春	-14.8661
白	-14.8661
若	-14.8661
龍	-14.8661
오	-14.8661
{	-14.8661
ĩ	-14.8661
ʌ	-14.8661
З	-14.8661
ё	-14.8661
ắ	-14.8661
ữ	-14.8661
∂	-14.8661
∑	-14.8661
∘	-14.8661
∣	-14.8661
∧	-14.8661
⟨	-14.8661
こ	-14.8661
さ	-14.8661
ツ	-14.8661
十	-14.8661
女	-14.8661
洞	-14.8661
郡	-14.8661
院	-14.8661
미	-14.8661
일	-14.8661
ʾ	-14.8661
ק	-14.8661
ܪ	-14.8661
仁	-14.8661
家	-14.8661
道	-14.8661
ダ	-14.8661
你	-14.8661
合	-14.8661
楽	-14.8661
ա	-14.8661
क	-14.8661
見	-14.8661
野	-14.8661
ニ	-14.8661
メ	-14.8661
戦	-14.8661
ห	-15.009
ค	-15.009
ハ	-15.009
영	-15.009
ฟ	-15.009
バ	-15.009
九	-15.009
空	-15.009
金	-15.009
마	-15.009
부	-15.009
화	-15.009
ਾ	-15.009
랑	-15.009
트	-15.009
©	-15.009
ʼ	-15.009
ܝ	-15.009
န	-15.009
ῦ	-15.009
↓	-15.009
≡	-15.009
位	-15.009
宝	-15.009
手	-15.009
机	-15.009
煮	-15.009
科	-15.009
絵	-15.009
部	-15.009
長	-15.009
飛	-15.009
高	-15.009
군	-15.009
선	-15.009
한	-15.009
ふ	-15.009
正	-15.009
重	-15.009
ġ	-15.009
ס	-15.009
ِ	-15.009
ち	-15.009
る	-15.009
市	-15.009
语	-15.009
안	-15.009
후	-15.009
Α	-15.009
ल	-15.009
ช	-15.009
ธ	-15.009
ไ	-15.009
ი	-15.009
は	-15.009
パ	-15.009
制	-15.009
민	-15.009
산	-15.009
愛	-15.009
機	-15.009
福	-15.009
原	-15.009
ェ	-15.009
ビ	-15.009
伟	-15.009
°	-15.1722
限	-15.1756
Γ	-15.1756
Ā	-15.1757
Χ	-15.1757
み	-15.1757
ヒ	-15.1757
ボ	-15.1757
상	-15.1757
터	-15.1757
̄	-15.1757
Ε	-15.1757
安	-15.1757
레	-15.1757
Ñ	-15.1757
ъ	-15.1757
כ	-15.1757
य	-15.1757
ਰ	-15.1757
ỉ	-15.1757
ベ	-15.1757
七	-15.1757
字	-15.1757
政	-15.1757
茅	-15.1757
阿	-15.1757
青	-15.1757
鬼	-15.1757
鳳	-15.1757
국	-15.1757
세	-15.1757
­	-15.1757
Ä	-15.1757
̀	-15.1757
Π	-15.1757
ܐ	-15.1757
ổ	-15.1757
ợ	-15.1757
∇	-15.1757
∏	-15.1757
∼	-15.1757
な	-15.1757
ィ	-15.1757
実	-15.1757
陳	-15.1757
보	-15.1757
소	-15.1757
저	-15.1757
ǝ	-15.1757
ـ	-15.1757
แ	-15.1757
在	-15.1757
學	-15.1757
志	-15.1757
歌	-15.1757
가	-15.1757
있	-15.1757
명	-15.1757
ம	-15.1757
動	-15.1757
У	-15.1757
代	-15.1757
雪	-15.1757
ն	-15.1757
ா	-15.1757
け	-15.1757
プ	-15.1757
化	-15.1757
郎	-15.1757
려	-15.1757
オ	-15.1757
็	-15.1757
デ	-15.1757
ব	-15.3756
র	-15.3756
엔	-15.3756
্	-15.3756
级	-15.3756
ĝ	-15.3756
ษ	-15.3757
ะ	-15.3757
ブ	-15.3757
定	-15.3757
軍	-15.3757
陀	-15.3757
내	-15.3757
đ	-15.3757
ִ	-15.3757
ܬ	-15.3757
ु	-15.3757
ὐ	-15.3757
∶	-15.3757
す	-15.3757
ネ	-15.3757
写	-15.3757
南	-15.3757
如	-15.3757
德	-15.3757
星	-15.3757
江	-15.3757
百	-15.3757
で	-15.3757
迷	-15.3757
陈	-15.3757
조	-15.3757
˧	-15.3757
ү	-15.3757
ֵ	-15.3757
ܟ	-15.3757
ে	-15.3757
မ	-15.3757
ậ	-15.3757
ể	-15.3757
ỗ	-15.3757
ủ	-15.3757
ử	-15.3757
ῖ	-15.3757
⊆	-15.3757
っ	-15.3757
ソ	-15.3757
世	-15.3757
二	-15.3757
城	-15.3757
堂	-15.3757
娘	-15.3757
我	-15.3757
所	-15.3757
教	-15.3757
派	-15.3757
游	-15.3757
舞	-15.3757
艦	-15.3757
衣	-15.3757
都	-15.3757
集	-15.3757
광	-15.3757
녕	-15.3757
로	-15.3757
비	-15.3757
야	-15.3757
요	-15.3757
자	-15.3757
호	-15.3757
京	-15.3757
雲	-15.3757
구	-15.3757
재	-15.3757
하	-15.3757
해	-15.3757
현	-15.3757
گ	-15.3757
द	-15.3757
府	-15.3757
達	-15.3757
里	-15.3757
門	-15.3757
여	-15.3757
ぶ	-15.3757
清	-15.3757
ֹ	-15.3757
व	-15.3757
令	-15.3757
御	-15.3757
校	-15.3757
법	-15.3757
پ	-15.3757
太	-15.3757
桂	-15.3757
死	-15.3757
រ	-15.3757
場	-15.3757
爱	-15.3757
じ	-15.3757
放	-15.3757
肉	-15.3757
ა	-15.3757
馬	-15.3757
ワ	-15.3757
ข	-15.3757
×	-15.6222
意	-15.6256
ւ	-15.6256
ֶ	-15.6256
ป	-15.6256
원	-15.6256
あ	-15.6256
կ	-15.6256
য	-15.6256
ু	-15.6256
云	-15.6256
布	-15.6256
技	-15.6256
横	-15.6256
管	-15.6256
과	-15.6256
真	-15.6257
ۇ	-15.6257
দ	-15.6257
つ	-15.6257
순	-15.6257
ų	-15.6257
ܡ	-15.6257
း	-15.6257
ご	-15.6257
任	-15.6257
利	-15.6257
玉	-15.6257
老	-15.6257
백	-15.6257
최	-15.6257
태	-15.6257
파	-15.6257
홍	-15.6257
ţ	-15.6257
ɦ	-15.6257
ɨ	-15.6257
ظ	-15.6257
म	-15.6257
ष	-15.6257
င	-15.6257
ာ	-15.6257
ớ	-15.6257
ῶ	-15.6257
※	-15.6257
∀	-15.6257
∥	-15.6257
≠	-15.6257
初	-15.6257
和	-15.6257
垣	-15.6257
好	-15.6257
峰	-15.6257
工	-15.6257
情	-15.6257
是	-15.6257
月	-15.6257
札	-15.6257
樹	-15.6257
氏	-15.6257
洋	-15.6257
火	-15.6257
第	-15.6257
镇	-15.6257
香	-15.6257
黎	-15.6257
남	-15.6257
너	-15.6257
만	-15.6257
연	-15.6257
예	-15.6257
촌	-15.6257
희	-15.6257
先	-15.6257
宿	-15.6257
蔵	-15.6257
豪	-15.6257
팔	-15.6257
𒀭	-15.6257
ǀ	-15.6257
˥	-15.6257
ἐ	-15.6257
え	-15.6257
ず	-15.6257
佐	-15.6257
味	-15.6257
圣	-15.6257
年	-15.6257
時	-15.6257
編	-15.6257
話	-15.6257
運	-15.6257
食	-15.6257
齊	-15.6257
그	-15.6257
도	-15.6257
프	-15.6257
혜	-15.6257
흥	-15.6257
𒆠	-15.6257
會	-15.6257
ذ	-15.6257
ḍ	-15.6257
武	-15.6257
赤	-15.6257
ў	-15.6257
ं	-15.6257
ိ	-15.6257
ケ	-15.6257
ノ	-15.6257
井	-15.6257
想	-15.6257
業	-15.6257
源	-15.6257
狗	-15.6257
遊	-15.6257
石	-15.6257
ザ	-15.6257
皇	-15.6257
島	-15.6257
立	-15.6257
古	-15.6257
相	-15.6257
ผ	-15.959
加	-15.959
羽	-15.959
聯	-15.959
斎	-15.959
総	-15.959
স	-15.959
ਗ	-15.959
ใ	-15.959
ゆ	-15.959
サ	-15.959
尔	-15.959
瑞	-15.959
英	-15.959
落	-15.959
賀	-15.959
鎮	-15.959
텔	-15.959
𒆳	-15.959
特	-15.959
Э	-15.959
ܒ	-15.959
ܢ	-15.959
த	-15.959
ள	-15.959
ら	-15.959
わ	-15.959
友	-15.959
忠	-15.959
思	-15.959
自	-15.959
色	-15.959
는	-15.959
차	-15.959
Ē	-15.959
ů	-15.959
̤	-15.959
や	-15.959
師	-15.959
建	-15.959
張	-15.959
心	-15.959
无	-15.959
柳	-15.959
玄	-15.959
結	-15.959
貴	-15.959
陽	-15.959
박	-15.959
종	-15.959
¬	-15.959
ƒ	-15.959
ɸ	-15.959
̍	-15.959
̪	-15.959
Ю	-15.959
щ	-15.959
յ	-15.959
ך	-15.959
פ	-15.959
ץ	-15.959
ہ	-15.959
़	-15.959
ो	-15.959
ন	-15.959
ி	-15.959
ು	-15.959
ญ	-15.959
າ	-15.959
བ	-15.959
ခ	-15.959
တ	-15.959
ក	-15.959
ḫ	-15.959
ẫ	-15.959
ề	-15.959
ự	-15.959
ὲ	-15.959
∠	-15.959
⊂	-15.959
⊗	-15.959
⌊	-15.959
⎙	-15.959
△	-15.959
ⴲ	-15.959
そ	-15.959
よ	-15.959
ヴ	-15.959
事	-15.959
伊	-15.959
信	-15.959
党	-15.959
冬	-15.959
华	-15.959
台	-15.959
咸	-15.959
园	-15.959
夕	-15.959
宗	-15.959
峇	-15.959
巾	-15.959
度	-15.959
弾	-15.959
彦	-15.959
影	-15.959
怕	-15.959
成	-15.959
斗	-15.959
書	-15.959
条	-15.959
桑	-15.959
橘	-15.959
殿	-15.959
治	-15.959
漢	-15.959
界	-15.959
省	-15.959
簡	-15.959
羅	-15.959
聲	-15.959
興	-15.959
菜	-15.959
華	-15.959
见	-15.959
記	-15.959
话	-15.959
谢	-15.959
赫	-15.959
车	-15.959
開	-15.959
陵	-15.959
魚	-15.959
鶴	-15.959
권	-15.959
규	-15.959
냐	-15.959
단	-15.959
당	-15.959
를	-15.959
목	-15.959
뮤	-15.959
바	-15.959
반	-15.959
업	-15.959
열	-15.959
옥	-15.959
운	-15.959
워	-15.959
육	-15.959
은	-15.959
쳐	-15.959
톤	-15.959
플	-15.959
행	-15.959
东	-15.959
少	-15.959
永	-15.959
沙	-15.959
甲	-15.959
造	-15.959
雷	-15.959
ט	-15.959
ܠ	-15.959
ख	-15.959
ड	-15.959
ह	-15.959
ச	-15.959
を	-15.959
乐	-15.959
偉	-15.959
兒	-15.959
六	-15.959
団	-15.959
奇	-15.959
将	-15.959
康	-15.959
恋	-15.959
秘	-15.959
穿	-15.959
舟	-15.959
莫	-15.959
藍	-15.959
视	-15.959
言	-15.959
덕	-15.959
수	-15.959
타	-15.959
헌	-15.959
車	-15.959
ܕ	-15.959
ப	-15.959
ய	-15.959
ர	-15.959
伴	-15.959
傑	-15.959
唐	-15.959
紺	-15.959
译	-15.959
近	-15.959
네	-15.959
노	-15.959
げ	-15.959
翻	-15.959
қ	-15.959
ல	-15.959
沢	-15.959
送	-15.959
ի	-15.959
ս	-15.959
导	-15.959
磨	-15.959
川	-15.959
ณ	-16.459
ศ	-16.459
創	-16.459
鯨	-16.459
優	-16.459
精	-16.459
論	-16.459
Ш	-16.459
ণ	-16.459
প	-16.459
ো	-16.459
ා	-16.459
ἔ	-16.459
ペ	-16.459
導	-16.459
崇	-16.459
映	-16.459
昱	-16.459
産	-16.459
級	-16.459
電	-16.459
치	-16.459
테	-16.459
ত	-16.459
ᤠ	-16.459
舜	-16.459
편	-16.459
Ξ	-16.459
ր	-16.459
ੁ	-16.459
ே	-16.459
ា	-16.459
ី	-16.459
ㄧ	-16.459
使	-16.459
向	-16.459
夜	-16.459
林	-16.459
格	-16.459
止	-16.459
流	-16.459
电	-16.459
胡	-16.459
芳	-16.459
葱	-16.459
走	-16.459
閩	-16.459
거	-16.459
꽃	-16.459
봉	-16.459
크	-16.459
𒌷	-16.459
ɲ	-16.459
ဆ	-16.459
ズ	-16.459
ポ	-16.459
亜	-16.459
受	-16.459
叶	-16.459
嘉	-16.459
垂	-16.459
婷	-16.459
宁	-16.459
尚	-16.459
幻	-16.459
持	-16.459
曾	-16.459
桐	-16.459
河	-16.459
渡	-16.459
琴	-16.459
礼	-16.459
翔	-16.459
職	-16.459
荘	-16.459
霸	-16.459
颜	-16.459
락	-16.459
식	-16.459
	-16.459
À	-16.459
Æ	-16.459
Õ	-16.459
ċ	-16.459
ű	-16.459
ȍ	-16.459
ʔ	-16.459
ʹ	-16.459
ˋ	-16.459
̏	-16.459
̧	-16.459
Ц	-16.459
ј	-16.459
Ұ	-16.459
ә	-16.459
ե	-16.459
մ	-16.459
ֲ	-16.459
چ	-16.459
ک	-16.459
ग	-16.459
च	-16.459
ज	-16.459
ध	-16.459
আ	-16.459
ল	-16.459
ਖ	-16.459
ਬ	-16.459
ਿ	-16.459
ੂ	-16.459
ಾ	-16.459
ර	-16.459
ນ	-16.459
ຫ	-16.459
ག	-16.459
ན	-16.459
ས	-16.459
ུ	-16.459
ྲ	-16.459
დ	-16.459
ს	-16.459
ხ	-16.459
ង	-16.459
ḗ	-16.459
ḩ	-16.459
ḿ	-16.459
ṁ	-16.459
ṅ	-16.459
ṓ	-16.459
ṛ	-16.459
ṯ	-16.459
ṳ	-16.459
ỏ	-16.459
ὁ	-16.459
ὰ	-16.459
ὶ	-16.459
ὸ	-16.459
ᾶ	-16.459
‖	-16.459
℞	-16.459
⇒	-16.459
∓	-16.459
∪	-16.459
≅	-16.459
⋆	-16.459
■	-16.459
●	-16.459
ⴰ	-16.459
ⵉ	-16.459
せ	-16.459
セ	-16.459
ヌ	-16.459
丸	-16.459
为	-16.459
丼	-16.459
乙	-16.459
乱	-16.459
介	-16.459
付	-16.459
佛	-16.459
保	-16.459
俞	-16.459
全	-16.459
典	-16.459
再	-16.459
军	-16.459
分	-16.459
列	-16.459
判	-16.459
刺	-16.459
勝	-16.459
卯	-16.459
又	-16.459
叔	-16.459
号	-16.459
吉	-16.459
名	-16.459
君	-16.459
团	-16.459
團	-16.459
土	-16.459
夏	-16.459
姐	-16.459
守	-16.459
室	-16.459
富	-16.459
寒	-16.459
寿	-16.459
尘	-16.459
尾	-16.459
岡	-16.459
巳	-16.459
巴	-16.459
帝	-16.459
席	-16.459
引	-16.459
弥	-16.459
従	-16.459
忘	-16.459
性	-16.459
恨	-16.459
感	-16.459
慧	-16.459
战	-16.459
房	-16.459
摩	-16.459
摺	-16.459
播	-16.459
斬	-16.459
昊	-16.459
易	-16.459
晁	-16.459
晓	-16.459
暉	-16.459
朱	-16.459
果	-16.459
枝	-16.459
棒	-16.459
橋	-16.459
歳	-16.459
段	-16.459
殺	-16.459
毅	-16.459
母	-16.459
比	-16.459
波	-16.459
溜	-16.459
爾	-16.459
盆	-16.459
盛	-16.459
直	-16.459
督	-16.459
秦	-16.459
简	-16.459
紋	-16.459
統	-16.459
结	-16.459
耶	-16.459
臣	-16.459
致	-16.459
芦	-16.459
萬	-16.459
葉	-16.459
藏	-16.459
虎	-16.459
虐	-16.459
蜜	-16.459
融	-16.459
角	-16.459
議	-16.459
记	-16.459
賢	-16.459
越	-16.459
路	-16.459
速	-16.459
逯	-16.459
進	-16.459
遍	-16.459
鄧	-16.459
鍋	-16.459
钉	-16.459
陰	-16.459
雄	-16.459
雨	-16.459
露	-16.459
順	-16.459
鰻	-16.459
黃	-16.459
龙	-16.459
감	-16.459
결	-16.459
계	-16.459
골	-16.459
답	-16.459
돌	-16.459
드	-16.459
렬	-16.459
먼	-16.459
방	-16.459
범	-16.459
블	-16.459
빵	-16.459
살	-16.459
삼	-16.459
십	-16.459
앉	-16.459
엘	-16.459
와	-16.459
우	-16.459
유	-16.459
잖	-16.459
즈	-16.459
진	-16.459
창	-16.459
천	-16.459
칠	-16.459
함	-16.459
형	-16.459
환	-16.459
𒂗	-16.459
Ẓ	-16.459
ỳ	-16.459
习	-16.459
傣	-16.459
口	-16.459
坡	-16.459
懂	-16.459
智	-16.459
梅	-16.459
樂	-16.459
湖	-16.459
濟	-16.459
禄	-16.459
考	-16.459
腰	-16.459
豆	-16.459
밤	-16.459
불	-16.459
잔	-16.459
ட	-16.459
ゲ	-16.459
ヤ	-16.459
ユ	-16.459
久	-16.459
也	-16.459
体	-16.459
共	-16.459
円	-16.459
前	-16.459
唱	-16.459
妙	-16.459
屁	-16.459
憲	-16.459
昂	-16.459
未	-16.459
松	-16.459
気	-16.459
汉	-16.459
炊	-16.459
町	-16.459
留	-16.459
静	-16.459
魔	-16.459
鳥	-16.459
ꠟ	-16.459
ꠤ	-16.459
버	-16.459
좋	-16.459
티	-16.459
ण	-16.459
ை	-16.459
ု	-16.459
რ	-16.459
ោ	-16.459
亲	-16.459
來	-16.459
元	-16.459
多	-16.459
末	-16.459
来	-16.459
满	-16.459
独	-16.459
纶	-16.459
菅	-16.459
計	-16.459
賣	-16.459
音	-16.459
니	-16.459
뛰	-16.459
래	-16.459
𐴝	-16.459
宅	-16.459
強	-16.459
攻	-16.459
클	-16.459
𐴙	-16.459
殻	-16.459
ろ	-16.4591
히	-17.4317
혁	-17.4318
토	-17.4319
탄	-17.432
큼	-17.4321
콤	-17.4322
처	-17.4323
찍	-17.4324
째	-17.4325
직	-17.4326
융	-17.4327
언	-17.4328
센	-17.4329
번	-17.433
맹	-17.4331
막	-17.4332
림	-17.4333
롯	-17.4334
럼	-17.4335
두	-17.4336
데	-17.4337
늘	-17.4338
금	-17.4339
魏	-17.434
餘	-17.4341
頡	-17.4342
須	-17.4343
隠	-17.4344
関	-17.4345
輸	-17.4346
踩	-17.4347
起	-17.4348
讯	-17.4349
製	-17.435
蓝	-17.4351
葫	-17.4352
舒	-17.4353
腾	-17.4354
聂	-17.4355
者	-17.4356
耀	-17.4357
罗	-17.4358
納	-17.4359
糖	-17.436
碧	-17.4361
畫	-17.4362
瑟	-17.4363
湘	-17.4364
活	-17.4365
棠	-17.4366
柱	-17.4367
极	-17.4368
揚	-17.4369
授	-17.437
扶	-17.4371
戏	-17.4372
律	-17.4373
役	-17.4374
形	-17.4375
巻	-17.4376
对	-17.4377
容	-17.4378
宏	-17.4379
宋	-17.438
孫	-17.4381
姜	-17.4382
奥	-17.4383
夫	-17.4384
噌	-17.4385
周	-17.4386
反	-17.4387
危	-17.4388
倉	-17.4389
例	-17.439
作	-17.4391
ヨ	-17.4392
ピ	-17.4393
ゥ	-17.4394
ぼ	-17.4395
々	-17.4396
☺	-17.4397
₩	-17.4398
₤	-17.4399
‰	-17.44
Ὠ	-17.4401
ὑ	-17.4402
Ἴ	-17.4403
ἄ	-17.4404
Ử	-17.4405
ḷ	-17.4406
ᥳ	-17.4407
ᥭ	-17.4408
ᥬ	-17.4409
ᥨ	-17.441
ᥒ	-17.4411
ᥑ	-17.4412
ნ	-17.4413
ြ	-17.4414
ေ	-17.4415
အ	-17.4416
ื	-17.4417
க	-17.4418
হ	-17.4419
শ	-17.442
ম	-17.4421
ভ	-17.4422
ছ	-17.4423
খ	-17.4424
ܼ	-17.4425
ٴ	-17.4426
ٱ	-17.4427
ֱ	-17.4428
տ	-17.4429
Қ	-17.443
Ι	-17.4431
˩	-17.4432
ɯ	-17.4433
ɖ	-17.4434
ǂ	-17.4435
Ź	-17.4436
ņ	-17.4437
Þ	-17.4438
È	-17.4439
임	-17.444
건	-17.4441
鮮	-17.4442
韓	-17.4443
面	-17.4444
袖	-17.4445
袁	-17.4446
航	-17.4447
瓦	-17.4448
牧	-17.4449
港	-17.445
杉	-17.4451
昆	-17.4452
弓	-17.4453
场	-17.4454
入	-17.4455
仮	-17.4456
万	-17.4457
だ	-17.4458
✓	-17.4459
▼	-17.446
⌋	-17.4461
⇩	-17.4462
ặ	-17.4463
Ṭ	-17.4464
ុ	-17.4465
ํ	-17.4466
ு	-17.4467
ன	-17.4468
়	-17.4469
आ	-17.447
آ	-17.4471
Я	-17.4472
ϸ	-17.4473
Φ	-17.4474
Υ	-17.4475
Ζ	-17.4476
Β	-17.4477
̇	-17.4478
ʈ	-17.4479
Â	-17.448
～	-17.4481
충	-17.4482
股	-17.4483
究	-17.4484
研	-17.4485
朝	-17.4486
摸	-17.4487
密	-17.4488
份	-17.4489
ョ	-17.449
★	-17.4491
↑	-17.4492
ἰ	-17.4493
Ṣ	-17.4494
ṃ	-17.4495
ᥰ	-17.4496
ᥖ	-17.4497
வ	-17.4498
भ	-17.4499
ח	-17.45
Ν	-17.4501
Λ	-17.4502
Θ	-17.4503
️	-17.4504
领	-17.4505
超	-17.4506
焼	-17.4507
ォ	-17.4508
ァ	-17.4509
⚙	-17.451
♯	-17.4511
⊙	-17.4512
‭	-17.4513
ẵ	-17.4514
โ	-17.4515
ז	-17.4516
ո	-17.4517
Ч	-17.4518
ň	-17.4519
Ī	-17.452
Ø	-17.4521
강	-17.4522
普	-17.4523
„	-17.4524
ْ	-17.4525
ג	-17.4526
Μ	-17.4527
Ş	-17.4528
¦	-17.4529
马	-17.453
由	-17.4531
☆	-17.4532
↹	-17.4533
₹	-17.4534
Ἀ	-17.4535
ờ	-17.4536
Х	-17.4537
Ω	-17.4538
ภ	-17.4539
Ф	-17.454
Κ	-17.4541
̊	-17.4542
Ã	-17.4543
欧	-17.4544
ゃ	-17.4545
⋯	-17.4546
ṇ	-17.4547
͡	-17.4548
̈	-17.4549
Ž	-17.455
ħ	-17.4551
ء	-17.4552
Σ	-17.4553
ˀ	-17.4554
Ć	-17.4555
ɣ	-17.4556
Î	-17.4557
स	-17.4558
←	-17.4559
Ḥ	-17.456
Ú	-17.4561
จ	-17.4562
Ð	-17.4563
―	-17.4564
♭	-17.4565
»	-17.4566
¿	-17.4567
®	-17.4568
社	-17.4569
株	-17.457
⋅	-17.4571
Η	-17.4572
∞	-17.4573
☰	-17.4574
Ç	-17.4575
ḥ	-17.4576
÷	-17.4577
ŏ	-17.4578
⊕	-17.4579
ễ	-17.458
غ	-17.4581
Τ	-17.4582
¥	-17.4583
∗	-17.4584
ص	-17.4585
☉	-17.4586
•	-17.4587
Ō	-17.4588
Á	-17.4589
љ	-17.459
জ	-17.459
ਸ	-17.459
ฏ	-17.459
凱	-17.459
半	-17.459
妃	-17.459
撫	-17.459
故	-17.459
毛	-17.459
泰	-17.459
為	-17.459
眠	-17.459
節	-17.459
腦	-17.459
貸	-17.459
體	-17.459
鲁	-17.459
농	-17.459
윙	-17.459
출	-17.459
𒄡	-17.459
Ý	-17.459
Ğ	-17.459
њ	-17.459
ۈ	-17.459
ܩ	-17.459
ङ	-17.459
ঁ	-17.459
ঙ	-17.459
ఉ	-17.459
ග	-17.459
න	-17.459
ප	-17.459
ම	-17.459
ར	-17.459
ဒ	-17.459
ᤌ	-17.459
ᤕ	-17.459
ᤰ	-17.459
Ἠ	-17.459
Ἰ	-17.459
ⵛ	-17.459
仓	-17.459
停	-17.459
傳	-17.459
儂	-17.459
刘	-17.459
办	-17.459
双	-17.459
吴	-17.459
吻	-17.459
头	-17.459
孤	-17.459
拾	-17.459
暫	-17.459
洲	-17.459
浸	-17.459
爆	-17.459
眉	-17.459
穴	-17.459
箍	-17.459
联	-17.459
节	-17.459
茯	-17.459
蘭	-17.459
补	-17.459
補	-17.459
诞	-17.459
跳	-17.459
输	-17.459
透	-17.459
連	-17.459
颉	-17.459
鶏	-17.459
꺼	-17.459
낼	-17.459
널	-17.459
넷	-17.459
누	-17.459
더	-17.459
들	-17.459
딸	-17.459
생	-17.459
실	-17.459
알	-17.459
양	-17.459
옹	-17.459
폴	-17.459
항	-17.459
허	-17.459
홉	-17.459
𒄀	-17.459
𒄩	-17.459
ĕ	-17.459
ķ	-17.459
Œ	-17.459
Ǧ	-17.459
ǧ	-17.459
ϋ	-17.459
ӧ	-17.459
ਪ	-17.459
ᤐ	-17.459
ằ	-17.459
Ị	-17.459
他	-17.459
克	-17.459
冨	-17.459
剛	-17.459
劉	-17.459
勇	-17.459
匪	-17.459
厌	-17.459
告	-17.459
坏	-17.459
孟	-17.459
寛	-17.459
實	-17.459
屯	-17.459
嵐	-17.459
常	-17.459
幞	-17.459
廣	-17.459
彰	-17.459
悠	-17.459
拂	-17.459
指	-17.459
早	-17.459
晩	-17.459
浪	-17.459
淵	-17.459
溥	-17.459
灵	-17.459
無	-17.459
知	-17.459
祐	-17.459
竹	-17.459
紀	-17.459
臨	-17.459
芒	-17.459
芙	-17.459
苦	-17.459
莊	-17.459
菟	-17.459
蓋	-17.459
蕎	-17.459
虚	-17.459
袂	-17.459
裕	-17.459
規	-17.459
覲	-17.459
錐	-17.459
锥	-17.459
闇	-17.459
餃	-17.459
餛	-17.459
鳴	-17.459
麟	-17.459
麺	-17.459
黒	-17.459
간	-17.459
낙	-17.459
르	-17.459
복	-17.459
쉅	-17.459
승	-17.459
팡	-17.459
𐎢	-17.459
𐎹	-17.459
	-17.459
	-17.459
	-17.459
	-17.459
	-17.459
¤	-17.459
Ë	-17.459
Ô	-17.459
Ĉ	-17.459
Ě	-17.459
ļ	-17.459
ľ	-17.459
Ŝ	-17.459
ŝ	-17.459
ť	-17.459
Ŧ	-17.459
ŧ	-17.459
ŷ	-17.459
ǚ	-17.459
ǫ	-17.459
ǰ	-17.459
ɾ	-17.459
ʂ	-17.459
ʐ	-17.459
ˇ	-17.459
ˊ	-17.459
˦	-17.459
̋	-17.459
̠	-17.459
̥	-17.459
̨	-17.459
͂	-17.459
͈	-17.459
͘	-17.459
Ͱ	-17.459
ͱ	-17.459
Ο	-17.459
Ψ	-17.459
Ϸ	-17.459
Е	-17.459
ї	-17.459
ћ	-17.459
ҁ	-17.459
ң	-17.459
Ҫ	-17.459
Ҳ	-17.459
ӑ	-17.459
ӓ	-17.459
ӕ	-17.459
ӱ	-17.459
ӹ	-17.459
Ա	-17.459
Բ	-17.459
Դ	-17.459
զ	-17.459
թ	-17.459
լ	-17.459
ց	-17.459
օ	-17.459
֥	-17.459
ֻ	-17.459
ׁ	-17.459
ף	-17.459
ؤ	-17.459
ٔ	-17.459
ە	-17.459
۲	-17.459
ܘ	-17.459
ܙ	-17.459
ܚ	-17.459
ܣ	-17.459
ܦ	-17.459
ܵ	-17.459
ܸ	-17.459
ܹ	-17.459
छ	-17.459
ढ	-17.459
ू	-17.459
ौ	-17.459
ই	-17.459
ও	-17.459
ক	-17.459
গ	-17.459
চ	-17.459
ষ	-17.459
ী	-17.459
ਅ	-17.459
ਓ	-17.459
ਥ	-17.459
ਦ	-17.459
ਲ	-17.459
ਵ	-17.459
ਹ	-17.459
੍	-17.459
ੰ	-17.459
ੱ	-17.459
ં	-17.459
દ	-17.459
ર	-17.459
સ	-17.459
િ	-17.459
ૂ	-17.459
ீ	-17.459
గ	-17.459
ద	-17.459
ా	-17.459
ి	-17.459
ಗ	-17.459
ತ	-17.459
ದ	-17.459
ಭ	-17.459
ಯ	-17.459
ಳ	-17.459
ಷ	-17.459
ಿ	-17.459
ೆ	-17.459
අ	-17.459
ක	-17.459
ධ	-17.459
ල	-17.459
ි	-17.459
ฉ	-17.459
ฐ	-17.459
ฒ	-17.459
ฝ	-17.459
ฮ	-17.459
ๆ	-17.459
๊	-17.459
๘	-17.459
ງ	-17.459
ທ	-17.459
ບ	-17.459
ມ	-17.459
ວ	-17.459
ິ	-17.459
ຼ	-17.459
້	-17.459
ໍ	-17.459
ཅ	-17.459
ད	-17.459
མ	-17.459
ཛ	-17.459
འ	-17.459
ོ	-17.459
ྟ	-17.459
ည	-17.459
ဘ	-17.459
ဝ	-17.459
ံ	-17.459
ျ	-17.459
ბ	-17.459
ቡ	-17.459
ኛ	-17.459
አ	-17.459
ዋ	-17.459
ዕ	-17.459
የ	-17.459
ዳ	-17.459
ጊ	-17.459
ጋ	-17.459
ជ	-17.459
ត	-17.459
ថ	-17.459
ទ	-17.459
ស	-17.459
ះ	-17.459
១	-17.459
ᤢ	-17.459
ᤱ	-17.459
ᤴ	-17.459
ᵻ	-17.459
ḇ	-17.459
Ḍ	-17.459
ṉ	-17.459
Ẋ	-17.459
ẋ	-17.459
ẏ	-17.459
ẓ	-17.459
ẻ	-17.459
ụ	-17.459
Ủ	-17.459
Ἁ	-17.459
Ἐ	-17.459
ἡ	-17.459
ἱ	-17.459
Ἱ	-17.459
ὅ	-17.459
ὖ	-17.459
ὤ	-17.459
ὴ	-17.459
ῆ	-17.459
ῡ	-17.459
ῥ	-17.459
Ῥ	-17.459
ῳ	-17.459
‚	-17.459
‿	-17.459
₽	-17.459
↵	-17.459
⇀	-17.459
⇌	-17.459
⇬	-17.459
∅	-17.459
∖	-17.459
∫	-17.459
≃	-17.459
⊃	-17.459
⊨	-17.459
⎇	-17.459
⏭	-17.459
─	-17.459
▷	-17.459
►	-17.459
◁	-17.459
☣	-17.459
☿	-17.459
♥	-17.459
⟹	-17.459
ⲓ	-17.459
ⵓ	-17.459
ⵔ	-17.459
ⵢ	-17.459
》	-17.459
」	-17.459
ぁ	-17.459
づ	-17.459
ば	-17.459
ひ	-17.459
べ	-17.459
む	-17.459
ょ	-17.459
れ	-17.459
ゴ	-17.459
ヘ	-17.459
ホ	-17.459
ュ	-17.459
ヶ	-17.459
ㄐ	-17.459
ㄔ	-17.459
ㄙ	-17.459
ㄢ	-17.459
ㄥ	-17.459
ㄨ	-17.459
丁	-17.459
丈	-17.459
丑	-17.459
丙	-17.459
乃	-17.459
乌	-17.459
乡	-17.459
亂	-17.459
了	-17.459
予	-17.459
亚	-17.459
交	-17.459
亥	-17.459
仇	-17.459
今	-17.459
仏	-17.459
件	-17.459
伏	-17.459
伙	-17.459
伯	-17.459
伽	-17.459
住	-17.459
何	-17.459
侯	-17.459
便	-17.459
俊	-17.459
俗	-17.459
倍	-17.459
候	-17.459
偵	-17.459
傅	-17.459
傘	-17.459
僕	-17.459
僧	-17.459
兄	-17.459
兔	-17.459
兜	-17.459
兴	-17.459
兽	-17.459
冀	-17.459
凡	-17.459
刀	-17.459
刊	-17.459
创	-17.459
別	-17.459
則	-17.459
剑	-17.459
劇	-17.459
务	-17.459
动	-17.459
劳	-17.459
勘	-17.459
勞	-17.459
勳	-17.459
勿	-17.459
包	-17.459
区	-17.459
医	-17.459
區	-17.459
卅	-17.459
午	-17.459
卍	-17.459
卐	-17.459
単	-17.459
博	-17.459
卡	-17.459
卵	-17.459
厂	-17.459
厲	-17.459
县	-17.459
収	-17.459
叡	-17.459
句	-17.459
可	-17.459
史	-17.459
右	-17.459
同	-17.459
后	-17.459
吒	-17.459
吟	-17.459
吧	-17.459
含	-17.459
吸	-17.459
吾	-17.459
呼	-17.459
哇	-17.459
員	-17.459
哪	-17.459
唄	-17.459
商	-17.459
善	-17.459
嘴	-17.459
器	-17.459
围	-17.459
固	-17.459
圀	-17.459
圍	-17.459
圖	-17.459
坂	-17.459
基	-17.459
塞	-17.459
墟	-17.459
壬	-17.459
声	-17.459
外	-17.459
夢	-17.459
夷	-17.459
奈	-17.459
奋	-17.459
奕	-17.459
奖	-17.459
她	-17.459
姝	-17.459
姿	-17.459
威	-17.459
娇	-17.459
婚	-17.459
婴	-17.459
媄	-17.459
媛	-17.459
媽	-17.459
嫌	-17.459
嬴	-17.459
季	-17.459
宇	-17.459
宥	-17.459
宫	-17.459
宸	-17.459
寅	-17.459
寇	-17.459
察	-17.459
寫	-17.459
寬	-17.459
寸	-17.459
寺	-17.459
寻	-17.459
就	-17.459
尹	-17.459
居	-17.459
屋	-17.459
岁	-17.459
岚	-17.459
岛	-17.459
岭	-17.459
岳	-17.459
岸	-17.459
崑	-17.459
崗	-17.459
崩	-17.459
嶺	-17.459
左	-17.459
帅	-17.459
希	-17.459
帖	-17.459
帯	-17.459
帳	-17.459
帶	-17.459
帽	-17.459
干	-17.459
广	-17.459
店	-17.459
庚	-17.459
座	-17.459
庫	-17.459
庵	-17.459
廊	-17.459
廖	-17.459
廟	-17.459
廠	-17.459
廾	-17.459
弟	-17.459
张	-17.459
弦	-17.459
强	-17.459
彌	-17.459
当	-17.459
彭	-17.459
從	-17.459
復	-17.459
微	-17.459
忆	-17.459
忍	-17.459
快	-17.459
怀	-17.459
怒	-17.459
怖	-17.459
怡	-17.459
恆	-17.459
恐	-17.459
恩	-17.459
恭	-17.459
悟	-17.459
悪	-17.459
惠	-17.459
惣	-17.459
惹	-17.459
愷	-17.459
慈	-17.459
慕	-17.459
慘	-17.459
戌	-17.459
戰	-17.459
戴	-17.459
戸	-17.459
扉	-17.459
才	-17.459
抗	-17.459
拡	-17.459
拨	-17.459
振	-17.459
挺	-17.459
捉	-17.459
换	-17.459
捷	-17.459
排	-17.459
撃	-17.459
撥	-17.459
撮	-17.459
改	-17.459
散	-17.459
数	-17.459
料	-17.459
斩	-17.459
施	-17.459
族	-17.459
旭	-17.459
旺	-17.459
昌	-17.459
昶	-17.459
晞	-17.459
晴	-17.459
暲	-17.459
曲	-17.459
最	-17.459
服	-17.459
朔	-17.459
望	-17.459
术	-17.459
材	-17.459
杨	-17.459
板	-17.459
枳	-17.459
柑	-17.459
染	-17.459
柚	-17.459
柯	-17.459
柴	-17.459
标	-17.459
栎	-17.459
样	-17.459
梁	-17.459
梦	-17.459
椿	-17.459
榊	-17.459
榮	-17.459
構	-17.459
樓	-17.459
橄	-17.459
欖	-17.459
次	-17.459
步	-17.459
残	-17.459
毓	-17.459
毘	-17.459
求	-17.459
汗	-17.459
池	-17.459
汪	-17.459
汶	-17.459
沃	-17.459
没	-17.459
沮	-17.459
泛	-17.459
津	-17.459
洪	-17.459
浅	-17.459
浒	-17.459
浜	-17.459
浩	-17.459
浮	-17.459
深	-17.459
湛	-17.459
滸	-17.459
漏	-17.459
漫	-17.459
潮	-17.459
澄	-17.459
濊	-17.459
濠	-17.459
瀚	-17.459
瀬	-17.459
灣	-17.459
炎	-17.459
点	-17.459
烈	-17.459
烏	-17.459
爭	-17.459
爺	-17.459
牆	-17.459
牍	-17.459
牛	-17.459
牟	-17.459
牡	-17.459
牵	-17.459
狂	-17.459
狐	-17.459
猪	-17.459
猫	-17.459
猴	-17.459
獄	-17.459
獨	-17.459
獲	-17.459
獸	-17.459
玆	-17.459
玦	-17.459
玫	-17.459
珮	-17.459
琛	-17.459
琶	-17.459
瑚	-17.459
瑩	-17.459
瑰	-17.459
璽	-17.459
瓢	-17.459
甌	-17.459
用	-17.459
甯	-17.459
申	-17.459
男	-17.459
畏	-17.459
異	-17.459
疯	-17.459
症	-17.459
皮	-17.459
盗	-17.459
盟	-17.459
目	-17.459
盾	-17.459
眞	-17.459
眼	-17.459
破	-17.459
磐	-17.459
祇	-17.459
祖	-17.459
禁	-17.459
离	-17.459
秋	-17.459
秒	-17.459
程	-17.459
穹	-17.459
窿	-17.459
站	-17.459
竜	-17.459
童	-17.459
竺	-17.459
笔	-17.459
箪	-17.459
箱	-17.459
篠	-17.459
篤	-17.459
簿	-17.459
籍	-17.459
籤	-17.459
米	-17.459
粵	-17.459
糈	-17.459
系	-17.459
紗	-17.459
組	-17.459
綴	-17.459
綸	-17.459
緒	-17.459
線	-17.459
縣	-17.459
縦	-17.459
繪	-17.459
纂	-17.459
统	-17.459
维	-17.459
缀	-17.459
编	-17.459
缺	-17.459
罪	-17.459
置	-17.459
罰	-17.459
署	-17.459
羁	-17.459
羊	-17.459
羡	-17.459
群	-17.459
羿	-17.459
翰	-17.459
耳	-17.459
耿	-17.459
聖	-17.459
聚	-17.459
聰	-17.459
肖	-17.459
肥	-17.459
胆	-17.459
脩	-17.459
腔	-17.459
腳	-17.459
臺	-17.459
舉	-17.459
舵	-17.459
船	-17.459
苍	-17.459
苓	-17.459
茜	-17.459
荒	-17.459
荡	-17.459
莉	-17.459
莽	-17.459
萨	-17.459
蓮	-17.459
蔣	-17.459
蕩	-17.459
藻	-17.459
蘆	-17.459
蘇	-17.459
蛇	-17.459
蝶	-17.459
蠣	-17.459
術	-17.459
街	-17.459
衛	-17.459
衡	-17.459
衢	-17.459
裁	-17.459
裂	-17.459
裡	-17.459
裳	-17.459
解	-17.459
訓	-17.459
訴	-17.459
証	-17.459
試	-17.459
誤	-17.459
課	-17.459
諍	-17.459
諜	-17.459
諭	-17.459
謝	-17.459
識	-17.459
譜	-17.459
護	-17.459
许	-17.459
试	-17.459
说	-17.459
谨	-17.459
谱	-17.459
豬	-17.459
貊	-17.459
貞	-17.459
財	-17.459
資	-17.459
質	-17.459
贝	-17.459
贞	-17.459
赏	-17.459
赛	-17.459
足	-17.459
躰	-17.459
輝	-17.459
輩	-17.459
輪	-17.459
辰	-17.459
过	-17.459
这	-17.459
逆	-17.459
這	-17.459
通	-17.459
避	-17.459
邊	-17.459
那	-17.459
郵	-17.459
郷	-17.459
酉	-17.459
鈐	-17.459
鉄	-17.459
鉤	-17.459
錦	-17.459
鍵	-17.459
鎂	-17.459
鐘	-17.459
鑑	-17.459
镁	-17.459
长	-17.459
閉	-17.459
閪	-17.459
闘	-17.459
闭	-17.459
际	-17.459
隆	-17.459
階	-17.459
随	-17.459
雀	-17.459
雅	-17.459
雞	-17.459
零	-17.459
雾	-17.459
霜	-17.459
靡	-17.459
革	-17.459
靳	-17.459
韩	-17.459
領	-17.459
頭	-17.459
題	-17.459
顏	-17.459
顔	-17.459
類	-17.459
频	-17.459
颯	-17.459
风	-17.459
飞	-17.459
飥	-17.459
飩	-17.459
館	-17.459
餺	-17.459
饭	-17.459
駅	-17.459
駒	-17.459
驤	-17.459
骸	-17.459
髪	-17.459
魯	-17.459
鴻	-17.459
鷺	-17.459
鸡	-17.459
鸿	-17.459
麗	-17.459
麦	-17.459
麻	-17.459
黨	-17.459
鼓	-17.459
鼠	-17.459
齋	-17.459
龐	-17.459
ꠋ	-17.459
ꠚ	-17.459
ꪘ	-17.459
ꪙ	-17.459
ꪚ	-17.459
ꪛ	-17.459
ꪜ	-17.459
ꪝ	-17.459
ꪞ	-17.459
ꪟ	-17.459
ꪠ	-17.459
ꪡ	-17.459
ꪢ	-17.459
ꪣ	-17.459
ꪤ	-17.459
ꪥ	-17.459
ꪦ	-17.459
ꪧ	-17.459
ꪨ	-17.459
ꪩ	-17.459
ꪪ	-17.459
ꪫ	-17.459
ꪬ	-17.459
ꪭ	-17.459
ꪮ	-17.459
ꪯ	-17.459
개	-17.459
게	-17.459
겨	-17.459
곰	-17.459
관	-17.459
귀	-17.459
극	-17.459
근	-17.459
깨	-17.459
께	-17.459
꼬	-17.459
꽈	-17.459
날	-17.459
납	-17.459
낮	-17.459
녀	-17.459
뉴	-17.459
담	-17.459
댕	-17.459
독	-17.459
듀	-17.459
든	-17.459
땅	-17.459
또	-17.459
띵	-17.459
람	-17.459
러	-17.459
루	-17.459
릉	-17.459
매	-17.459
맥	-17.459
면	-17.459
묘	-17.459
무	-17.459
발	-17.459
배	-17.459
본	-17.459
붕	-17.459
빅	-17.459
쁘	-17.459
삐	-17.459
설	-17.459
섭	-17.459
션	-17.459
손	-17.459
솔	-17.459
쇠	-17.459
쇼	-17.459
숙	-17.459
숭	-17.459
쉐	-17.459
슨	-17.459
습	-17.459
썸	-17.459
앞	-17.459
앤	-17.459
억	-17.459
없	-17.459
엠	-17.459
엽	-17.459
온	-17.459
용	-17.459
욱	-17.459
웃	-17.459
웨	-17.459
위	-17.459
윤	-17.459
익	-17.459
잉	-17.459
잠	-17.459
쟁	-17.459
족	-17.459
죠	-17.459
중	-17.459
줘	-17.459
집	-17.459
참	-17.459
철	-17.459
추	-17.459
춘	-17.459
커	-17.459
컨	-17.459
케	-17.459
텐	-17.459
투	-17.459
틴	-17.459
판	-17.459
퍼	-17.459
포	-17.459
폰	-17.459
필	-17.459
합	-17.459
했	-17.459
험	-17.459
혼	-17.459
홈	-17.459
회	-17.459
훈	-17.459
훔	-17.459
휠	-17.459
𐎴	-17.459
𒀜	-17.459
𒆤	-17.459
𒇉	-17.459
𒊩	-17.459
𒊭	-17.459
𒋀	-17.459
𒋾	-17.459
𒌅	-17.459
𒌈	-17.459
𒌓	-17.459
𒌨	-17.459
Ġ	-17.459
Ș	-17.459
ҥ	-17.459
《	-17.459
個	-17.459
宣	-17.459
尊	-17.459
幸	-17.459
晚	-17.459
热	-17.459
過	-17.459
選	-17.459
郭	-17.459
錢	-17.459
铁	-17.459
韦	-17.459
齐	-17.459
깡	-17.459
넥	-17.459
체	-17.459
Ɔ	-17.459
Ά	-17.459
ؔ	-17.459
ܗ	-17.459
अ	-17.459
থ	-17.459
ฆ	-17.459
ถ	-17.459
စ	-17.459
ရ	-17.459
ខ	-17.459
គ	-17.459
ិ	-17.459
Ἔ	-17.459
Ἕ	-17.459
ἶ	-17.459
ⵃ	-17.459
ぐ	-17.459
て	-17.459
ぬ	-17.459
ぷ	-17.459
ほ	-17.459
め	-17.459
么	-17.459
乗	-17.459
健	-17.459
児	-17.459
兩	-17.459
切	-17.459
坊	-17.459
売	-17.459
姚	-17.459
崎	-17.459
幽	-17.459
忽	-17.459
敦	-17.459
斯	-17.459
朵	-17.459
梭	-17.459
櫃	-17.459
歸	-17.459
毒	-17.459
水	-17.459
濃	-17.459
照	-17.459
犬	-17.459
猛	-17.459
玖	-17.459
班	-17.459
琵	-17.459
県	-17.459
翁	-17.459
薩	-17.459
読	-17.459
边	-17.459
还	-17.459
還	-17.459
邪	-17.459
锋	-17.459
陛	-17.459
難	-17.459
霊	-17.459
願	-17.459
養	-17.459
ꠍ	-17.459
ꠎ	-17.459
ꠐ	-17.459
ꠣ	-17.459
글	-17.459
둔	-17.459
랜	-17.459
량	-17.459
벤	-17.459
브	-17.459
송	-17.459
콜	-17.459
퀴	-17.459
탓	-17.459
통	-17.459
팩	-17.459
효	-17.459
𒈗	-17.459
Հ	-17.459
श	-17.459
ृ	-17.459
ெ	-17.459
ပ	-17.459
ლ	-17.459
უ	-17.459
ភ	-17.459
យ	-17.459
ឧ	-17.459
「	-17.459
串	-17.459
争	-17.459
害	-17.459
専	-17.459
急	-17.459
柔	-17.459
灼	-17.459
災	-17.459
熱	-17.459
狼	-17.459
素	-17.459
经	-17.459
腹	-17.459
讀	-17.459
際	-17.459
雑	-17.459
럽	-17.459
잭	-17.459
코	-17.459
팬	-17.459
𐴌	-17.459
𐴒	-17.459
𐴗	-17.459
𐴚	-17.459
𐴥	-17.459
ສ	-17.459
ະ	-17.459
ვ	-17.459
თ	-17.459
შ	-17.459
−	-17.459
师	-17.459
抜	-17.459
私	-17.459
裏	-17.4591
′	-17.4591
ど	-17.4591
妖	-17.4591
怪	-17.4591
