<unk>	0
<s>	0
</s>	0
s	-3.10957
.	-3.20325
,	-3.36201
▁the	-3.59955
▁to	-4.07449
▁a	-4.11755
'	-4.14301
▁of	-4.23487
▁and	-4.32423
▁in	-4.4428
t	-4.49335
▁you	-4.50879
▁I	-4.65162
ing	-4.86254
ed	-4.95422
▁is	-4.95525
▁that	-5.02935
▁-	-5.03812
d	-5.04781
▁it	-5.19757
▁for	-5.29323
▁your	-5.36783
?	-5.3923
re	-5.39787
y	-5.42347
▁n	-5.4515
▁	-5.5156
m	-5.52651
▁with	-5.52674
▁on	-5.53831
▁be	-5.54999
▁was	-5.5863
r	-5.68113
ly	-5.70619
▁are	-5.74158
▁or	-5.768
n	-5.76908
er	-5.77705
▁have	-5.78167
▁do	-5.78176
▁as	-5.81376
▁The	-5.82704
e	-5.87519
▁this	-5.87881
▁can	-5.89851
▁(	-5.92178
▁not	-5.93609
ll	-5.96765
▁You	-5.97037
▁we	-5.97042
▁me	-6.01924
al	-6.02467
▁"	-6.06645
▁by	-6.10359
▁from	-6.11625
▁an	-6.12012
)	-6.12455
▁at	-6.13027
o	-6.13559
a	-6.13631
▁A	-6.23898
▁he	-6.25945
▁It	-6.3257
▁will	-6.34681
in	-6.36618
le	-6.3925
▁about	-6.4088
i	-6.41654
c	-6.4243
▁And	-6.42957
▁out	-6.43721
▁my	-6.43979
ve	-6.4433
▁they	-6.44343
or	-6.44632
▁s	-6.45316
▁one	-6.45416
g	-6.45973
es	-6.46004
p	-6.46503
▁all	-6.47152
▁her	-6.47517
▁what	-6.47835
▁up	-6.48859
▁like	-6.49116
b	-6.49164
▁so	-6.49844
▁but	-6.49925
l	-6.54994
▁know	-6.55423
▁if	-6.56339
▁In	-6.56435
▁re	-6.58419
▁S	-6.6021
en	-6.62404
▁has	-6.64539
▁just	-6.66777
▁get	-6.67431
▁she	-6.68061
"	-6.68475
ation	-6.69394
th	-6.69673
!	-6.69759
▁We	-6.69946
ri	-6.70009
:	-6.70806
▁more	-6.71583
▁time	-6.71702
ic	-6.75319
▁If	-6.7816
ar	-6.78244
▁He	-6.78763
an	-6.78907
▁were	-6.80215
▁his	-6.80438
▁there	-6.81669
▁which	-6.82338
▁when	-6.82469
▁who	-6.83599
▁C	-6.84175
▁want	-6.85088
▁them	-6.85462
il	-6.87369
▁This	-6.87652
▁19	-6.89496
▁their	-6.89961
...	-6.90004
▁also	-6.90899
ce	-6.91133
ur	-6.91256
▁de	-6.91662
▁people	-6.91723
w	-6.92171
▁no	-6.92264
▁other	-6.92368
ra	-6.92607
▁make	-6.92794
▁had	-6.92978
la	-6.93119
▁him	-6.93355
▁So	-6.93459
it	-6.94441
▁been	-6.94598
on	-6.95373
▁would	-6.95736
u	-6.96676
▁need	-6.99752
h	-6.99762
▁here	-7.00262
▁may	-7.00566
ro	-7.01828
▁see	-7.01881
ion	-7.02551
li	-7.03672
▁right	-7.03714
▁go	-7.03781
k	-7.04128
se	-7.05005
▁some	-7.05209
▁did	-7.05252
▁over	-7.05394
▁E	-7.05543
▁into	-7.06404
el	-7.06989
▁think	-7.08167
▁But	-7.08193
f	-7.08193
A	-7.10136
ist	-7.11555
ne	-7.11709
▁She	-7.12166
▁Do	-7.12284
te	-7.13085
S	-7.13755
ter	-7.13794
ate	-7.14233
▁help	-7.154
▁first	-7.15946
▁could	-7.16427
▁way	-7.16793
▁back	-7.16939
ck	-7.16948
z	-7.176
▁us	-7.17844
2	-7.18416
ment	-7.18442
▁than	-7.18559
▁work	-7.18868
ol	-7.19538
lo	-7.20189
▁our	-7.21063
na	-7.21335
▁how	-7.21758
▁c	-7.23557
▁should	-7.24356
ia	-7.24874
-	-7.24876
▁take	-7.25408
C	-7.26221
ive	-7.26258
▁ca	-7.2672
▁p	-7.26829
ta	-7.27091
▁now	-7.27232
▁F	-7.27562
de	-7.27568
et	-7.28175
I	-7.28507
▁two	-7.29422
5	-7.29769
▁even	-7.31094
ers	-7.31321
▁got	-7.32007
mi	-7.32146
▁these	-7.32205
x	-7.32291
▁only	-7.32609
▁where	-7.33078
ma	-7.33654
ine	-7.33698
▁What	-7.34656
▁use	-7.35164
us	-7.35166
▁going	-7.35357
ity	-7.35608
ul	-7.35898
to	-7.3598
▁They	-7.36333
ch	-7.36653
3	-7.37211
4	-7.37892
▁P	-7.38586
▁new	-7.38647
▁--	-7.38884
▁good	-7.38929
ent	-7.39028
▁then	-7.39054
un	-7.3946
▁That	-7.41339
7	-7.41641
at	-7.42005
▁down	-7.42299
▁B	-7.42391
▁any	-7.42667
▁because	-7.44229
▁after	-7.44726
▁co	-7.44749
able	-7.4516
ry	-7.46496
▁most	-7.47914
▁No	-7.48319
▁very	-7.48411
D	-7.49875
ir	-7.49971
▁Ma	-7.50558
▁look	-7.50741
▁un	-7.51368
ant	-7.52097
;	-7.52439
me	-7.53178
P	-7.53444
▁man	-7.53594
▁something	-7.5371
▁G	-7.53718
id	-7.54281
▁such	-7.55464
▁day	-7.55732
6	-7.5591
▁e	-7.56655
is	-7.56701
▁before	-7.56835
▁years	-7.57292
est	-7.57503
▁3	-7.57584
▁con	-7.57659
▁O	-7.58356
ke	-7.58588
▁life	-7.58643
co	-7.58844
▁part	-7.59623
age	-7.59626
▁find	-7.60173
ian	-7.60483
▁come	-7.61231
tic	-7.61317
▁does	-7.62025
▁said	-7.62136
sh	-7.62285
as	-7.62503
▁–	-7.62838
▁1	-7.63529
▁U	-7.637
▁say	-7.64054
▁off	-7.64417
▁much	-7.64422
▁used	-7.64936
▁Re	-7.65108
ci	-7.65357
▁really	-7.65778
▁For	-7.66097
ge	-7.66178
▁well	-7.66409
▁To	-7.67305
▁T	-7.67382
▁There	-7.67461
▁water	-7.67974
▁place	-7.68326
8	-7.68441
▁ex	-7.68674
ies	-7.68902
▁M	-7.69065
um	-7.69148
ated	-7.69326
T	-7.69328
pe	-7.69424
ni	-7.69431
ng	-7.70847
9	-7.71333
▁through	-7.71422
ti	-7.71654
1	-7.72076
▁too	-7.72274
M	-7.7259
no	-7.72742
▁world	-7.72917
▁many	-7.73116
▁D	-7.7351
),	-7.73701
vi	-7.7382
▁pro	-7.74145
▁around	-7.75056
E	-7.75488
▁ra	-7.75675
▁La	-7.75685
▁b	-7.75812
mo	-7.76371
▁being	-7.7641
▁tell	-7.76648
▁feel	-7.77082
▁K	-7.78497
▁things	-7.78779
ca	-7.79069
nd	-7.79299
▁st	-7.79646
▁little	-7.80005
ting	-7.80282
mp	-7.80454
▁Ca	-7.80483
▁own	-7.80555
op	-7.80581
▁those	-7.80775
▁show	-7.81036
ty	-7.81581
▁Well	-7.82326
▁g	-7.82497
▁under	-7.8279
ary	-7.82841
."	-7.83085
▁let	-7.8367
▁give	-7.84345
▁never	-7.85586
lu	-7.85725
▁gonna	-7.85833
▁Be	-7.86023
N	-7.86306
▁name	-7.86452
▁mo	-7.86693
v	-7.86756
▁made	-7.86773
▁keep	-7.86823
▁its	-7.86876
▁still	-7.8694
▁long	-7.86973
▁end	-7.8729
one	-7.87722
▁di	-7.87783
▁found	-7.88472
▁2	-7.89552
▁De	-7.89794
ut	-7.90024
▁might	-7.90639
▁home	-7.90765
▁love	-7.91143
▁sure	-7.91327
om	-7.91362
im	-7.91375
▁Ba	-7.91594
B	-7.91656
R	-7.92002
ance	-7.92082
O	-7.924
▁yourself	-7.92639
▁same	-7.93041
▁thing	-7.93239
▁4	-7.93363
wa	-7.93471
▁When	-7.9377
▁year	-7.93865
▁person	-7.94019
ad	-7.9417
min	-7.94214
▁ma	-7.94687
▁between	-7.95184
ki	-7.96435
ie	-7.96949
da	-7.97381
▁Bo	-7.98418
ha	-7.98481
▁three	-7.9867
▁system	-7.98725
▁Now	-7.9874
▁N	-7.98935
).	-7.99144
▁different	-7.99497
▁form	-7.99681
▁every	-7.99711
▁car	-7.99877
▁Mar	-8.00348
▁while	-8.00638
▁Ha	-8.00709
ness	-8.01284
ru	-8.01313
▁mean	-8.01415
▁number	-8.01581
▁high	-8.01641
▁thought	-8.01745
▁V	-8.02269
▁talk	-8.02633
▁/	-8.03393
man	-8.03646
▁last	-8.037
di	-8.03803
▁gra	-8.04073
▁call	-8.04184
▁po	-8.04252
▁pre	-8.04638
go	-8.0493
am	-8.05437
ga	-8.06129
▁both	-8.06151
▁L	-8.06411
ence	-8.06611
▁each	-8.06736
▁change	-8.07566
les	-8.07965
po	-8.07968
▁Li	-8.08083
nt	-8.08152
▁better	-8.08613
ical	-8.08638
▁Mo	-8.08647
ating	-8.08728
▁away	-8.08782
▁5	-8.0892
▁H	-8.09005
ful	-8.09318
▁Ro	-8.09875
be	-8.09996
ld	-8.10227
do	-8.10323
▁d	-8.10487
mb	-8.10515
0	-8.10594
▁put	-8.11014
▁R	-8.11239
va	-8.11298
▁Ho	-8.11537
▁open	-8.11615
ted	-8.11648
▁Me	-8.11789
▁body	-8.11792
▁How	-8.11909
▁why	-8.12238
▁Pa	-8.12343
L	-8.1235
▁la	-8.12954
ver	-8.13007
▁called	-8.13241
▁great	-8.138
▁10	-8.13885
▁lot	-8.13887
▁best	-8.14224
ous	-8.14314
▁An	-8.14605
ling	-8.15317
ak	-8.15764
▁second	-8.16296
▁bu	-8.16667
em	-8.16733
▁wo	-8.16741
▁few	-8.16742
ff	-8.17169
▁example	-8.17258
▁Sa	-8.17308
ide	-8.17377
▁another	-8.17557
ho	-8.17655
▁again	-8.17798
▁As	-8.17816
▁per	-8.17999
F	-8.18845
▁human	-8.18934
cu	-8.18988
▁en	-8.19294
▁Se	-8.19433
H	-8.19488
▁must	-8.19553
ten	-8.19832
▁important	-8.2023
▁old	-8.20417
bo	-8.20527
▁during	-8.21412
he	-8.21631
▁head	-8.2164
ster	-8.21735
ial	-8.21839
▁kind	-8.21867
▁doing	-8.21898
▁try	-8.21965
▁My	-8.22072
▁Na	-8.22208
▁until	-8.22486
▁food	-8.23083
▁start	-8.23482
tion	-8.2356
▁China	-8.23726
ard	-8.23928
▁family	-8.23993
▁dis	-8.24025
▁All	-8.24075
▁Le	-8.24442
▁known	-8.24792
ish	-8.24972
00	-8.25063
▁side	-8.25479
son	-8.25997
tra	-8.26438
▁St	-8.26612
gen	-8.26858
per	-8.26986
▁close	-8.27107
▁idea	-8.27136
lic	-8.2721
▁18	-8.27362
and	-8.27402
▁am	-8.27639
▁left	-8.27639
▁point	-8.27864
ight	-8.27888
▁always	-8.27924
▁comp	-8.27951
ka	-8.28703
▁night	-8.28752
ture	-8.28843
▁friend	-8.28905
tor	-8.29117
pa	-8.29531
ward	-8.29532
▁include	-8.29593
▁hand	-8.29968
▁Ra	-8.30021
▁actually	-8.30245
che	-8.30278
os	-8.30384
▁without	-8.30579
▁group	-8.30719
mon	-8.31028
▁using	-8.31215
▁state	-8.31867
▁Al	-8.31909
▁Oh	-8.31919
up	-8.32049
▁th	-8.32074
ism	-8.32094
▁Go	-8.32311
▁kill	-8.32607
▁often	-8.32626
▁United	-8.327
ba	-8.32834
▁school	-8.32884
▁ha	-8.3292
the	-8.32947
▁o	-8.33216
▁Your	-8.33229
▁war	-8.3336
▁Mi	-8.33462
pp	-8.33524
ton	-8.33541
nk	-8.33645
▁someone	-8.33658
ac	-8.33739
ze	-8.33943
▁Co	-8.34026
▁believe	-8.34082
▁ta	-8.34724
▁bi	-8.34777
ative	-8.34927
▁anything	-8.3493
▁mi	-8.3506
▁Di	-8.35202
ach	-8.35495
▁leave	-8.35655
ow	-8.35842
▁light	-8.35849
ther	-8.35927
ator	-8.35943
▁W	-8.36246
▁Mr	-8.36298
▁Po	-8.36633
▁k	-8.36781
▁game	-8.36784
ally	-8.37208
▁small	-8.3722
▁li	-8.37566
▁less	-8.37576
▁cause	-8.37817
▁together	-8.38083
▁ga	-8.38101
▁become	-8.38217
▁pain	-8.38445
ang	-8.38488
▁control	-8.38792
▁power	-8.39042
dy	-8.39103
▁ro	-8.39548
▁Why	-8.39687
▁hard	-8.39887
▁Da	-8.39929
ral	-8.40092
▁enough	-8.40277
▁6	-8.40385
G	-8.40392
▁On	-8.4049
port	-8.40614
ot	-8.40653
▁Lo	-8.40676
act	-8.40855
▁process	-8.41004
▁live	-8.41025
▁next	-8.41235
▁house	-8.41383
ber	-8.41424
▁ba	-8.41448
▁ever	-8.41468
bi	-8.41508
ction	-8.41624
lin	-8.41647
end	-8.41658
tro	-8.42087
▁women	-8.42197
▁order	-8.42362
▁set	-8.42505
▁later	-8.4286
od	-8.42962
▁Let	-8.42962
▁government	-8.43125
▁Yeah	-8.43143
red	-8.4316
▁face	-8.43204
tu	-8.43303
ound	-8.43324
▁Just	-8.43385
▁result	-8.4342
▁since	-8.43443
▁against	-8.43528
▁Pro	-8.44555
▁real	-8.44665
▁Con	-8.44814
ized	-8.44818
▁7	-8.4485
▁sa	-8.44925
▁Ta	-8.45123
▁play	-8.45165
▁blood	-8.45903
▁happen	-8.46101
ring	-8.46295
▁term	-8.46307
▁Ka	-8.46365
▁test	-8.46469
▁doctor	-8.46678
▁girl	-8.46753
▁ask	-8.46787
▁four	-8.46822
ure	-8.46917
▁hair	-8.47013
▁American	-8.47016
▁20	-8.47112
▁skin	-8.47129
▁These	-8.47235
▁done	-8.47768
ph	-8.47934
▁line	-8.47945
ric	-8.4803
ner	-8.48397
▁Ch	-8.48464
▁came	-8.48768
▁ho	-8.48792
▁ti	-8.48795
tain	-8.48845
ag	-8.49094
▁understand	-8.49306
pi	-8.4936
▁area	-8.496
▁type	-8.49601
▁stay	-8.49914
▁v	-8.49939
▁told	-8.49945
▁support	-8.50006
▁country	-8.50136
▁getting	-8.50315
▁care	-8.50318
▁turn	-8.50334
▁stop	-8.50482
▁Vi	-8.50583
▁mind	-8.50709
▁Some	-8.50942
we	-8.51054
▁lo	-8.51097
▁money	-8.51171
▁making	-8.51319
▁bo	-8.51338
▁class	-8.51364
▁including	-8.51555
▁able	-8.51838
▁men	-8.51882
▁Su	-8.51958
▁within	-8.52129
▁top	-8.52181
▁f	-8.52348
▁At	-8.52483
bu	-8.52708
▁free	-8.53122
▁fl	-8.53501
▁m	-8.53562
tri	-8.53562
wi	-8.53906
less	-8.54141
der	-8.54154
▁run	-8.54423
▁States	-8.54427
▁air	-8.54478
▁father	-8.54625
▁sign	-8.54893
ven	-8.55004
▁Te	-8.55102
▁pi	-8.55194
line	-8.55283
▁million	-8.55462
du	-8.55638
▁i	-8.5623
▁New	-8.56266
▁Look	-8.56733
▁children	-8.5684
mer	-8.56975
hi	-8.57209
▁One	-8.57278
ite	-8.57328
▁w	-8.57707
▁plan	-8.57807
▁days	-8.57957
▁8	-8.57995
▁vi	-8.5809
cy	-8.58603
▁job	-8.58692
king	-8.58762
▁pa	-8.58835
▁Z	-8.58946
▁va	-8.5898
▁room	-8.59052
▁trying	-8.59289
ice	-8.59297
▁sub	-8.59326
ip	-8.59355
io	-8.59406
▁le	-8.59414
▁bad	-8.5943
V	-8.59559
▁minutes	-8.59612
▁sp	-8.59928
▁looking	-8.60308
▁else	-8.60322
▁After	-8.60513
▁book	-8.60614
▁case	-8.60756
▁guy	-8.60763
▁big	-8.60778
gu	-8.60897
▁read	-8.60976
ab	-8.61119
▁se	-8.61315
ions	-8.61331
▁Jo	-8.61649
▁du	-8.61667
▁business	-8.61811
▁15	-8.62007
▁star	-8.62009
gg	-8.62156
▁hold	-8.62187
ign	-8.62212
▁having	-8.62242
▁Or	-8.62591
▁problem	-8.62637
▁Wa	-8.62795
▁pass	-8.62883
▁'	-8.6316
tin	-8.63217
▁drug	-8.63296
▁move	-8.63314
▁bring	-8.63401
▁today	-8.63802
▁based	-8.6395
lar	-8.64034
ig	-8.64205
ect	-8.64407
▁reason	-8.64461
▁everything	-8.64769
ler	-8.65151
é	-8.65175
▁took	-8.65199
▁week	-8.65263
%	-8.65446
▁bit	-8.65676
ox	-8.65929
ities	-8.65937
▁sta	-8.65987
▁Ar	-8.66115
ron	-8.6618
▁experience	-8.66242
▁pe	-8.66246
▁already	-8.66288
bb	-8.66306
▁treatment	-8.66414
tal	-8.66885
▁team	-8.67083
▁Fa	-8.67147
▁went	-8.67167
▁public	-8.67284
ual	-8.67429
▁fr	-8.67491
▁hi	-8.67834
▁Si	-8.67846
▁allow	-8.6786
▁cut	-8.68158
▁clean	-8.6816
ship	-8.68167
▁large	-8.68308
▁least	-8.68309
▁nothing	-8.68457
▁child	-8.68647
▁once	-8.68709
▁Dr	-8.68829
▁9	-8.69003
▁full	-8.6901
▁mother	-8.69019
▁trans	-8.69034
▁Because	-8.69212
▁app	-8.69391
▁arm	-8.69394
▁South	-8.69571
▁heart	-8.69616
ise	-8.69864
▁wanted	-8.69895
▁seem	-8.70023
our	-8.70234
▁possible	-8.70381
ea	-8.70458
▁several	-8.70496
▁whole	-8.70815
▁anti	-8.70862
▁hear	-8.70877
▁five	-8.7095
▁However	-8.71099
U	-8.71461
▁te	-8.71467
▁became	-8.71632
▁Not	-8.71841
▁information	-8.71894
▁walk	-8.71992
fe	-8.72021
▁12	-8.72034
▁friends	-8.72328
▁social	-8.72411
▁short	-8.72483
qui	-8.72608
rn	-8.72697
vo	-8.72839
▁seen	-8.72981
▁Then	-8.73159
▁fa	-8.73315
▁Ja	-8.73322
fi	-8.73326
▁cat	-8.73371
cent	-8.73386
▁treat	-8.73398
way	-8.73407
▁Bu	-8.73416
▁act	-8.7351
▁working	-8.73584
▁present	-8.73592
▁law	-8.73604
▁provide	-8.73666
ious	-8.73853
con	-8.73865
▁health	-8.74061
▁language	-8.74091
▁contain	-8.74117
▁means	-8.74144
▁break	-8.7429
▁fact	-8.74296
gra	-8.74496
▁oil	-8.74549
▁speak	-8.74898
▁Ex	-8.74961
▁coming	-8.74994
▁pay	-8.75042
▁death	-8.7509
ize	-8.75232
land	-8.75426
ger	-8.75625
▁music	-8.75634
▁film	-8.75793
Laughter	-8.76034
▁course	-8.76136
eg	-8.76241
ap	-8.76438
val	-8.76636
▁Her	-8.76728
▁taking	-8.76927
▁fight	-8.77164
▁relationship	-8.77286
gi	-8.77331
▁clear	-8.77421
▁sh	-8.77465
▁sleep	-8.77718
▁past	-8.77878
▁young	-8.77908
ud	-8.77994
▁market	-8.78164
▁plant	-8.7821
▁dead	-8.78227
▁hours	-8.78245
▁city	-8.78381
▁program	-8.78523
ition	-8.7868
▁remember	-8.78741
▁local	-8.78929
▁Car	-8.78956
▁company	-8.79013
▁rest	-8.79033
▁al	-8.79106
▁Ga	-8.79127
▁along	-8.79215
use	-8.79372
▁force	-8.79452
▁common	-8.79888
que	-8.80042
▁return	-8.80334
▁woman	-8.80576
side	-8.8058
row	-8.80585
▁imp	-8.80863
za	-8.80868
▁Fi	-8.80978
rk	-8.8098
W	-8.81028
▁appear	-8.81125
ase	-8.81129
▁Br	-8.81297
ran	-8.8131
▁Can	-8.81319
by	-8.81394
ep	-8.81532
av	-8.81861
▁0	-8.81867
▁deal	-8.81922
▁started	-8.81927
▁risk	-8.8213
▁Ne	-8.82163
ko	-8.82244
▁early	-8.82279
▁Gu	-8.82289
▁add	-8.82322
▁record	-8.82416
ever	-8.82463
▁half	-8.82595
▁University	-8.82738
▁ago	-8.82827
,"	-8.82929
▁others	-8.82946
ome	-8.8306
ile	-8.83116
ctor	-8.83258
▁phone	-8.83272
▁main	-8.83315
▁far	-8.83398
▁story	-8.83556
ex	-8.83723
▁Are	-8.83789
▁talking	-8.83798
▁stand	-8.83844
rd	-8.83966
▁require	-8.84015
▁matter	-8.8408
ration	-8.84143
▁ri	-8.84222
▁leg	-8.84295
▁strong	-8.84353
▁list	-8.84364
com	-8.84388
ries	-8.84421
▁War	-8.84456
▁cap	-8.84497
uc	-8.84511
▁times	-8.84548
▁lead	-8.8463
led	-8.84776
form	-8.84905
▁art	-8.84978
tan	-8.85019
▁land	-8.8506
▁God	-8.85231
▁boy	-8.85312
▁computer	-8.85647
▁mis	-8.85756
▁sc	-8.85867
▁Make	-8.8591
▁saw	-8.85984
▁late	-8.86207
▁ru	-8.86337
pl	-8.8641
▁service	-8.86575
lan	-8.86655
▁brain	-8.86709
▁dog	-8.86712
▁condition	-8.86733
▁Poland	-8.86749
▁J	-8.86752
▁ob	-8.86793
▁30	-8.86828
▁Vietnam	-8.87003
cing	-8.87062
fa	-8.87135
▁wi	-8.87251
▁low	-8.87609
▁US	-8.87628
chi	-8.87672
▁sound	-8.87809
▁watch	-8.87873
▁tra	-8.88019
▁age	-8.88079
▁single	-8.88263
ory	-8.88459
▁space	-8.88576
▁certain	-8.88723
▁Get	-8.88869
▁drink	-8.88884
▁focus	-8.88896
▁special	-8.88917
▁win	-8.88935
▁study	-8.89091
rate	-8.89467
▁usually	-8.89692
ium	-8.90092
▁cover	-8.90155
▁personal	-8.90185
ble	-8.90208
▁building	-8.90307
▁X	-8.90404
▁Chinese	-8.90484
▁brother	-8.9068
og	-8.90716
▁su	-8.90753
▁Hey	-8.9076
▁im	-8.90822
▁okay	-8.90847
▁Try	-8.90923
▁step	-8.90964
▁bar	-8.90968
vers	-8.91091
▁remain	-8.91106
ub	-8.91203
▁Did	-8.91301
▁period	-8.91329
▁check	-8.91424
▁design	-8.91508
▁Th	-8.91556
▁son	-8.91819
▁north	-8.9183
▁percent	-8.91837
▁natural	-8.91908
▁question	-8.91908
K	-8.91911
▁create	-8.92205
▁organ	-8.92249
▁near	-8.92317
▁World	-8.92348
▁due	-8.92534
▁ch	-8.92704
▁prevent	-8.92744
▁Use	-8.9275
▁May	-8.92885
▁wrong	-8.92885
▁countries	-8.92977
▁born	-8.93096
▁reach	-8.93158
ee	-8.93218
dic	-8.93338
▁lu	-8.93461
▁17	-8.93508
▁self	-8.93587
▁village	-8.9386
▁Man	-8.93908
pro	-8.93935
ev	-8.9419
▁hot	-8.94498
▁following	-8.94607
ya	-8.94607
ugh	-8.94656
▁level	-8.94724
▁With	-8.94755
▁likely	-8.9482
▁drive	-8.9491
j	-8.94919
▁color	-8.94922
wn	-8.94961
▁situation	-8.9504
▁six	-8.95133
▁safe	-8.95222
▁ge	-8.95242
▁video	-8.95275
▁hope	-8.95296
▁fo	-8.95399
▁tu	-8.95438
▁offer	-8.95848
tle	-8.95951
ier	-8.95997
ec	-8.96029
▁develop	-8.96065
▁join	-8.96135
▁disease	-8.96159
▁continue	-8.96208
▁though	-8.96224
▁position	-8.96367
oc	-8.96642
▁inside	-8.96685
han	-8.96767
▁guys	-8.96823
▁non	-8.96932
▁moment	-8.97083
▁sha	-8.97141
tter	-8.97157
▁amount	-8.97178
▁partner	-8.97207
▁months	-8.97272
▁instead	-8.97354
▁eye	-8.97447
▁future	-8.97479
men	-8.97504
▁eat	-8.97662
ning	-8.97846
▁model	-8.97965
▁political	-8.97994
ong	-8.9805
ped	-8.98197
▁either	-8.98209
▁probably	-8.98234
▁Who	-8.98363
▁16	-8.98368
▁protect	-8.98392
▁el	-8.98631
out	-8.98651
▁avoid	-8.98729
ible	-8.9875
▁rule	-8.98779
▁Ri	-8.98906
ew	-8.99017
▁reduce	-8.99088
▁research	-8.99122
▁fi	-8.9926
▁cost	-8.99284
▁mass	-8.99338
▁thinking	-8.99536
▁Lu	-8.99638
▁Du	-8.99653
▁Pe	-8.99864
▁increase	-8.99965
▁cur	-9.00216
▁mar	-9.00446
▁y	-9.00497
000	-9.00575
▁share	-9.00598
▁difficult	-9.01
▁fall	-9.01061
▁Ki	-9.01221
▁dry	-9.0135
▁da	-9.01421
▁Sp	-9.01448
▁outside	-9.01453
▁yet	-9.01761
▁save	-9.01892
▁goal	-9.01936
▁Take	-9.01961
▁cre	-9.01971
▁Ni	-9.02002
▁character	-9.02241
▁energy	-9.02333
▁key	-9.02353
▁Hi	-9.02366
▁Hu	-9.02382
istic	-9.0259
▁post	-9.02598
▁tri	-9.02612
▁soon	-9.02622
▁century	-9.02781
▁object	-9.02937
ake	-9.02981
ping	-9.03132
▁remove	-9.03145
▁Je	-9.03217
▁expect	-9.03219
▁deep	-9.0336
▁saying	-9.03432
ov	-9.0347
▁action	-9.03524
▁value	-9.03702
▁Maybe	-9.03739
▁file	-9.03811
▁especially	-9.03978
▁consider	-9.04041
▁Pre	-9.04084
▁Mon	-9.04216
▁hands	-9.04221
▁Un	-9.04247
▁killed	-9.04442
▁chance	-9.04463
▁meet	-9.04563
▁Yes	-9.04572
▁history	-9.04639
▁red	-9.04776
▁Sta	-9.04997
▁die	-9.05011
▁Come	-9.05032
▁please	-9.05041
▁answer	-9.05064
▁Y	-9.05181
▁word	-9.05269
▁maybe	-9.05311
▁white	-9.05391
▁happened	-9.05402
▁given	-9.05623
▁Ph	-9.0591
▁lost	-9.05914
▁tr	-9.05957
▁store	-9.06097
for	-9.06132
ology	-9.06133
▁Mu	-9.06342
▁data	-9.06347
▁Pi	-9.06517
▁drop	-9.0662
▁occur	-9.06649
au	-9.06709
▁fire	-9.06761
▁club	-9.06814
▁party	-9.06827
▁project	-9.06915
vis	-9.06926
ai	-9.0704
▁His	-9.07109
ny	-9.07161
nder	-9.0736
▁role	-9.07489
▁eyes	-9.07883
▁listen	-9.07969
▁account	-9.08004
lation	-9.08033
▁pick	-9.08037
▁Pri	-9.08174
▁released	-9.08216
ft	-9.08355
▁National	-9.08382
ef	-9.08491
▁individual	-9.08535
▁interest	-9.08588
▁alone	-9.08664
▁op	-9.08798
▁rather	-9.08847
▁Where	-9.08858
lf	-9.08916
my	-9.0894
▁buy	-9.0901
ey	-9.09075
▁similar	-9.09322
▁represent	-9.09336
▁wife	-9.09611
ified	-9.09761
▁whether	-9.09775
▁breath	-9.10059
▁attack	-9.10245
▁effective	-9.10283
▁normal	-9.10358
▁By	-9.10423
▁figure	-9.10529
▁learn	-9.10648
▁population	-9.10775
▁season	-9.11027
▁exist	-9.11112
▁animal	-9.11161
nch	-9.11417
▁sense	-9.11537
▁enter	-9.11595
ah	-9.1165
▁longer	-9.11663
".	-9.11703
▁baby	-9.11811
▁11	-9.1188
▁fun	-9.11934
▁grow	-9.11943
▁view	-9.12019
ina	-9.1206
▁Bi	-9.12136
▁song	-9.12163
▁cell	-9.12451
▁morning	-9.12578
ization	-9.12595
▁among	-9.12595
▁ten	-9.12605
▁report	-9.1269
▁available	-9.12811
▁front	-9.12931
▁cop	-9.12956
▁option	-9.13034
▁En	-9.13258
▁wait	-9.13261
▁fast	-9.13267
▁source	-9.13282
▁knew	-9.13339
wer	-9.13373
▁hit	-9.13454
▁positive	-9.13471
▁cho	-9.13489
ug	-9.13495
▁Bar	-9.13529
▁heard	-9.13563
▁began	-9.13707
▁sun	-9.13719
▁series	-9.13778
▁environment	-9.1381
▁entire	-9.13855
▁taken	-9.13983
born	-9.14117
▁black	-9.1418
▁paper	-9.14347
▁qua	-9.14351
▁Ju	-9.14363
▁Chi	-9.14383
▁across	-9.14432
▁14	-9.14478
▁piece	-9.14507
▁Okay	-9.14551
▁affect	-9.14581
▁spend	-9.14725
▁town	-9.14761
▁fish	-9.14767
▁dec	-9.1486
▁effects	-9.15012
▁sometimes	-9.15121
▁development	-9.15194
▁method	-9.15238
zi	-9.15278
▁km	-9.15317
▁sorry	-9.15331
▁feeling	-9.15549
ley	-9.15791
▁ja	-9.15795
▁North	-9.15822
▁text	-9.15853
yl	-9.15938
▁super	-9.16075
▁Wi	-9.16327
▁infection	-9.16366
▁(19	-9.16376
▁contact	-9.16413
▁function	-9.16419
▁13	-9.1656
▁major	-9.1656
▁Even	-9.1658
50	-9.16609
▁problems	-9.16903
▁almost	-9.16913
▁comm	-9.16934
▁official	-9.17187
▁medical	-9.17189
▁physical	-9.17248
0,000	-9.17288
▁produce	-9.17385
▁daughter	-9.17386
▁sold	-9.17389
bra	-9.1749
▁product	-9.17592
▁gr	-9.17603
press	-9.17771
▁general	-9.17834
▁fat	-9.17988
▁field	-9.1804
▁national	-9.18049
▁Cu	-9.18131
▁access	-9.18246
▁symptoms	-9.18326
ok	-9.18489
▁Fe	-9.18624
time	-9.18689
▁slow	-9.18804
▁Cha	-9.18853
ick	-9.19022
▁pressure	-9.19038
▁image	-9.19042
▁para	-9.19064
▁anyone	-9.19151
▁pretty	-9.19224
▁material	-9.19394
▁box	-9.19426
den	-9.19471
gan	-9.19545
▁fe	-9.1957
▁asked	-9.196
▁begin	-9.19676
▁cha	-9.19778
ability	-9.19882
▁John	-9.19963
▁south	-9.19979
▁German	-9.20017
▁trust	-9.20022
▁attention	-9.20099
▁met	-9.20111
▁gave	-9.2012
wo	-9.20289
▁While	-9.20335
▁true	-9.20394
▁behind	-9.20525
▁region	-9.20547
▁improve	-9.20556
▁select	-9.20591
qua	-9.20672
▁economic	-9.20793
▁San	-9.20802
▁send	-9.20843
▁follow	-9.20876
▁card	-9.20911
▁weight	-9.21069
▁member	-9.21112
▁suggest	-9.21126
par	-9.21179
ja	-9.2125
▁March	-9.21337
The	-9.21357
ency	-9.21369
▁ready	-9.21387
▁inter	-9.21457
▁office	-9.21472
▁behavior	-9.21508
▁visit	-9.21614
▁clo	-9.21628
▁third	-9.21812
▁West	-9.22029
▁door	-9.22094
▁everyone	-9.22195
▁limit	-9.22266
▁acid	-9.22304
ple	-9.2254
▁stress	-9.22618
nu	-9.22636
put	-9.22713
▁rate	-9.22776
▁size	-9.22847
zo	-9.22899
▁gu	-9.22954
▁east	-9.23021
▁lower	-9.23192
▁America	-9.23264
▁police	-9.23359
truc	-9.23402
▁total	-9.23563
▁feature	-9.23651
▁myself	-9.23651
▁living	-9.23912
▁kid	-9.23924
▁medication	-9.24141
▁serious	-9.24174
ify	-9.24189
▁Har	-9.24251
▁Tu	-9.24474
dent	-9.24549
▁President	-9.2455
▁Star	-9.24664
▁died	-9.2478
▁nice	-9.24824
vent	-9.24834
ook	-9.24834
▁date	-9.24859
ue	-9.24869
▁hurt	-9.24885
▁comes	-9.25081
light	-9.25145
▁Ti	-9.25199
▁burn	-9.25289
oid	-9.25302
▁military	-9.25309
▁cor	-9.25351
▁picture	-9.25475
mber	-9.25503
▁capital	-9.25508
/	-9.25611
▁measure	-9.25675
▁fine	-9.25676
▁says	-9.25735
▁2016	-9.25765
ough	-9.25821
▁planet	-9.25858
▁Earth	-9.25908
▁Keep	-9.25989
▁specific	-9.2609
▁depend	-9.26094
▁happy	-9.26124
▁fear	-9.26251
▁Per	-9.26421
▁exercise	-9.26425
▁Qu	-9.26456
▁build	-9.26731
▁port	-9.26839
ological	-9.27211
▁100	-9.27349
▁simple	-9.27401
▁El	-9.27438
▁ground	-9.27579
cra	-9.27675
▁hu	-9.27694
▁touch	-9.27738
▁mu	-9.27803
▁tree	-9.27815
▁Ac	-9.27927
▁international	-9.2796
▁parents	-9.28065
▁em	-9.28155
▁couple	-9.28199
▁words	-9.28324
▁Have	-9.28488
▁perform	-9.28668
▁June	-9.28688
ban	-9.2874
ically	-9.2883
▁page	-9.28855
▁lives	-9.28972
▁cold	-9.29001
▁l	-9.29022
▁sea	-9.29043
▁cases	-9.29082
▁surface	-9.29192
▁worked	-9.29201
▁Ko	-9.29255
▁weeks	-9.29287
▁August	-9.29606
▁located	-9.29675
itu	-9.29675
▁release	-9.29828
▁2011	-9.29929
▁easy	-9.29936
▁manage	-9.29948
▁Wo	-9.30132
▁Miss	-9.30148
▁media	-9.30149
phe	-9.30228
jo	-9.30309
ou	-9.3057
▁screen	-9.30789
▁warm	-9.30835
▁decision	-9.30841
▁gun	-9.30921
▁travel	-9.30996
late	-9.3102
▁claim	-9.31069
▁2015	-9.31359
▁Col	-9.31379
▁ph	-9.31394
xi	-9.31504
▁(20	-9.31583
▁track	-9.3163
▁Africa	-9.31853
▁original	-9.32001
▁Ru	-9.32012
▁2012	-9.32085
▁Sha	-9.3209
hu	-9.32129
▁Here	-9.32199
▁tend	-9.32301
▁50	-9.32423
▁district	-9.32428
▁People	-9.32428
gue	-9.32558
▁sir	-9.32568
▁gone	-9.32669
▁potential	-9.32695
▁popular	-9.32699
▁month	-9.32761
▁cool	-9.32816
ju	-9.32823
▁degree	-9.32874
▁Japan	-9.32981
shi	-9.33015
▁factor	-9.33066
▁bed	-9.33124
▁2014	-9.33294
if	-9.33363
▁2017	-9.33421
▁areas	-9.33467
iv	-9.33477
▁practice	-9.33554
▁complete	-9.33574
▁Ke	-9.33655
▁president	-9.3368
▁choice	-9.33687
▁dark	-9.33777
▁negative	-9.33843
▁kids	-9.33903
▁pull	-9.33909
▁accept	-9.33917
▁Sh	-9.33925
▁English	-9.33969
▁secret	-9.33987
▁sell	-9.34
▁further	-9.34005
cha	-9.34031
fer	-9.34034
▁$	-9.3409
▁ver	-9.34321
▁won	-9.3434
work	-9.34515
▁connect	-9.34549
▁stuff	-9.34611
zz	-9.34676
izing	-9.3471
head	-9.34827
▁lose	-9.34847
▁effect	-9.3497
▁pan	-9.34974
▁site	-9.35191
▁write	-9.35208
▁wall	-9.35403
▁Once	-9.35446
▁cells	-9.35507
▁concern	-9.35534
▁October	-9.35626
▁conversation	-9.35644
▁pen	-9.35665
▁September	-9.35717
▁Of	-9.35967
▁wide	-9.36023
ana	-9.36097
▁shot	-9.36176
▁Gra	-9.36191
▁muscle	-9.36196
▁however	-9.36251
▁draw	-9.36256
▁temperature	-9.36326
▁25	-9.36341
▁cancer	-9.36433
▁si	-9.36469
▁Com	-9.36543
▁damage	-9.36567
▁exactly	-9.36585
▁quite	-9.36616
▁running	-9.36713
▁disc	-9.36718
▁version	-9.36855
▁named	-9.36943
▁heat	-9.37074
▁block	-9.37228
▁extra	-9.373
▁products	-9.37371
ject	-9.37437
▁education	-9.37478
▁window	-9.37494
▁unit	-9.37519
pho	-9.37593
▁Most	-9.37633
▁title	-9.37697
▁solution	-9.37703
je	-9.37717
▁wish	-9.37745
▁sent	-9.37916
ek	-9.37982
▁held	-9.38009
▁cook	-9.38054
▁cu	-9.38081
▁Am	-9.38268
▁April	-9.38324
▁sort	-9.38342
▁2010	-9.38491
ane	-9.38494
▁tea	-9.38539
▁July	-9.38596
▁hour	-9.38606
▁developed	-9.38728
▁address	-9.3876
▁ship	-9.38762
▁itself	-9.38778
▁January	-9.38796
ł	-9.38872
her	-9.38916
fin	-9.38958
▁employ	-9.38986
lie	-9.39026
amine	-9.39065
▁Polish	-9.39082
▁+	-9.39223
▁machine	-9.3929
uch	-9.39314
▁goes	-9.39347
▁scar	-9.39358
bil	-9.39416
▁center	-9.39623
ession	-9.39716
▁questions	-9.39747
▁former	-9.39932
▁French	-9.39978
▁Any	-9.40041
▁table	-9.40131
▁built	-9.40154
▁regular	-9.40208
▁sister	-9.40215
▁professional	-9.40343
▁direct	-9.40517
ade	-9.40811
▁thank	-9.40825
ham	-9.4092
ccu	-9.41009
bin	-9.41065
í	-9.41115
▁train	-9.41174
pir	-9.41228
▁click	-9.41234
▁York	-9.41552
pri	-9.41581
▁device	-9.41583
▁Tra	-9.41584
▁message	-9.41624
▁2018	-9.41633
▁higher	-9.41652
▁wanna	-9.4168
▁mine	-9.41681
▁notice	-9.41736
▁husband	-9.41816
▁Dur	-9.42012
▁pla	-9.42091
▁2013	-9.42109
▁completely	-9.42178
▁II	-9.42293
▁simply	-9.42679
vil	-9.42695
rin	-9.42894
▁online	-9.43009
▁brought	-9.43074
▁rec	-9.43404
▁leader	-9.4341
▁culture	-9.43431
ku	-9.43526
cept	-9.43543
low	-9.43686
qu	-9.4372
▁significant	-9.43729
▁sit	-9.43734
▁technology	-9.44008
▁November	-9.44028
▁According	-9.44048
▁growth	-9.44099
▁security	-9.44107
▁created	-9.44342
▁healthy	-9.44374
▁prison	-9.44488
▁meeting	-9.44575
▁quickly	-9.44584
▁court	-9.44613
▁community	-9.44709
▁hell	-9.44716
▁issue	-9.44883
▁mouth	-9.44911
▁24	-9.44936
▁above	-9.4496
▁considered	-9.45018
▁sex	-9.45041
▁production	-9.45075
▁print	-9.45288
▁feelings	-9.45413
▁December	-9.45435
ification	-9.45441
▁See	-9.45479
▁activity	-9.45509
▁trade	-9.45511
▁levels	-9.45589
ker	-9.45615
▁loss	-9.4565
part	-9.45655
▁(1	-9.45732
▁Tell	-9.45757
▁rep	-9.45776
▁author	-9.46007
▁guess	-9.46055
▁organization	-9.46083
▁themselves	-9.46126
▁base	-9.46167
▁received	-9.462
▁writing	-9.4631
▁movement	-9.46322
▁structure	-9.4633
▁various	-9.46371
▁dream	-9.46412
▁married	-9.46413
▁difference	-9.46439
▁ice	-9.46535
▁current	-9.46735
▁shape	-9.46882
▁recommend	-9.46945
▁members	-9.47067
pper	-9.47159
▁pack	-9.47402
car	-9.47455
▁explain	-9.4746
▁Many	-9.47471
itch	-9.47755
▁approximately	-9.47791
cin	-9.47804
▁enjoy	-9.47874
▁ju	-9.47907
oph	-9.47972
▁charge	-9.48065
▁host	-9.48133
20	-9.48171
▁char	-9.48183
▁Thank	-9.48249
▁needed	-9.48289
cor	-9.48295
▁price	-9.48301
aging	-9.48373
▁Ste	-9.48388
▁Like	-9.48402
▁approach	-9.48436
J	-9.48514
▁feet	-9.48597
▁Cla	-9.48655
▁related	-9.48794
zy	-9.49011
▁final	-9.49031
▁moving	-9.49087
▁voice	-9.49106
▁choose	-9.49212
lip	-9.49328
▁African	-9.49346
▁respect	-9.49381
▁First	-9.49401
▁Bro	-9.49652
▁2009	-9.49654
▁player	-9.49686
▁letter	-9.49889
▁Since	-9.49911
▁seven	-9.49914
▁Asia	-9.5006
▁worth	-9.50143
▁County	-9.50155
mu	-9.50253
▁Char	-9.50292
▁success	-9.50301
▁stage	-9.50317
▁Other	-9.5045
lk	-9.50559
▁album	-9.50588
▁search	-9.50626
pen	-9.50639
▁fill	-9.50773
▁playing	-9.50857
á	-9.50865
▁Syria	-9.50868
▁diet	-9.50945
▁count	-9.50946
ably	-9.50955
▁bank	-9.50966
▁published	-9.51066
▁raise	-9.51109
▁perfect	-9.51166
▁2004	-9.51346
▁consist	-9.51491
▁trouble	-9.5153
▁photo	-9.51574
van	-9.51611
▁global	-9.51616
▁threat	-9.51664
▁hospital	-9.51702
▁giving	-9.51983
▁pur	-9.52071
▁ball	-9.52091
▁addition	-9.52102
▁From	-9.52118
▁billion	-9.522
▁patients	-9.52306
▁science	-9.52308
▁Art	-9.52319
▁=	-9.52341
▁gotta	-9.52387
like	-9.52405
hen	-9.52624
▁active	-9.52747
▁serve	-9.52798
▁eight	-9.52818
cular	-9.5283
▁discuss	-9.53052
▁administrative	-9.5307
▁subject	-9.5307
▁green	-9.53096
▁wash	-9.53124
▁beautiful	-9.53135
▁network	-9.53157
pha	-9.53166
▁band	-9.53272
▁City	-9.5331
ung	-9.53458
▁apply	-9.53531
ole	-9.53617
▁code	-9.53749
ji	-9.53761
▁tried	-9.53763
▁TV	-9.53826
▁Europe	-9.53856
▁strength	-9.5397
▁career	-9.54061
▁u	-9.54166
▁spread	-9.54169
?"	-9.54232
▁worry	-9.54368
▁Good	-9.54424
mar	-9.54585
▁minute	-9.54597
▁match	-9.54618
▁moved	-9.54625
ulation	-9.54682
pose	-9.54697
▁artist	-9.54867
▁realize	-9.54912
▁cross	-9.55014
▁Every	-9.5508
▁Give	-9.55105
▁location	-9.55213
fu	-9.55214
▁feed	-9.55241
▁range	-9.5532
▁February	-9.55324
▁suffer	-9.55325
cho	-9.55398
▁determine	-9.55414
▁effort	-9.55436
ray	-9.55595
▁species	-9.55604
▁evidence	-9.55638
▁press	-9.55668
▁poor	-9.55684
▁response	-9.55997
▁middle	-9.5602
▁issues	-9.56066
cr	-9.56067
▁achieve	-9.56088
▁chemical	-9.56245
▁shoot	-9.56403
▁rock	-9.56421
▁spot	-9.56458
▁protein	-9.56562
▁street	-9.56586
▁necessary	-9.56788
▁led	-9.56869
▁particular	-9.57137
▁attempt	-9.57425
vation	-9.57471
now	-9.57512
30	-9.57616
▁2008	-9.57656
▁Sea	-9.5784
▁standard	-9.58123
▁fan	-9.58249
▁finger	-9.58272
▁bottom	-9.58365
▁Japanese	-9.58366
▁caused	-9.58375
ino	-9.58401
▁International	-9.58504
▁teach	-9.58573
▁fail	-9.58597
▁stick	-9.58652
▁challenge	-9.58943
▁flo	-9.58968
▁21	-9.59039
▁Right	-9.59145
▁supposed	-9.59153
▁thousand	-9.59175
▁Ben	-9.59251
▁ear	-9.59336
vol	-9.59393
▁complex	-9.59501
▁regional	-9.59613
▁gain	-9.59712
cal	-9.59847
▁document	-9.59852
▁involved	-9.59858
▁truth	-9.59875
▁students	-9.59879
oma	-9.60054
▁benefit	-9.6025
▁command	-9.60271
▁afraid	-9.60343
▁India	-9.60379
▁foot	-9.60435
▁reaction	-9.60534
▁pot	-9.60537
duct	-9.60726
▁fruit	-9.60745
▁himself	-9.60815
arch	-9.61044
▁mark	-9.61049
▁Pu	-9.61253
▁micro	-9.61291
can	-9.61325
▁sexual	-9.61333
▁General	-9.6141
▁push	-9.61432
▁fix	-9.61433
lam	-9.6144
mark	-9.61464
▁School	-9.6155
▁reported	-9.61626
▁upon	-9.61821
ular	-9.61963
▁whatever	-9.61992
▁Award	-9.62035
▁hang	-9.62059
▁served	-9.62088
▁40	-9.62139
▁pet	-9.62197
10	-9.62265
▁previous	-9.6229
▁fit	-9.62402
▁blue	-9.62436
▁replace	-9.6265
fo	-9.62668
▁movie	-9.62702
▁lies	-9.62734
▁bag	-9.62745
▁modern	-9.62762
spec	-9.62942
▁min	-9.62964
▁mix	-9.62977
▁female	-9.63205
▁wh	-9.63537
▁dad	-9.63587
▁cup	-9.63588
▁Central	-9.6369
▁Voivodeship	-9.63738
▁path	-9.63745
Y	-9.6393
▁link	-9.63951
▁ability	-9.64037
▁bra	-9.64108
▁training	-9.64344
▁promise	-9.64405
▁played	-9.64405
▁murder	-9.64422
▁Pol	-9.64471
▁activities	-9.64569
▁worse	-9.64574
▁agent	-9.64602
▁Ji	-9.64608
▁attend	-9.64809
▁tonight	-9.6481
▁shall	-9.64876
▁State	-9.64888
▁hydro	-9.64947
▁western	-9.64953
mination	-9.65001
▁detail	-9.65036
▁King	-9.65044
▁2007	-9.65119
▁sugar	-9.65376
lon	-9.65382
▁decided	-9.65415
▁tap	-9.65424
▁written	-9.6543
▁target	-9.65554
▁style	-9.65768
▁2006	-9.65833
load	-9.65841
kin	-9.65878
ó	-9.65878
80	-9.65954
▁relative	-9.66026
cur	-9.66319
▁civil	-9.66325
▁daily	-9.66327
▁successful	-9.6636
▁collect	-9.6638
▁teacher	-9.66408
gar	-9.66469
▁Min	-9.66491
▁produced	-9.66576
tern	-9.66599
board	-9.66633
har	-9.66699
▁changed	-9.66724
▁private	-9.66724
▁peace	-9.66726
▁bacteria	-9.66775
▁separate	-9.66775
▁Fu	-9.66775
▁trial	-9.66814
▁influence	-9.669
▁wear	-9.66952
▁road	-9.66981
▁°	-9.67053
▁European	-9.67055
▁France	-9.67128
▁asking	-9.67386
▁generally	-9.6742
ivity	-9.67427
▁gene	-9.67448
▁companies	-9.67504
▁telling	-9.67584
▁directly	-9.67587
ctic	-9.67706
▁cast	-9.67745
▁element	-9.67784
▁immediately	-9.67848
▁studies	-9.6796
mission	-9.67982
▁Gmina	-9.68037
▁dance	-9.68047
▁beginning	-9.68214
▁associated	-9.68292
▁chi	-9.68322
▁round	-9.68449
rap	-9.68566
▁maintain	-9.68619
▁2019	-9.68636
▁destroy	-9.68775
▁society	-9.68826
▁meaning	-9.68845
pping	-9.69109
▁throughout	-9.69124
▁British	-9.69313
▁flu	-9.69372
af	-9.69603
▁straight	-9.69623
▁agree	-9.69707
▁glass	-9.69753
▁foreign	-9.69807
▁auto	-9.69911
▁hundred	-9.69932
▁Our	-9.6996
ama	-9.70294
▁purpose	-9.7033
▁sweet	-9.70347
ney	-9.70348
▁cru	-9.70487
udi	-9.70588
▁edit	-9.70781
▁Please	-9.70816
▁flow	-9.71035
▁prepare	-9.71118
▁television	-9.71129
▁spa	-9.7139
▁alcohol	-9.71707
▁Although	-9.71707
▁alive	-9.71803
q	-9.72114
▁multi	-9.72282
▁throw	-9.72302
▁according	-9.72314
▁forget	-9.72317
▁relax	-9.72342
▁prefer	-9.72418
▁eating	-9.72492
▁mistake	-9.72501
▁nature	-9.72506
▁felt	-9.72692
▁Minister	-9.72766
▁East	-9.72837
▁journal	-9.72926
▁salt	-9.72953
▁Wal	-9.73002
▁proper	-9.73021
▁imagine	-9.73032
▁launch	-9.73059
▁egg	-9.73195
▁fly	-9.73254
lock	-9.73305
▁wonder	-9.73333
▁impact	-9.73381
▁west	-9.73401
▁Va	-9.73459
▁legal	-9.73462
▁central	-9.73487
tract	-9.73498
▁director	-9.73498
▁aware	-9.73505
▁careful	-9.73568
▁equal	-9.73972
arian	-9.74042
▁rich	-9.74063
▁shown	-9.74069
imate	-9.74177
▁weak	-9.74214
▁smell	-9.74218
▁attract	-9.74297
cycl	-9.74373
▁resource	-9.74538
▁carry	-9.74692
▁patient	-9.74757
▁Air	-9.74775
▁floor	-9.74806
▁turned	-9.74823
▁content	-9.74848
but	-9.74859
▁discovered	-9.74893
X	-9.74914
▁recognize	-9.75027
▁Put	-9.7517
▁extreme	-9.7519
▁leaving	-9.75191
▁farm	-9.75246
▁announced	-9.75414
▁towards	-9.75434
▁lack	-9.75636
▁refer	-9.75751
▁section	-9.75779
▁dress	-9.7588
▁easier	-9.75984
▁task	-9.76002
▁gold	-9.76005
▁confirm	-9.76204
hal	-9.76255
▁tomorrow	-9.76452
▁increased	-9.76482
▁rid	-9.76487
▁website	-9.76646
▁border	-9.76647
vel	-9.76647
▁typically	-9.76812
▁emotion	-9.76818
▁mode	-9.76834
▁station	-9.76835
▁application	-9.7684
▁particularly	-9.76885
▁Russian	-9.76938
▁severe	-9.76976
▁root	-9.76998
▁fresh	-9.77121
▁wrote	-9.77201
▁traditional	-9.77226
▁Avoid	-9.77229
▁suit	-9.77268
▁forward	-9.77339
atch	-9.77406
▁arrest	-9.77424
▁speed	-9.7744
▁High	-9.77464
▁designed	-9.77517
▁policy	-9.77648
▁growing	-9.77735
hold	-9.77751
▁interested	-9.77871
▁deliver	-9.77875
▁finish	-9.7804
▁spoke	-9.78103
▁setting	-9.78264
▁somebody	-9.7832
▁emb	-9.7834
▁regard	-9.78519
▁tax	-9.78718
▁respond	-9.78743
▁Cor	-9.78746
▁performance	-9.78916
▁Party	-9.79046
▁invest	-9.79087
▁install	-9.79205
▁promote	-9.79265
▁log	-9.79354
▁largest	-9.79375
▁Ver	-9.79501
hood	-9.7951
bel	-9.79531
▁harm	-9.79561
▁Instead	-9.79565
▁scale	-9.79577
▁express	-9.79588
▁bird	-9.79699
▁spent	-9.79779
ano	-9.79805
▁critic	-9.79858
▁brand	-9.79904
▁uh	-9.79952
▁22	-9.7997
▁waiting	-9.79977
▁Two	-9.80022
▁operation	-9.80065
▁although	-9.80108
▁anymore	-9.80455
▁Find	-9.80617
▁Sam	-9.80648
▁board	-9.80678
▁kilometres	-9.8074
▁button	-9.80777
▁comfortable	-9.80856
▁quality	-9.80971
▁adult	-9.81003
▁introduce	-9.81058
▁Gen	-9.81092
▁except	-9.81096
▁victim	-9.81231
▁House	-9.81257
▁essential	-9.81347
▁hum	-9.8137
▁starting	-9.81408
▁catch	-9.81435
▁mid	-9.81531
▁electric	-9.81551
▁Ask	-9.8162
▁weapon	-9.81638
ctiv	-9.81734
▁described	-9.81737
▁seat	-9.81897
▁Korea	-9.81946
craft	-9.82055
▁inhibit	-9.82134
▁Mor	-9.82292
range	-9.82306
▁variety	-9.82338
▁progress	-9.82543
gest	-9.82579
▁sick	-9.82609
▁hate	-9.82611
▁stories	-9.82633
▁clothes	-9.82634
▁easily	-9.8269
▁finally	-9.82716
▁Tru	-9.82839
▁included	-9.8284
cz	-9.82845
▁shop	-9.82867
▁football	-9.82873
▁average	-9.8293
▁camera	-9.82964
▁lock	-9.83074
▁virus	-9.83081
▁increasing	-9.83103
▁Ber	-9.83143
▁pop	-9.83223
▁London	-9.83309
▁Add	-9.83317
▁larger	-9.83333
▁hole	-9.83474
▁Click	-9.8349
▁Ya	-9.83641
▁Gi	-9.83661
▁pattern	-9.83665
▁wave	-9.83712
▁learning	-9.83747
▁initial	-9.83791
▁engage	-9.83814
▁Game	-9.83845
▁fair	-9.83937
▁article	-9.83993
matic	-9.84033
▁Will	-9.84054
▁consume	-9.84178
▁concept	-9.84308
script	-9.84324
▁demand	-9.84326
position	-9.84436
90	-9.84501
▁seek	-9.84641
▁wind	-9.84644
▁Reg	-9.84792
▁below	-9.84885
▁novel	-9.84954
▁Australia	-9.84979
▁interesting	-9.85248
▁Ob	-9.8528
nie	-9.8531
▁established	-9.85318
▁technique	-9.85341
▁contract	-9.85435
▁involve	-9.85455
▁District	-9.85582
▁handle	-9.85626
▁prove	-9.85677
▁Q	-9.85733
▁multiple	-9.85837
▁mom	-9.85858
ulate	-9.86037
▁soft	-9.86071
▁layer	-9.86087
▁mention	-9.86161
▁bro	-9.86173
▁Vietnamese	-9.86252
agon	-9.86339
▁coffee	-9.86403
▁powerful	-9.86445
meter	-9.86489
▁Ge	-9.86515
▁distance	-9.8668
▁camp	-9.86869
▁currently	-9.86929
▁Sun	-9.87024
▁vote	-9.87128
▁birth	-9.8714
▁river	-9.87153
▁advance	-9.87322
▁smart	-9.87395
▁2005	-9.87432
▁Women	-9.8784
▁Dad	-9.87937
▁Republic	-9.88032
▁trip	-9.8807
▁Shi	-9.88113
▁23	-9.88118
▁disorder	-9.88126
▁sales	-9.88206
▁del	-9.88541
▁define	-9.88555
▁basic	-9.8856
▁Germany	-9.88574
osis	-9.88619
▁Soviet	-9.88686
ō	-9.88748
▁fund	-9.88923
▁Ku	-9.89052
▁lived	-9.89129
▁corner	-9.89139
▁soil	-9.89167
▁Think	-9.89187
▁spec	-9.89243
▁Remember	-9.89437
▁Jack	-9.89461
▁cream	-9.89493
▁Park	-9.89558
▁generation	-9.89645
▁Che	-9.89659
▁park	-9.89708
▁connection	-9.89722
▁yes	-9.89962
▁belong	-9.89979
uff	-9.9006
▁Val	-9.90094
▁blow	-9.90109
▁Bra	-9.90131
▁island	-9.90146
▁bio	-9.90179
▁wood	-9.90226
▁Union	-9.90234
▁lie	-9.90295
path	-9.90467
▁decade	-9.9048
▁election	-9.90513
▁software	-9.90576
right	-9.90679
▁management	-9.90684
▁habit	-9.9077
▁freedom	-9.90928
▁whose	-9.9102
▁2000	-9.91047
▁Russia	-9.91133
12	-9.91194
▁leading	-9.91206
▁&	-9.91226
▁recent	-9.91255
ń	-9.91278
▁Comp	-9.91289
▁horse	-9.91376
ła	-9.91438
▁economy	-9.91438
▁opportunity	-9.91438
▁detect	-9.91476
▁learned	-9.91533
▁transfer	-9.91566
lect	-9.91585
▁firm	-9.91605
▁instance	-9.91635
▁bottle	-9.91664
▁Consider	-9.91824
▁Serie	-9.91868
▁ring	-9.91912
▁wound	-9.91944
70	-9.92003
▁Does	-9.92013
▁radio	-9.9202
nny	-9.92188
▁bomb	-9.92211
▁memory	-9.92312
▁display	-9.92387
▁direction	-9.92443
40	-9.92476
▁allowed	-9.92576
▁followed	-9.92671
▁Would	-9.92698
11	-9.92716
▁Prince	-9.9273
▁added	-9.92744
▁huh	-9.92938
▁repeat	-9.92949
▁everybody	-9.92957
▁officer	-9.93182
▁calm	-9.93193
▁citizen	-9.93316
illa	-9.93347
▁Mac	-9.93372
▁financial	-9.93382
▁earn	-9.93454
▁knowledge	-9.9348
▁signal	-9.93529
▁surprise	-9.93578
▁honor	-9.93648
▁male	-9.93703
▁Windows	-9.93709
▁tissue	-9.93775
▁correct	-9.93792
▁Year	-9.93808
▁mental	-9.93907
▁experiment	-9.93939
▁Internet	-9.93972
▁rise	-9.94066
▁crazy	-9.94302
▁email	-9.94336
▁60	-9.94402
▁gentle	-9.94403
▁dinner	-9.945
▁engineer	-9.94501
▁Uh	-9.94552
86	-9.94563
stream	-9.94638
▁pill	-9.94876
▁strange	-9.94917
▁eventually	-9.9503
▁conduct	-9.95042
▁reflect	-9.95064
▁finished	-9.95097
▁decide	-9.95116
▁Frank	-9.95131
▁Open	-9.95452
▁writer	-9.95525
▁prior	-9.95668
▁Za	-9.95815
▁ensure	-9.95905
▁More	-9.95997
▁frequent	-9.95999
▁battle	-9.96
▁jump	-9.96005
▁industry	-9.96134
▁neck	-9.96227
Applause	-9.96302
ella	-9.96609
▁purchase	-9.96673
▁meat	-9.96748
▁smaller	-9.96785
igh	-9.96878
0%	-9.96913
▁indicate	-9.97151
▁becoming	-9.97191
ball	-9.972
▁double	-9.9722
▁map	-9.97258
▁quick	-9.97292
▁Sometimes	-9.97387
▁dangerous	-9.97472
▁Time	-9.97492
▁grand	-9.97678
▁Pomeranian	-9.97692
ów	-9.97709
▁Tri	-9.97757
▁bone	-9.97872
▁greater	-9.97936
▁OK	-9.98112
▁desire	-9.98124
▁bri	-9.98163
▁combination	-9.9824
▁emotional	-9.98267
▁older	-9.98297
▁therapy	-9.98298
▁crime	-9.98344
chlor	-9.98379
▁Sch	-9.98434
▁length	-9.98446
▁sitting	-9.98467
▁kept	-9.98654
▁square	-9.9869
▁receive	-9.98736
▁recover	-9.98826
aries	-9.98874
burg	-9.98927
ologist	-9.99001
▁favorite	-9.99052
▁campaign	-9.99067
▁Another	-9.99207
▁Roman	-9.99272
ific	-9.99307
▁plastic	-9.99314
▁counter	-9.99327
▁ran	-9.99412
▁judge	-9.9945
▁receptor	-9.99623
▁Before	-9.99623
▁mission	-9.99689
18	-9.99829
Arabic	-9.99851
▁discover	-9.99934
▁perhaps	-9.99937
place	-10.0024
▁observe	-10.0036
▁rank	-10.004
▁vegetable	-10.0043
▁shut	-10.0046
▁honest	-10.0046
▁milk	-10.0047
▁Only	-10.0047
▁metal	-10.0059
▁Nu	-10.0059
▁bur	-10.0066
▁balance	-10.0078
▁branch	-10.0083
▁statement	-10.0088
▁earlier	-10.0106
▁spirit	-10.0106
▁conflict	-10.0127
▁extend	-10.0128
▁Listen	-10.0142
▁schedule	-10.0145
▁kiss	-10.0168
▁Win	-10.0181
▁twice	-10.0184
▁commonly	-10.019
▁master	-10.0191
▁survive	-10.0198
▁estimate	-10.0202
▁label	-10.0203
▁heavy	-10.022
▁Paul	-10.0221
▁orbit	-10.0227
▁college	-10.0252
scribe	-10.0254
▁roll	-10.0268
▁somewhere	-10.027
88	-10.0275
▁summer	-10.0297
▁obvious	-10.0313
▁recently	-10.0315
▁beyond	-10.0317
▁Alex	-10.0319
▁1990	-10.033
▁Mc	-10.0334
▁labor	-10.0338
▁bright	-10.034
▁studied	-10.0342
▁Western	-10.0347
▁additional	-10.0349
▁responsible	-10.0356
▁wearing	-10.0361
▁rub	-10.0362
▁dish	-10.0368
OS	-10.0371
▁syn	-10.0372
▁commercial	-10.0382
▁Those	-10.0389
▁customer	-10.039
▁neuro	-10.0395
▁remind	-10.0399
▁26	-10.0402
▁Great	-10.0411
▁medicine	-10.0415
▁review	-10.0418
lig	-10.0425
lov	-10.0431
85	-10.0439
▁origin	-10.0448
back	-10.045
▁menu	-10.0455
▁constant	-10.0477
▁scientist	-10.0491
▁laugh	-10.05
▁items	-10.0508
▁huge	-10.051
▁rain	-10.0515
▁favor	-10.053
▁race	-10.0534
German	-10.0535
▁stock	-10.0543
▁chair	-10.0549
▁institution	-10.0561
▁27	-10.0565
▁bound	-10.0576
▁depression	-10.058
▁scene	-10.0581
▁paid	-10.0604
▁nearly	-10.0605
▁painting	-10.0614
▁accident	-10.0617
▁Yo	-10.0621
▁Indian	-10.063
▁sudden	-10.0635
▁plane	-10.0639
▁Court	-10.064
▁carbon	-10.0643
▁thus	-10.0653
▁channel	-10.0665
▁speech	-10.0665
▁Over	-10.0673
▁reveal	-10.0678
19	-10.0698
▁primary	-10.0699
▁2003	-10.0704
▁northern	-10.0707
▁visual	-10.0711
▁climate	-10.0718
▁sum	-10.0718
▁anxiety	-10.0729
▁28	-10.0744
▁failure	-10.0782
▁solve	-10.0785
▁breast	-10.0789
▁Bill	-10.0794
▁escape	-10.0797
▁Also	-10.08
▁mountain	-10.0801
▁guard	-10.0826
We	-10.0827
▁Black	-10.0827
▁flight	-10.0832
▁student	-10.0834
▁flat	-10.0848
▁hypo	-10.0854
▁causing	-10.0855
▁Italian	-10.0862
▁iron	-10.0874
▁via	-10.0876
▁trigger	-10.0881
well	-10.0901
▁photograph	-10.0904
▁Check	-10.0909
▁interview	-10.0919
▁Army	-10.0932
▁cry	-10.0934
▁arrive	-10.0934
comp	-10.0936
▁compete	-10.0939
▁fell	-10.096
▁communication	-10.0969
▁flower	-10.0971
▁sentence	-10.0975
▁Szczecin	-10.098
▁poet	-10.0983
izer	-10.0991
17	-10.1
▁appearance	-10.1001
▁adopt	-10.1004
graph	-10.1005
▁putting	-10.1013
▁tight	-10.1018
▁Paris	-10.1018
▁epi	-10.1031
▁guide	-10.1032
▁Wait	-10.1037
▁drama	-10.1045
▁Congress	-10.1046
▁psycho	-10.1054
▁encourage	-10.1054
▁ill	-10.1057
▁Which	-10.1089
▁teeth	-10.1101
▁architect	-10.1128
▁gift	-10.1132
▁competition	-10.1136
▁opinion	-10.1136
▁expert	-10.1163
▁colon	-10.1178
▁bath	-10.1193
▁reality	-10.1194
▁famous	-10.1226
▁ocean	-10.1238
▁Brazil	-10.1246
▁etc	-10.1248
▁cycle	-10.1251
▁independent	-10.1254
▁shift	-10.1262
▁pair	-10.1273
▁Lord	-10.1273
▁changing	-10.1298
15	-10.1302
▁transport	-10.1303
▁surgery	-10.1325
▁switch	-10.1325
▁amazing	-10.1329
▁expand	-10.1365
▁boss	-10.1367
▁supply	-10.1373
▁honey	-10.1377
▁download	-10.1383
▁fer	-10.1402
▁caught	-10.1405
▁Kingdom	-10.1405
▁unless	-10.1407
▁stomach	-10.1413
▁broken	-10.1423
▁boat	-10.1427
▁Human	-10.1428
▁Google	-10.143
▁anybody	-10.1438
▁Island	-10.1439
wood	-10.1447
▁Part	-10.145
▁route	-10.1454
▁Latin	-10.1466
▁credit	-10.1466
▁Nintendo	-10.147
▁decrease	-10.1482
▁excess	-10.1482
▁adapt	-10.1482
▁protest	-10.1483
▁lawyer	-10.1487
▁pin	-10.149
▁component	-10.1494
▁garden	-10.1507
▁establish	-10.1509
▁Second	-10.1523
▁2020	-10.1531
▁comment	-10.1544
▁Philip	-10.1547
▁cities	-10.1591
▁appropriate	-10.1604
▁broke	-10.1608
▁George	-10.1609
▁edge	-10.1613
▁absolute	-10.1621
▁manufacture	-10.1633
▁chain	-10.1638
▁Talk	-10.1639
▁useful	-10.1639
▁Though	-10.1641
▁Best	-10.1644
▁highest	-10.1645
▁yeah	-10.1646
▁slightly	-10.1646
▁Work	-10.1646
▁alternative	-10.1654
▁liquid	-10.1654
▁Place	-10.1658
▁$1	-10.1662
▁Queen	-10.1662
▁1980	-10.1666
▁creating	-10.1668
▁compound	-10.1668
▁Korean	-10.1668
▁drag	-10.1674
▁ourselves	-10.1679
▁swim	-10.1691
▁unique	-10.1703
▁hunt	-10.1704
▁nail	-10.1707
▁spray	-10.1707
▁request	-10.1708
▁quiet	-10.1708
▁property	-10.1715
▁yellow	-10.172
▁spin	-10.1721
▁dirt	-10.1731
▁trick	-10.1731
▁taste	-10.1734
▁safety	-10.1736
▁invite	-10.1752
▁lab	-10.1755
▁marriage	-10.177
▁Plan	-10.1775
▁icon	-10.178
▁thick	-10.179
▁wild	-10.1791
▁tank	-10.1794
▁religious	-10.1795
▁church	-10.1824
▁singer	-10.1828
▁missing	-10.183
▁lip	-10.1843
60	-10.1846
▁wake	-10.1851
▁towel	-10.1868
▁stone	-10.1872
▁occasion	-10.1879
▁identify	-10.1883
▁abuse	-10.1904
▁Follow	-10.1904
65	-10.1908
▁ingredient	-10.193
▁authorities	-10.195
▁assume	-10.1954
▁fluid	-10.1968
▁defeat	-10.1973
▁calorie	-10.2002
▁magazine	-10.201
▁families	-10.2028
▁England	-10.204
▁audience	-10.2041
▁electro	-10.2046
You	-10.2047
▁presence	-10.205
▁juice	-10.2063
▁suspect	-10.2071
▁divide	-10.2071
▁approved	-10.2075
▁bodies	-10.2079
▁lady	-10.21
▁nuclear	-10.2101
▁2001	-10.211
▁taught	-10.2122
▁frame	-10.2125
▁soap	-10.2132
▁200	-10.2148
▁participate	-10.2165
▁score	-10.2173
▁Dar	-10.2192
▁collection	-10.2195
▁magic	-10.2198
▁anyway	-10.2206
16	-10.221
▁chest	-10.222
▁funny	-10.2244
▁trap	-10.2251
▁mood	-10.2264
▁actress	-10.2266
▁Peter	-10.227
▁clinical	-10.2275
▁predict	-10.2281
▁ride	-10.2285
▁James	-10.2298
▁brush	-10.2301
▁Institute	-10.2305
▁2002	-10.231
▁symbol	-10.231
▁hide	-10.2324
▁hyper	-10.2336
▁Health	-10.2337
▁debut	-10.2341
▁formula	-10.2341
]	-10.2354
▁critical	-10.2362
14	-10.2362
ón	-10.2365
▁Group	-10.2372
▁vision	-10.2388
▁cultural	-10.2389
▁transform	-10.2392
▁appointed	-10.2394
▁investment	-10.2401
▁Know	-10.2416
▁earth	-10.2423
▁minor	-10.2434
▁motion	-10.2443
ography	-10.2447
▁volume	-10.2456
▁vitamin	-10.2461
▁Watch	-10.2465
▁David	-10.2465
▁digital	-10.2474
▁describe	-10.2476
▁White	-10.2478
▁Research	-10.2492
▁gather	-10.2498
▁politician	-10.2501
▁scientific	-10.2501
▁29	-10.2504
▁ancient	-10.251
▁Council	-10.2523
▁defend	-10.2524
▁River	-10.2526
▁antibiotic	-10.2528
▁disappear	-10.2532
▁advantage	-10.2555
▁crush	-10.2555
▁Washington	-10.2559
▁stupid	-10.2568
▁sample	-10.2569
▁zone	-10.2573
▁anywhere	-10.2605
▁Never	-10.2605
▁Canada	-10.2618
▁California	-10.265
▁crack	-10.2664
▁Could	-10.2669
▁stopped	-10.2672
terior	-10.2692
▁Department	-10.27
▁universe	-10.2705
▁coast	-10.2706
▁construction	-10.2708
39	-10.2714
house	-10.2719
▁grew	-10.2723
▁bigger	-10.2732
▁Hong	-10.2751
▁procedure	-10.276
▁lung	-10.2766
▁nerve	-10.278
}	-10.2783
▁distinct	-10.2793
▁plate	-10.2796
▁Beijing	-10.2801
▁criminal	-10.282
▁damn	-10.2821
▁clothing	-10.2839
▁Christian	-10.2843
▁mask	-10.2843
ę	-10.3241
ö	-10.3476
Z	-10.3599
*	-10.3635
ñ	-10.388
Q	-10.4068
ü	-10.4567
‘	-10.4611
ي	-10.4751
α	-10.5007
ا	-10.5383
$	-10.5493
ś	-10.6026
ر	-10.6781
ą	-10.7532
Ś	-10.7666
ā	-10.8563
×	-10.8637
Ł	-10.8695
è	-10.8745
ن	-10.935
а	-10.9475
`	-10.9805
β	-11.0098
ú	-11.0146
م	-11.0156
à	-11.039
#	-11.0439
ة	-11.0529
ż	-11.0539
ب	-11.068
ç	-11.0876
́	-11.099
ã	-11.116
и	-11.1386
ū	-11.173
\	-11.1959
و	-11.2264
о	-11.2276
&	-11.2488
ل	-11.2541
е	-11.3252
ˈ	-11.3278
ä	-11.4059
н	-11.4422
ə	-11.4922
→	-11.5079
د	-11.5206
+	-11.5473
р	-11.5482
μ	-11.5581
£	-11.5765
~	-11.585
ع	-11.6005
س	-11.625
в	-11.6447
>	-11.6667
Ż	-11.6685
л	-11.7044
â	-11.7102
±	-11.7121
ː	-11.7199
_	-11.7277
ت	-11.7536
ī	-11.774
с	-11.7802
ê	-11.7823
ô	-11.7927
ź	-11.7927
(	-11.8162
♪	-11.8334
к	-11.8422
ح	-11.8622
ɪ	-11.8645
ï	-11.8667
É	-11.9036
Á	-11.9083
ć	-11.9153
^	-11.9516
т	-11.969
š	-12.002
ف	-12.0046
ك	-12.0203
ج	-12.0497
ق	-12.0717
|	-12.0745
ệ	-12.097
π	-12.1113
ش	-12.1113
γ	-12.1677
Đ	-12.205
ο	-12.2178
ë	-12.2274
€	-12.2537
æ	-12.2604
č	-12.2773
⁄	-12.3014
·	-12.319
ز	-12.3297
τ	-12.3442
<	-12.3552
ν	-12.3889
д	-12.4081
ρ	-12.412
ŏ	-12.4199
ı	-12.4238
δ	-12.4278
ß	-12.4317
σ	-12.4357
ς	-12.4518
⌘	-12.4559
ー	-12.4806
ε	-12.489
λ	-12.506
ì	-12.506
м	-12.5189
ه	-12.5276
κ	-12.5587
ン	-12.5587
й	-12.5678
ι	-12.5862
‐	-12.6144
ò	-12.6192
ص	-12.6289
ط	-12.6289
ч	-12.6337
ả	-12.6584
у	-12.6684
@	-12.6684
θ	-12.6734
ø	-12.6939
ē	-12.7095
ư	-12.7254
أ	-12.747
خ	-12.7579
ù	-12.7746
î	-12.8263
я	-12.8322
ʊ	-12.8624
子	-12.8809
г	-12.8809
ɛ	-12.8871
η	-12.9125
ạ	-12.9386
⊞	-13.0069
ɑ	-13.014
=	-13.0387
ь	-13.0726
大	-13.0726
ă	-13.0878
ơ	-13.0955
Δ	-13.0955
φ	-13.1032
С	-13.1032
ы	-13.111
ý	-13.1189
َ	-13.1429
ル	-13.1429
า	-13.1429
ί	-13.1511
п	-13.1511
イ	-13.1843
ラ	-13.1843
õ	-13.1927
غ	-13.1927
ω	-13.2013
∈	-13.2099
з	-13.2362
ʻ	-13.2451
В	-13.2451
ě	-13.2541
ร	-13.2542
Å	-13.2724
ו	-13.2817
ǎ	-13.291
å	-13.3005
ồ	-13.3005
К	-13.3196
ş	-13.3196
§	-13.3391
А	-13.349
ŋ	-13.3691
ʃ	-13.3691
ό	-13.3691
ˌ	-13.3793
י	-13.3793
≥	-13.4
⇧	-13.4106
ス	-13.4106
ά	-13.4106
М	-13.4212
ی	-13.4212
Ö	-13.4428
ṭ	-13.4538
이	-13.4649
の	-13.4649
б	-13.4762
ɡ	-13.4875
王	-13.499
Š	-13.5106
ُ	-13.5106
ế	-13.5106
ト	-13.5106
ž	-13.5586
ğ	-13.5709
ɒ	-13.5709
น	-13.5709
υ	-13.5709
ิ	-13.5709
ộ	-13.5834
อ	-13.5834
û	-13.6089
≤	-13.6089
ọ	-13.6619
ɔ	-13.6619
х	-13.6619
ى	-13.6756
√	-13.6756
ั	-13.6756
เ	-13.6756
的	-13.6895
ِ	-13.7035
ม	-13.7035
ה	-13.7178
●	-13.7178
ʒ	-13.7323
[	-13.7429
天	-13.747
і	-13.747
♠	-13.747
א	-13.762
ض	-13.762
ị	-13.762
⋮	-13.762
中	-13.762
ш	-13.762
–	-13.773
リ	-13.7771
ّ	-13.7771
ロ	-13.7771
氏	-13.7771
þ	-13.7771
П	-13.7771
人	-13.7925
会	-13.8081
ア	-13.824
ク	-13.824
ʿ	-13.824
И	-13.824
χ	-13.8401
ע	-13.8401
Б	-13.8565
ầ	-13.8565
저	-13.8565
ố	-13.8732
ζ	-13.8732
동	-13.8901
«	-13.8901
Ó	-13.8901
Н	-13.8901
社	-13.9074
Ç	-13.9074
田	-13.9074
ッ	-13.9074
ก	-13.9074
ա	-13.9074
ő	-13.9249
ŭ	-13.9249
ל	-13.9249
ん	-13.9249
ย	-13.9249
ド	-13.9428
小	-13.9428
国	-13.961
ц	-13.961
ท	-13.961
・	-13.961
Р	-13.961
Č	-13.9795
ř	-13.9795
山	-13.9795
ा	-13.9795
親	-13.9983
Г	-13.9983
し	-13.9983
カ	-13.9983
フ	-14.0176
ב	-14.0176
海	-14.0176
Д	-14.0176
া	-14.0176
き	-14.0176
전	-14.0176
式	-14.0176
¡	-14.0372
⌥	-14.0372
■	-14.0372
ǐ	-14.0572
レ	-14.0572
ْ	-14.0572
사	-14.0572
้	-14.0572
生	-14.0572
्	-14.0776
ר	-14.0776
ウ	-14.0776
美	-14.0776
ũ	-14.0776
어	-14.0776
ต	-14.0776
ี	-14.0984
¿	-14.0984
一	-14.0984
ล	-14.0984
之	-14.1197
≈	-14.1197
文	-14.1197
ф	-14.1197
ส	-14.1197
テ	-14.1414
ė	-14.1414
ờ	-14.1414
マ	-14.1414
ж	-14.1414
ム	-14.1637
ง	-14.1637
東	-14.1637
シ	-14.1637
ว	-14.1637
ύ	-14.1864
ṇ	-14.1864
מ	-14.2096
˧	-14.2096
장	-14.2096
έ	-14.2334
藤	-14.2334
明	-14.2334
物	-14.2334
다	-14.2334
か	-14.2335
대	-14.2335
र	-14.2578
女	-14.2578
ấ	-14.2578
Τ	-14.2578
ή	-14.2578
コ	-14.2578
上	-14.2578
家	-14.2578
나	-14.2578
ุ	-14.2578
ё	-14.2828
李	-14.2828
О	-14.2828
์	-14.2828
三	-14.2828
原	-14.2828
ジ	-14.2828
國	-14.2828
고	-14.2828
נ	-14.3085
่	-14.3085
り	-14.3085
タ	-14.3085
お	-14.3085
日	-14.3085
公	-14.3085
本	-14.3348
ǒ	-14.3348
ָ	-14.3348
‡	-14.3348
民	-14.3348
い	-14.3618
新	-14.3618
Í	-14.3618
⏎	-14.3618
内	-14.3618
리	-14.3618
아	-14.3618
ǔ	-14.3896
ד	-14.3896
ṣ	-14.3896
我	-14.3896
西	-14.3896
Л	-14.3896
Т	-14.3896
う	-14.3896
你	-14.3896
グ	-14.3896
Σ	-14.4182
ث	-14.4182
ứ	-14.4182
プ	-14.4182
平	-14.4182
ĩ	-14.4182
พ	-14.4182
ミ	-14.4182
神	-14.4182
花	-14.4182
의	-14.4182
ַ	-14.4182
จ	-14.4182
ש	-14.4476
は	-14.4476
ș	-14.4476
©	-14.4476
시	-14.4476
ת	-14.4476
司	-14.4476
기	-14.4476
有	-14.4476
ห	-14.4779
ð	-14.4779
Γ	-14.4779
ṃ	-14.4779
と	-14.4779
チ	-14.4779
姫	-14.4779
ด	-14.4779
ְ	-14.5091
œ	-14.5091
エ	-14.5091
ǃ	-14.5091
た	-14.5091
บ	-14.5091
ी	-14.5414
語	-14.5414
ể	-14.5414
光	-14.5414
御	-14.5414
愛	-14.5414
飯	-14.5414
院	-14.5414
스	-14.5414
성	-14.5747
Ф	-14.5747
長	-14.5747
지	-14.5747
Κ	-14.6092
ớ	-14.6092
不	-14.6092
道	-14.6092
라	-14.6092
ា	-14.6092
„	-14.6092
김	-14.6092
부	-14.6092
서	-14.6092
主	-14.6092
香	-14.6092
太	-14.6092
Ü	-14.6449
法	-14.6449
정	-14.6449
ナ	-14.6449
木	-14.6449
高	-14.6449
南	-14.6449
港	-14.6449
ツ	-14.6449
ִ	-14.682
ブ	-14.682
ּ	-14.682
代	-14.682
行	-14.682
ξ	-14.682
ـ	-14.682
₹	-14.682
オ	-14.682
ゼ	-14.682
絵	-14.682
郡	-14.682
Λ	-14.682
ィ	-14.682
З	-14.7204
世	-14.7204
五	-14.7204
Ω	-14.7204
ะ	-14.7204
ề	-14.7204
方	-14.7204
正	-14.7204
ɜ	-14.7204
四	-14.7204
비	-14.7204
ю	-14.7204
ն	-14.7204
な	-14.7204
ガ	-14.7204
ニ	-14.7204
時	-14.7204
ู	-14.7604
ი	-14.7604
ψ	-14.7604
こ	-14.7604
ʌ	-14.7604
宮	-14.7604
ช	-14.7604
部	-14.7604
학	-14.7604
軍	-14.7604
、	-14.7604
み	-14.8021
ק	-14.8021
ハ	-14.8021
Ć	-14.8021
ふ	-14.8021
̄	-14.8021
⊆	-14.8021
年	-14.8021
焼	-14.8021
э	-14.8021
ค	-14.8021
ュ	-14.8021
野	-14.8021
원	-14.8021
ธ	-14.8021
学	-14.8021
்	-14.8456
が	-14.8456
ち	-14.8456
˩	-14.8456
प	-14.8456
金	-14.8456
ן	-14.8456
ậ	-14.8456
◦	-14.8456
豆	-14.8456
가	-14.8456
わ	-14.8456
理	-14.8456
ま	-14.8456
パ	-14.8456
川	-14.8456
교	-14.8456
キ	-14.8456
く	-14.8456
空	-14.8456
ა	-14.891
ภ	-14.891
メ	-14.891
국	-14.891
仁	-14.891
武	-14.891
ʾ	-14.891
Φ	-14.891
ợ	-14.891
ネ	-14.891
城	-14.891
江	-14.891
마	-14.891
제	-14.891
️	-14.891
九	-14.891
陳	-14.891
ら	-14.891
Π	-14.891
°	-14.9345
ذ	-14.9386
ئ	-14.9386
力	-14.9386
華	-14.9386
͡	-14.9386
ъ	-14.9386
ւ	-14.9386
∑	-14.9386
≠	-14.9386
け	-14.9386
八	-14.9386
和	-14.9386
真	-14.9386
艾	-14.9386
개	-14.9386
安	-14.9386
州	-14.9386
村	-14.9386
水	-14.9386
百	-14.9386
青	-14.9386
미	-14.9386
ल	-14.9386
화	-14.9386
ข	-14.9387
立	-14.9886
แ	-14.9886
ゲ	-14.9886
ダ	-14.9886
英	-14.9886
소	-14.9886
ǁ	-14.9886
ր	-14.9886
∆	-14.9886
∇	-14.9886
≡	-14.9886
官	-14.9886
春	-14.9886
신	-14.9886
오	-14.9886
인	-14.9886
師	-14.9886
政	-14.9886
ビ	-15.0413
У	-15.0413
つ	-15.0413
왕	-15.0413
˥	-15.0413
地	-15.0413
에	-15.0413
¢	-15.0413
ț	-15.0413
ἀ	-15.0413
‹	-15.0413
∼	-15.0413
十	-15.0413
恋	-15.0413
流	-15.0413
集	-15.0413
문	-15.0413
보	-15.0413
선	-15.0413
자	-15.0413
里	-15.0413
그	-15.0413
한	-15.0413
ώ	-15.0413
Х	-15.0413
주	-15.0413
モ	-15.0413
元	-15.0413
马	-15.0968
さ	-15.0968
य	-15.0968
る	-15.0968
皇	-15.0968
̈	-15.0968
ি	-15.0968
ỉ	-15.0968
ử	-15.0968
ῖ	-15.0968
全	-15.0968
宿	-15.0968
만	-15.0968
찌	-15.0968
현	-15.0968
ס	-15.0968
ご	-15.0968
清	-15.0968
구	-15.0968
星	-15.0968
に	-15.0968
デ	-15.0968
も	-15.1557
조	-15.1557
آ	-15.1557
ল	-15.1557
男	-15.1557
레	-15.1557
ט	-15.1557
ک	-15.1557
क	-15.1557
န	-15.1557
∂	-15.1557
ず	-15.1557
合	-15.1557
所	-15.1557
朝	-15.1557
見	-15.1557
話	-15.1557
하	-15.1557
Ã	-15.1557
ʔ	-15.1557
Е	-15.1557
ỳ	-15.1557
京	-15.1557
先	-15.1557
千	-15.1557
宝	-15.1557
白	-15.1557
者	-15.1557
न	-15.1557
म	-15.1557
ḍ	-15.1557
第	-15.1557
산	-15.1557
व	-15.1557
ि	-15.1557
バ	-15.1557
信	-15.1557
手	-15.1557
あ	-15.1557
士	-15.1557
下	-15.2182
忠	-15.2182
Ñ	-15.2182
ם	-15.2182
ữ	-15.2182
ὰ	-15.2182
北	-15.2182
志	-15.2182
林	-15.2182
沙	-15.2182
영	-15.2182
ħ	-15.2182
事	-15.2182
夏	-15.2182
郎	-15.2182
鍋	-15.2182
隊	-15.2182
馬	-15.2182
일	-15.2182
ে	-15.2182
德	-15.2182
경	-15.2182
ฟ	-15.2182
す	-15.2182
學	-15.2182
次	-15.2182
โ	-15.2182
ா	-15.2848
ザ	-15.2848
ֹ	-15.2848
心	-15.2848
最	-15.2848
트	-15.2848
¬	-15.2848
ʼ	-15.2848
̀	-15.2848
̃	-15.2848
∀	-15.2848
⊂	-15.2848
化	-15.2848
吉	-15.2848
會	-15.2848
火	-15.2848
电	-15.2848
도	-15.2848
ƒ	-15.2848
ի	-15.2848
ゴ	-15.2848
二	-15.2848
友	-15.2848
張	-15.2848
爱	-15.2848
重	-15.2848
공	-15.2848
씨	-15.2848
在	-15.2848
랑	-15.2848
세	-15.2848
수	-15.2848
연	-15.2848
Ц	-15.2848
机	-15.2848
안	-15.2848
科	-15.2848
ไ	-15.3562
ピ	-15.3562
ァ	-15.3562
島	-15.3562
石	-15.3562
내	-15.3562
호	-15.3562
ා	-15.3562
色	-15.3562
鬼	-15.3562
း	-15.3562
ボ	-15.3562
煮	-15.3562
若	-15.3562
울	-15.3562
Ä	-15.3562
ǀ	-15.3562
ɣ	-15.3562
̇	-15.3562
Ш	-15.3562
כ	-15.3562
ं	-15.3562
င	-15.3562
ặ	-15.3562
ủ	-15.3562
∣	-15.3562
龍	-15.3562
강	-15.3562
진	-15.3562
字	-15.3563
飛	-15.3563
치	-15.3563
Ч	-15.3563
ヤ	-15.3563
军	-15.3563
福	-15.3563
超	-15.3563
는	-15.3563
ぶ	-15.3563
七	-15.4332
セ	-15.4332
ក	-15.4332
佳	-15.4332
있	-15.4332
ג	-15.4332
味	-15.4332
是	-15.4332
상	-15.4332
夫	-15.4332
門	-15.4332
ų	-15.4332
Ν	-15.4332
র	-15.4332
ẫ	-15.4332
ギ	-15.4332
佐	-15.4332
堂	-15.4332
月	-15.4332
楽	-15.4332
身	-15.4332
ظ	-15.4332
ܪ	-15.4332
ु	-15.4332
ノ	-15.4332
徳	-15.4332
玉	-15.4332
阿	-15.4332
민	-15.4332
Θ	-15.4332
ป	-15.4332
台	-15.4332
宗	-15.4332
技	-15.4332
پ	-15.4332
だ	-15.4332
회	-15.4332
サ	-15.4332
ស	-15.4332
都	-15.5165
界	-15.5165
რ	-15.5165
ġ	-15.5165
ֶ	-15.5165
द	-15.5165
娘	-15.5165
布	-15.5165
思	-15.5165
機	-15.5165
洋	-15.5165
温	-15.5165
𒀭	-15.5165
ổ	-15.5165
ῦ	-15.5165
制	-15.5165
園	-15.5165
土	-15.5165
建	-15.5165
想	-15.5165
歌	-15.5165
派	-15.5165
雪	-15.5165
여	-15.5165
Â	-15.5165
ĕ	-15.5165
ĝ	-15.5165
ז	-15.5165
ර	-15.5165
ỗ	-15.5165
东	-15.5165
丼	-15.5165
動	-15.5165
喜	-15.5165
圍	-15.5165
場	-15.5165
少	-15.5165
成	-15.5165
業	-15.5165
死	-15.5165
記	-15.5165
육	-15.5165
파	-15.5165
해	-15.5165
ѕ	-15.5165
ֵ	-15.5165
ব	-15.5165
ာ	-15.5165
名	-15.5165
員	-15.5165
雄	-15.5165
黃	-15.5165
Э	-15.5165
井	-15.5165
保	-15.5165
役	-15.5165
帝	-15.5165
ใ	-15.6074
可	-15.6074
រ	-15.6074
ソ	-15.6074
ワ	-15.6074
ח	-15.6074
ケ	-15.6074
夜	-15.6074
放	-15.6074
گ	-15.6074
ক	-15.6074
À	-15.6074
˨	-15.6074
ヒ	-15.6074
好	-15.6074
常	-15.6074
방	-15.6074
ň	-15.6074
ܐ	-15.6074
⎙	-15.6074
め	-15.6074
や	-15.6074
也	-15.6074
六	-15.6074
嘉	-15.6074
情	-15.6074
教	-15.6074
河	-15.6074
無	-15.6074
画	-15.6074
言	-15.6074
赤	-15.6074
起	-15.6074
間	-15.6074
雷	-15.6074
군	-15.6074
로	-15.6074
백	-15.6074
요	-15.6074
은	-15.6074
재	-15.6074
Ж	-15.6074
ह	-15.6074
を	-15.6074
精	-15.6074
未	-15.6074
通	-15.6074
魔	-15.6074
े	-15.6074
義	-15.6074
古	-15.6074
戦	-15.6074
瀬	-15.7074
ნ	-15.7074
将	-15.7074
ⴰ	-15.7074
校	-15.7074
伊	-15.7074
眼	-15.7074
ɨ	-15.7074
צ	-15.7074
্	-15.7074
ズ	-15.7074
作	-15.7074
党	-15.7074
漢	-15.7074
特	-15.7074
統	-15.7074
萬	-15.7074
音	-15.7074
명	-15.7074
삼	-15.7074
우	-15.7074
최	-15.7074
ů	-15.7074
̍	-15.7074
ื	-15.7074
定	-15.7074
府	-15.7074
横	-15.7074
汁	-15.7074
洞	-15.7074
浦	-15.7074
源	-15.7074
谢	-15.7074
니	-15.7074
석	-15.7074
양	-15.7074
예	-15.7074
ţ	-15.7074
Α	-15.7074
∓	-15.7074
初	-15.7074
密	-15.7074
永	-15.7074
端	-15.7074
路	-15.7074
유	-15.7074
ो	-15.7074
普	-15.7074
服	-15.7074
陈	-15.7074
게	-15.7074
야	-15.7074
터	-15.7074
ญ	-15.7074
号	-15.7074
選	-15.7074
面	-15.7074
մ	-15.7074
灣	-15.7074
관	-15.7074
두	-15.7074
ろ	-15.7074
相	-15.8185
ர	-15.8185
遊	-15.8185
송	-15.8185
桂	-15.8185
ɯ	-15.8185
ศ	-15.8185
ὑ	-15.8185
外	-15.8185
茶	-15.8185
送	-15.8185
ٌ	-15.8185
ณ	-15.8185
∶	-15.8185
ヌ	-15.8185
丸	-15.8185
久	-15.8185
后	-15.8185
坂	-15.8185
度	-15.8185
竹	-15.8185
編	-15.8185
记	-15.8185
무	-15.8185
박	-15.8185
¶	-15.8185
˦	-15.8185
ज	-15.8185
ṯ	-15.8185
ῆ	-15.8185
℞	-15.8185
∤	-15.8185
乐	-15.8185
令	-15.8185
守	-15.8185
実	-15.8185
寺	-15.8185
屋	-15.8185
書	-15.8185
紀	-15.8185
經	-15.8185
線	-15.8185
语	-15.8185
貴	-15.8185
赵	-15.8185
輝	-15.8185
陽	-15.8185
雲	-15.8185
餡	-15.8185
거	-15.8185
남	-15.8185
단	-15.8185
살	-15.8185
포	-15.8185
후	-15.8185
È	-15.8185
ɲ	-15.8185
Ε	-15.8185
出	-15.8185
奇	-15.8185
寿	-15.8185
結	-15.8185
自	-15.8185
菜	-15.8185
術	-15.8185
街	-15.8185
너	-15.8185
피	-15.8185
ษ	-15.8185
前	-15.8185
华	-15.8185
尚	-15.8185
森	-15.8185
賢	-15.8185
酒	-15.8185
차	-15.8185
ե	-15.8185
տ	-15.8185
ܝ	-15.8185
ब	-15.8185
भ	-15.8185
ผ	-15.8185
工	-15.8185
종	-15.8185
て	-15.8185
데	-15.8185
ս	-15.8185
伟	-15.8185
份	-15.8185
股	-15.8185
ど	-15.8186
ட	-15.9435
פ	-15.9435
ய	-15.9435
ိ	-15.9435
ុ	-15.9435
秘	-15.9435
த	-15.9435
ေ	-15.9435
ត	-15.9435
ぼ	-15.9435
ү	-15.9435
च	-15.9435
ী	-15.9435
ம	-15.9435
っ	-15.9435
目	-15.9435
糖	-15.9435
़	-15.9435
স	-15.9435
ḫ	-15.9435
ベ	-15.9435
分	-15.9435
回	-15.9435
尾	-15.9435
战	-15.9435
朱	-15.9435
橋	-15.9435
越	-15.9435
速	-15.9435
윤	-15.9435
추	-15.9435
Υ	-15.9435
ܬ	-15.9435
ခ	-15.9435
ს	-15.9435
ḩ	-15.9435
☆	-15.9435
♥	-15.9435
げ	-15.9435
位	-15.9435
利	-15.9435
周	-15.9435
孫	-15.9435
直	-15.9435
省	-15.9435
知	-15.9435
草	-15.9435
衣	-15.9435
视	-15.9435
谷	-15.9435
車	-15.9435
迷	-15.9435
達	-15.9435
韓	-15.9435
鳳	-15.9435
麻	-15.9435
운	-15.9435
팥	-15.9435
홍	-15.9435
দ	-15.9435
ম	-15.9435
ක	-15.9435
ὐ	-15.9435
そ	-15.9435
君	-15.9435
市	-15.9435
影	-15.9435
条	-15.9435
禄	-15.9435
良	-15.9435
豪	-15.9435
造	-15.9435
黒	-15.9435
면	-15.9435
티	-15.9435
ܕ	-15.9435
ަ	-15.9435
同	-15.9435
向	-15.9435
唐	-15.9435
多	-15.9435
暨	-15.9435
球	-15.9435
타	-15.9435
합	-15.9435
臺	-15.9435
電	-15.9435
태	-15.9435
ន	-15.9435
광	-15.9435
위	-15.9435
兄	-16.0863
為	-16.0864
ლ	-16.0864
ப	-16.0864
ⵉ	-16.0864
ე	-16.0864
加	-16.0864
چ	-16.0864
ট	-16.0864
ῶ	-16.0864
兵	-16.0864
強	-16.0864
梦	-16.0864
津	-16.0864
羅	-16.0864
车	-16.0864
병	-16.0864
­	-16.0864
ǝ	-16.0864
ܘ	-16.0864
ड	-16.0864
ி	-16.0864
ម	-16.0864
え	-16.0864
よ	-16.0864
佛	-16.0864
吳	-16.0864
揚	-16.0864
智	-16.0864
柳	-16.0864
池	-16.0864
炊	-16.0864
舞	-16.0864
루	-16.0864
법	-16.0864
희	-16.0864
ņ	-16.0864
̂	-16.0864
̥	-16.0864
Є	-16.0864
ާ	-16.0864
ਾ	-16.0864
တ	-16.0864
ီ	-16.0864
ព	-16.0864
ỏ	-16.0864
ự	-16.0864
□	-16.0864
◌	-16.0864
ホ	-16.0864
ポ	-16.0864
ヴ	-16.0864
任	-16.0864
偏	-16.0864
命	-16.0864
峇	-16.0864
微	-16.0864
桐	-16.0864
母	-16.0864
油	-16.0864
浪	-16.0864
游	-16.0864
烈	-16.0864
牧	-16.0864
秦	-16.0864
红	-16.0864
老	-16.0864
能	-16.0864
葉	-16.0864
藍	-16.0864
血	-16.0864
謝	-16.0864
话	-16.0864
近	-16.0864
长	-16.0864
风	-16.0864
魚	-16.0864
과	-16.0864
덕	-16.0864
드	-16.0864
려	-16.0864
봉	-16.0864
플	-16.0864
ў	-16.0864
կ	-16.0864
ग	-16.0864
ন	-16.0864
ু	-16.0864
じ	-16.0864
で	-16.0864
如	-16.0864
族	-16.0864
早	-16.0864
肉	-16.0864
興	-16.0864
荘	-16.0864
순	-16.0864
엔	-16.0864
团	-16.0864
求	-16.0864
深	-16.0864
茅	-16.0864
钱	-16.0864
을	-16.0864
非	-16.0864
隆	-16.0864
დ	-16.253
ゆ	-16.253
ု	-16.253
ោ	-16.253
浜	-16.253
纪	-16.253
蔵	-16.253
進	-16.253
風	-16.253
න	-16.253
ས	-16.253
យ	-16.253
ペ	-16.253
ユ	-16.253
伴	-16.253
关	-16.253
冠	-16.253
勝	-16.253
受	-16.253
商	-16.253
性	-16.253
易	-16.253
末	-16.253
紫	-16.253
聲	-16.253
芦	-16.253
芳	-16.253
開	-16.253
雅	-16.253
食	-16.253
러	-16.253
바	-16.253
북	-16.253
와	-16.253
프	-16.253
ť	-16.253
Щ	-16.253
ө	-16.253
ً	-16.253
ष	-16.253
য	-16.253
ਰ	-16.253
ත	-16.253
ි	-16.253
ယ	-16.253
ရ	-16.253
ት	-16.253
ỡ	-16.253
ừ	-16.253
ὸ	-16.253
‚	-16.253
∉	-16.253
∏	-16.253
✔	-16.253
々	-16.253
云	-16.253
仔	-16.253
体	-16.253
倍	-16.253
入	-16.253
劉	-16.253
史	-16.253
吃	-16.253
员	-16.253
哲	-16.253
场	-16.253
垣	-16.253
宇	-16.253
寒	-16.253
寧	-16.253
弟	-16.253
彦	-16.253
惹	-16.253
昆	-16.253
曲	-16.253
来	-16.253
枝	-16.253
桑	-16.253
梅	-16.253
橘	-16.253
殿	-16.253
治	-16.253
波	-16.253
漬	-16.253
烏	-16.253
热	-16.253
狂	-16.253
狗	-16.253
産	-16.253
盛	-16.253
虎	-16.253
角	-16.253
说	-16.253
赛	-16.253
阳	-16.253
餅	-16.253
간	-16.253
꽃	-16.253
당	-16.253
더	-16.253
람	-16.253
생	-16.253
승	-16.253
월	-16.253
𒆠	-16.253
ہ	-16.2531
ܟ	-16.2531
ܡ	-16.2531
ख	-16.2531
ण	-16.2531
ញ	-16.2531
ἰ	-16.2531
ば	-16.2531
了	-16.2531
偉	-16.2531
判	-16.2531
品	-16.2531
夢	-16.2531
妙	-16.2531
室	-16.2531
干	-16.2531
康	-16.2531
摺	-16.2531
棒	-16.2531
演	-16.2531
管	-16.2531
艦	-16.2531
計	-16.2531
貞	-16.2531
運	-16.2531
감	-16.2531
네	-16.2531
녕	-16.2531
말	-16.2531
센	-16.2531
처	-16.2531
즈	-16.2531
写	-16.2531
足	-16.2531
れ	-16.2531
博	-16.2531
莫	-16.453
兼	-16.453
せ	-16.453
უ	-16.453
թ	-16.453
ு	-16.453
ជ	-16.453
込	-16.453
ू	-16.453
თ	-16.453
Ê	-16.453
ܣ	-16.453
ွ	-16.453
ប	-16.453
争	-16.453
務	-16.453
总	-16.453
錦	-16.453
창	-16.453
Й	-16.453
ܥ	-16.453
ង	-16.453
ទ	-16.453
到	-16.453
反	-16.453
右	-16.453
哥	-16.453
団	-16.453
圣	-16.453
妃	-16.453
婚	-16.453
孟	-16.453
富	-16.453
幻	-16.453
廣	-16.453
斎	-16.453
樹	-16.453
浮	-16.453
湖	-16.453
甲	-16.453
程	-16.453
诗	-16.453
軒	-16.453
鎮	-16.453
鶴	-16.453
黎	-16.453
녀	-16.453
노	-16.453
실	-16.453
통	-16.453
혁	-16.453
¤	-16.4531
ÿ	-16.4531
Ē	-16.4531
ľ	-16.4531
ű	-16.4531
͘	-16.4531
Ξ	-16.4531
ҁ	-16.4531
լ	-16.4531
ۇ	-16.4531
ܒ	-16.4531
ܠ	-16.4531
ރ	-16.4531
ঁ	-16.4531
ঙ	-16.4531
ভ	-16.4531
ச	-16.4531
வ	-16.4531
ය	-16.4531
ු	-16.4531
བ	-16.4531
ဝ	-16.4531
ም	-16.4531
በ	-16.4531
ᵻ	-16.4531
ẩ	-16.4531
ὶ	-16.4531
⇒	-16.4531
∩	-16.4531
≃	-16.4531
书	-16.4531
亜	-16.4531
使	-16.4531
來	-16.4531
俊	-16.4531
傳	-16.4531
內	-16.4531
則	-16.4531
功	-16.4531
勇	-16.4531
善	-16.4531
基	-16.4531
宫	-16.4531
尹	-16.4531
岡	-16.4531
峰	-16.4531
崇	-16.4531
差	-16.4531
廠	-16.4531
开	-16.4531
律	-16.4531
恩	-16.4531
憲	-16.4531
戴	-16.4531
拉	-16.4531
振	-16.4531
斗	-16.4531
昂	-16.4531
期	-16.4531
梁	-16.4531
榮	-16.4531
橙	-16.4531
欢	-16.4531
歡	-16.4531
渡	-16.4531
湘	-16.4531
炎	-16.4531
玄	-16.4531
琴	-16.4531
盟	-16.4531
督	-16.4531
秀	-16.4531
秋	-16.4531
站	-16.4531
章	-16.4531
简	-16.4531
簡	-16.4531
系	-16.4531
紅	-16.4531
结	-16.4531
聖	-16.4531
腐	-16.4531
與	-16.4531
苦	-16.4531
荒	-16.4531
落	-16.4531
藏	-16.4531
藝	-16.4531
解	-16.4531
訓	-16.4531
賀	-16.4531
邪	-16.4531
鉄	-16.4531
镇	-16.4531
间	-16.4531
陀	-16.4531
陰	-16.4531
雨	-16.4531
霊	-16.4531
頭	-16.4531
飞	-16.4531
鳥	-16.4531
龙	-16.4531
골	-16.4531
권	-16.4531
물	-16.4531
뮤	-16.4531
반	-16.4531
버	-16.4531
식	-16.4531
애	-16.4531
워	-16.4531
임	-16.4531
팔	-16.4531
ම	-16.4531
万	-16.4531
伏	-16.4531
共	-16.4531
持	-16.4531
杯	-16.4531
沢	-16.4531
泰	-16.4531
猫	-16.4531
納	-16.4531
臣	-16.4531
警	-16.4531
雑	-16.4531
를	-16.4531
업	-16.4531
ދ	-16.4531
চ	-16.4531
以	-16.4531
宅	-16.4531
래	-16.4531
委	-16.4531
格	-16.4531
າ	-16.4531
氣	-16.703
円	-16.703
何	-16.703
気	-16.703
ვ	-16.703
ⵎ	-16.703
习	-16.703
집	-16.703
ܢ	-16.703
む	-16.703
僕	-16.703
尔	-16.703
천	-16.703
̣	-16.703
ؤ	-16.703
ܦ	-16.703
ྲ	-16.703
倉	-16.703
寄	-16.703
料	-16.703
照	-16.703
网	-16.703
蜜	-16.703
裁	-16.703
議	-16.703
디	-16.703
퍼	-16.703
헌	-16.703
혜	-16.703
환	-16.703
ȁ	-16.703
Ы	-16.703
қ	-16.703
ฐ	-16.703
េ	-16.703
ḏ	-16.703
ἄ	-16.703
ἕ	-16.703
侯	-16.703
兒	-16.703
戏	-16.703
戸	-16.703
樂	-16.703
粥	-16.703
羽	-16.703
輪	-16.703
雜	-16.703
등	-16.703
불	-16.703
새	-16.703
엠	-16.703
중	-16.703
크	-16.703
흥	-16.703
ṓ	-16.703
夕	-16.703
无	-16.703
果	-16.703
洪	-16.703
祐	-16.703
翔	-16.703
胡	-16.703
酢	-16.703
锋	-16.703
麗	-16.703
Ì	-16.7031
Ĝ	-16.7031
ĭ	-16.7031
ɢ	-16.7031
ɦ	-16.7031
̌	-16.7031
ә	-16.7031
պ	-16.7031
ך	-16.7031
ץ	-16.7031
ٍ	-16.7031
ނ	-16.7031
ও	-16.7031
গ	-16.7031
ত	-16.7031
শ	-16.7031
ே	-16.7031
ಾ	-16.7031
ග	-16.7031
ප	-16.7031
ถ	-16.7031
ོ	-16.7031
က	-16.7031
ြ	-16.7031
ን	-16.7031
የ	-16.7031
ល	-16.7031
អ	-16.7031
ḷ	-16.7031
ẹ	-16.7031
ụ	-16.7031
ὁ	-16.7031
※	-16.7031
⊗	-16.7031
⌊	-16.7031
♣	-16.7031
ⵏ	-16.7031
乡	-16.7031
介	-16.7031
他	-16.7031
传	-16.7031
儀	-16.7031
冬	-16.7031
刀	-16.7031
刘	-16.7031
区	-16.7031
县	-16.7031
叔	-16.7031
吸	-16.7031
哈	-16.7031
园	-16.7031
圖	-16.7031
均	-16.7031
執	-16.7031
奖	-16.7031
孝	-16.7031
局	-16.7031
巾	-16.7031
店	-16.7031
弁	-16.7031
张	-16.7031
弾	-16.7031
当	-16.7031
徐	-16.7031
忍	-16.7031
怕	-16.7031
戰	-16.7031
房	-16.7031
承	-16.7031
斯	-16.7031
旋	-16.7031
晓	-16.7031
札	-16.7031
柑	-16.7031
汪	-16.7031
浩	-16.7031
父	-16.7031
片	-16.7031
版	-16.7031
牛	-16.7031
瑞	-16.7031
盗	-16.7031
県	-16.7031
砲	-16.7031
祖	-16.7031
童	-16.7031
節	-16.7031
米	-16.7031
缘	-16.7031
耀	-16.7031
耶	-16.7031
脱	-16.7031
致	-16.7031
艇	-16.7031
菓	-16.7031
蔡	-16.7031
蘇	-16.7031
蘭	-16.7031
衛	-16.7031
衫	-16.7031
观	-16.7031
論	-16.7031
豚	-16.7031
趙	-16.7031
逯	-16.7031
郷	-16.7031
関	-16.7031
陵	-16.7031
養	-16.7031
館	-16.7031
魏	-16.7031
鰻	-16.7031
黑	-16.7031
齊	-16.7031
건	-16.7031
계	-16.7031
귤	-16.7031
돌	-16.7031
복	-16.7031
빈	-16.7031
엘	-16.7031
열	-16.7031
죤	-16.7031
촌	-16.7031
클	-16.7031
토	-16.7031
행	-16.7031
𒂗	-16.7031
ї	-16.7031
ध	-16.7031
श	-16.7031
ἔ	-16.7031
ざ	-16.7031
ぷ	-16.7031
乱	-16.7031
再	-16.7031
切	-16.7031
刺	-16.7031
客	-16.7031
宴	-16.7031
容	-16.7031
尊	-16.7031
才	-16.7031
昌	-16.7031
映	-16.7031
松	-16.7031
栗	-16.7031
澄	-16.7031
瓦	-16.7031
素	-16.7031
舉	-16.7031
舟	-16.7031
装	-16.7031
規	-16.7031
쇼	-16.7031
მ	-16.7031
ⵍ	-16.7031
區	-16.7031
意	-16.7031
敦	-16.7031
晴	-16.7031
泉	-16.7031
淚	-16.7031
現	-16.7031
製	-16.7031
贴	-16.7031
連	-16.7031
금	-16.7031
림	-16.7031
설	-16.7031
옥	-16.7031
쩔	-16.7031
ङ	-16.7031
আ	-16.7031
导	-16.7031
打	-16.7031
ް	-16.7031
হ	-16.7031
번	-16.7031
慶	-16.7031
际	-16.7031
修	-16.7031
破	-16.7031
陸	-16.7031
圓	-17.0363
ந	-17.0364
ⵢ	-17.0364
透	-17.0364
ள	-17.0364
ܓ	-17.0364
ო	-17.0364
ឧ	-17.0364
ヨ	-17.0364
与	-17.0364
伝	-17.0364
列	-17.0364
汉	-17.0364
经	-17.0364
门	-17.0364
鞠	-17.0364
順	-17.0364
온	-17.0364
친	-17.0364
톤	-17.0364
𒆳	-17.0364
抗	-17.0364
Ă	-17.0364
ʹ	-17.0364
छ	-17.0364
ல	-17.0364
ು	-17.0364
ქ	-17.0364
ច	-17.0364
ヶ	-17.0364
乙	-17.0364
俞	-17.0364
典	-17.0364
劍	-17.0364
奥	-17.0364
妹	-17.0364
姓	-17.0364
婷	-17.0364
尺	-17.0364
幸	-17.0364
感	-17.0364
托	-17.0364
曾	-17.0364
杨	-17.0364
湯	-17.0364
猎	-17.0364
瓊	-17.0364
留	-17.0364
益	-17.0364
監	-17.0364
礼	-17.0364
祭	-17.0364
离	-17.0364
等	-17.0364
総	-17.0364
群	-17.0364
考	-17.0364
船	-17.0364
菅	-17.0364
迎	-17.0364
郁	-17.0364
閩	-17.0364
零	-17.0364
靜	-17.0364
首	-17.0364
體	-17.0364
鴻	-17.0364
락	-17.0364
목	-17.0364
배	-17.0364
벤	-17.0364
웃	-17.0364
칠	-17.0364
투	-17.0364
함	-17.0364
Ô	-17.0364
ċ	-17.0364
ǫ	-17.0364
ɸ	-17.0364
ɾ	-17.0364
ˇ	-17.0364
̋	-17.0364
̤	-17.0364
̧	-17.0364
̪	-17.0364
͂	-17.0364
Ψ	-17.0364
է	-17.0364
հ	-17.0364
վ	-17.0364
ף	-17.0364
ܗ	-17.0364
ܵ	-17.0364
ހ	-17.0364
އ	-17.0364
ި	-17.0364
ै	-17.0364
ই	-17.0364
ণ	-17.0364
প	-17.0364
ಕ	-17.0364
๊	-17.0364
ག	-17.0364
ပ	-17.0364
ံ	-17.0364
ለ	-17.0364
ር	-17.0364
ስ	-17.0364
ቅ	-17.0364
ብ	-17.0364
ና	-17.0364
ድ	-17.0364
ំ	-17.0364
ḗ	-17.0364
ḿ	-17.0364
ẻ	-17.0364
Ἔ	-17.0364
ἱ	-17.0364
ὲ	-17.0364
ᾶ	-17.0364
↦	-17.0364
⇌	-17.0364
∝	-17.0364
∠	-17.0364
∫	-17.0364
⊇	-17.0364
△	-17.0364
♦	-17.0364
✶	-17.0364
ⴲ	-17.0364
ⴻ	-17.0364
。	-17.0364
ひ	-17.0364
ぴ	-17.0364
ぽ	-17.0364
ゥ	-17.0364
业	-17.0364
予	-17.0364
交	-17.0364
众	-17.0364
优	-17.0364
伯	-17.0364
係	-17.0364
僧	-17.0364
儿	-17.0364
冰	-17.0364
冷	-17.0364
別	-17.0364
剧	-17.0364
副	-17.0364
卍	-17.0364
卐	-17.0364
卯	-17.0364
卵	-17.0364
厂	-17.0364
双	-17.0364
吧	-17.0364
告	-17.0364
呼	-17.0364
咸	-17.0364
嗣	-17.0364
器	-17.0364
図	-17.0364
姐	-17.0364
姚	-17.0364
存	-17.0364
屏	-17.0364
左	-17.0364
巴	-17.0364
希	-17.0364
席	-17.0364
帮	-17.0364
広	-17.0364
座	-17.0364
弘	-17.0364
形	-17.0364
復	-17.0364
快	-17.0364
您	-17.0364
慧	-17.0364
敏	-17.0364
昊	-17.0364
晶	-17.0364
更	-17.0364
朗	-17.0364
桃	-17.0364
梨	-17.0364
止	-17.0364
步	-17.0364
歳	-17.0364
殺	-17.0364
沈	-17.0364
浴	-17.0364
漪	-17.0364
灵	-17.0364
爾	-17.0364
猛	-17.0364
璁	-17.0364
用	-17.0364
町	-17.0364
皮	-17.0364
磨	-17.0364
祸	-17.0364
禪	-17.0364
秒	-17.0364
穿	-17.0364
笑	-17.0364
粉	-17.0364
約	-17.0364
組	-17.0364
網	-17.0364
羊	-17.0364
翁	-17.0364
翰	-17.0364
聯	-17.0364
胎	-17.0364
芬	-17.0364
苗	-17.0364
蘆	-17.0364
蛇	-17.0364
蛋	-17.0364
袍	-17.0364
補	-17.0364
裳	-17.0364
要	-17.0364
见	-17.0364
詩	-17.0364
課	-17.0364
諜	-17.0364
諸	-17.0364
賴	-17.0364
赫	-17.0364
辛	-17.0364
辰	-17.0364
辺	-17.0364
郭	-17.0364
酱	-17.0364
鈴	-17.0364
雾	-17.0364
露	-17.0364
韆	-17.0364
領	-17.0364
ꠟ	-17.0364
결	-17.0364
규	-17.0364
누	-17.0364
달	-17.0364
들	-17.0364
령	-17.0364
밤	-17.0364
삐	-17.0364
술	-17.0364
언	-17.0364
역	-17.0364
용	-17.0364
잖	-17.0364
좋	-17.0364
쳐	-17.0364
콤	-17.0364
페	-17.0364
편	-17.0364
필	-17.0364
형	-17.0364
훈	-17.0364
𒍪	-17.0364
ซ	-17.0364
သ	-17.0364
便	-17.0364
優	-17.0364
叶	-17.0364
垂	-17.0364
塩	-17.0364
忘	-17.0364
晩	-17.0364
景	-17.0364
楊	-17.0364
浄	-17.0364
消	-17.0364
鄧	-17.0364
鄭	-17.0364
騎	-17.0364
분	-17.0364
블	-17.0364
Ι	-17.0364
Ο	-17.0364
ਗ	-17.0364
ほ	-17.0364
亲	-17.0364
付	-17.0364
余	-17.0364
傑	-17.0364
像	-17.0364
億	-17.0364
印	-17.0364
問	-17.0364
头	-17.0364
崎	-17.0364
录	-17.0364
後	-17.0364
念	-17.0364
摩	-17.0364
散	-17.0364
活	-17.0364
熊	-17.0364
熙	-17.0364
獄	-17.0364
私	-17.0364
稲	-17.0364
罗	-17.0364
肥	-17.0364
輔	-17.0364
輸	-17.0364
鍾	-17.0364
钟	-17.0364
静	-17.0364
麦	-17.0364
못	-17.0364
잘	-17.0364
잠	-17.0364
참	-17.0364
채	-17.0364
콩	-17.0364
ǧ	-17.0364
ј	-17.0364
個	-17.0364
务	-17.0364
岁	-17.0364
样	-17.0364
毛	-17.0364
犬	-17.0364
畫	-17.0364
級	-17.0364
終	-17.0364
臨	-17.0364
舜	-17.0364
豊	-17.0364
走	-17.0364
週	-17.0364
關	-17.0364
宁	-17.0364
妖	-17.0364
紺	-17.0364
𐎠	-17.0364
ީ	-17.0364
ึ	-17.0364
ງ	-17.0364
ゅ	-17.0364
創	-17.0364
单	-17.0364
察	-17.0364
师	-17.0364
氷	-17.0364
鐵	-17.0364
锦	-17.0364
테	-17.0364
շ	-17.0364
ຫ	-17.0364
怪	-17.0364
篠	-17.0364
突	-17.0364
吾	-17.5363
ฉ	-17.5363
背	-17.5363
班	-17.5364
収	-17.5364
吹	-17.5364
纶	-17.5364
创	-17.5364
ষ	-17.5364
අ	-17.5364
ბ	-17.5364
半	-17.5364
専	-17.5364
撫	-17.5364
播	-17.5364
昱	-17.5364
满	-17.5364
狼	-17.5364
眠	-17.5364
策	-17.5364
粵	-17.5364
렬	-17.5364
앞	-17.5364
𒌷	-17.5364
熱	-17.5364
Ь	-17.5364
ң	-17.5364
ҳ	-17.5364
ौ	-17.5364
ಠ	-17.5364
ဆ	-17.5364
ထ	-17.5364
ណ	-17.5364
ភ	-17.5364
ួ	-17.5364
ゾ	-17.5364
两	-17.5364
亂	-17.5364
今	-17.5364
凱	-17.5364
勢	-17.5364
勿	-17.5364
医	-17.5364
口	-17.5364
实	-17.5364
崩	-17.5364
従	-17.5364
桜	-17.5364
汗	-17.5364
洲	-17.5364
漣	-17.5364
牵	-17.5364
紙	-17.5364
莽	-17.5364
补	-17.5364
进	-17.5364
還	-17.5364
願	-17.5364
默	-17.5364
격	-17.5364
귀	-17.5364
글	-17.5364
담	-17.5364
된	-17.5364
뛰	-17.5364
앉	-17.5364
𒂊	-17.5364
𒋾	-17.5364
Ï	-17.5364
እ	-17.5364
季	-17.5364
宣	-17.5364
實	-17.5364
濟	-17.5364
瞿	-17.5364
芒	-17.5364
芝	-17.5364
蓋	-17.5364
资	-17.5364
邱	-17.5364
醤	-17.5364
顕	-17.5364
음	-17.5364
	-17.5364
	-17.5364
	-17.5364
Ë	-17.5364
ŷ	-17.5364
ȍ	-17.5364
ȳ	-17.5364
ɘ	-17.5364
ʕ	-17.5364
ˁ	-17.5364
ˊ	-17.5364
ˋ	-17.5364
̏	-17.5364
̓	-17.5364
̞	-17.5364
Ρ	-17.5364
є	-17.5364
њ	-17.5364
ҙ	-17.5364
Ұ	-17.5364
ӣ	-17.5364
Ի	-17.5364
բ	-17.5364
զ	-17.5364
ը	-17.5364
ց	-17.5364
ֻ	-17.5364
ڌ	-17.5364
ܚ	-17.5364
ܩ	-17.5364
ঠ	-17.5364
ড	-17.5364
ফ	-17.5364
ো	-17.5364
ৰ	-17.5364
ਖ	-17.5364
ਬ	-17.5364
ਿ	-17.5364
ੁ	-17.5364
ੂ	-17.5364
વ	-17.5364
ஸ	-17.5364
ಇ	-17.5364
ಯ	-17.5364
ಿ	-17.5364
ೆ	-17.5364
ජ	-17.5364
ණ	-17.5364
ධ	-17.5364
බ	-17.5364
ස	-17.5364
๋	-17.5364
ང	-17.5364
ན	-17.5364
མ	-17.5364
ར	-17.5364
ལ	-17.5364
ི	-17.5364
ུ	-17.5364
လ	-17.5364
ှ	-17.5364
ხ	-17.5364
ላ	-17.5364
ል	-17.5364
ሰ	-17.5364
ቀ	-17.5364
ባ	-17.5364
ተ	-17.5364
ነ	-17.5364
ደ	-17.5364
ዳ	-17.5364
ፈ	-17.5364
ፍ	-17.5364
គ	-17.5364
ហ	-17.5364
ិ	-17.5364
ះ	-17.5364
ᤠ	-17.5364
ᮞ	-17.5364
ᱟ	-17.5364
Ḏ	-17.5364
ṁ	-17.5364
ṳ	-17.5364
Ẓ	-17.5364
ẓ	-17.5364
ẖ	-17.5364
ẽ	-17.5364
ở	-17.5364
ỷ	-17.5364
ἡ	-17.5364
ῡ	-17.5364
℥	-17.5364
↔	-17.5364
↠	-17.5364
↵	-17.5364
≅	-17.5364
≢	-17.5364
⋃	-17.5364
⋆	-17.5364
⌂	-17.5364
⑆	-17.5364
╯	-17.5364
►	-17.5364
♬	-17.5364
✳	-17.5364
⟹	-17.5364
⟼	-17.5364
ⲓ	-17.5364
ⴹ	-17.5364
ⵔ	-17.5364
》	-17.5364
ぐ	-17.5364
ね	-17.5364
べ	-17.5364
ㄧ	-17.5364
丈	-17.5364
丑	-17.5364
为	-17.5364
丽	-17.5364
乃	-17.5364
买	-17.5364
亥	-17.5364
仙	-17.5364
仰	-17.5364
仲	-17.5364
伙	-17.5364
伦	-17.5364
侍	-17.5364
倪	-17.5364
倫	-17.5364
備	-17.5364
傣	-17.5364
儒	-17.5364
克	-17.5364
兴	-17.5364
养	-17.5364
冒	-17.5364
凯	-17.5364
凶	-17.5364
剑	-17.5364
劇	-17.5364
办	-17.5364
助	-17.5364
势	-17.5364
升	-17.5364
午	-17.5364
卫	-17.5364
取	-17.5364
叡	-17.5364
句	-17.5364
只	-17.5364
吻	-17.5364
呉	-17.5364
唄	-17.5364
唱	-17.5364
嘅	-17.5364
固	-17.5364
團	-17.5364
坊	-17.5364
坚	-17.5364
坝	-17.5364
坡	-17.5364
培	-17.5364
塞	-17.5364
墨	-17.5364
壩	-17.5364
声	-17.5364
壽	-17.5364
失	-17.5364
媛	-17.5364
完	-17.5364
宜	-17.5364
寅	-17.5364
寛	-17.5364
寬	-17.5364
導	-17.5364
尘	-17.5364
屁	-17.5364
居	-17.5364
峨	-17.5364
巳	-17.5364
帶	-17.5364
帽	-17.5364
幹	-17.5364
幾	-17.5364
庄	-17.5364
庭	-17.5364
弄	-17.5364
引	-17.5364
弥	-17.5364
弦	-17.5364
强	-17.5364
彰	-17.5364
忽	-17.5364
恐	-17.5364
恨	-17.5364
恵	-17.5364
悦	-17.5364
懂	-17.5364
懦	-17.5364
戌	-17.5364
拓	-17.5364
拢	-17.5364
指	-17.5364
排	-17.5364
控	-17.5364
揭	-17.5364
敬	-17.5364
数	-17.5364
斬	-17.5364
施	-17.5364
旅	-17.5364
昭	-17.5364
晁	-17.5364
晚	-17.5364
暉	-17.5364
朔	-17.5364
望	-17.5364
柏	-17.5364
查	-17.5364
柴	-17.5364
根	-17.5364
極	-17.5364
榜	-17.5364
構	-17.5364
槍	-17.5364
樓	-17.5364
歩	-17.5364
歸	-17.5364
段	-17.5364
殻	-17.5364
毅	-17.5364
比	-17.5364
注	-17.5364
泽	-17.5364
淵	-17.5364
漫	-17.5364
炮	-17.5364
点	-17.5364
爭	-17.5364
狐	-17.5364
珍	-17.5364
珠	-17.5364
琛	-17.5364
琳	-17.5364
瑗	-17.5364
申	-17.5364
登	-17.5364
盆	-17.5364
看	-17.5364
眞	-17.5364
着	-17.5364
碑	-17.5364
祇	-17.5364
祓	-17.5364
笏	-17.5364
笔	-17.5364
篮	-17.5364
籍	-17.5364
紋	-17.5364
紹	-17.5364
維	-17.5364
締	-17.5364
縣	-17.5364
縦	-17.5364
纸	-17.5364
编	-17.5364
罩	-17.5364
羹	-17.5364
聚	-17.5364
聰	-17.5364
職	-17.5364
肖	-17.5364
育	-17.5364
腰	-17.5364
膝	-17.5364
膳	-17.5364
至	-17.5364
艺	-17.5364
节	-17.5364
芋	-17.5364
茂	-17.5364
荡	-17.5364
荣	-17.5364
葱	-17.5364
蒲	-17.5364
蓮	-17.5364
藻	-17.5364
虐	-17.5364
虫	-17.5364
融	-17.5364
裙	-17.5364
裡	-17.5364
許	-17.5364
誌	-17.5364
談	-17.5364
謨	-17.5364
譜	-17.5364
護	-17.5364
调	-17.5364
躍	-17.5364
轉	-17.5364
農	-17.5364
过	-17.5364
选	-17.5364
遇	-17.5364
邑	-17.5364
那	-17.5364
酉	-17.5364
鏡	-17.5364
鐘	-17.5364
钉	-17.5364
钦	-17.5364
闘	-17.5364
队	-17.5364
険	-17.5364
階	-17.5364
難	-17.5364
霖	-17.5364
霜	-17.5364
霸	-17.5364
韶	-17.5364
頓	-17.5364
類	-17.5364
颜	-17.5364
额	-17.5364
餃	-17.5364
駒	-17.5364
鯰	-17.5364
鸡	-17.5364
麺	-17.5364
ꢬ	-17.5364
갑	-17.5364
걸	-17.5364
굴	-17.5364
근	-17.5364
낙	-17.5364
날	-17.5364
넷	-17.5364
답	-17.5364
독	-17.5364
띵	-17.5364
란	-17.5364
록	-17.5364
름	-17.5364
맨	-17.5364
먼	-17.5364
몰	-17.5364
묵	-17.5364
뱀	-17.5364
벌	-17.5364
범	-17.5364
별	-17.5364
빵	-17.5364
뻔	-17.5364
쁜	-17.5364
숙	-17.5364
습	-17.5364
싫	-17.5364
알	-17.5364
암	-17.5364
았	-17.5364
앤	-17.5364
억	-17.5364
엽	-17.5364
익	-17.5364
작	-17.5364
적	-17.5364
젓	-17.5364
죄	-17.5364
죽	-17.5364
준	-17.5364
줄	-17.5364
총	-17.5364
춘	-17.5364
침	-17.5364
콜	-17.5364
판	-17.5364
폴	-17.5364
표	-17.5364
항	-17.5364
했	-17.5364
향	-17.5364
︎	-17.5364
𐎹	-17.5364
𐎼	-17.5364
𐰤	-17.5364
𒃲	-17.5364
𒇉	-17.5364
𒊩	-17.5364
𒌈	-17.5364
ǰ	-17.5364
ḑ	-17.5364
仇	-17.5364
住	-17.5364
帯	-17.5364
摄	-17.5364
昼	-17.5364
碈	-17.5364
祥	-17.5364
菊	-17.5364
藥	-17.5364
読	-17.5364
譚	-17.5364
贸	-17.5364
輩	-17.5364
闇	-17.5364
陶	-17.5364
顏	-17.5364
黄	-17.5364
철	-17.5364
Ř	-17.5364
ە	-17.5364
ಬ	-17.5364
វ	-17.5364
ែ	-17.5364
ⲁ	-17.5364
ⵓ	-17.5364
ぎ	-17.5364
串	-17.5364
亿	-17.5364
仏	-17.5364
佑	-17.5364
假	-17.5364
児	-17.5364
又	-17.5364
寻	-17.5364
攻	-17.5364
栖	-17.5364
爺	-17.5364
続	-17.5364
线	-17.5364
薙	-17.5364
薩	-17.5364
覲	-17.5364
資	-17.5364
鈕	-17.5364
闭	-17.5364
髮	-17.5364
鯨	-17.5364
랜	-17.5364
맥	-17.5364
발	-17.5364
솔	-17.5364
심	-17.5364
청	-17.5364
초	-17.5364
准	-17.5364
濱	-17.5364
댕	-17.5364
ܫ	-17.5364
ސ	-17.5364
ट	-17.5364
জ	-17.5364
ូ	-17.5364
Ἡ	-17.5364
偵	-17.5364
免	-17.5364
姉	-17.5364
捏	-17.5364
支	-17.5364
标	-17.5364
浸	-17.5364
淸	-17.5364
溜	-17.5364
爆	-17.5364
独	-17.5364
粹	-17.5364
罪	-17.5364
翼	-17.5364
訴	-17.5364
请	-17.5364
賣	-17.5364
这	-17.5364
駅	-17.5364
견	-17.5364
낭	-17.5364
모	-17.5364
약	-17.5364
훔	-17.5364
𐏁	-17.5364
暫	-17.5364
押	-17.5364
动	-17.5364
统	-17.5364
품	-17.5364
𐴙	-17.5364
𐴝	-17.5364
ວ	-17.5364
岛	-17.5364
监	-17.5364
专	-17.5364
脑	-17.5364
﨑	-18.495
핑	-18.4951
틱	-18.4952
텀	-18.4953
탄	-18.4954
큼	-18.4955
카	-18.4956
찍	-18.4957
째	-18.4958
짓	-18.4959
쏘	-18.496
슈	-18.4961
변	-18.4962
베	-18.4963
맹	-18.4964
막	-18.4965
렐	-18.4966
럼	-18.4967
뚜	-18.4968
딴	-18.4969
뒤	-18.497
냥	-18.4971
깨	-18.4972
극	-18.4973
같	-18.4974
ꠐ	-18.4975
ꠍ	-18.4976
龄	-18.4977
黔	-18.4978
鹰	-18.4979
餺	-18.498
餘	-18.4981
飥	-18.4982
颂	-18.4983
頡	-18.4984
靳	-18.4985
隣	-18.4986
隠	-18.4987
際	-18.4988
陆	-18.4989
锺	-18.499
铁	-18.4991
轅	-18.4992
踩	-18.4993
贝	-18.4994
賞	-18.4995
貸	-18.4996
谭	-18.4997
谈	-18.4998
许	-18.4999
謁	-18.5
視	-18.5001
裕	-18.5002
表	-18.5003
蟲	-18.5004
蜑	-18.5005
蓝	-18.5006
荷	-18.5007
舒	-18.5008
聂	-18.5009
筒	-18.501
礦	-18.5011
磐	-18.5012
碩	-18.5013
碧	-18.5014
碎	-18.5015
甫	-18.5016
牍	-18.5017
爪	-18.5018
澤	-18.5019
湾	-18.502
殊	-18.5021
柱	-18.5022
杂	-18.5023
暴	-18.5024
掛	-18.5025
授	-18.5026
捉	-18.5027
拨	-18.5028
扶	-18.5029
彬	-18.503
幽	-18.5031
对	-18.5032
寫	-18.5033
宙	-18.5034
宏	-18.5035
婧	-18.5036
姑	-18.5037
奈	-18.5038
塘	-18.5039
塔	-18.504
囷	-18.5041
囂	-18.5042
呂	-18.5043
危	-18.5044
卡	-18.5045
協	-18.5046
勞	-18.5047
労	-18.5048
剌	-18.5049
例	-18.505
伍	-18.5051
们	-18.5052
乌	-18.5053
义	-18.5054
丁	-18.5055
《	-18.5056
ⵕ	-18.5057
ⱬ	-18.5058
⟳	-18.5059
♏	-18.506
♍	-18.5061
┻	-18.5062
⊥	-18.5063
Ῥ	-18.5064
ῥ	-18.5065
ὤ	-18.5066
ὕ	-18.5067
ὄ	-18.5068
Ἴ	-18.5069
Ἱ	-18.507
Ἠ	-18.5071
Ἕ	-18.5072
Ἑ	-18.5073
Ử	-18.5074
ṷ	-18.5075
Ḩ	-18.5076
ḇ	-18.5077
ᥳ	-18.5078
ᥭ	-18.5079
ᥬ	-18.508
ᥨ	-18.5081
ᥒ	-18.5082
ᥑ	-18.5083
ខ	-18.5084
ጉ	-18.5085
ዲ	-18.5086
შ	-18.5087
გ	-18.5088
ဇ	-18.5089
ྒ	-18.509
ິ	-18.5091
ະ	-18.5092
ສ	-18.5093
ມ	-18.5094
ບ	-18.5095
ฆ	-18.5096
ತ	-18.5097
ண	-18.5098
ঢ	-18.5099
थ	-18.51
ޚ	-18.5101
ޖ	-18.5102
ܹ	-18.5103
ڪ	-18.5104
ڊ	-18.5105
ֱ	-18.5106
խ	-18.5107
դ	-18.5108
Վ	-18.5109
Ն	-18.511
Մ	-18.5111
Թ	-18.5112
һ	-18.5113
җ	-18.5114
Ј	-18.5115
Ά	-18.5116
ʑ	-18.5117
ʋ	-18.5118
ʉ	-18.5119
ɖ	-18.512
Ș	-18.5121
ǚ	-18.5122
Ŋ	-18.5123
Ľ	-18.5124
ļ	-18.5125
평	-18.5126
탑	-18.5127
즌	-18.5128
융	-18.5129
앙	-18.513
십	-18.5131
망	-18.5132
麥	-18.5133
餛	-18.5134
飩	-18.5135
郵	-18.5136
邊	-18.5137
遍	-18.5138
边	-18.5139
讯	-18.514
袖	-18.5141
腾	-18.5142
聞	-18.5143
疯	-18.5144
柯	-18.5145
杉	-18.5146
朽	-18.5147
改	-18.5148
巻	-18.5149
尽	-18.515
孩	-18.5151
姜	-18.5152
吴	-18.5153
兆	-18.5154
づ	-18.5155
∖	-18.5156
↯	-18.5157
₤	-18.5158
‟	-18.5159
‖	-18.516
ἶ	-18.5161
ဖ	-18.5162
ල	-18.5163
ඩ	-18.5164
ை	-18.5165
ং	-18.5166
ܼ	-18.5167
ٴ	-18.5168
գ	-18.5169
Շ	-18.517
Բ	-18.5171
Ա	-18.5172
Қ	-18.5173
ћ	-18.5174
ϸ	-18.5175
Ζ	-18.5176
ʈ	-18.5177
Ū	-18.5178
Œ	-18.5179
Õ	-18.518
𑣉	-18.5181
충	-18.5182
직	-18.5183
잔	-18.5184
없	-18.5185
밀	-18.5186
룹	-18.5187
롯	-18.5188
늘	-18.5189
눈	-18.519
ꠤ	-18.5191
鮮	-18.5192
錢	-18.5193
過	-18.5194
转	-18.5195
译	-18.5196
諭	-18.5197
異	-18.5198
畢	-18.5199
瑟	-18.52
琶	-18.5201
琵	-18.5202
时	-18.5203
摸	-18.5204
噌	-18.5205
刊	-18.5206
☺	-18.5207
○	-18.5208
⌋	-18.5209
₽	-18.521
Ὠ	-18.5211
Ṭ	-18.5212
ᥰ	-18.5213
ᥖ	-18.5214
ី	-18.5215
အ	-18.5216
စ	-18.5217
ນ	-18.5218
ன	-18.5219
ছ	-18.522
ެ	-18.5221
ֲ	-18.5222
ǩ	-18.5223
Ź	-18.5224
Þ	-18.5225
～	-18.5226
히	-18.5227
체	-18.5228
숭	-18.5229
领	-18.523
須	-18.5231
翻	-18.5232
研	-18.5233
炒	-18.5234
浅	-18.5235
弓	-18.5236
★	-18.5237
↑	-18.5238
አ	-18.5239
খ	-18.524
आ	-18.5241
Հ	-18.5242
І	-18.5243
Β	-18.5244
Ġ	-18.5245
Ý	-18.5246
코	-18.5247
브	-18.5248
革	-18.5249
葫	-18.525
棠	-18.5251
极	-18.5252
宋	-18.5253
仮	-18.5254
♮	-18.5255
∙	-18.5256
⇩	-18.5257
Ἰ	-18.5258
ဒ	-18.5259
়	-18.526
Ŭ	-18.5261
袁	-18.5262
究	-18.5263
央	-18.5264
✓	-18.5265
Ī	-18.5266
Ğ	-18.5267
텔	-18.5268
▼	-18.5269
∅	-18.527
Ọ	-18.5271
็	-18.5272
ٱ	-18.5273
ׁ	-18.5274
Ю	-18.5275
Χ	-18.5276
ǂ	-18.5277
级	-18.5278
∪	-18.5279
မ	-18.528
ํ	-18.5281
ἐ	-18.5282
ˀ	-18.5283
航	-18.5284
棋	-18.5285
ォ	-18.5286
₩	-18.5287
க	-18.5288
ằ	-18.5289
Ṣ	-18.529
ョ	-18.5291
յ	-18.5292
̊	-18.5293
Æ	-18.5294
欧	-18.5295
Ἀ	-18.5296
ṛ	-18.5297
щ	-18.5298
¦	-18.5299
限	-18.53
由	-18.5301
ゃ	-18.5302
↹	-18.5303
̅	-18.5304
ェ	-18.5305
∨	-18.5306
ỹ	-18.5307
⊙	-18.5308
∧	-18.5309
Я	-18.531
Μ	-18.5311
Ş	-18.5312
Ø	-18.5313
⚙	-18.5314
♯	-18.5315
‰	-18.5316
›	-18.5317
Ð	-18.5318
∥	-18.5319
∘	-18.532
Ā	-18.5321
ṅ	-18.5322
ẵ	-18.5323
त	-18.5324
Η	-18.5325
{	-18.5326
स	-18.5327
ո	-18.5328
⋯	-18.5329
↓	-18.533
Î	-18.5331
Ž	-18.5332
ャ	-18.5333
‭	-18.5334
إ	-18.5335
←	-18.5336
⟨	-18.5337
―	-18.5338
đ	-18.5339
İ	-18.534
Ḥ	-18.5341
ء	-18.5342
⟩	-18.5343
ắ	-18.5344
株	-18.5345
♭	-18.5346
Ú	-18.5347
냐	-18.5348
†	-18.5349
∞	-18.535
ḥ	-18.5351
»	-18.5352
☰	-18.5353
®	-18.5354
⋅	-18.5355
÷	-18.5356
ễ	-18.5357
⊕	-18.5358
¥	-18.5359
∗	-18.536
射	-18.5361
☉	-18.5361
Ō	-18.5362
ฬ	-18.5363
•	-18.5363
奪	-18.5363
듯	-18.5363
속	-18.5363
֑	-18.5364
ீ	-18.5364
ზ	-18.5364
ღ	-18.5364
ἑ	-18.5364
ⴱ	-18.5364
ⴳ	-18.5364
ⵡ	-18.5364
ⵣ	-18.5364
「	-18.5364
丝	-18.5364
休	-18.5364
卹	-18.5364
往	-18.5364
挑	-18.5364
擊	-18.5364
柔	-18.5364
灯	-18.5364
灼	-18.5364
竞	-18.5364
绸	-18.5364
腹	-18.5364
螺	-18.5364
説	-18.5364
趄	-18.5364
趆	-18.5364
趇	-18.5364
趈	-18.5364
趉	-18.5364
退	-18.5364
볼	-18.5364
샾	-18.5364
챔	-18.5364
출	-18.5364
𒄡	-18.5364
ȕ	-18.5364
Ҫ	-18.5364
Ҳ	-18.5364
ؔ	-18.5364
ܽ	-18.5364
ৌ	-18.5364
િ	-18.5364
ற	-18.5364
ఉ	-18.5364
ಗ	-18.5364
ṉ	-18.5364
ἅ	-18.5364
ἥ	-18.5364
Ὑ	-18.5364
ぜ	-18.5364
仓	-18.5364
但	-18.5364
偶	-18.5364
勲	-18.5364
厨	-18.5364
厲	-18.5364
壺	-18.5364
姻	-18.5364
孤	-18.5364
待	-18.5364
愿	-18.5364
扇	-18.5364
扉	-18.5364
撕	-18.5364
撥	-18.5364
桓	-18.5364
橄	-18.5364
欖	-18.5364
没	-18.5364
淡	-18.5364
混	-18.5364
獲	-18.5364
玖	-18.5364
盤	-18.5364
砂	-18.5364
紓	-18.5364
綜	-18.5364
綸	-18.5364
练	-18.5364
菽	-18.5364
薈	-18.5364
貌	-18.5364
貼	-18.5364
逆	-18.5364
逝	-18.5364
邓	-18.5364
鈞	-18.5364
闪	-18.5364
陛	-18.5364
颉	-18.5364
駿	-18.5364
龐	-18.5364
곰	-18.5364
녹	-18.5364
델	-18.5364
량	-18.5364
할	-18.5364
𐎂	-18.5364
𐎗	-18.5364
𐎜	-18.5364
𐰞	-18.5364
𐰴	-18.5364
𐰺	-18.5364
𒄿	-18.5364
𒈠	-18.5364
𒉡	-18.5364
Ǧ	-18.5364
ȫ	-18.5364
฿	-18.5364
ṕ	-18.5364
Ẹ	-18.5364
伪	-18.5364
傾	-18.5364
奋	-18.5364
幞	-18.5364
得	-18.5364
捷	-18.5364
擂	-18.5364
絳	-18.5364
總	-18.5364
脫	-18.5364
腳	-18.5364
范	-18.5364
赲	-18.5364
随	-18.5364
몬	-18.5364
몽	-18.5364
팡	-18.5364
𐎣	-18.5364
	-18.5364
	-18.5364
	-18.5364
	-18.5364
Ò	-18.5364
Ù	-18.5364
Û	-18.5364
Ĉ	-18.5364
ď	-18.5364
Ę	-18.5364
Ě	-18.5364
Ĩ	-18.5364
ĵ	-18.5364
ķ	-18.5364
Ŝ	-18.5364
ŝ	-18.5364
Ţ	-18.5364
Ť	-18.5364
Ŧ	-18.5364
ŧ	-18.5364
Ÿ	-18.5364
Ǝ	-18.5364
Ǒ	-18.5364
ǜ	-18.5364
ɍ	-18.5364
ɓ	-18.5364
ɕ	-18.5364
ɫ	-18.5364
ɵ	-18.5364
ʁ	-18.5364
ʂ	-18.5364
ʐ	-18.5364
ʟ	-18.5364
ʤ	-18.5364
̑	-18.5364
̚	-18.5364
̠	-18.5364
̨	-18.5364
͈	-18.5364
Ͱ	-18.5364
ͱ	-18.5364
Έ	-18.5364
ϊ	-18.5364
ϋ	-18.5364
ϛ	-18.5364
Ϸ	-18.5364
ґ	-18.5364
ҡ	-18.5364
ҥ	-18.5364
Ҭ	-18.5364
Ӏ	-18.5364
ӑ	-18.5364
ӓ	-18.5364
ӕ	-18.5364
ӧ	-18.5364
ӱ	-18.5364
ӹ	-18.5364
Դ	-18.5364
Կ	-18.5364
Յ	-18.5364
Ո	-18.5364
Պ	-18.5364
Ս	-18.5364
ջ	-18.5364
ք	-18.5364
օ	-18.5364
ֆ	-18.5364
։	-18.5364
֔	-18.5364
֥	-18.5364
֫	-18.5364
־	-18.5364
ֿ	-18.5364
״	-18.5364
،	-18.5364
ٓ	-18.5364
ٔ	-18.5364
ٗ	-18.5364
٘	-18.5364
ژ	-18.5364
ڠ	-18.5364
ھ	-18.5364
ۀ	-18.5364
ۆ	-18.5364
ۈ	-18.5364
۲	-18.5364
ܙ	-18.5364
ܛ	-18.5364
ܳ	-18.5364
ܶ	-18.5364
ܸ	-18.5364
ݜ	-18.5364
ݨ	-18.5364
ބ	-18.5364
މ	-18.5364
ޠ	-18.5364
अ	-18.5364
उ	-18.5364
ओ	-18.5364
औ	-18.5364
ञ	-18.5364
ठ	-18.5364
ढ	-18.5364
ृ	-18.5364
ॐ	-18.5364
এ	-18.5364
থ	-18.5364
ধ	-18.5364
ৱ	-18.5364
ਅ	-18.5364
ਓ	-18.5364
ਥ	-18.5364
ਦ	-18.5364
ਲ	-18.5364
ਵ	-18.5364
ਹ	-18.5364
੍	-18.5364
ੰ	-18.5364
ੱ	-18.5364
ં	-18.5364
દ	-18.5364
ર	-18.5364
સ	-18.5364
ા	-18.5364
ૂ	-18.5364
ଣ	-18.5364
ଫ	-18.5364
ି	-18.5364
இ	-18.5364
உ	-18.5364
ங	-18.5364
ஜ	-18.5364
ெ	-18.5364
ோ	-18.5364
గ	-18.5364
ద	-18.5364
ా	-18.5364
ి	-18.5364
ಅ	-18.5364
ಈ	-18.5364
ಉ	-18.5364
ಊ	-18.5364
ಋ	-18.5364
ಎ	-18.5364
ಏ	-18.5364
ಡ	-18.5364
ದ	-18.5364
ನ	-18.5364
ಭ	-18.5364
ರ	-18.5364
ಳ	-18.5364
ವ	-18.5364
ಷ	-18.5364
ಸ	-18.5364
ೊ	-18.5364
ೠ	-18.5364
ං	-18.5364
උ	-18.5364
ච	-18.5364
ඨ	-18.5364
ද	-18.5364
භ	-18.5364
ව	-18.5364
ෂ	-18.5364
ේ	-18.5364
ෝ	-18.5364
ฎ	-18.5364
ฏ	-18.5364
ฑ	-18.5364
ฒ	-18.5364
ฤ	-18.5364
ฮ	-18.5364
ๆ	-18.5364
๘	-18.5364
ທ	-18.5364
້	-18.5364
ཀ	-18.5364
ཁ	-18.5364
ཅ	-18.5364
ཏ	-18.5364
ད	-18.5364
ཛ	-18.5364
ཟ	-18.5364
འ	-18.5364
ཤ	-18.5364
ྟ	-18.5364
ྦ	-18.5364
ྫ	-18.5364
ླ	-18.5364
ည	-18.5364
ဘ	-18.5364
ဟ	-18.5364
ဦ	-18.5364
ူ	-18.5364
ျ	-18.5364
პ	-18.5364
ტ	-18.5364
ჩ	-18.5364
ძ	-18.5364
ᅢ	-18.5364
ᅦ	-18.5364
ሃ	-18.5364
ሓ	-18.5364
ሙ	-18.5364
ሚ	-18.5364
ማ	-18.5364
ረ	-18.5364
ሪ	-18.5364
ራ	-18.5364
ሮ	-18.5364
ሱ	-18.5364
ሳ	-18.5364
ሽ	-18.5364
ቤ	-18.5364
ቱ	-18.5364
ታ	-18.5364
ቴ	-18.5364
ች	-18.5364
ኖ	-18.5364
ኛ	-18.5364
ኢ	-18.5364
ከ	-18.5364
ካ	-18.5364
ኳ	-18.5364
ወ	-18.5364
ዋ	-18.5364
ዎ	-18.5364
ዕ	-18.5364
ዙ	-18.5364
ያ	-18.5364
ዬ	-18.5364
ገ	-18.5364
ጊ	-18.5364
ጋ	-18.5364
ጎ	-18.5364
ጪ	-18.5364
ፊ	-18.5364
ፋ	-18.5364
ឆ	-18.5364
ថ	-18.5364
ធ	-18.5364
ឡ	-18.5364
ឹ	-18.5364
ៅ	-18.5364
១	-18.5364
ᤌ	-18.5364
ᤕ	-18.5364
ᤢ	-18.5364
ᤰ	-18.5364
ᤱ	-18.5364
ᤴ	-18.5364
ᮓ	-18.5364
ᮔ	-18.5364
ᮘ	-18.5364
ᮥ	-18.5364
ᱛ	-18.5364
ᱥ	-18.5364
ᱱ	-18.5364
ᱲ	-18.5364
Ḍ	-18.5364
ḡ	-18.5364
ḳ	-18.5364
ṹ	-18.5364
Ẋ	-18.5364
ẋ	-18.5364
ẏ	-18.5364
ẕ	-18.5364
ẟ	-18.5364
Ạ	-18.5364
Ầ	-18.5364
Ị	-18.5364
Ủ	-18.5364
Ἁ	-18.5364
Ἐ	-18.5364
ὀ	-18.5364
ὅ	-18.5364
ὖ	-18.5364
ὴ	-18.5364
ᾱ	-18.5364
ῳ	-18.5364
‿	-18.5364
↩	-18.5364
↪	-18.5364
↺	-18.5364
⇀	-18.5364
⇄	-18.5364
⇔	-18.5364
⇬	-18.5364
⇱	-18.5364
∃	-18.5364
∕	-18.5364
⊃	-18.5364
⊢	-18.5364
⊨	-18.5364
⊲	-18.5364
⋀	-18.5364
⋁	-18.5364
⌫	-18.5364
⎇	-18.5364
⏏	-18.5364
⏭	-18.5364
─	-18.5364
━	-18.5364
┼	-18.5364
▲	-18.5364
▴	-18.5364
▶	-18.5364
▷	-18.5364
◁	-18.5364
☠	-18.5364
☣	-18.5364
☩	-18.5364
☿	-18.5364
♀	-18.5364
♂	-18.5364
♃	-18.5364
♆	-18.5364
♈	-18.5364
♉	-18.5364
♊	-18.5364
♋	-18.5364
♌	-18.5364
♎	-18.5364
♐	-18.5364
♑	-18.5364
♒	-18.5364
♓	-18.5364
⚡	-18.5364
⛔	-18.5364
✖	-18.5364
❤	-18.5364
⤧	-18.5364
⭐	-18.5364
ⲙ	-18.5364
ⲥ	-18.5364
ⴷ	-18.5364
ⴼ	-18.5364
ⵙ	-18.5364
ⵛ	-18.5364
ⵜ	-18.5364
」	-18.5364
〜	-18.5364
ぁ	-18.5364
ぬ	-18.5364
ょ	-18.5364
ヘ	-18.5364
ㄐ	-18.5364
ㄔ	-18.5364
ㄙ	-18.5364
ㄢ	-18.5364
ㄥ	-18.5364
ㄨ	-18.5364
丙	-18.5364
严	-18.5364
个	-18.5364
丹	-18.5364
举	-18.5364
么	-18.5364
乔	-18.5364
乗	-18.5364
亀	-18.5364
亚	-18.5364
亞	-18.5364
亢	-18.5364
亭	-18.5364
亮	-18.5364
仕	-18.5364
件	-18.5364
企	-18.5364
伐	-18.5364
伤	-18.5364
伽	-18.5364
佃	-18.5364
佗	-18.5364
依	-18.5364
侶	-18.5364
俐	-18.5364
俗	-18.5364
俠	-18.5364
俺	-18.5364
候	-18.5364
倚	-18.5364
健	-18.5364
傅	-18.5364
傘	-18.5364
催	-18.5364
傲	-18.5364
傷	-18.5364
傻	-18.5364
僰	-18.5364
儂	-18.5364
允	-18.5364
兇	-18.5364
兔	-18.5364
兜	-18.5364
兽	-18.5364
冀	-18.5364
冊	-18.5364
冕	-18.5364
农	-18.5364
冨	-18.5364
凛	-18.5364
凝	-18.5364
凤	-18.5364
処	-18.5364
凰	-18.5364
刑	-18.5364
则	-18.5364
刚	-18.5364
别	-18.5364
剛	-18.5364
剣	-18.5364
剥	-18.5364
割	-18.5364
劫	-18.5364
劳	-18.5364
勒	-18.5364
勘	-18.5364
勤	-18.5364
勳	-18.5364
包	-18.5364
匠	-18.5364
卅	-18.5364
単	-18.5364
占	-18.5364
卷	-18.5364
厌	-18.5364
厳	-18.5364
参	-18.5364
及	-18.5364
变	-18.5364
吏	-18.5364
吒	-18.5364
吗	-18.5364
吟	-18.5364
含	-18.5364
呈	-18.5364
咫	-18.5364
咲	-18.5364
哇	-18.5364
哉	-18.5364
哪	-18.5364
唔	-18.5364
啟	-18.5364
啦	-18.5364
啲	-18.5364
喊	-18.5364
喝	-18.5364
單	-18.5364
喼	-18.5364
嘯	-18.5364
嘴	-18.5364
嚴	-18.5364
因	-18.5364
囧	-18.5364
围	-18.5364
圀	-18.5364
圭	-18.5364
圾	-18.5364
坏	-18.5364
坑	-18.5364
垃	-18.5364
型	-18.5364
垚	-18.5364
域	-18.5364
埼	-18.5364
堀	-18.5364
堅	-18.5364
堆	-18.5364
報	-18.5364
墟	-18.5364
墾	-18.5364
壁	-18.5364
壘	-18.5364
壬	-18.5364
壮	-18.5364
売	-18.5364
壹	-18.5364
夯	-18.5364
夷	-18.5364
夺	-18.5364
奉	-18.5364
奔	-18.5364
奕	-18.5364
奭	-18.5364
奴	-18.5364
她	-18.5364
妇	-18.5364
始	-18.5364
姝	-18.5364
威	-18.5364
娇	-18.5364
娟	-18.5364
娥	-18.5364
婓	-18.5364
婴	-18.5364
媄	-18.5364
媞	-18.5364
媽	-18.5364
嫁	-18.5364
嬴	-18.5364
孔	-18.5364
孙	-18.5364
孛	-18.5364
宛	-18.5364
宠	-18.5364
宥	-18.5364
害	-18.5364
宸	-18.5364
寇	-18.5364
審	-18.5364
寳	-18.5364
寸	-18.5364
対	-18.5364
封	-18.5364
專	-18.5364
就	-18.5364
尻	-18.5364
尼	-18.5364
屍	-18.5364
屠	-18.5364
屯	-18.5364
岑	-18.5364
岚	-18.5364
岩	-18.5364
岭	-18.5364
岳	-18.5364
岷	-18.5364
岸	-18.5364
峯	-18.5364
崑	-18.5364
崔	-18.5364
崗	-18.5364
嵐	-18.5364
嶋	-18.5364
巅	-18.5364
巌	-18.5364
巖	-18.5364
巧	-18.5364
巽	-18.5364
帆	-18.5364
帖	-18.5364
帥	-18.5364
带	-18.5364
帳	-18.5364
幕	-18.5364
幡	-18.5364
广	-18.5364
庁	-18.5364
底	-18.5364
庚	-18.5364
庫	-18.5364
庵	-18.5364
廈	-18.5364
廉	-18.5364
廊	-18.5364
廓	-18.5364
廖	-18.5364
廟	-18.5364
廷	-18.5364
廾	-18.5364
弱	-18.5364
彌	-18.5364
彗	-18.5364
彙	-18.5364
彝	-18.5364
彩	-18.5364
彭	-18.5364
彿	-18.5364
征	-18.5364
徒	-18.5364
從	-18.5364
循	-18.5364
徭	-18.5364
徹	-18.5364
徽	-18.5364
忆	-18.5364
忌	-18.5364
怀	-18.5364
怒	-18.5364
怖	-18.5364
怡	-18.5364
急	-18.5364
恆	-18.5364
息	-18.5364
悟	-18.5364
悠	-18.5364
悪	-18.5364
悬	-18.5364
悲	-18.5364
惠	-18.5364
惡	-18.5364
惣	-18.5364
惧	-18.5364
愍	-18.5364
愷	-18.5364
慈	-18.5364
慕	-18.5364
慘	-18.5364
慮	-18.5364
懌	-18.5364
戍	-18.5364
扑	-18.5364
抓	-18.5364
护	-18.5364
抹	-18.5364
拜	-18.5364
拡	-18.5364
拯	-18.5364
拾	-18.5364
挺	-18.5364
挽	-18.5364
换	-18.5364
掃	-18.5364
掌	-18.5364
推	-18.5364
揆	-18.5364
提	-18.5364
握	-18.5364
搭	-18.5364
搵	-18.5364
摘	-18.5364
撮	-18.5364
據	-18.5364
故	-18.5364
敌	-18.5364
敢	-18.5364
敵	-18.5364
斐	-18.5364
斑	-18.5364
斩	-18.5364
旦	-18.5364
旭	-18.5364
旺	-18.5364
昶	-18.5364
晉	-18.5364
晋	-18.5364
晒	-18.5364
晞	-18.5364
晨	-18.5364
暖	-18.5364
暗	-18.5364
暮	-18.5364
暲	-18.5364
曉	-18.5364
曬	-18.5364
曹	-18.5364
曼	-18.5364
替	-18.5364
朋	-18.5364
朧	-18.5364
术	-18.5364
朵	-18.5364
杀	-18.5364
权	-18.5364
杏	-18.5364
材	-18.5364
束	-18.5364
杠	-18.5364
杭	-18.5364
板	-18.5364
枚	-18.5364
染	-18.5364
柚	-18.5364
栄	-18.5364
栎	-18.5364
栾	-18.5364
案	-18.5364
桥	-18.5364
梓	-18.5364
梭	-18.5364
梶	-18.5364
棉	-18.5364
棟	-18.5364
棧	-18.5364
椎	-18.5364
椒	-18.5364
椪	-18.5364
椿	-18.5364
楚	-18.5364
楷	-18.5364
榊	-18.5364
槐	-18.5364
標	-18.5364
樞	-18.5364
模	-18.5364
権	-18.5364
樫	-18.5364
檔	-18.5364
檜	-18.5364
櫃	-18.5364
欠	-18.5364
欽	-18.5364
残	-18.5364
殭	-18.5364
殷	-18.5364
毀	-18.5364
毒	-18.5364
毓	-18.5364
毘	-18.5364
氐	-18.5364
汝	-18.5364
汶	-18.5364
決	-18.5364
沃	-18.5364
沒	-18.5364
沟	-18.5364
沪	-18.5364
沮	-18.5364
泊	-18.5364
泛	-18.5364
泡	-18.5364
泪	-18.5364
泱	-18.5364
泳	-18.5364
洁	-18.5364
洗	-18.5364
浒	-18.5364
涉	-18.5364
涙	-18.5364
涛	-18.5364
涯	-18.5364
淀	-18.5364
淑	-18.5364
淞	-18.5364
済	-18.5364
渉	-18.5364
渋	-18.5364
渝	-18.5364
溥	-18.5364
溪	-18.5364
滇	-18.5364
滋	-18.5364
滝	-18.5364
滩	-18.5364
滸	-18.5364
漆	-18.5364
漉	-18.5364
漏	-18.5364
潔	-18.5364
潘	-18.5364
潞	-18.5364
潮	-18.5364
潰	-18.5364
澶	-18.5364
濃	-18.5364
濕	-18.5364
濠	-18.5364
濯	-18.5364
瀚	-18.5364
瀾	-18.5364
灌	-18.5364
灰	-18.5364
災	-18.5364
炯	-18.5364
炼	-18.5364
炽	-18.5364
烟	-18.5364
烦	-18.5364
焉	-18.5364
然	-18.5364
煌	-18.5364
煎	-18.5364
熟	-18.5364
燮	-18.5364
牆	-18.5364
牘	-18.5364
牟	-18.5364
牡	-18.5364
犭	-18.5364
狩	-18.5364
狱	-18.5364
猪	-18.5364
献	-18.5364
猴	-18.5364
猿	-18.5364
獅	-18.5364
獨	-18.5364
獸	-18.5364
獻	-18.5364
玆	-18.5364
玟	-18.5364
玦	-18.5364
玫	-18.5364
现	-18.5364
珮	-18.5364
琊	-18.5364
琦	-18.5364
琼	-18.5364
瑚	-18.5364
瑛	-18.5364
瑤	-18.5364
瑩	-18.5364
瑯	-18.5364
瑰	-18.5364
璽	-18.5364
瓜	-18.5364
瓢	-18.5364
甌	-18.5364
甘	-18.5364
甯	-18.5364
畏	-18.5364
番	-18.5364
畿	-18.5364
疾	-18.5364
病	-18.5364
症	-18.5364
痞	-18.5364
痴	-18.5364
発	-18.5364
皎	-18.5364
盈	-18.5364
盖	-18.5364
盧	-18.5364
盲	-18.5364
盾	-18.5364
眉	-18.5364
睦	-18.5364
睿	-18.5364
瞬	-18.5364
瞳	-18.5364
矢	-18.5364
短	-18.5364
码	-18.5364
硝	-18.5364
碌	-18.5364
碗	-18.5364
磊	-18.5364
礫	-18.5364
祁	-18.5364
祎	-18.5364
票	-18.5364
禁	-18.5364
禍	-18.5364
禕	-18.5364
禧	-18.5364
种	-18.5364
移	-18.5364
種	-18.5364
稼	-18.5364
積	-18.5364
穎	-18.5364
穏	-18.5364
穴	-18.5364
穹	-18.5364
窿	-18.5364
竜	-18.5364
笄	-18.5364
笛	-18.5364
符	-18.5364
笹	-18.5364
筆	-18.5364
筠	-18.5364
箋	-18.5364
箍	-18.5364
箐	-18.5364
箕	-18.5364
箪	-18.5364
箭	-18.5364
箱	-18.5364
築	-18.5364
簪	-18.5364
簿	-18.5364
籤	-18.5364
粍	-18.5364
粒	-18.5364
粕	-18.5364
糈	-18.5364
糕	-18.5364
純	-18.5364
紗	-18.5364
絡	-18.5364
継	-18.5364
綬	-18.5364
綱	-18.5364
綴	-18.5364
緒	-18.5364
縱	-18.5364
繪	-18.5364
繫	-18.5364
纂	-18.5364
纹	-18.5364
纾	-18.5364
终	-18.5364
给	-18.5364
络	-18.5364
绝	-18.5364
维	-18.5364
综	-18.5364
缺	-18.5364
置	-18.5364
罰	-18.5364
署	-18.5364
羁	-18.5364
羘	-18.5364
羡	-18.5364
羿	-18.5364
翅	-18.5364
耆	-18.5364
而	-18.5364
耳	-18.5364
耻	-18.5364
耿	-18.5364
联	-18.5364
聡	-18.5364
肴	-18.5364
胆	-18.5364
胜	-18.5364
胞	-18.5364
脚	-18.5364
脩	-18.5364
腔	-18.5364
膀	-18.5364
膚	-18.5364
臭	-18.5364
般	-18.5364
舵	-18.5364
芙	-18.5364
芸	-18.5364
苍	-18.5364
苏	-18.5364
苓	-18.5364
苔	-18.5364
茄	-18.5364
茜	-18.5364
茯	-18.5364
荅	-18.5364
莉	-18.5364
莊	-18.5364
莞	-18.5364
菟	-18.5364
菲	-18.5364
萃	-18.5364
萌	-18.5364
萨	-18.5364
葛	-18.5364
董	-18.5364
葵	-18.5364
葺	-18.5364
蒔	-18.5364
蒙	-18.5364
蒸	-18.5364
蔣	-18.5364
蔽	-18.5364
蕃	-18.5364
蕎	-18.5364
蕩	-18.5364
蕭	-18.5364
薄	-18.5364
薬	-18.5364
處	-18.5364
虚	-18.5364
蚁	-18.5364
蚂	-18.5364
蛸	-18.5364
蜂	-18.5364
蝉	-18.5364
蝦	-18.5364
蝶	-18.5364
螣	-18.5364
蟹	-18.5364
蠣	-18.5364
衙	-18.5364
衡	-18.5364
衢	-18.5364
袂	-18.5364
裂	-18.5364
裟	-18.5364
裤	-18.5364
裰	-18.5364
裸	-18.5364
褲	-18.5364
褶	-18.5364
襄	-18.5364
襦	-18.5364
襴	-18.5364
覚	-18.5364
観	-18.5364
覺	-18.5364
討	-18.5364
証	-18.5364
試	-18.5364
該	-18.5364
誠	-18.5364
說	-18.5364
調	-18.5364
請	-18.5364
諍	-18.5364
謂	-18.5364
謎	-18.5364
謐	-18.5364
證	-18.5364
識	-18.5364
譯	-18.5364
譽	-18.5364
讓	-18.5364
训	-18.5364
证	-18.5364
试	-18.5364
诞	-18.5364
谎	-18.5364
谨	-18.5364
谱	-18.5364
谶	-18.5364
豔	-18.5364
象	-18.5364
豫	-18.5364
豬	-18.5364
貓	-18.5364
財	-18.5364
貪	-18.5364
賈	-18.5364
賓	-18.5364
質	-18.5364
贞	-18.5364
贤	-18.5364
败	-18.5364
购	-18.5364
贵	-18.5364
贺	-18.5364
赏	-18.5364
赟	-18.5364
赱	-18.5364
赳	-18.5364
赴	-18.5364
赶	-18.5364
赸	-18.5364
赹	-18.5364
赺	-18.5364
赻	-18.5364
赼	-18.5364
赽	-18.5364
赾	-18.5364
赿	-18.5364
趀	-18.5364
趁	-18.5364
趂	-18.5364
趃	-18.5364
趋	-18.5364
趌	-18.5364
趍	-18.5364
趎	-18.5364
趏	-18.5364
趐	-18.5364
趑	-18.5364
趒	-18.5364
趓	-18.5364
趔	-18.5364
趕	-18.5364
趖	-18.5364
趗	-18.5364
趘	-18.5364
趚	-18.5364
趛	-18.5364
趜	-18.5364
趝	-18.5364
趞	-18.5364
趟	-18.5364
趠	-18.5364
趡	-18.5364
趢	-18.5364
趣	-18.5364
趤	-18.5364
趥	-18.5364
趦	-18.5364
趧	-18.5364
趨	-18.5364
趩	-18.5364
趪	-18.5364
趫	-18.5364
趬	-18.5364
趭	-18.5364
趮	-18.5364
趯	-18.5364
趰	-18.5364
趱	-18.5364
趲	-18.5364
跑	-18.5364
距	-18.5364
跳	-18.5364
躰	-18.5364
軽	-18.5364
載	-18.5364
轩	-18.5364
轻	-18.5364
载	-18.5364
输	-18.5364
辞	-18.5364
达	-18.5364
迪	-18.5364
迹	-18.5364
追	-18.5364
逃	-18.5364
逊	-18.5364
途	-18.5364
這	-18.5364
遠	-18.5364
遷	-18.5364
避	-18.5364
邇	-18.5364
邦	-18.5364
郊	-18.5364
鄂	-18.5364
鄉	-18.5364
酎	-18.5364
酸	-18.5364
醫	-18.5364
醬	-18.5364
采	-18.5364
釗	-18.5364
釜	-18.5364
鈐	-18.5364
鉤	-18.5364
鉾	-18.5364
銃	-18.5364
鋒	-18.5364
錄	-18.5364
錐	-18.5364
鍊	-18.5364
鍵	-18.5364
鍼	-18.5364
鎂	-18.5364
鑑	-18.5364
铳	-18.5364
锁	-18.5364
错	-18.5364
锟	-18.5364
锥	-18.5364
锻	-18.5364
镁	-18.5364
閃	-18.5364
閉	-18.5364
閑	-18.5364
閣	-18.5364
閪	-18.5364
防	-18.5364
阴	-18.5364
陣	-18.5364
险	-18.5364
陪	-18.5364
隼	-18.5364
难	-18.5364
雀	-18.5364
雁	-18.5364
雍	-18.5364
雙	-18.5364
雞	-18.5364
霞	-18.5364
靈	-18.5364
靉	-18.5364
靖	-18.5364
靡	-18.5364
韦	-18.5364
頁	-18.5364
預	-18.5364
頤	-18.5364
顆	-18.5364
題	-18.5364
顔	-18.5364
预	-18.5364
颐	-18.5364
频	-18.5364
颗	-18.5364
题	-18.5364
颯	-18.5364
飲	-18.5364
饭	-18.5364
饮	-18.5364
饶	-18.5364
馆	-18.5364
駄	-18.5364
驤	-18.5364
驻	-18.5364
骁	-18.5364
骋	-18.5364
骸	-18.5364
髡	-18.5364
髪	-18.5364
髻	-18.5364
鬘	-18.5364
魁	-18.5364
魂	-18.5364
魯	-18.5364
鮎	-18.5364
鮒	-18.5364
鮭	-18.5364
鯛	-18.5364
鯵	-18.5364
鱼	-18.5364
鲁	-18.5364
鳌	-18.5364
鳴	-18.5364
鴨	-18.5364
鵰	-18.5364
鶏	-18.5364
鶻	-18.5364
鷹	-18.5364
鷺	-18.5364
鸟	-18.5364
鸿	-18.5364
鹤	-18.5364
鹽	-18.5364
鹿	-18.5364
麟	-18.5364
麵	-18.5364
點	-18.5364
黥	-18.5364
黨	-18.5364
鼓	-18.5364
鼠	-18.5364
齋	-18.5364
齐	-18.5364
齡	-18.5364
ꜣ	-18.5364
ꜥ	-18.5364
ꠋ	-18.5364
ꠎ	-18.5364
ꠚ	-18.5364
ꠣ	-18.5364
ꢜ	-18.5364
ꢰ	-18.5364
ꢱ	-18.5364
ꢵ	-18.5364
ꣃ	-18.5364
ꦣ	-18.5364
ꦧ	-18.5364
ꦩ	-18.5364
ꦭ	-18.5364
ꦶ	-18.5364
ꪘ	-18.5364
ꪙ	-18.5364
ꪚ	-18.5364
ꪛ	-18.5364
ꪜ	-18.5364
ꪝ	-18.5364
ꪞ	-18.5364
ꪟ	-18.5364
ꪠ	-18.5364
ꪡ	-18.5364
ꪢ	-18.5364
ꪣ	-18.5364
ꪤ	-18.5364
ꪥ	-18.5364
ꪦ	-18.5364
ꪧ	-18.5364
ꪨ	-18.5364
ꪩ	-18.5364
ꪪ	-18.5364
ꪫ	-18.5364
ꪬ	-18.5364
ꪭ	-18.5364
ꪮ	-18.5364
ꪯ	-18.5364
ꪸ	-18.5364
ꪹ	-18.5364
ꪺ	-18.5364
ꪻ	-18.5364
ꪼ	-18.5364
ꪽ	-18.5364
ꪾ	-18.5364
갈	-18.5364
갱	-18.5364
걷	-18.5364
겠	-18.5364
겨	-18.5364
궁	-18.5364
길	-18.5364
깐	-18.5364
깰	-18.5364
꺼	-18.5364
께	-18.5364
꼬	-18.5364
꼭	-18.5364
꽈	-18.5364
꾸	-18.5364
꾼	-18.5364
꿈	-18.5364
끔	-18.5364
끝	-18.5364
난	-18.5364
납	-18.5364
낮	-18.5364
낼	-18.5364
널	-18.5364
넙	-18.5364
넥	-18.5364
년	-18.5364
녑	-18.5364
놨	-18.5364
느	-18.5364
늑	-18.5364
닿	-18.5364
던	-18.5364
돈	-18.5364
되	-18.5364
둔	-18.5364
듀	-18.5364
득	-18.5364
든	-18.5364
딩	-18.5364
따	-18.5364
딸	-18.5364
땅	-18.5364
땡	-18.5364
또	-18.5364
띠	-18.5364
랐	-18.5364
램	-18.5364
랩	-18.5364
럽	-18.5364
렇	-18.5364
력	-18.5364
련	-18.5364
료	-18.5364
룡	-18.5364
르	-18.5364
릉	-18.5364
린	-18.5364
릴	-18.5364
멋	-18.5364
메	-18.5364
멸	-18.5364
몇	-18.5364
뭐	-18.5364
뭔	-18.5364
밍	-18.5364
밥	-18.5364
뱅	-18.5364
본	-18.5364
봄	-18.5364
붐	-18.5364
붕	-18.5364
뷰	-18.5364
빅	-18.5364
빌	-18.5364
빔	-18.5364
빼	-18.5364
뿐	-18.5364
섭	-18.5364
섯	-18.5364
셋	-18.5364
셔	-18.5364
션	-18.5364
쉅	-18.5364
쉐	-18.5364
쉬	-18.5364
슨	-18.5364
싶	-18.5364
썸	-18.5364
쑥	-18.5364
쓰	-18.5364
얼	-18.5364
엄	-18.5364
었	-18.5364
엑	-18.5364
완	-18.5364
욱	-18.5364
웅	-18.5364
읍	-18.5364
입	-18.5364
잇	-18.5364
잉	-18.5364
잎	-18.5364
잭	-18.5364
쟁	-18.5364
절	-18.5364
점	-18.5364
져	-18.5364
족	-18.5364
죠	-18.5364
줘	-18.5364
짱	-18.5364
찬	-18.5364
책	-18.5364
커	-18.5364
컨	-18.5364
케	-18.5364
키	-18.5364
킴	-18.5364
탓	-18.5364
탕	-18.5364
택	-18.5364
텐	-18.5364
특	-18.5364
틴	-18.5364
팩	-18.5364
폰	-18.5364
허	-18.5364
험	-18.5364
헤	-18.5364
협	-18.5364
혼	-18.5364
홀	-18.5364
홈	-18.5364
홉	-18.5364
효	-18.5364
휠	-18.5364
𐎚	-18.5364
𐎡	-18.5364
𐎢	-18.5364
𐎴	-18.5364
𐤄	-18.5364
𐤎	-18.5364
𐤐	-18.5364
𐤕	-18.5364
𐰀	-18.5364
𐰢	-18.5364
𐰸	-18.5364
𑢹	-18.5364
𑣋	-18.5364
𑣎	-18.5364
𑣜	-18.5364
𒀊	-18.5364
𒀕	-18.5364
𒀜	-18.5364
𒄀	-18.5364
𒄊	-18.5364
𒄩	-18.5364
𒆤	-18.5364
𒆷	-18.5364
𒇺	-18.5364
𒈗	-18.5364
𒈨	-18.5364
𒊭	-18.5364
𒋀	-18.5364
𒌅	-18.5364
𒌓	-18.5364
𒌨	-18.5364
𒌵	-18.5364
𓁗	-18.5364
𓉼	-18.5364
𓍘	-18.5364
💓	-18.5364
💔	-18.5364
💖	-18.5364
💗	-18.5364
💘	-18.5364
💙	-18.5364
💚	-18.5364
′	-18.5364
ਪ	-18.5364
ᤐ	-18.5364
ḃ	-18.5364
于	-18.5364
佩	-18.5364
决	-18.5364
勁	-18.5364
匪	-18.5364
哭	-18.5364
岐	-18.5364
归	-18.5364
恭	-18.5364
惟	-18.5364
拂	-18.5364
撈	-18.5364
枳	-18.5364
湛	-18.5364
濊	-18.5364
營	-18.5364
牌	-18.5364
璋	-18.5364
瞽	-18.5364
砕	-18.5364
禅	-18.5364
竺	-18.5364
粽	-18.5364
缀	-18.5364
褙	-18.5364
诸	-18.5364
貊	-18.5364
闯	-18.5364
韩	-18.5364
鷓	-18.5364
깡	-18.5364
놀	-18.5364
닥	-18.5364
뮈	-18.5364
쌈	-18.5364
휘	-18.5364
Ɔ	-18.5364
ѧ	-18.5364
ҷ	-18.5364
֖	-18.5364
অ	-18.5364
ਸ	-18.5364
ቡ	-18.5364
Ἄ	-18.5364
ⲑ	-18.5364
ⵃ	-18.5364
ぱ	-18.5364
並	-18.5364
停	-18.5364
兩	-18.5364
吨	-18.5364
哨	-18.5364
唯	-18.5364
壤	-18.5364
姿	-18.5364
尉	-18.5364
异	-18.5364
彫	-18.5364
彼	-18.5364
憂	-18.5364
戒	-18.5364
掠	-18.5364
探	-18.5364
摆	-18.5364
摇	-18.5364
撃	-18.5364
树	-18.5364
樱	-18.5364
橫	-18.5364
滨	-18.5364
潜	-18.5364
當	-18.5364
疑	-18.5364
禛	-18.5364
篤	-18.5364
絹	-18.5364
茸	-18.5364
著	-18.5364
號	-18.5364
衝	-18.5364
访	-18.5364
诚	-18.5364
谁	-18.5364
谐	-18.5364
辣	-18.5364
还	-18.5364
逢	-18.5364
鞍	-18.5364
駆	-18.5364
鼻	-18.5364
귈	-18.5364
뉴	-18.5364
닭	-18.5364
땀	-18.5364
맛	-18.5364
묘	-18.5364
밴	-18.5364
쁘	-18.5364
손	-18.5364
쇠	-18.5364
악	-18.5364
올	-18.5364
옹	-18.5364
외	-18.5364
웨	-18.5364
잡	-18.5364
찾	-18.5364
퀴	-18.5364
𑣙	-18.5364
Խ	-18.5364
չ	-18.5364
ڈ	-18.5364
ܲ	-18.5364
ލ	-18.5364
ު	-18.5364
ฝ	-18.5364
ᱤ	-18.5364
ⵇ	-18.5364
凡	-18.5364
哀	-18.5364
嫌	-18.5364
尖	-18.5364
嶺	-18.5364
欲	-18.5364
煉	-18.5364
示	-18.5364
稱	-18.5364
競	-18.5364
纯	-18.5364
职	-18.5364
腦	-18.5364
臈	-18.5364
菱	-18.5364
被	-18.5364
誤	-18.5364
讀	-18.5364
计	-18.5364
負	-18.5364
邀	-18.5364
邁	-18.5364
阪	-18.5364
除	-18.5364
障	-18.5364
頂	-18.5364
飴	-18.5364
魅	-18.5364
넌	-18.5364
농	-18.5364
및	-18.5364
뽕	-18.5364
욕	-18.5364
윙	-18.5364
줬	-18.5364
쩌	-18.5364
팬	-18.5364
𐎧	-18.5364
𐎱	-18.5364
𐎺	-18.5364
𐏂	-18.5364
𐴒	-18.5364
љ	-18.5364
ຂ	-18.5364
ຊ	-18.5364
ຼ	-18.5364
ຽ	-18.5364
ໍ	-18.5364
値	-18.5364
协	-18.5364
帅	-18.5364
抜	-18.5364
搞	-18.5364
激	-18.5364
裏	-18.5364
需	-18.5364
매	-18.5364
𐴌	-18.5364
𐴗	-18.5364
𐴚	-18.5364
𐴥	-18.5364
−	-18.5365
應	-18.5365
