s	10065
.	8816
,	7489
▁the	6100
▁to	3755
▁a	3467
'	3417
▁of	3231
▁and	2942
t	2925
▁in	2767
▁you	2364
▁I	2081
ing	1755
▁is	1613
ed	1597
d	1532
▁that	1451
▁-	1447
▁it	1241
re	1186
y	1140
▁for	1106
▁your	1070
▁n	1036
?	962
▁with	923
m	917
▁be	889
r	874
▁	855
▁was	854
▁on	846
er	838
▁as	829
n	818
ly	775
▁are	714
▁do	683
▁have	680
▁or	661
▁The	637
al	636
ll	624
▁(	620
▁this	605
▁can	595
▁not	595
e	590
▁s	584
▁we	570
▁me	558
or	558
le	549
▁You	542
▁an	520
▁at	512
in	506
a	504
▁"	504
▁by	502
o	487
c	477
▁from	475
p	471
g	469
▁A	451
)	445
▁It	431
ic	430
ri	428
▁re	423
es	420
en	417
b	413
▁will	405
▁he	397
th	393
ve	381
▁so	381
▁about	378
i	374
▁all	374
▁but	372
▁one	368
▁her	367
▁my	366
▁And	366
▁they	365
▁out	363
ation	357
ur	353
▁In	326
▁up	321
▁S	316
▁if	313
ar	312
▁19	311
▁de	309
li	309
ce	308
▁like	303
▁con	303
▁know	302
se	302
ion	300
▁what	300
ment	296
▁she	295
il	292
▁there	286
ist	284
!	283
▁get	279
:	278
ra	272
▁p	267
ate	265
te	261
w	260
▁his	258
la	258
▁If	256
an	256
f	256
▁time	256
▁just	255
el	255
▁want	254
▁We	253
▁C	250
▁more	249
▁who	242
ter	241
▁has	241
ent	241
▁them	240
▁were	239
▁So	236
it	236
▁c	235
ro	234
...	234
ine	230
▁him	230
"	229
▁when	227
▁He	226
on	225
ive	224
▁also	222
▁no	222
▁which	222
ne	218
▁This	216
ol	216
▁make	215
▁ex	215
▁their	213
ir	212
▁people	212
▁E	211
de	210
▁been	210
un	210
▁see	209
▁need	209
▁e	209
▁think	208
▁co	207
u	205
h	205
▁Do	201
ck	201
▁But	200
A	199
▁some	198
▁may	198
▁had	197
▁would	196
ity	196
mi	192
▁other	191
▁back	188
lo	188
▁go	188
na	187
k	187
ers	186
▁pro	185
▁us	185
ry	184
▁F	183
▁did	183
▁here	183
▁into	180
ci	180
ch	179
et	178
l	177
▁over	177
S	177
z	177
ul	176
ia	174
me	173
C	171
mp	168
▁right	168
▁then	166
5	166
-	166
ta	165
▁take	163
▁first	162
▁than	162
mo	161
▁work	161
▁st	161
2	160
ian	160
▁She	160
▁could	159
▁ca	158
ma	158
▁U	158
▁help	157
vi	157
I	156
us	154
ge	154
▁un	154
D	153
tic	153
x	152
▁way	152
ni	151
ies	150
▁now	150
no	150
as	150
▁should	150
to	148
▁got	148
▁how	148
▁man	148
▁use	148
able	147
▁very	146
ant	146
▁any	146
▁only	143
is	143
4	143
9	142
▁most	142
▁these	141
um	141
▁our	140
ut	139
▁where	139
▁They	139
▁new	139
▁--	139
▁No	139
age	138
;	138
▁even	137
ence	136
▁G	136
▁good	135
▁after	135
at	134
▁Ca	134
ary	134
▁Ma	134
ff	134
ke	133
po	133
▁going	132
ated	132
est	132
▁What	132
sh	131
▁P	131
▁its	131
ng	131
▁po	131
▁B	131
▁two	131
co	130
lu	129
▁something	128
▁Re	128
▁mo	127
ty	126
▁g	126
▁That	126
▁b	126
▁such	126
▁di	125
▁down	125
▁3	124
▁before	124
▁part	123
op	123
▁O	123
▁because	122
ti	122
7	122
ance	121
▁T	120
▁There	119
▁used	119
▁en	117
P	116
3	116
ting	116
▁To	115
▁off	115
),	115
▁day	114
▁life	113
nd	113
▁pre	113
da	113
pe	113
▁dis	112
▁ra	112
N	112
▁years	112
ver	112
▁being	111
▁does	111
6	111
▁find	111
▁feel	111
min	110
▁De	110
▁under	108
▁said	108
8	108
▁come	107
cu	106
tion	106
▁let	106
▁really	106
▁comp	105
wa	104
▁look	104
▁water	104
up	104
▁d	104
."	103
▁world	102
▁M	102
▁For	102
ness	101
les	100
id	100
om	100
ak	100
ha	100
▁–	100
▁too	100
man	100
▁much	100
▁ma	100
ad	99
os	99
end	98
ther	98
M	98
▁keep	97
ish	97
▁La	96
▁bu	96
v	96
ted	95
▁place	95
▁well	94
lic	94
▁call	94
▁every	94
im	94
▁between	93
one	93
▁never	93
ld	92
ki	92
bo	92
▁found	92
▁4	92
▁through	91
▁Li	91
▁say	91
▁As	91
fi	91
ru	91
▁Well	90
▁little	90
▁Ba	90
).	90
▁fa	89
ical	89
E	89
ous	89
▁while	88
▁Ha	88
▁se	88
▁show	88
1	88
ca	88
▁many	88
▁vi	88
ster	87
▁k	87
▁head	87
ction	87
▁Pa	87
ating	86
the	86
tra	86
go	86
gen	85
▁home	85
▁long	85
▁la	85
ture	85
▁around	84
▁K	84
B	84
ho	83
▁car	83
▁Bo	83
rate	83
tain	83
▁name	83
mb	82
T	82
▁yourself	82
▁things	82
▁those	82
ow	82
O	82
▁am	81
▁why	81
ful	81
▁Mar	80
▁va	80
▁might	80
▁number	80
▁still	80
▁own	80
▁Se	80
▁D	79
ide	79
▁mean	79
▁thing	79
▁better	79
▁end	79
▁same	79
▁different	79
tri	78
▁gonna	78
ally	78
▁sp	78
▁sa	78
▁love	78
▁Ro	77
▁ba	77
▁made	77
ten	77
▁again	77
▁Di	77
▁When	76
tu	76
▁tell	76
▁form	76
▁year	76
▁Ho	76
ial	76
ism	76
▁give	76
▁1	75
▁gra	75
pp	75
▁both	75
red	75
▁change	75
▁thought	74
va	74
ible	74
▁known	74
▁idea	74
ie	74
▁Mi	74
▁2	74
di	73
▁another	73
▁Mo	73
ga	73
em	72
▁sure	72
▁V	72
am	72
▁system	72
▁high	72
fe	71
ach	71
▁second	71
▁N	71
pa	71
ling	71
ions	71
▁Be	71
▁great	70
act	70
▁li	70
▁ha	70
▁best	70
▁inter	69
▁wo	69
▁three	69
R	68
▁last	68
ration	68
▁te	68
▁su	68
ring	68
▁set	68
▁ga	68
▁Me	67
▁per	67
lin	67
▁ph	67
dy	66
▁Sa	66
ber	66
▁point	66
▁app	66
▁18	66
▁fl	66
▁until	65
▁put	65
ite	65
ward	65
▁war	65
▁Ra	65
▁power	64
▁important	64
son	64
▁mind	64
ard	64
▁ever	64
▁Oh	64
tor	64
▁old	63
▁girl	63
▁anything	63
val	63
cent	63
▁im	63
od	62
nt	62
que	62
▁open	62
▁Go	62
we	62
▁An	62
▁th	62
▁W	62
▁enough	62
pi	62
▁each	62
▁ta	61
bi	61
▁start	61
▁body	61
he	61
▁mi	61
lar	61
▁Con	60
▁believe	60
▁Pro	60
▁actually	60
ound	60
▁example	60
▁ask	60
row	60
mon	60
tin	60
ox	60
▁kind	59
ac	59
▁night	59
▁Le	59
▁away	59
do	59
der	59
▁must	59
▁Po	59
▁order	59
be	59
▁i	59
▁ro	59
ized	59
▁talk	59
▁close	59
▁Ta	59
▁Some	59
ba	59
ure	59
ual	59
▁Je	58
ric	58
▁include	58
▁How	58
▁without	58
ang	58
ph	58
ig	58
ze	58
ral	58
▁hair	58
▁cor	58
▁'	57
▁Al	57
▁hand	57
00	57
▁bo	57
▁human	57
▁doing	57
ner	57
▁5	57
ign	56
▁Now	56
▁Ka	56
▁/	56
▁7	56
▁side	56
▁pain	56
gu	56
ron	56
▁10	56
ven	56
▁Vi	56
▁real	55
▁Ch	55
▁St	55
hi	55
ot	55
▁My	55
▁Jo	55
▁sub	55
▁business	55
ea	55
▁Lo	55
▁Co	55
▁often	55
▁during	55
qui	55
▁f	55
▁South	55
▁called	54
▁food	54
▁Wa	54
▁Su	54
▁few	54
▁try	54
▁control	54
▁al	54
ning	54
▁6	54
H	54
tro	53
led	53
itu	53
▁free	53
▁fact	53
nk	53
▁Why	53
for	53
ition	53
▁always	53
▁fi	53
▁rest	52
▁light	52
▁country	52
G	52
vers	52
▁lot	52
mer	52
port	52
ator	52
▁play	52
ight	52
▁mother	52
▁person	52
ities	52
com	51
▁ti	51
▁area	51
wi	51
▁Th	51
▁All	51
▁able	51
▁blood	51
bra	51
▁Let	51
ton	51
per	51
▁family	51
▁become	51
bb	51
F	51
▁bi	50
▁Na	50
▁room	50
▁Da	50
▁ho	50
cing	50
che	50
du	50
▁big	50
rd	50
less	50
nder	50
▁million	50
▁type	50
wn	50
gg	50
▁left	50
ium	50
av	50
▁w	49
▁Bu	49
▁within	49
uc	49
▁next	49
▁pa	49
▁school	49
▁using	49
ft	49
▁le	49
vol	49
▁group	49
▁read	48
▁saw	48
▁possible	48
cy	48
ab	48
▁L	48
▁clean	48
▁Yeah	48
ka	48
ative	48
▁hard	48
▁problem	48
ger	48
▁sta	48
▁H	48
▁Te	48
ctor	48
▁China	48
▁including	47
▁comm	47
▁drug	47
▁v	47
way	47
▁Mr	47
▁United	47
▁Ar	47
▁plan	47
vo	47
▁doctor	47
tle	47
▁Your	47
▁air	47
▁Fa	47
▁social	47
dent	47
vis	46
▁ob	46
▁mu	46
rk	46
▁small	46
▁term	46
▁tr	46
▁line	46
▁stop	46
qu	46
ef	46
▁men	46
ect	46
▁Or	46
con	46
▁came	45
▁already	45
▁test	45
▁days	45
▁women	45
▁state	45
io	45
▁20	45
▁local	45
fa	45
▁fight	45
V	45
▁Dr	45
▁Not	45
▁cause	45
jo	44
gue	44
ec	44
▁Mu	44
▁lo	44
▁face	44
0	44
,"	44
▁team	44
▁On	44
▁Just	44
▁arm	44
▁someone	44
line	44
▁against	44
ious	44
▁remember	44
▁government	44
▁pay	43
▁having	43
land	43
▁full	43
chi	43
▁run	43
▁hours	43
▁support	43
▁y	43
▁sign	43
▁done	43
▁money	43
▁whole	43
tal	43
▁sc	43
ize	43
ase	43
▁told	43
▁fr	43
▁break	43
▁tra	43
ries	43
▁move	42
▁star	42
▁Ne	42
▁bar	42
▁times	42
▁understand	42
▁hear	42
▁house	42
▁oil	42
gra	42
▁later	42
▁treatment	42
men	42
▁Com	42
▁reason	42
▁Ja	42
▁minutes	42
use	42
au	42
▁since	42
▁sleep	42
▁pass	42
and	42
za	42
▁brain	42
ju	42
▁less	42
ag	41
▁R	41
ome	41
▁15	41
▁everything	41
▁clear	41
▁information	41
▁hold	41
▁case	41
form	41
▁guy	41
▁ch	41
▁friends	41
▁However	41
▁game	41
bu	41
L	41
▁Vietnam	41
U	41
▁anti	40
rn	40
▁making	40
▁drink	40
▁lead	40
▁Sh	40
ip	40
▁result	40
▁gu	40
▁wi	40
▁Un	40
▁book	40
▁hi	40
gi	40
▁act	40
▁After	40
▁sound	40
▁leave	39
▁six	39
ise	39
▁along	39
▁past	39
▁drive	39
▁Si	39
▁five	39
▁pe	39
é	39
▁together	39
▁fo	39
▁eat	39
▁sha	39
▁trans	39
▁main	39
▁based	39
▁friend	39
▁speak	39
▁today	39
▁child	39
▁process	39
▁once	39
▁treat	39
▁US	39
▁looking	39
dic	39
▁cut	38
▁du	38
▁live	38
▁ri	38
▁Can	38
▁others	38
▁contain	38
▁image	38
▁Ki	38
▁Cha	38
▁top	38
▁tea	38
▁became	38
oc	38
▁One	38
▁o	38
▁9	38
▁kill	38
lf	38
▁require	38
▁cost	38
▁class	37
▁art	37
but	37
istic	37
▁Poland	37
▁safe	37
▁Ex	37
ya	37
▁turn	37
ler	37
ny	37
▁skin	37
▁win	37
▁fire	37
▁States	37
ov	37
▁Ph	37
▁At	37
gan	37
bil	37
▁father	37
▁lost	37
▁special	37
▁product	37
▁children	37
▁four	37
now	36
▁check	36
tter	36
▁American	36
▁getting	36
▁Are	36
ud	36
▁join	36
▁bit	36
▁Her	36
▁several	36
▁Tu	36
▁wrong	36
eg	36
fin	36
▁company	36
▁Ga	36
▁boy	36
spec	36
▁went	36
▁started	36
pen	36
ap	36
ever	36
▁period	36
▁means	35
ship	35
▁Z	35
▁pi	35
▁Look	35
▁film	35
▁ready	35
▁stay	35
▁care	35
▁job	35
▁Take	35
▁born	35
▁These	35
▁ru	35
side	35
▁em	35
▁12	35
▁fe	35
▁present	35
▁moment	35
ency	35
king	35
▁stand	35
".	35
▁words	35
▁language	35
▁attention	34
▁coming	34
▁dog	34
pl	34
qua	34
▁woman	34
our	34
▁research	34
▁record	34
▁tu	34
▁law	34
ough	34
▁service	34
▁store	34
▁sh	34
▁east	34
▁daughter	34
▁city	34
▁remain	34
▁far	34
▁cat	34
▁relationship	34
▁short	34
ee	34
▁War	34
▁Make	34
▁early	34
▁century	34
▁north	34
ific	34
par	34
truc	34
▁please	34
▁wanted	34
▁para	34
▁Bi	33
▁course	33
ran	33
▁imp	33
▁Du	33
phe	33
▁Ju	33
▁young	33
▁public	33
itch	33
▁seem	33
▁cap	33
▁maybe	33
pro	33
▁offer	33
ified	33
▁music	33
▁eyes	33
▁soon	33
▁heat	33
▁ge	33
▁consider	33
▁situation	33
▁Get	33
▁week	33
▁gave	33
▁political	33
▁da	32
▁low	32
xi	32
▁specific	32
▁yet	32
▁land	32
▁prevent	32
▁Chinese	32
▁matter	32
▁protect	32
/	32
▁age	32
my	32
rin	32
W	32
fu	32
▁Sta	32
▁disc	32
▁allow	32
▁space	32
ook	32
ue	32
▁areas	32
wo	32
▁cover	32
▁given	32
▁Ni	32
duct	32
▁walk	32
%	32
▁save	31
▁heart	31
▁months	31
put	31
▁building	31
▁amount	31
▁half	31
▁gene	31
▁syn	31
▁Ri	31
cra	31
▁increase	31
ub	31
▁develop	31
▁market	31
▁large	31
▁happen	31
▁instead	31
▁condition	31
▁cell	31
▁Sp	31
▁op	31
▁min	31
▁With	31
▁Fe	31
▁entire	31
▁death	31
ccu	31
▁Mon	31
ulate	31
▁expect	31
han	31
▁watch	31
▁bad	31
▁mass	31
ko	31
▁Lu	31
▁position	31
▁Car	31
▁brother	31
▁answer	31
▁nothing	31
▁okay	31
▁8	31
▁bring	31
tern	31
▁effective	31
matic	31
▁took	30
▁rec	30
▁May	30
▁partner	30
▁trying	30
▁study	30
▁return	30
▁Chi	30
▁America	30
mu	30
▁figure	30
part	30
▁murder	30
▁near	30
▁talking	30
▁club	30
▁risk	30
▁non	30
▁Gra	30
ex	30
ory	30
je	30
▁Did	30
▁eye	30
▁video	30
▁data	30
▁Try	30
▁thinking	30
▁late	30
nu	30
▁health	30
vent	30
▁God	30
▁Wi	30
▁plant	30
▁deep	30
▁seen	30
▁30	30
▁common	30
▁disease	30
▁dead	30
▁ago	30
▁provide	30
▁World	30
▁Hu	29
▁Col	29
ev	29
ban	29
out	29
wer	29
▁buy	29
▁force	29
▁step	29
▁access	29
▁Ac	29
▁wife	29
▁design	29
cular	29
▁English	29
press	29
▁bri	29
▁paper	29
lig	29
▁project	29
lan	29
▁won	29
ey	29
K	29
▁hope	29
▁m	29
ney	29
Laughter	29
▁fear	29
▁complete	29
▁account	29
▁infection	29
▁deal	29
▁August	29
▁program	29
ble	29
▁knew	29
▁saying	28
▁Fi	28
▁single	28
▁file	28
▁certain	28
▁natural	28
▁Miss	28
ple	28
▁products	28
▁sold	28
▁Tra	28
▁especially	28
▁clo	28
▁son	28
▁else	28
▁Every	28
▁due	28
▁Because	28
▁object	28
▁percent	28
▁kid	28
▁fast	28
cor	28
▁fun	28
▁New	28
▁Use	28
▁history	28
▁difficult	28
▁qua	28
▁extra	28
▁fall	28
▁police	28
▁color	28
▁invest	28
▁En	28
lam	28
ou	28
▁cho	28
▁pan	28
oph	28
▁add	28
▁method	28
▁share	28
ization	28
▁computer	28
▁II	28
by	27
▁Come	27
▁size	27
▁village	27
▁North	27
▁south	27
tan	27
▁send	27
▁usually	27
▁phone	27
▁season	27
▁tri	27
rap	27
▁March	27
▁chi	27
▁Mor	27
▁least	27
ably	27
▁alone	27
▁heard	27
▁taking	27
▁grand	27
ugh	27
▁energy	27
▁red	27
▁released	27
pir	27
▁strong	27
▁however	27
▁likely	27
▁asked	27
▁die	27
▁17	27
▁His	27
ep	27
▁feet	26
▁dec	26
▁shot	26
ley	26
▁source	26
shi	26
▁box	26
▁experience	26
▁Yes	26
▁Min	26
▁either	26
ray	26
cept	26
vel	26
▁Asia	26
▁met	26
▁ju	26
▁fine	26
cho	26
▁anyone	26
arian	26
▁Maybe	26
▁page	26
▁appear	26
▁function	26
▁among	26
▁following	26
▁ja	26
▁town	26
▁goal	26
▁tend	26
▁km	26
▁rather	26
▁says	26
▁normal	26
▁Pi	26
▁question	26
▁court	26
▁model	26
▁physical	26
▁individual	26
▁refer	26
▁Then	26
▁lu	26
▁African	26
ja	26
▁countries	26
ability	26
▁personal	25
▁planet	25
og	25
▁wide	25
▁cre	25
▁reduce	25
▁happened	25
▁window	25
▁sun	25
▁Japan	25
▁key	25
▁necessary	25
lect	25
▁contact	25
▁black	25
▁Who	25
▁level	25
▁longer	25
▁effect	25
▁post	25
▁leg	25
▁learn	25
late	25
nch	25
▁build	25
▁itself	25
▁hands	25
▁report	25
▁organ	25
▁total	25
▁meet	25
zo	25
▁Per	25
▁story	25
▁2008	25
yl	25
time	25
▁practice	24
▁brought	24
▁Ben	24
▁Pre	24
▁lower	24
ice	24
▁taken	24
▁across	24
▁Hi	24
▁series	24
▁sort	24
▁major	24
▁perfect	24
▁exercise	24
▁improve	24
▁working	24
▁ten	24
▁character	24
▁agree	24
▁Most	24
▁word	24
▁national	24
▁pressure	24
▁Br	24
▁date	24
▁birth	24
▁Y	24
▁Bar	24
▁probably	24
pose	24
▁attack	24
▁accept	24
▁quite	24
cr	24
▁letter	24
▁mar	24
▁began	24
▁built	24
▁sir	24
▁While	24
▁hot	24
▁express	24
zz	24
ug	24
den	24
The	24
oid	24
▁create	24
▁economic	24
▁scar	24
▁sit	24
▁cha	24
▁temperature	23
▁Star	23
ology	23
▁fat	23
▁album	23
▁Keep	23
ku	23
▁Ke	23
▁super	23
▁song	23
van	23
▁action	23
▁reach	23
▁print	23
▁decision	23
▁whether	23
▁guys	23
▁J	23
▁produce	23
▁sell	23
▁X	23
▁pretty	23
▁unit	23
▁wish	23
lation	23
▁Am	23
ick	23
▁Hey	23
▁inside	23
▁track	23
▁population	23
ek	23
▁Okay	23
▁himself	23
▁50	23
▁though	23
▁considered	23
▁hu	23
▁dry	23
▁morning	23
▁giving	23
▁chance	23
▁medical	23
▁mis	23
▁named	23
▁bro	23
▁County	23
uff	23
bin	23
▁San	23
▁fish	23
▁international	23
▁Africa	23
▁rule	23
ically	23
▁problems	23
▁University	23
▁goes	23
▁Here	23
▁Cla	22
▁pla	22
▁worry	22
▁stuff	22
▁16	22
▁pur	22
▁further	22
ify	22
▁effects	22
▁factor	22
▁suggest	22
▁symptoms	22
▁involve	22
▁patients	22
▁Europe	22
▁center	22
▁focus	22
▁John	22
▁count	22
▁fix	22
▁National	22
▁environment	22
▁slow	22
▁ver	22
▁cases	22
ina	22
▁gun	22
▁remove	22
▁claim	22
▁depend	22
▁almost	22
▁Tell	22
▁comes	22
meter	22
▁shape	22
hu	22
▁received	22
▁select	22
▁trade	22
▁serious	22
▁bed	22
▁location	22
▁wall	22
ó	22
pper	22
▁base	22
born	22
▁cold	22
▁warm	22
▁ground	22
▁muscle	22
▁parents	22
pho	22
▁Give	22
▁sometimes	22
▁solution	22
▁view	22
▁2012	22
▁2018	22
▁East	22
▁choose	22
▁Man	22
▁interest	22
▁supposed	21
▁cool	21
▁voice	21
▁career	21
▁feature	21
▁easy	21
▁avoid	21
▁director	21
▁technology	21
▁former	21
▁14	21
▁burn	21
▁enjoy	21
▁issue	21
▁December	21
▁card	21
zi	21
▁office	21
ker	21
▁emb	21
▁raise	21
▁Wal	21
lie	21
▁Many	21
▁interesting	21
lip	21
▁perform	21
▁message	21
▁replace	21
▁district	21
▁occur	21
▁gone	21
▁official	21
▁Pe	21
▁acid	21
▁president	21
▁outside	21
▁German	21
▁role	21
arch	21
▁writing	21
▁general	21
▁field	21
▁shall	21
▁February	21
▁push	21
▁ill	21
▁connect	21
▁available	21
▁exist	21
▁Ste	21
▁simple	20
▁ice	20
▁el	20
▁previous	20
▁auto	20
▁approach	20
▁tree	20
ping	20
▁Will	20
▁tax	20
▁hit	20
pri	20
▁military	20
▁simply	20
▁November	20
▁pull	20
▁version	20
▁cook	20
work	20
▁September	20
▁described	20
▁Where	20
▁trust	20
▁generally	20
▁sorry	20
▁pen	20
▁President	20
▁dark	20
▁sense	20
▁search	20
▁listen	20
▁bank	20
▁fell	20
▁touch	20
000	20
▁grow	20
▁lock	20
▁future	20
▁poor	20
▁purpose	20
aging	20
▁mix	20
▁everyone	20
▁See	20
▁surface	20
light	20
▁included	20
mission	20
▁effort	20
▁Of	20
▁medication	20
▁Bro	20
▁0	20
▁pet	20
▁Other	20
▁levels	20
▁myself	20
▁rid	20
▁Cu	20
▁produced	20
▁Pu	20
▁lose	20
▁breath	19
▁died	19
▁Syria	19
▁located	19
▁sex	19
▁suffer	19
▁secret	19
▁promise	19
▁cancer	19
▁associated	19
ctiv	19
ade	19
▁response	19
▁billion	19
▁direct	19
▁cross	19
▁foot	19
▁list	19
▁host	19
▁device	19
ane	19
▁Serie	19
graph	19
▁mid	19
▁larger	19
▁write	19
ological	19
▁port	19
▁visit	19
lk	19
igh	19
70	19
▁online	19
▁month	19
▁Once	19
▁Even	19
j	19
▁application	19
▁couple	19
▁Gmina	19
▁pot	19
▁lives	19
▁true	19
▁ran	19
▁development	19
comp	19
vation	19
▁rich	19
▁wait	19
▁weight	19
▁similar	19
▁evidence	19
▁title	19
lon	19
▁bag	19
▁higher	19
▁network	19
▁subject	19
▁Have	19
▁follow	19
▁pack	19
ped	19
ung	19
ew	19
▁nice	19
▁pattern	19
▁education	19
▁rate	18
▁wanna	18
atch	18
▁leader	18
▁El	18
mark	18
▁positive	18
▁running	18
▁June	18
▁potential	18
▁click	18
▁cur	18
▁spend	18
▁movement	18
cha	18
▁Ti	18
tract	18
▁sea	18
▁Internet	18
▁whatever	18
▁content	18
▁begin	18
▁table	18
50	18
▁media	18
▁wonder	18
▁memory	18
▁root	18
af	18
cur	18
▁opportunity	18
▁2016	18
▁Wo	18
▁2017	18
▁Cor	18
▁Vietnamese	18
ong	18
▁above	18
▁Pri	18
ji	18
▁release	18
▁Val	18
▁January	18
hood	18
▁fit	18
▁travel	18
▁piece	18
▁kept	18
▁consist	18
▁West	18
▁Voivodeship	18
▁structure	18
▁reflect	18
▁drop	18
▁damage	18
▁capital	18
▁throughout	18
▁telling	18
▁moving	18
▁questions	18
▁Dur	18
▁reaction	18
▁del	18
▁killed	18
▁members	18
▁baby	18
▁white	18
▁ship	18
▁photo	18
▁statement	18
▁employ	18
▁limit	18
▁hospital	18
ai	18
▁conversation	18
▁continue	18
▁serve	18
▁complex	18
▁2010	18
ctic	17
▁swim	17
zy	17
udi	17
▁cop	17
▁affect	17
▁By	17
▁hell	17
▁suit	17
▁forget	17
▁Gen	17
▁Although	17
▁notice	17
ile	17
▁mention	17
▁party	17
▁King	17
▁Roman	17
▁feed	17
ier	17
▁island	17
▁draw	17
▁reported	17
▁screen	17
▁cu	17
head	17
▁door	17
▁purchase	17
▁Sun	17
▁picture	17
▁regular	17
▁weak	17
▁final	17
▁feelings	17
fer	17
▁extreme	17
ham	17
vil	17
▁allowed	17
▁sent	17
▁gotta	17
▁self	17
▁immediately	17
▁pick	17
20	17
can	17
▁flu	17
▁meeting	17
▁13	17
▁wash	17
▁administrative	17
ulation	17
▁fan	17
craft	17
izing	17
▁farm	17
?"	17
▁approximately	17
▁wh	17
▁created	17
▁charge	17
▁tomorrow	17
▁confirm	17
▁waiting	17
uch	17
▁equal	17
▁involved	17
▁ability	17
▁stress	17
mar	17
▁degree	17
▁hyper	17
▁Since	17
▁author	17
well	17
▁mine	17
▁Gu	17
▁sweet	17
▁foreign	17
ole	17
▁asking	17
▁Sha	17
▁third	16
▁proper	16
▁finger	16
mination	16
▁round	16
q	16
her	16
▁sister	16
▁dream	16
▁science	16
▁spread	16
▁agent	16
▁organization	16
stream	16
▁Any	16
▁bath	16
▁Gi	16
▁represent	16
▁prepare	16
▁member	16
▁married	16
▁Minister	16
▁northern	16
▁choice	16
▁wear	16
▁Central	16
range	16
▁rep	16
▁central	16
▁region	16
▁2011	16
▁adult	16
▁gr	16
▁Win	16
▁price	16
▁therapy	16
▁sitting	16
if	16
▁thick	16
▁gain	16
▁bomb	16
gest	16
▁General	16
▁private	16
▁OK	16
▁command	16
▁respond	16
▁recent	16
▁wrote	16
nie	16
German	16
▁flo	16
▁current	16
▁significant	16
▁disorder	16
▁bra	16
▁currently	16
▁leaving	16
chlor	16
▁2014	16
▁mission	16
▁hate	16
▁address	16
ject	16
▁stick	16
▁trip	16
▁Korea	16
▁artist	16
▁value	16
▁Air	16
▁Qu	16
0,000	16
▁front	16
▁Ru	16
▁truth	16
▁towards	16
▁throw	15
ification	15
▁block	15
▁calm	15
▁spa	15
30	15
▁protein	15
▁floor	15
▁severe	15
▁western	15
▁machine	15
▁regional	15
▁shoot	15
▁written	15
▁mom	15
▁enter	15
place	15
▁option	15
▁fruit	15
▁upon	15
▁related	15
▁hole	15
▁recommend	15
▁critic	15
▁Prince	15
▁original	15
▁learning	15
▁2015	15
ana	15
▁detail	15
▁Philip	15
▁balance	15
▁green	15
▁shut	15
▁trigger	15
▁hour	15
▁match	15
▁More	15
▁led	15
▁animal	15
cin	15
kin	15
▁fund	15
bel	15
▁needed	15
▁activity	15
▁caused	15
▁International	15
path	15
ok	15
▁October	15
▁psycho	15
▁lies	15
▁west	15
▁completely	15
▁loss	15
▁soft	15
ular	15
▁spec	15
▁civil	15
▁Another	15
iv	15
▁happy	15
▁hundred	15
▁served	15
▁Che	15
▁Reg	15
▁manufacture	15
▁smart	15
▁Shi	15
▁Only	15
▁correct	15
▁cells	15
▁worked	15
▁connection	15
▁society	15
▁living	15
▁lack	15
▁si	15
▁Sch	15
▁Ku	15
▁text	15
▁global	15
▁lived	15
ball	15
▁feeling	15
▁forward	15
▁economy	14
▁Plan	14
▁range	14
▁primary	14
ino	14
10	14
▁inhibit	14
▁path	14
▁attempt	14
▁First	14
ano	14
▁emotion	14
▁apply	14
▁catch	14
▁concern	14
▁officer	14
▁interested	14
▁popular	14
▁measure	14
▁community	14
har	14
▁destroy	14
▁legal	14
▁Put	14
▁behavior	14
▁moved	14
▁site	14
▁bottom	14
▁salt	14
▁press	14
▁Open	14
▁According	14
▁nerve	14
▁Windows	14
hold	14
▁anybody	14
▁encourage	14
▁medicine	14
▁bacteria	14
▁24	14
illa	14
▁stage	14
▁Pol	14
▁contract	14
J	14
▁cru	14
▁operation	14
▁Add	14
▁played	14
▁compete	14
▁orbit	14
▁election	14
▁gold	14
▁designed	14
▁funny	14
▁straight	14
▁kids	14
▁Ko	14
▁Like	14
▁iron	14
ów	14
▁neck	14
▁respect	14
▁spoke	14
▁define	14
▁growing	14
▁themselves	14
▁competition	14
low	14
▁manage	14
▁egg	14
▁held	14
▁prior	14
▁21	14
▁regard	14
▁spot	14
▁epi	14
pping	14
▁Ji	14
▁teacher	14
▁carry	14
▁success	14
▁tonight	14
▁obvious	14
▁discuss	14
▁mouth	14
í	14
▁dance	13
▁Think	13
▁log	13
ah	13
▁flow	13
▁Ber	13
amine	13
▁anymore	13
▁document	13
▁shop	13
▁explain	13
▁detect	13
▁studies	13
▁active	13
▁French	13
▁section	13
▁cast	13
▁followed	13
▁Char	13
▁tap	13
▁target	13
▁Institute	13
▁street	13
▁constant	13
▁appearance	13
▁training	13
▁Har	13
ivity	13
▁edit	13
▁belong	13
▁exactly	13
▁attend	13
▁22	13
▁India	13
▁station	13
▁seat	13
80	13
▁wind	13
▁achieve	13
▁Yo	13
▁impact	13
▁minute	13
▁honest	13
▁sexual	13
▁Instead	13
▁Tri	13
▁cry	13
▁afraid	13
▁Does	13
ologist	13
▁receive	13
▁Would	13
▁26	13
▁reveal	13
▁neuro	13
▁except	13
▁deliver	13
▁discovered	13
▁directly	13
▁desire	13
▁relative	13
▁handle	13
▁kilometres	13
▁eating	13
▁ball	13
▁successful	13
▁material	13
▁Nintendo	13
lock	13
▁firm	13
imate	13
▁addition	13
▁School	13
▁quickly	13
▁pin	13
▁beautiful	13
▁threat	13
cycl	13
▁master	13
▁Listen	13
▁chemical	13
▁companies	13
script	13
▁dress	13
▁dad	13
▁identify	13
▁Comp	13
▁Japanese	13
▁river	13
▁Right	13
▁fail	13
▁decade	13
▁boss	13
▁High	13
▁prison	13
▁quick	12
▁icon	12
▁eight	12
▁pop	12
Arabic	12
▁imagine	12
▁largest	12
▁dangerous	12
▁weeks	12
▁relax	12
▁knowledge	12
▁board	12
▁glass	12
▁caught	12
▁easier	12
▁additional	12
▁eventually	12
▁distance	12
▁2007	12
▁prefer	12
▁layer	12
▁blue	12
▁powerful	12
▁Ask	12
▁customer	12
▁brand	12
▁code	12
▁traditional	12
▁dish	12
▁strength	12
▁Sam	12
ession	12
▁nature	12
▁branch	12
▁11	12
▁patient	12
cz	12
▁micro	12
▁activities	12
▁Nu	12
mber	12
▁July	12
▁teach	12
]	12
▁husband	12
▁fly	12
▁huge	12
▁turned	12
▁April	12
▁production	12
▁frequent	12
▁2006	12
▁thank	12
ł	12
▁mark	12
Y	12
▁chest	12
▁stock	12
▁yes	12
▁Szczecin	12
▁Time	12
▁Ge	12
▁typically	12
▁Which	12
ella	12
▁request	12
▁hydro	12
▁reality	12
▁Germany	12
▁increasing	12
▁plastic	12
▁middle	12
▁$	12
▁direction	12
oma	12
▁Watch	12
▁recognize	12
▁determine	12
▁finish	12
▁slightly	12
▁Women	12
Z	12
▁added	12
▁(1	12
▁careful	12
▁negative	12
▁cup	12
▁promote	12
▁style	12
▁difference	12
▁unique	12
▁accident	12
▁experiment	12
▁particular	12
▁ear	12
▁recently	12
▁Thank	12
▁boat	12
▁fill	12
▁hum	12
▁Ob	12
▁Court	12
▁tried	12
17	12
▁maintain	12
▁25	12
▁students	12
ama	12
▁attract	12
▁Paul	12
▁movie	12
▁Remember	12
▁culture	12
▁email	12
▁meat	11
nny	11
▁sick	11
▁Russia	11
▁performance	11
▁magic	11
▁mode	11
▁1990	11
▁benefit	11
fo	11
▁earlier	11
▁arrest	11
▁milk	11
▁nearly	11
▁pill	11
▁collect	11
▁arrive	11
▁trouble	11
▁alternative	11
▁2004	11
▁female	11
ake	11
▁established	11
▁York	11
▁cities	11
▁Va	11
▁amazing	11
▁100	11
▁Island	11
▁whose	11
▁various	11
▁basic	11
▁Work	11
▁variety	11
▁peace	11
▁double	11
▁bio	11
▁campaign	11
▁coffee	11
[	11
scribe	11
▁supply	11
▁Best	11
▁professional	11
▁border	11
▁published	11
▁lie	11
▁remind	11
▁State	11
▁sales	11
▁camera	11
▁clothing	11
▁journal	11
▁freedom	11
▁escape	11
▁2005	11
▁indicate	11
load	11
▁Mc	11
▁Consider	11
▁generation	11
▁prove	11
▁useful	11
▁website	11
▁student	11
▁demand	11
▁finally	11
▁behind	11
▁alcohol	11
▁counter	11
▁strange	11
▁finished	11
▁learned	11
▁&	11
▁meaning	11
▁software	11
▁judge	11
▁novel	11
▁2000	11
▁introduce	11
▁l	11
▁City	11
▁electro	11
▁beyond	11
▁Good	11
▁thousand	11
▁British	11
▁Queen	11
▁felt	11
▁Bill	11
▁setting	11
90	11
▁Party	11
▁mistake	11
▁drag	11
▁compound	11
▁install	11
▁initial	11
▁construction	11
▁institution	11
#	11
▁origin	10
▁article	10
▁Fu	10
60	10
▁Earth	10
ي	10
▁crack	10
▁anxiety	10
▁invite	10
▁aware	10
▁metal	10
▁zone	10
▁(19	10
▁ourselves	10
▁suspect	10
▁communication	10
▁comfortable	10
like	10
▁chain	10
▁writer	10
▁honor	10
OS	10
▁although	10
back	10
▁beginning	10
88	10
▁perhaps	10
▁River	10
12	10
▁Ver	10
▁adopt	10
▁politician	10
▁2009	10
▁species	10
▁2013	10
▁Check	10
▁via	10
▁appointed	10
▁char	10
▁guess	10
▁Google	10
▁leading	10
▁according	10
▁particularly	10
▁Park	10
▁breast	10
▁Pomeranian	10
▁band	10
▁bird	10
▁blow	10
▁ensure	10
▁2002	10
▁Australia	10
▁citizen	10
▁40	10
▁park	10
Q	10
▁virus	10
▁menu	10
▁route	10
▁House	10
▁scale	10
▁decide	10
▁easily	10
▁investment	10
▁challenge	10
▁solve	10
▁23	10
wood	10
▁People	10
▁harm	10
▁establish	10
▁Lord	10
▁jump	10
▁guard	10
▁average	10
▁Tru	10
▁wood	10
▁horse	10
▁ride	10
▁somewhere	10
▁standard	10
▁Western	10
▁flight	10
▁Find	10
▁launch	10
▁Sea	10
pha	10
▁healthy	10
▁rank	10
▁realize	10
▁fresh	10
▁60	10
▁decrease	10
gar	10
▁motion	10
▁commonly	10
▁Game	10
We	10
▁Those	10
hen	10
▁sum	10
▁daily	10
agon	10
▁industry	9
▁nuclear	9
▁shift	9
▁Two	9
▁hunt	9
▁District	9
▁families	9
aries	9
▁engineer	9
▁Russian	9
▁clothes	9
▁Though	9
▁chair	9
▁marriage	9
▁hide	9
▁football	9
▁television	9
▁instance	9
▁ring	9
▁ocean	9
▁Union	9
▁Republic	9
▁George	9
▁spray	9
▁=	9
▁defeat	9
▁survive	9
▁scientific	9
▁button	9
▁corner	9
▁transfer	9
▁lawyer	9
▁divide	9
▁everybody	9
▁concept	9
You	9
▁seven	9
▁Paris	9
▁hang	9
▁map	9
▁combination	9
▁scene	9
▁disappear	9
▁consume	9
▁wake	9
▁advance	9
ła	9
▁describe	9
▁Art	9
▁edge	9
▁Korean	9
▁approved	9
▁guide	9
▁ingredient	9
▁honey	9
▁player	9
▁famous	9
▁repeat	9
▁Canada	9
▁studied	9
▁labor	9
▁huh	9
board	9
▁Brazil	9
▁Health	9
▁worth	9
65	9
car	9
▁bigger	9
á	9
▁progress	9
▁issues	9
▁review	9
▁rise	9
▁collection	9
▁greater	9
ñ	9
▁universe	9
▁link	9
osis	9
▁Please	9
▁wave	9
▁decided	9
▁antibiotic	9
▁Year	9
▁vegetable	9
▁Washington	9
▁cycle	9
▁Click	9
▁From	9
▁resource	9
▁kiss	9
▁missing	9
▁crazy	9
▁Mac	9
▁mental	9
▁authorities	9
▁architect	9
position	9
▁°	9
▁Christian	9
▁smell	9
▁influence	9
▁race	9
▁200	9
▁element	9
▁assume	9
β	9
▁train	9
▁weapon	9
▁rock	9
▁causing	9
▁mountain	8
▁Army	8
▁task	8
▁magazine	8
▁starting	8
▁David	8
▁Italian	8
▁juice	8
▁length	8
▁Soviet	8
▁+	8
ography	8
▁Human	8
▁fair	8
▁announced	8
▁depression	8
▁TV	8
▁Polish	8
▁anyway	8
▁soil	8
right	8
▁Frank	8
▁Bra	8
▁France	8
▁2019	8
▁Za	8
▁surprise	8
▁diet	8
▁engage	8
▁dirt	8
▁technique	8
▁Avoid	8
▁putting	8
▁Great	8
▁conduct	8
▁unless	8
▁27	8
▁trap	8
39	8
▁changed	8
ō	8
▁ancient	8
cal	8
▁wound	8
▁Sometimes	8
▁responsible	8
▁security	8
▁growth	8
▁European	8
▁developed	8
▁Award	8
▁heavy	8
▁tight	8
▁essential	8
▁stories	8
▁speed	8
▁worse	8
▁broke	8
▁items	8
ن	8
hal	8
▁symbol	8
▁increased	8
▁Indian	8
▁actress	8
▁singer	8
▁Dad	8
▁defend	8
▁highest	8
▁management	8
▁becoming	8
▁financial	8
▁Dar	8
ú	8
▁Place	8
▁wild	8
▁somebody	8
▁brush	8
▁label	8
▁conflict	8
▁Ya	8
▁trial	8
burg	8
▁victim	8
▁emotional	8
▁switch	8
▁anywhere	8
▁bright	8
▁earth	8
▁vitamin	8
▁photograph	7
▁sugar	7
▁sample	7
▁discover	7
▁separate	7
ę	7
▁2003	7
▁rain	7
▁smaller	7
▁2020	7
▁quality	7
terior	7
▁shown	7
▁calorie	7
▁Talk	7
▁thus	7
▁hurt	7
▁changing	7
11	7
▁Uh	7
▁interview	7
▁bur	7
▁quiet	7
▁tank	7
▁stopped	7
▁stone	7
▁church	7
▁London	7
14	7
▁bodies	7
▁Follow	7
▁battle	7
ón	7
▁religious	7
▁Jack	7
‘	7
▁lip	7
▁multiple	7
▁square	7
▁colon	7
▁California	7
▁taught	7
▁schedule	7
▁opinion	7
▁paid	7
▁distinct	7
▁Could	7
▁soap	7
▁failure	7
▁roll	7
▁$1	7
▁u	7
▁damn	7
▁visual	7
▁vote	7
▁below	7
▁towel	7
▁recover	7
▁digital	7
▁flat	7
▁rub	7
▁camp	7
▁gather	7
▁fluid	7
▁playing	7
▁laugh	7
▁favor	7
▁1980	7
▁policy	7
▁Council	7
▁liquid	7
▁road	7
▁abuse	7
▁bone	7
▁James	7
▁Alex	7
19	7
ا	7
▁lung	7
▁predict	7
▁Beijing	7
▁absolute	7
→	7
▁grew	6
▁radio	6
ر	6
▁male	6
▁Over	6
▁Our	6
▁sudden	6
▁gentle	6
▁spent	6
▁White	6
▁college	6
lov	6
▁credit	6
▁pair	6
▁habit	6
▁wearing	6
▁Know	6
izer	6
▁uh	6
▁modern	6
▁older	6
▁adapt	6
▁gift	6
▁earn	6
▁Never	6
▁plate	6
▁participate	6
▁favorite	6
▁scientist	6
▁painting	6
▁Department	6
▁critical	6
▁spirit	6
X	6
▁mask	6
18	6
▁climate	6
▁2001	6
▁extend	6
▁electric	6
▁appropriate	6
▁Before	6
▁alive	6
د	6
▁tissue	6
▁spin	6
▁excess	6
▁volume	6
15	6
86	6
▁debut	6
▁transport	6
ê	6
▁vision	6
▁occasion	6
▁twice	6
▁presence	6
▁multi	6
▁Research	6
▁crush	6
▁poet	6
▁clinical	6
▁Black	6
▁29	6
α	6
▁bottle	6
ل	6
▁sentence	6
▁observe	6
†	6
▁minor	5
▁Peter	5
▁nail	5
▁fer	5
ː	5
▁hypo	5
▁yeah	5
▁carbon	5
▁component	5
ˈ	5
▁signal	5
▁receptor	5
ń	5
▁yellow	5
▁broken	5
▁plane	5
▁Congress	5
$	5
▁Kingdom	5
▁stupid	5
▁surgery	5
▁trick	5
▁cream	5
85	5
▁estimate	5
▁commercial	5
Ł	5
▁Latin	5
▁criminal	5
▁frame	5
▁expand	5
▁(20	5
ü	5
س	5
▁Group	5
▁expert	5
ã	5
▁cultural	4
▁score	4
▁England	4
▁Part	4
▁display	4
*	4
▁advantage	4
0%	4
▁drama	4
▁Wait	4
▁speech	4
~	4
▁lab	4
▁property	4
}	4
▁summer	4
▁safety	4
▁download	4
▁Also	4
ă	4
à	4
▁crime	4
▁dinner	4
司	4
ż	4
́	4
▁lady	4
▁garden	4
▁coast	4
ŏ	4
▁teeth	4
ة	4
股	4
ö	4
š	4
堂	4
ب	3
ệ	3
ả	3
Đ	3
house	3
ɪ	3
▁flower	3
▁etc	3
ص	3
−	3
▁audience	3
ô	3
国	3
▁Q	3
▁stomach	3
▁protest	3
▁seek	3
▁procedure	3
▁comment	3
▁taste	3
▁bound	3
份	3
有	3
限	3
公	3
▁transform	3
16	3
ß	3
Ō	3
▁channel	3
ï	3
`	3
ق	3
া	3
∗	3
⊕	2
ك	2
ف	2
ś	2
ạ	2
ɑ	2
▁28	2
Ś	2
40	2
(	2
ʊ	2
ə	2
Ἴ	2
ω	2
ν	2
Í	2
▁Hong	2
م	2
李	2
嗣	2
璁	2
王	2
清	2
▁mood	2
▁formula	2
£	2
ū	2
ā	2
π	2
¥	2
è	2
É	2
▁creating	2
ت	2
中	2
信	2
百	2
ç	2
ć	2
大	2
若	2
瑟	2
良	2
品	2
▁independent	2
ع	2
레	2
오	2
×	2
Applause	2
ঁ	2
\	2
ط	1
خ	1
柏	1
木	1
幹	1
子	1
▁Second	1
ア	1
ン	1
ナ	1
ε	1
ς	1
☺	1
ک	1
ی	1
ɛ	1
ị	1
ợ	1
張	1
維	1
翰	1
余	1
俊	1
賢	1
黃	1
尊	1
秋	1
鄭	1
水	1
枝	1
作	1
榮	1
高	1
森	1
次	1
華	1
ʻ	1
@	1
乌	1
江	1
ồ	1
ủ	1
ư	1
ơ	1
γ	1
δ	1
ź	1
ế	1
Á	1
č	1
Č	1
<	1
ج	1
≥	1
电	1
通	1
服	1
务	1
号	1
控	1
ą	1
®	1
Η	1
в	1
о	1
д	1
к	1
=	1
盛	1
ǎ	1
‐	1
▷	1
ض	1
و	1
豊	1
前	1
一	1
宮	1
条	1
約	1
派	1
圣	1
聖	1
府	1
井	1
天	1
主	1
東	1
ş	1
株	1
式	1
会	1
社	1
計	1
画	1
無	1
印	1
â	1
팡	1
파	1
너	1
와	1
함	1
께	1
라	1
면	1
부	1
르	1
릉	1
쉅	1
다	1
솔	1
미	1
غ	1
ح	1
Å	1
☰	1
⇧	1
⌥	1
ɡ	1
ä	1
τ	1
চ	1
ট	1
গ	1
ই	1
য	1
়	1
ī	1
者	1
