.	8851
s	8184
,	7458
▁the	5512
'	3632
▁to	3597
▁a	3058
▁of	2981
▁and	2634
▁you	2500
▁in	2368
▁I	2289
t	2034
▁is	1484
▁that	1469
▁-	1369
ing	1287
▁it	1171
ed	1076
d	1023
?	1019
▁your	1008
▁n	989
▁for	975
re	863
▁with	839
m	815
▁on	810
▁as	794
▁was	779
▁be	759
▁have	679
▁are	675
y	664
▁or	656
▁do	649
▁this	640
▁	576
▁we	575
▁(	573
▁can	573
▁The	562
er	557
▁not	541
ly	540
▁You	528
▁me	526
n	488
▁at	481
ll	469
▁"	457
▁an	457
▁from	457
)	455
▁by	450
▁It	421
e	409
al	406
ve	404
▁about	401
▁And	388
r	380
▁he	365
▁what	361
▁one	360
▁my	359
▁they	355
▁like	350
▁out	343
in	343
▁her	343
▁all	341
▁but	338
▁A	335
▁s	334
▁will	333
o	327
▁if	325
▁up	321
or	320
a	319
▁know	317
b	305
▁so	302
▁In	299
▁We	296
▁just	296
c	294
:	292
▁there	286
le	281
!	279
▁she	275
g	270
p	270
es	261
▁has	258
▁were	257
▁get	256
▁his	256
...	254
en	252
ic	250
th	250
▁them	249
▁time	249
▁which	249
▁him	242
▁more	239
▁If	239
ri	236
▁who	236
▁here	236
▁He	234
▁So	234
▁This	233
▁want	231
ation	221
▁people	220
▁re	219
▁when	218
▁would	215
▁de	213
▁their	213
▁did	208
▁no	208
i	208
▁been	204
it	203
▁some	202
▁had	201
▁think	199
la	198
▁first	196
▁S	196
▁go	195
▁could	189
il	188
▁Do	187
▁other	186
S	184
▁into	183
▁also	183
el	183
▁our	182
▁see	182
an	180
w	179
▁But	177
ur	176
▁right	176
ar	175
ra	174
on	173
mi	173
k	173
▁need	172
▁how	172
▁She	170
ch	170
▁these	170
▁take	169
▁over	169
▁19	168
"	167
ate	165
▁us	165
▁going	164
▁make	163
▁C	163
z	160
-	160
▁got	158
ion	158
▁very	158
▁now	155
▁may	154
▁than	153
li	153
▁They	152
▁where	151
▁E	151
▁work	148
▁back	148
ul	148
▁help	148
▁should	148
▁e	147
▁then	147
▁way	147
▁good	144
▁ca	143
l	141
▁only	141
ment	138
▁What	138
ce	138
ive	137
▁That	136
▁--	136
ent	135
▁even	134
na	134
▁use	134
te	133
▁any	133
▁No	131
ci	129
▁down	129
▁c	128
▁something	128
ter	128
▁too	127
▁well	127
▁G	126
I	125
ro	125
ers	124
ne	124
C	123
us	120
ity	120
ol	118
▁because	118
▁p	117
ia	117
▁does	115
ma	115
▁two	115
▁years	115
u	115
▁find	114
▁said	114
▁its	114
▁un	114
ck	114
▁life	114
▁new	113
▁F	112
),	111
▁after	111
ist	111
2	111
x	110
age	110
A	110
se	109
ian	109
▁off	109
co	107
▁things	107
P	106
D	106
um	106
▁con	105
▁before	105
h	105
ine	104
▁O	104
▁B	104
▁To	104
f	103
▁around	103
ry	103
as	102
▁U	102
me	102
▁come	102
;	101
▁There	101
tic	100
▁really	100
3	99
ir	99
▁say	98
▁tell	98
▁long	98
▁1	97
▁man	97
ta	97
▁place	97
▁through	97
de	97
▁water	97
▁most	96
▁st	95
lo	95
).	95
et	95
id	95
▁being	95
un	94
▁home	94
im	94
▁Well	94
."	93
▁P	93
▁day	93
▁such	93
▁When	93
ge	92
▁much	92
▁Now	92
able	92
est	92
▁those	91
4	91
▁ex	91
▁Re	90
vi	89
▁never	89
▁used	88
▁might	88
ha	88
▁For	88
▁Ma	87
▁made	87
T	87
▁look	84
ies	84
▁world	84
▁called	83
▁feel	83
▁different	83
son	83
ary	82
▁D	82
▁M	82
to	81
▁little	81
▁end	81
▁let	81
▁De	81
▁still	80
▁love	80
ated	79
▁found	79
▁3	78
▁gonna	78
▁–	78
▁pro	78
▁As	77
▁same	77
▁doing	77
▁give	77
ke	77
▁T	76
▁many	76
F	76
▁2	76
ie	75
▁sure	75
▁name	75
▁head	75
ting	74
▁car	74
▁ma	74
ni	74
go	73
▁three	73
▁18	73
5	73
▁thing	73
▁Mo	73
om	73
nt	73
▁women	72
▁last	72
▁while	72
▁yourself	71
▁mean	71
ru	71
1	71
ut	71
M	71
▁La	71
▁under	70
▁between	70
ous	70
▁Li	70
▁di	69
▁lot	69
ver	69
no	69
▁every	69
▁own	69
po	69
cu	69
mon	69
do	69
▁show	69
▁thought	69
ness	69
E	68
▁/	68
▁talk	68
mo	68
ig	67
ant	67
ial	67
▁K	67
▁How	67
▁try	67
▁away	67
tra	67
▁old	67
ide	67
▁Ba	67
▁must	66
▁body	66
ty	66
▁night	66
ca	66
pe	65
▁both	65
▁co	65
wa	65
ence	65
▁year	65
▁why	65
mp	65
at	65
man	64
▁left	64
▁north	64
▁am	64
▁better	63
ph	63
ted	63
ng	63
gen	63
les	63
▁keep	63
▁Let	63
▁part	63
▁Mr	63
▁All	63
sh	62
▁put	62
ster	62
be	62
che	62
ga	62
▁An	62
▁wo	62
pa	62
▁Po	62
▁family	62
▁another	62
▁Pa	62
ton	62
am	61
ish	61
▁Le	61
▁St	61
▁pre	61
▁important	61
▁known	60
▁Ro	60
ance	60
▁human	60
▁My	60
ag	60
▁Me	60
val	60
L	60
tro	60
▁Be	60
▁again	60
nd	59
7	59
the	59
op	59
▁Se	59
▁i	59
ical	59
▁mo	59
▁Ha	59
▁number	59
▁Ho	58
▁form	58
▁anything	58
bo	58
▁N	58
▁went	58
▁dis	58
os	58
ad	58
O	58
▁Ra	57
mer	57
▁few	57
▁4	57
ho	57
▁Na	57
▁Why	57
▁Oh	57
▁Con	56
▁po	56
ow	56
N	56
▁comp	56
▁Ca	56
G	56
va	56
bi	56
▁men	55
▁li	55
▁together	55
ating	55
▁start	55
▁Su	55
▁At	55
6	55
ba	55
▁Mi	55
▁best	54
▁10	54
▁person	54
▁during	54
▁Co	54
▁using	53
▁en	53
▁system	53
di	53
v	52
▁Some	52
▁actually	52
▁cause	52
▁done	52
R	52
ti	52
▁'	52
ff	52
▁b	52
▁kind	52
con	52
▁small	52
▁great	51
▁came	51
▁Bo	51
▁real	51
ec	51
▁Your	51
▁Si	51
one	51
▁enough	51
den	51
▁become	51
is	51
▁always	50
▁house	50
▁four	50
▁ga	50
▁understand	50
▁change	50
▁km	50
▁school	50
▁next	50
▁example	50
▁side	49
▁told	49
▁south	49
▁Jo	49
ations	49
▁Ta	49
lu	49
▁stop	49
ions	49
dy	49
▁everything	49
lic	49
▁leave	49
▁Or	49
he	49
tor	49
▁became	49
▁often	49
▁Just	49
▁call	49
▁g	48
▁each	48
ard	48
Laughter	48
▁include	48
B	48
▁New	48
▁line	48
▁point	48
▁bi	48
▁second	48
ki	48
▁six	47
ner	47
▁without	47
▁Al	47
▁R	47
▁days	47
▁5	47
▁wanted	47
com	47
ative	47
per	47
da	47
▁looking	47
▁later	47
▁since	46
▁Yeah	46
▁state	46
▁within	46
ka	46
▁d	46
ism	46
▁east	46
▁hard	46
▁ever	46
und	46
▁million	46
line	46
▁doctor	46
▁per	46
▁war	46
▁hand	46
up	46
▁Mar	46
ities	45
ize	45
▁United	45
▁today	45
▁light	45
▁ra	45
▁relationship	45
▁high	45
tal	45
▁These	45
less	45
▁gra	45
▁seen	44
▁sleep	44
vo	44
▁8	44
▁order	44
▁someone	44
▁money	44
que	44
ud	44
▁trying	44
▁mother	44
▁face	44
ator	43
▁son	43
▁food	43
▁brain	43
▁against	43
▁open	43
▁father	43
ful	43
▁bit	43
rs	43
▁vi	43
▁guy	43
▁film	42
▁7	42
ture	42
▁job	42
▁Look	42
ling	42
▁kill	42
▁power	42
▁star	42
▁girl	42
▁language	42
▁once	42
▁bring	42
fi	42
gi	42
▁process	42
▁case	42
▁God	42
▁dead	42
▁Sa	42
▁fact	42
wi	42
▁South	42
ase	41
ction	41
▁Because	41
▁making	41
▁nothing	41
▁sub	41
▁took	41
ak	41
ight	41
▁Then	41
▁app	41
▁Da	41
▁else	41
▁6	41
▁minutes	41
ring	41
▁children	41
bu	41
▁class	41
▁ta	41
▁believe	41
ther	40
▁skin	40
row	40
▁te	40
ite	40
em	40
▁Ka	40
▁reason	40
ally	40
▁set	40
and	40
way	40
▁Fa	40
▁phone	40
za	40
▁Hey	40
▁stay	40
▁bad	39
ab	39
▁test	39
hi	39
▁means	39
▁already	39
▁Car	39
▁less	39
▁break	39
▁plan	39
ized	39
ber	39
▁la	39
▁al	39
▁team	39
lar	39
▁support	39
▁free	39
▁country	39
▁allow	38
▁building	38
▁Lo	38
▁run	38
▁until	38
▁working	38
K	38
▁problem	38
▁China	38
▁getting	38
▁blood	38
▁area	38
▁friend	38
▁mind	38
▁cut	38
▁others	38
ip	38
▁pain	38
▁Can	38
▁drink	38
rr	37
ten	37
▁group	37
▁big	37
▁em	37
▁land	37
H	37
tin	37
dic	37
▁play	37
su	37
▁th	37
▁mi	37
ship	37
oc	37
▁several	37
▁Te	37
▁control	37
land	37
▁Are	37
00	37
ey	37
ot	37
▁story	37
ze	37
▁deal	37
ice	37
▁ho	36
▁H	36
▁Z	36
▁Mon	36
▁Ko	36
▁computer	36
▁20	36
▁W	36
▁game	36
é	36
red	36
▁company	36
ology	36
tur	36
lf	36
ious	36
▁death	35
▁young	35
▁States	35
▁fl	35
ning	35
▁9	35
▁taking	35
▁started	35
▁Vi	35
▁Ar	35
gu	35
side	35
▁ago	35
▁along	35
tion	35
▁health	35
▁ask	35
cent	35
▁live	35
▁Pro	35
▁American	35
▁Ne	35
▁non	34
▁12	34
▁early	34
,"	34
▁able	34
▁coming	34
▁age	34
▁city	34
▁inside	34
▁matter	34
▁says	34
ko	34
▁meet	34
▁step	34
▁Not	34
▁inter	34
▁based	34
▁One	34
▁turn	34
ang	34
fa	34
tri	34
▁government	34
▁cat	34
▁Wa	34
tan	34
0,000	34
▁short	34
8	33
▁public	33
▁size	33
▁create	33
▁anti	33
▁Get	33
▁died	33
▁trust	33
▁makes	33
▁possible	33
ron	33
▁Ja	33
▁woman	33
▁X	33
sta	33
▁fine	33
▁move	33
we	33
▁Mu	33
▁sa	33
▁idea	33
▁L	33
▁whole	32
▁having	32
▁course	32
▁clean	32
▁Dr	32
▁Gu	32
▁music	32
▁mu	32
mina	32
▁art	32
▁talking	32
▁business	32
▁village	32
▁alone	32
our	32
▁guys	32
▁Ga	32
▁bo	32
▁walk	32
▁care	32
▁space	32
ization	32
▁room	32
gue	32
▁tr	32
ible	31
▁bar	31
▁ba	31
▁five	31
▁oil	31
▁brother	31
han	31
ny	31
▁capital	31
▁artist	31
▁yet	31
▁hear	31
▁word	31
ov	31
pi	31
▁knew	31
▁After	31
▁worked	31
▁safe	31
ned	31
▁remember	31
▁deep	31
ac	31
▁Go	31
▁reduce	31
▁Who	31
▁occur	31
qui	31
▁act	30
▁main	30
▁months	30
ld	30
port	30
▁ten	30
▁fall	30
▁eat	30
▁However	30
▁lies	30
▁baby	30
▁friends	30
▁gr	30
▁Try	30
▁f	30
▁information	30
▁die	30
cc	30
mate	30
ev	30
▁special	30
▁top	30
▁problems	30
▁13	30
▁saying	30
▁figure	30
▁large	30
▁Her	30
ft	30
▁ha	29
▁wait	29
lin	29
▁store	29
▁check	29
tu	29
▁Fi	29
ified	29
fe	29
▁rest	29
▁o	29
▁maybe	29
▁hair	29
▁15	29
▁leader	29
▁pass	29
▁cur	29
▁Th	29
cy	29
▁War	29
▁approximately	29
▁City	29
▁Poland	29
▁German	29
▁cost	29
▁book	29
▁thank	29
▁least	29
▁focus	29
av	29
▁market	29
▁taken	29
▁far	29
▁air	29
▁Here	29
▁pa	29
chi	29
▁study	29
▁action	29
▁By	29
▁Make	29
▁due	29
▁wrong	29
▁percent	29
end	29
▁experience	29
▁On	29
ex	29
U	29
▁gu	29
▁self	29
▁released	29
▁close	29
▁ce	29
ure	28
▁Di	28
▁term	28
▁method	28
▁countries	28
▁political	28
▁track	28
▁read	28
▁personal	28
▁pay	28
nder	28
▁lives	28
ger	28
▁kids	28
▁va	28
▁low	28
▁cor	28
bra	28
▁stress	28
▁times	28
▁fr	28
▁video	28
▁following	28
▁add	28
▁character	28
▁Sp	28
▁(19	28
▁Yes	28
▁file	28
ja	28
▁list	28
▁level	28
io	28
nk	28
▁paper	28
▁hot	28
▁Ju	28
▁hours	28
▁hold	27
ox	27
▁fa	27
▁population	27
cing	27
▁needs	27
▁present	27
▁j	27
▁born	27
▁weeks	27
▁works	27
▁usually	27
by	27
▁super	27
▁met	27
▁Japan	27
▁kilometres	27
▁gun	27
▁West	27
▁design	27
▁object	27
▁visit	27
▁child	27
▁past	27
▁lo	27
▁across	27
▁given	27
▁moment	27
▁Pi	27
▁heard	27
▁eyes	27
▁Man	27
yo	27
▁device	27
▁leg	27
▁common	27
▁Hu	27
▁El	27
rk	27
▁increase	27
▁trans	27
▁thinking	27
▁Col	27
",	27
ium	27
time	27
▁World	27
▁Okay	27
▁reach	27
min	27
▁Use	26
▁travel	26
▁sign	26
▁late	26
▁program	26
led	26
▁Take	26
/	26
▁fo	26
▁data	26
▁regional	26
▁amount	26
▁buy	26
▁door	26
ile	26
ough	26
▁disc	26
▁including	26
rop	26
ants	26
▁access	26
▁strong	26
▁V	26
▁law	26
▁red	26
▁words	26
ition	26
▁soon	26
▁kid	26
▁anyone	26
▁John	26
▁couple	26
▁probably	26
▁type	26
ue	26
▁table	26
▁partner	26
▁J	26
▁black	26
▁stand	26
%	25
▁true	25
▁began	25
▁date	25
▁natural	25
▁single	25
▁value	25
ual	25
▁president	25
▁100	25
▁hope	25
▁Ti	25
▁member	25
▁drive	25
▁w	25
▁Bar	25
▁version	25
▁Ri	25
ability	25
▁asked	25
ah	25
istic	25
ble	25
▁disease	25
▁treatment	25
▁exercise	25
▁certain	25
▁With	25
▁social	25
".	25
▁shall	25
ise	25
▁gone	25
▁University	25
▁gas	25
▁heart	25
tru	25
▁lost	25
▁picture	25
der	25
▁Ex	25
▁boy	25
▁piece	25
▁pressure	25
▁President	25
▁plant	24
▁bed	24
act	24
ach	24
▁force	24
▁Bro	24
▁May	24
▁August	24
▁Maybe	24
▁outside	24
▁further	24
▁role	24
▁whether	24
▁happened	24
▁screen	24
▁view	24
▁page	24
▁York	24
▁local	24
▁myself	24
▁Did	24
▁sorry	24
▁sometimes	24
▁moving	24
▁pan	24
▁block	24
▁17	24
▁goes	24
▁parents	24
▁offer	24
▁risk	24
▁cook	24
▁build	24
▁hands	24
▁cha	24
zz	24
▁individual	24
▁looks	24
og	24
▁comes	24
▁sound	24
▁half	24
▁likely	24
▁mass	24
▁pe	24
▁rock	24
▁saw	24
▁2014	24
▁behavior	24
ub	24
▁hit	24
rd	24
ju	24
▁nice	24
▁color	24
▁foot	24
▁King	24
▁message	24
late	24
▁contain	24
▁account	24
▁eye	24
▁though	24
▁interest	24
▁begin	24
▁contact	24
▁environment	24
▁treat	24
ley	24
zo	23
▁Where	23
for	23
lan	23
▁fight	23
V	23
▁products	23
▁sort	23
▁district	23
ging	23
▁consider	23
▁protect	23
▁husband	23
▁post	23
▁happen	23
▁sit	23
▁future	23
▁town	23
▁result	23
rum	23
▁question	23
▁Har	23
▁dry	23
▁March	23
▁Chinese	23
▁rec	23
▁killed	23
▁shoot	23
▁ways	23
fu	23
▁model	23
▁cover	23
▁week	23
▁respect	23
▁v	23
pro	23
▁games	23
▁west	23
▁pick	23
▁En	23
▁created	23
▁gave	23
▁century	23
▁technology	23
▁provide	23
▁r	23
▁range	23
des	23
▁arm	22
▁rather	22
iv	22
▁Ad	22
▁February	22
▁dog	22
▁fear	22
▁follow	22
▁members	22
▁product	22
▁enjoy	22
▁image	22
▁ri	22
▁miss	22
▁tend	22
▁stuff	22
▁San	22
▁Cha	22
▁burn	22
▁energy	22
▁listen	22
▁front	22
▁position	22
au	22
▁ti	22
▁white	22
▁either	22
▁train	22
▁sp	22
gan	22
▁eight	22
▁office	22
gar	22
▁difficult	22
▁require	22
ome	22
▁weight	22
▁serious	22
▁cell	22
▁Ki	22
nal	22
▁physical	22
ade	22
▁named	22
rate	22
▁Fe	22
can	22
▁prevent	22
▁Pe	22
▁Ben	22
▁Ste	22
▁40	22
▁English	22
▁Ni	22
▁hate	22
▁April	21
eg	21
▁sun	21
▁pretty	21
▁imp	21
matic	21
▁Wi	21
▁period	21
zy	21
ug	21
ense	21
▁k	21
▁Hi	21
▁Even	21
▁clear	21
ep	21
▁longer	21
▁title	21
▁Two	21
▁quickly	21
▁Bra	21
▁ro	21
▁fat	21
▁morning	21
▁behind	21
▁dream	21
▁avoid	21
▁da	21
pec	21
▁Sha	21
▁develop	21
The	21
▁French	21
▁sense	21
▁sea	21
▁situation	21
▁Du	21
▁effect	21
▁Tell	21
▁Pre	21
▁feeling	21
out	21
▁heat	21
▁medical	21
▁suggest	21
▁planet	21
▁Dur	21
▁cancer	21
▁learn	21
▁questions	21
har	21
▁entire	21
▁full	21
▁spot	21
ler	21
▁accept	21
▁everyone	21
20	21
izing	21
▁uh	21
ency	21
▁16	21
▁cold	21
▁lower	21
▁guess	21
▁box	21
▁wife	21
▁square	21
use	21
▁2015	20
▁hi	20
▁sh	20
arian	20
▁especially	20
▁sir	20
▁Once	20
▁Bi	20
▁national	20
ular	20
hu	20
▁similar	20
▁Sch	20
▁billion	20
ries	20
▁syn	20
▁former	20
▁won	20
▁Award	20
▁function	20
▁Szczecin	20
▁Listen	20
▁administrative	20
▁County	20
▁western	20
▁cells	20
gra	20
▁du	20
▁match	20
▁extra	20
let	20
▁located	20
▁themselves	20
▁feelings	20
ick	20
▁Africa	20
▁machine	20
▁science	20
▁research	20
ric	20
▁pi	20
▁built	20
du	20
ral	20
▁speak	20
▁media	20
fer	20
cor	20
▁2016	20
▁suit	20
▁claim	20
▁bio	20
▁card	20
▁stage	20
▁2010	20
▁band	20
▁major	20
▁2013	20
▁issues	20
ham	20
▁key	20
tric	20
▁series	20
▁straight	20
▁conversation	20
▁album	20
▁pop	20
▁drug	20
tter	20
▁official	20
▁please	20
light	20
▁lead	20
day	20
▁Miss	20
▁song	20
▁history	20
lit	19
▁remain	19
▁beautiful	19
ee	19
▁tried	19
▁developed	19
ood	19
▁held	19
▁Je	19
▁okay	19
▁Thank	19
▁organ	19
▁author	19
▁text	19
▁effects	19
▁wash	19
wn	19
▁nine	19
duc	19
▁attempt	19
▁wish	19
▁agent	19
ional	19
▁alive	19
▁stick	19
ological	19
30	19
▁near	19
▁Come	19
▁mouth	19
▁lu	19
ctic	19
▁2017	19
ath	19
▁answer	19
▁himself	19
▁trial	19
▁determine	19
fr	19
▁se	19
▁address	19
▁female	19
▁telling	19
,000	19
▁easy	19
ran	19
▁Tu	19
▁France	19
▁among	19
▁attack	19
ane	19
▁surface	19
itis	19
▁crack	19
▁bag	19
▁para	19
▁towards	19
▁Right	19
▁international	19
▁Per	19
▁tri	19
▁op	19
▁changed	19
▁Minister	19
▁bank	19
ap	19
▁Gra	19
▁attention	19
tes	19
▁ci	19
▁spend	18
▁comm	18
▁sell	18
ou	18
▁cool	18
nia	18
▁quite	18
▁US	18
▁sister	18
▁While	18
▁Good	18
▁meeting	18
▁essential	18
▁success	18
yl	18
▁community	18
▁Lu	18
▁drop	18
▁remove	18
nate	18
▁general	18
ok	18
▁however	18
▁fire	18
▁warm	18
▁training	18
king	18
ward	18
▁30	18
▁article	18
▁region	18
▁solution	18
▁completely	18
▁Nor	18
▁Most	18
▁growth	18
▁daughter	18
W	18
set	18
sis	18
nce	18
▁ready	18
▁write	18
▁sha	18
▁Keep	18
▁wanna	18
▁worry	18
Applause	18
▁services	18
▁Sta	18
▁project	18
▁instead	18
▁running	18
her	18
ai	18
▁changes	18
▁target	18
▁price	18
▁books	18
▁14	18
▁save	18
▁ship	18
▁Any	18
▁September	18
▁party	18
▁missing	18
▁draw	18
▁writing	18
j	18
▁spa	18
▁website	18
▁strength	18
▁Have	18
▁dark	18
▁purchase	18
▁user	18
mark	18
▁symptoms	18
▁global	18
ay	18
duct	18
▁somebody	18
▁hell	18
▁happens	18
▁tu	18
▁Of	18
▁ob	18
▁Tra	18
▁Women	18
uff	18
gr	17
uc	17
▁exist	17
▁upon	17
▁activities	17
rac	17
▁&	17
▁issue	17
▁June	17
▁approach	17
▁North	17
▁Ser	17
▁impact	17
▁interested	17
shi	17
▁structure	17
▁count	17
▁m	17
▁America	17
▁club	17
▁Pomeranian	17
▁Voivodeship	17
▁cases	17
▁gene	17
▁Bu	17
▁mark	17
place	17
▁muscle	17
▁police	17
▁send	17
▁return	17
▁share	17
▁field	17
▁spec	17
▁Many	17
▁TV	17
▁terms	17
▁2018	17
▁season	17
▁source	17
ify	17
▁le	17
ek	17
▁Br	17
▁forget	17
fo	17
▁measure	17
elle	17
▁host	17
▁Soviet	17
▁h	17
▁improve	17
▁male	17
▁Win	17
▁stories	17
▁degree	17
▁civil	17
van	17
▁His	17
▁shows	17
▁peace	17
▁touch	17
▁East	17
▁Yo	17
▁brought	17
ory	17
▁patients	17
▁achieve	17
if	17
bin	17
▁hundred	17
9	17
▁popular	17
▁considered	17
▁exactly	17
▁types	17
▁items	17
▁sales	17
▁photo	17
▁push	17
▁2011	17
▁Say	17
▁cross	17
▁original	17
▁movement	17
ped	17
▁represent	17
xi	17
▁led	17
▁seem	17
▁Grand	17
▁round	17
▁smell	17
▁Ph	16
▁positive	16
▁minute	16
▁l	16
▁div	16
▁lose	16
ła	16
▁somewhere	16
▁Qu	16
ban	16
▁Since	16
▁White	16
▁served	16
▁customer	16
ping	16
ura	16
▁Ya	16
▁Un	16
▁appear	16
▁chance	16
▁supposed	16
▁meaning	16
▁finger	16
▁Office	16
▁healthy	16
▁cop	16
▁areas	16
cro	16
39	16
▁limit	16
▁standard	16
▁voice	16
▁Please	16
ologist	16
men	16
put	16
▁detail	16
▁report	16
▁equal	16
pping	16
cl	16
▁diet	16
▁results	16
ctor	16
▁scar	16
▁cho	16
▁code	16
rn	16
▁$	16
ina	16
▁July	16
▁ver	16
chan	16
▁almost	16
▁green	16
▁fun	16
▁quiet	16
▁addition	16
▁pot	16
▁2012	16
▁above	16
▁Give	16
▁Za	16
▁murder	16
▁students	16
▁below	16
ino	16
pp	16
▁happy	16
▁style	16
▁24	16
▁bla	16
▁patient	16
▁dance	16
▁specific	16
▁ear	16
ya	16
▁development	16
▁Union	16
▁temperature	16
▁fish	16
▁bath	16
▁learning	16
▁effective	16
▁dress	16
▁unit	16
▁Earth	16
▁played	16
▁beginning	16
▁purpose	16
▁mar	16
▁medication	16
▁walking	16
▁material	16
qua	16
app	16
east	16
ó	16
▁player	16
nic	16
▁hum	16
▁speech	16
▁fix	15
▁wall	15
▁total	15
▁simple	15
▁Other	15
▁lived	15
J	15
▁11	15
▁egg	15
▁Cla	15
▁Japanese	15
ier	15
▁produce	15
▁Consider	15
▁hour	15
▁benefit	15
▁Dis	15
▁port	15
ple	15
▁saved	15
▁belief	15
▁security	15
▁Che	15
▁threat	15
▁modern	15
▁interesting	15
▁People	15
▁spread	15
▁rep	15
▁drugs	15
▁basis	15
▁living	15
▁choose	15
▁lack	15
▁(18	15
▁letter	15
▁apply	15
▁ice	15
▁damage	15
kin	15
?"	15
uch	15
burg	15
▁Sun	15
▁bur	15
ttle	15
▁coffee	15
▁technique	15
ically	15
▁Ye	15
▁tonight	15
vision	15
▁condition	15
▁rich	15
▁23	15
▁evidence	15
▁select	15
oid	15
▁tree	15
q	15
▁Ru	15
▁mis	15
▁negative	15
▁African	15
▁command	15
▁alcohol	15
▁record	15
▁January	15
▁flu	15
▁infection	15
▁location	15
▁finished	15
▁tea	15
▁foods	15
▁blue	15
▁online	15
▁Paul	15
▁decision	15
▁sent	15
▁bear	15
▁School	15
▁prepared	15
▁memory	15
▁collect	15
▁hurt	15
like	15
▁wide	15
▁response	15
ever	15
▁progress	15
▁companies	15
oma	15
▁Play	15
▁appropriate	15
▁2008	15
▁Order	15
ł	15
▁Wo	15
▁breath	14
▁rat	14
▁site	14
ato	14
▁plants	14
▁According	14
▁activity	14
▁sold	14
▁particular	14
▁ban	14
▁chi	14
▁calm	14
▁realize	14
▁economic	14
▁enter	14
▁hang	14
fin	14
▁0	14
▁2006	14
▁2007	14
of	14
▁choice	14
▁camera	14
▁London	14
well	14
▁soil	14
▁starting	14
▁Add	14
▁regular	14
▁50	14
▁Russian	14
▁rule	14
▁y	14
▁*	14
▁Michael	14
▁prove	14
▁pull	14
▁2019	14
ney	14
▁combination	14
▁network	14
▁private	14
▁log	14
▁Australia	14
unk	14
▁married	14
▁pet	14
bor	14
▁pair	14
▁chemical	14
ew	14
▁Bill	14
▁Check	14
▁sex	14
▁dad	14
▁service	14
▁Com	14
▁28	14
ef	14
▁Han	14
▁Port	14
▁pin	14
lor	14
▁button	14
▁Wal	14
▁discovered	14
▁believed	14
ib	14
▁potential	14
phe	14
▁appeared	14
▁looked	14
ku	14
▁Up	14
cin	14
pir	14
▁felt	14
▁Ver	14
▁watch	14
▁November	14
▁challenge	14
▁explain	14
▁feature	14
▁feet	14
▁anywhere	14
ably	14
▁pill	14
▁Art	14
▁Polish	14
▁window	14
▁glass	14
▁receive	14
▁Italian	14
position	14
▁eating	14
cle	14
▁pack	14
14	14
▁published	14
▁Korean	14
▁December	14
▁complete	14
▁parts	14
cri	14
▁fruit	14
→	14
rant	13
▁novel	13
▁earlier	13
▁simply	13
▁From	13
▁road	13
▁26	13
ray	13
▁auto	13
born	13
▁rare	13
read	13
▁wood	13
▁ill	13
▁sugar	13
win	13
▁schedule	13
▁press	13
▁Dad	13
form	13
▁See	13
▁wa	13
▁mix	13
my	13
▁advice	13
lip	13
▁bomb	13
▁neck	13
▁smart	13
ulation	13
▁gain	13
▁trade	13
▁continue	13
▁effort	13
▁section	13
▁Like	13
▁worth	13
car	13
▁separate	13
▁iron	13
▁Sea	13
▁campaign	13
▁ability	13
▁greater	13
▁Would	13
▁officer	13
▁animal	13
cept	13
▁judge	13
bar	13
▁shown	13
17	13
▁Year	13
ung	13
nu	13
▁repeat	13
▁whatever	13
▁associated	13
pho	13
▁studies	13
▁carry	13
▁House	13
▁afraid	13
▁survive	13
▁Sir	13
ana	13
▁print	13
▁announced	13
▁22	13
▁although	13
▁production	13
▁secret	13
▁powerful	13
▁everybody	13
▁rev	13
▁sand	13
▁promise	13
mar	13
▁Russia	13
▁wear	13
cha	13
ari	13
▁itself	13
▁Ze	13
▁Perhaps	13
▁su	13
▁Tri	13
▁Sho	13
▁Ke	13
▁needed	13
▁active	13
▁receptor	13
▁25	13
▁2009	13
▁finally	13
▁CO	13
▁Sometimes	13
▁flow	13
▁chart	13
▁National	13
▁corner	13
▁birth	13
▁u	13
▁beat	13
▁added	13
▁daily	13
▁hole	13
▁tomorrow	13
▁deliver	13
▁fan	13
▁fresh	13
▁Remember	13
▁fill	13
hen	13
▁signal	13
▁lock	13
▁growing	13
▁severe	13
▁goal	13
work	13
0	13
▁girls	13
▁involved	13
▁brush	13
▁European	13
▁ground	13
▁Korea	13
▁fit	13
▁branch	13
▁playing	13
▁fluid	13
▁month	13
▁education	13
▁ran	13
▁Lin	13
10	13
▁yes	13
▁floor	13
▁path	13
▁desire	13
▁Cal	13
oli	13
▁acid	13
▁Which	13
▁review	12
▁critic	12
▁chain	12
▁Instead	12
▁included	12
German	12
▁journey	12
▁king	12
▁qua	12
▁90	12
▁leading	12
▁char	12
▁br	12
▁therapy	12
▁mention	12
▁available	12
ło	12
▁join	12
igh	12
▁taste	12
▁moved	12
bul	12
▁George	12
▁closed	12
▁dish	12
▁laugh	12
▁loved	12
▁layer	12
▁im	12
▁event	12
▁followed	12
lia	12
▁hunt	12
▁Cl	12
▁assume	12
▁supply	12
▁electro	12
▁correct	12
▁Find	12
▁bone	12
▁por	12
▁throughout	12
▁border	12
▁prison	12
stitut	12
▁news	12
▁easier	12
▁seven	12
▁Comp	12
▁Am	12
▁capture	12
▁clothes	12
pl	12
▁gather	12
▁sexual	12
▁component	12
wood	12
▁recently	12
ole	12
▁court	12
▁turned	12
▁poor	12
▁ju	12
▁required	12
▁related	12
▁crime	12
▁subject	12
▁leaving	12
▁scale	12
▁normal	12
▁slow	12
▁largest	12
ea	12
name	12
▁compared	12
▁wrote	12
▁basic	12
▁practice	12
▁jump	12
▁center	12
take	12
je	12
▁weapon	12
▁notice	12
▁familiar	12
▁Start	12
▁Sam	12
▁widely	12
▁favorite	12
▁current	12
▁Sc	12
▁bro	12
▁direct	12
▁nature	12
▁October	12
▁anymore	12
▁difference	12
▁weak	12
▁reading	12
▁recent	12
long	12
udi	12
▁seems	12
▁victim	12
▁mistake	12
▁application	12
▁learned	12
▁relax	12
▁Place	12
▁ocean	12
▁$1	12
▁asking	12
▁tax	12
▁miles	12
▁yeah	12
▁onto	12
▁established	12
▁military	12
▁Indian	12
▁creating	12
rc	12
▁speaking	12
▁dollars	12
▁vegetable	12
zi	12
▁fe	12
▁River	12
▁discuss	12
▁toward	12
press	12
▁Nintendo	12
▁Royal	12
▁older	12
stone	12
▁factor	12
▁route	12
▁bus	12
▁drama	12
▁central	12
▁Mc	12
▁expect	12
▁larger	12
▁stupid	12
▁detect	12
▁imagine	12
▁Plan	12
▁pattern	12
▁win	12
▁install	12
▁bottle	12
▁fair	12
▁culture	12
▁Serie	12
▁economy	12
▁label	12
▁clo	12
▁competition	12
▁rules	12
ji	12
owo	12
▁otherwise	11
▁Tom	11
▁pen	11
▁display	11
▁wire	11
▁Uni	11
most	11
ong	11
▁belong	11
rze	11
▁eventually	11
▁ride	11
▁directly	11
ye	11
▁Those	11
▁First	11
▁Shi	11
▁sad	11
▁Europe	11
right	11
▁concern	11
cher	11
▁score	11
▁Inter	11
▁remind	11
19	11
▁channel	11
▁Never	11
▁feed	11
▁ball	11
▁finding	11
qu	11
▁reference	11
▁slowly	11
▁perhaps	11
▁maintain	11
▁Cri	11
ear	11
▁teeth	11
▁mom	11
▁management	11
▁owner	11
▁wonderful	11
▁colon	11
▁speed	11
▁thousands	11
▁software	11
pose	11
▁described	11
▁mountain	11
▁Kim	11
▁forward	11
▁nobody	11
▁Court	11
▁levels	11
▁plane	11
atory	11
X	11
Y	11
▁returned	11
▁screw	11
olog	11
▁publish	11
▁scene	11
▁third	11
▁raise	11
▁International	11
▁Black	11
▁prefer	11
▁Over	11
▁task	11
▁Red	11
▁trouble	11
▁performance	11
▁virus	11
▁prior	11
rick	11
▁Know	11
yn	11
▁OK	11
▁expert	11
▁theater	11
▁responsible	11
▁quant	11
▁cla	11
▁root	11
▁click	11
▁Our	11
▁shape	11
▁State	11
▁Click	11
▁Gi	11
▁Reg	11
▁Major	11
wo	11
▁consequence	11
▁climate	11
▁seeing	11
▁Mil	11
▁shift	11
gest	11
▁Shin	11
▁2005	11
ugh	11
▁legal	11
▁easily	11
mber	11
▁watching	11
▁animals	11
▁wonder	11
gon	11
▁cream	11
▁hide	11
▁interaction	11
ification	11
▁document	11
▁vote	11
▁influence	11
▁Ty	11
▁upper	11
▁fi	11
▁career	11
▁possibly	11
▁Wait	11
▁Vo	11
but	11
▁2002	11
40	11
▁double	11
▁rise	11
▁numbers	11
▁gotta	11
▁bra	11
▁clothing	11
▁Kh	11
▁reaction	11
▁grew	11
▁employ	11
▁fu	11
rine	11
▁continued	11
▁studied	11
ain	11
ature	11
▁significant	11
▁theory	11
pla	11
▁joke	11
▁park	11
▁2001	11
▁strip	11
▁release	11
▁grow	11
▁cap	11
▁Talk	11
▁trip	11
▁II	11
now	11
bro	11
▁27	11
▁painting	11
▁soft	11
▁robot	11
▁neutral	11
▁satellite	11
▁farm	11
fold	11
▁Fu	11
▁kiss	11
verse	10
ose	10
where	10
▁quick	10
▁experiment	10
▁bowl	10
▁election	10
▁sitting	10
▁Western	10
hydr	10
▁Act	10
▁search	10
▁Chi	10
▁(20	10
54	10
99	10
▁Uh	10
▁scientist	10
▁broad	10
▁executive	10
▁affect	10
▁Ken	10
▁harm	10
ash	10
▁distract	10
▁Best	10
▁organization	10
▁seriously	10
▁sequence	10
▁agree	10
ś	10
▁Thu	10
fec	10
▁serve	10
▁honest	10
▁Matt	10
▁Gen	10
▁liquid	10
▁spirit	10
▁efficient	10
▁vehicle	10
▁=	10
▁calorie	10
▁expected	10
▁apartment	10
▁blow	10
cho	10
part	10
▁Germany	10
▁historical	10
▁Harry	10
▁adopt	10
▁Sal	10
▁More	10
▁shot	10
▁divide	10
▁decade	10
▁actor	10
▁species	10
▁showed	10
▁generate	10
ü	10
▁Type	10
▁adapt	10
lies	10
▁systems	10
▁guide	10
▁sudden	10
▁throw	10
een	10
▁pur	10
▁freedom	10
▁unless	10
▁battle	10
▁breast	10
▁parent	10
vol	10
28	10
▁Follow	10
▁Peter	10
▁Everything	10
▁aware	10
▁Paris	10
▁Adam	10
▁roll	10
ace	10
▁received	10
▁loose	10
▁interview	10
▁via	10
▁Hol	10
▁ahead	10
II	10
▁additional	10
▁approved	10
▁immediately	10
▁request	10
▁army	10
▁Kingdom	10
▁permanent	10
▁Warsaw	10
á	10
▁Kar	10
▁currently	10
▁football	10
▁mobile	10
▁debut	10
▁Mer	10
▁decided	10
▁solve	10
▁column	10
▁cry	10
▁transfer	10
▁emotions	10
ker	10
49	10
▁dear	10
▁written	10
hood	10
▁meat	10
▁mess	10
▁Treat	10
▁journalist	10
▁caused	10
itch	10
▁chair	10
▁Ask	10
▁hall	10
▁disorder	10
▁higher	10
terior	10
▁load	10
dia	10
▁decide	10
▁setting	10
ude	10
ock	10
▁Pri	10
▁fast	10
▁stock	10
▁church	10
▁paint	10
▁Old	10
pen	10
▁rate	10
ibility	10
phon	10
▁Android	10
▁families	10
▁previously	10
▁waste	10
▁micro	10
▁Ge	10
ette	10
▁folk	10
arch	10
▁mine	10
▁shoes	10
▁useful	10
ani	10
▁appearance	10
▁sky	10
▁comfortable	10
▁groups	10
▁acting	10
▁average	10
▁nation	10
▁successful	10
play	10
▁Before	10
▁produced	10
▁basically	10
▁regard	10
▁hip	10
Q	10
▁smoke	10
▁student	10
uk	10
▁Bur	10
▁alongside	10
48	10
▁col	10
▁increased	10
▁listening	10
▁rid	10
▁horse	10
▁glo	10
▁Party	10
▁regime	10
▁(2	10
▁bright	10
ano	10
▁mini	10
▁creature	10
▁Lord	10
ivity	10
print	10
▁refer	10
▁apart	10
▁ourselves	10
▁Vietnam	10
osis	9
▁skills	9
▁client	9
▁Christmas	9
90	9
▁till	9
▁Ku	9
▁Jane	9
▁carefully	9
▁attract	9
pan	9
▁exam	9
▁topic	9
▁possess	9
▁cities	9
▁bathroom	9
▁Latin	9
▁cent	9
▁danger	9
▁Will	9
▁radio	9
▁mode	9
▁attach	9
▁complex	9
▁operate	9
▁Special	9
pper	9
▁thus	9
▁Also	9
bon	9
60	9
▁caught	9
▁Mother	9
▁events	9
▁Israel	9
▁perspective	9
▁numerous	9
▁broke	9
▁formed	9
▁mission	9
iz	9
▁adult	9
▁seek	9
▁operation	9
▁grown	9
▁labor	9
▁India	9
ö	9
▁traffic	9
▁Actually	9
▁defend	9
▁poison	9
▁financial	9
▁ancient	9
▁Record	9
▁reported	9
ography	9
77	9
▁clearly	9
▁Star	9
▁journal	9
▁struggle	9
▁kept	9
▁impress	9
▁grand	9
par	9
▁compete	9
▁semi	9
▁fell	9
▁option	9
▁typically	9
ility	9
▁Internet	9
▁Saint	9
▁pu	9
▁credit	9
15	9
▁calling	9
▁Va	9
▁Put	9
▁Avoid	9
▁tradition	9
▁consist	9
af	9
▁Nigeria	9
▁earn	9
▁confident	9
▁[	9
▁Work	9
phy	9
▁respond	9
▁nerve	9
▁finish	9
range	9
▁options	9
▁govern	9
▁bottom	9
▁absolute	9
len	9
▁trick	9
▁failure	9
▁politics	9
▁Air	9
▁(4	9
itz	9
▁regulat	9
▁license	9
06	9
▁Think	9
▁copy	9
▁Bel	9
SA	9
▁lung	9
▁Prize	9
▁suck	9
▁majority	9
▁mostly	9
▁race	9
75	9
56	9
▁involve	9
▁60	9
▁salt	9
▁lie	9
top	9
▁content	9
í	9
▁sight	9
script	9
▁teach	9
▁massive	9
▁leaf	9
rin	9
▁Y	9
▁stain	9
▁fully	9
▁70	9
hal	9
▁drinking	9
▁liver	9
▁knowledge	9
pped	9
▁distance	9
▁hospital	9
▁collection	9
▁William	9
▁quality	9
▁Prime	9
▁concept	9
▁sick	9
vis	9
▁Angeles	9
▁Fo	9
▁stomach	9
▁identify	9
▁Free	9
▁multiple	9
ack	9
18	9
▁Men	9
▁Moscow	9
ili	9
▁reject	9
▁reveal	9
berg	9
▁according	9
▁reward	9
▁designed	9
board	9
▁professional	9
▁activist	9
▁seat	9
▁Does	9
▁Dar	9
▁Gar	9
▁opened	9
▁Den	9
▁Ab	9
▁bigger	9
▁sustain	9
▁Min	9
▁discussion	9
▁boat	9
▁crazy	9
▁television	9
▁Republic	9
▁activate	9
▁proceed	9
▁Frank	9
▁carrier	9
▁teacher	9
▁rapid	9
▁volume	9
meter	9
▁Championship	9
▁Robert	9
▁contract	9
▁Association	9
▁refuge	9
▁traditional	9
hel	9
▁connect	9
▁Mor	9
▁honor	9
▁Pra	9
▁tight	9
▁Open	9
▁2020	9
▁manage	9
▁catch	9
65	9
▁Cor	9
ese	9
▁platform	9
▁Ch	9
▁Jackson	9
▁spin	9
▁invest	9
rap	9
mission	9
▁multi	8
▁guard	8
▁1990	8
▁demand	8
▁Boy	8
57	8
▁letting	8
iff	8
▁sample	8
▁predict	8
▁chief	8
▁employee	8
▁primary	8
cal	8
▁initial	8
▁orbit	8
▁board	8
▁sweet	8
▁Luc	8
▁comment	8
▁cultural	8
▁circle	8
▁settlement	8
▁bacteria	8
▁organic	8
▁empty	8
▁facing	8
▁bond	8
▁meant	8
▁David	8
▁x	8
▁oxygen	8
▁Three	8
▁District	8
▁shared	8
▁fund	8
sign	8
▁console	8
▁Chris	8
▁frequency	8
▁Catholic	8
▁settle	8
▁tank	8
▁talked	8
▁except	8
▁losing	8
▁incident	8
rated	8
▁Mag	8
▁Select	8
▁particularly	8
▁Great	8
▁direction	8
▁29	8
▁Under	8
▁appreciate	8
▁(3	8
▁colleague	8
▁amazing	8
▁witness	8
▁property	8
▁Cross	8
▁Summer	8
▁menu	8
▁comb	8
▁Children	8
▁island	8
OS	8
▁buck	8
▁substance	8
▁putting	8
▁truth	8
▁heavy	8
▁cup	8
▁resist	8
lon	8
hold	8
▁master	8
70	8
]	8
▁invent	8
▁capacity	8
▁afford	8
▁yellow	8
low	8
▁hat	8
▁wound	8
▁Francis	8
▁link	8
▁Hy	8
▁camp	8
▁scared	8
▁identity	8
▁metal	8
▁bodies	8
50	8
▁DNA	8
▁defense	8
▁joined	8
▁Every	8
▁loss	8
▁perform	8
▁favor	8
list	8
▁lip	8
▁weather	8
▁escape	8
▁Master	8
ridge	8
▁protection	8
troph	8
▁bound	8
▁street	8
▁neighbor	8
▁revolution	8
▁instructions	8
▁NGC	8
▁Speak	8
▁Joe	8
▁1993	8
▁lawyer	8
▁barely	8
▁Carl	8
▁waiting	8
▁recommend	8
ball	8
▁Super	8
tern	8
▁Spanish	8
▁firm	8
▁features	8
▁engage	8
▁lake	8
▁casual	8
▁Should	8
▁brand	8
▁movie	8
▁river	8
▁therapist	8
▁occasion	8
▁gold	8
▁recognize	8
▁scan	8
▁attitude	8
▁whose	8
▁funny	8
▁tired	8
▁helpful	8
▁charge	8
▁core	8
▁era	8
vor	8
▁2000	8
▁grain	8
▁cutting	8
ius	8
▁conflict	8
▁Though	8
▁fur	8
▁neuro	8
▁placed	8
war	8
▁Cap	8
▁connected	8
68	8
▁ensure	8
▁Both	8
▁Park	8
▁citizen	8
▁Ah	8
▁objective	8
▁spell	8
▁Edward	8
▁chronic	8
▁debt	8
▁worse	8
▁grab	8
▁supplement	8
▁distribution	8
▁Florida	8
▁elected	8
▁Mark	8
▁vision	8
▁yard	8
pon	8
▁directed	8
▁soldier	8
▁estate	8
flu	8
23	8
▁Tru	8
▁anybody	8
▁Dia	8
▁element	8
▁Val	8
▁transport	8
▁totally	8
mination	8
▁Greek	8
ä	8
BC	8
▁certainly	8
▁Char	8
▁powder	8
▁suddenly	8
▁unknown	8
▁bill	8
▁dinner	8
▁launch	8
▁fundamental	8
▁Water	8
▁21	8
▁bought	8
▁swallow	8
▁protein	8
▁Yu	8
ō	8
▁England	8
▁wh	8
▁kick	8
▁arrest	8
jo	8
▁kitchen	8
▁wheel	8
▁ring	8
▁Jack	8
▁stretch	8
illa	8
▁deserve	7
graph	7
▁resistance	7
▁relatively	7
▁Syria	7
▁2004	7
▁delay	7
▁battery	7
point	7
▁General	7
▁Choose	7
08	7
85	7
▁afternoon	7
▁Council	7
▁admit	7
:00	7
▁assess	7
▁Pu	7
▁estimated	7
▁concert	7
▁package	7
▁magic	7
▁Tokyo	7
▁pig	7
▁celebrate	7
}	7
▁weird	7
▁tall	7
▁tip	7
load	7
▁particle	7
▁coat	7
▁Learn	7
▁Father	7
▁final	7
▁marriage	7
01	7
▁equipment	7
▁uncle	7
▁station	7
▁mask	7
▁shower	7
▁middle	7
▁depend	7
▁editor	7
▁HIV	7
▁understanding	7
▁disappoint	7
kh	7
▁contribute	7
▁Alex	7
▁keeping	7
▁Nothing	7
▁Dan	7
▁prop	7
▁profit	7
▁lady	7
▁chest	7
▁moderate	7
▁Asia	7
▁immune	7
▁balance	7
▁engineer	7
▁genetic	7
▁lunch	7
▁Olympic	7
▁societies	7
▁annual	7
▁mental	7
▁wealth	7
5%	7
▁enable	7
▁Ve	7
▁Windows	7
▁absorb	7
▁conditions	7
▁motor	7
▁typical	7
nie	7
pine	7
graduate	7
▁surprise	7
▁cast	7
▁Sur	7
▁Human	7
▁distinct	7
▁institution	7
▁Mary	7
▁recorded	7
500	7
▁thousand	7
▁monitor	7
otic	7
▁depending	7
11	7
▁spent	7
▁hydrogen	7
▁hormone	7
▁shop	7
▁carbon	7
69	7
▁giving	7
▁income	7
▁happening	7
▁Their	7
▁email	7
▁college	7
▁sodium	7
clo	7
▁College	7
▁Until	7
▁biggest	7
back	7
▁neighborhood	7
▁32	7
▁°	7
bol	7
▁Cup	7
▁restaurant	7
▁physician	7
▁planning	7
▁visual	7
▁abuse	7
▁shoulder	7
▁constellation	7
ella	7
▁scientific	7
▁environmental	7
▁Asian	7
▁director	7
▁Time	7
▁studio	7
▁dying	7
▁Charles	7
▁performed	7
▁showing	7
▁emotional	7
▁wine	7
▁reality	7
▁ticket	7
ula	7
▁Province	7
▁responsibility	7
▁provided	7
▁restore	7
▁slightly	7
▁Girl	7
▁Hong	7
▁relative	7
▁various	7
▁encourage	7
dding	7
▁promotion	7
▁describe	7
▁slide	7
▁digital	7
▁conclusion	7
▁wearing	7
88	7
▁properly	7
house	7
▁Queen	7
▁becoming	7
▁1980	7
▁James	7
▁parliament	7
▁origin	7
▁bird	7
▁Program	7
▁opportunity	7
▁constantly	7
▁drag	7
▁(1	7
▁Hello	7
▁allowed	7
▁Foundation	7
▁regularly	7
vil	7
16	7
▁habit	7
▁stuck	7
▁Bob	7
▁religious	7
▁overall	7
▁epi	7
▁fly	7
▁juice	7
▁unique	7
▁icon	7
▁betray	7
▁ideas	7
Ś	7
kie	7
▁500	7
▁nearly	7
▁vessel	7
▁candidate	7
▁1985	7
▁analysis	7
▁Beijing	7
▁rural	7
▁literature	7
▁expectations	7
▁calcium	7
▁physics	7
▁fabric	7
▁somehow	7
▁investigation	7
▁division	7
▁tumor	7
▁flying	7
▁necessary	7
▁procedure	7
▁garden	7
▁par	7
▁emerge	7
▁Team	7
▁relief	7
▁providing	7
▁truck	7
▁hidden	7
▁attended	7
▁romantic	7
▁chocolate	7
▁fiction	7
▁commonly	7
▁babies	7
▁Today	7
▁awarded	7
▁induce	7
▁capable	7
▁policy	7
Polish	7
ów	7
▁brown	7
▁dirt	7
▁shirt	7
field	7
▁excessive	7
▁highly	7
▁usual	7
▁university	7
▁authority	7
▁founded	7
▁horizon	7
▁wedding	7
▁Social	7
▁Joseph	7
▁frame	7
▁adjust	7
▁Each	7
▁height	7
amine	7
▁scratch	7
▁marry	7
▁launched	7
▁Facebook	7
vic	7
▁High	7
▁safety	7
▁photograph	7
▁poetry	7
▁authorities	7
We	7
head	7
▁nuts	7
▁Ghana	7
▁tear	7
▁wind	7
▁conduct	7
▁container	7
▁Apple	7
▁summer	7
▁interact	6
▁Sara	6
ised	6
▁medium	6
▁Pol	6
▁van	6
▁cycle	6
▁Spain	6
▁Cho	6
59	6
67	6
lock	6
▁Bal	6
▁Mac	6
")	6
▁swim	6
▁stronger	6
▁killer	6
▁phase	6
▁friendship	6
▁brief	6
▁1950	6
▁exhibit	6
▁sentence	6
▁fiber	6
▁defined	6
▁exposure	6
view	6
▁portion	6
▁sale	6
Music	6
ik	6
▁rot	6
▁comfort	6
▁hy	6
▁solar	6
▁Born	6
ush	6
▁Cuba	6
▁formula	6
▁producing	6
▁suicide	6
▁everywhere	6
▁Everyone	6
▁anxiety	6
▁withdraw	6
▁priest	6
▁puppy	6
▁hack	6
▁Long	6
ute	6
▁filter	6
▁faith	6
▁Syrian	6
▁ultimately	6
▁Brazil	6
▁developing	6
▁kidney	6
▁psych	6
▁organized	6
▁normally	6
▁generally	6
▁toxic	6
▁Richard	6
▁guest	6
▁dig	6
▁Someone	6
▁script	6
▁motion	6
power	6
▁boot	6
▁lucky	6
▁List	6
▁ingredient	6
▁guarantee	6
58	6
47	6
▁expand	6
▁confirmed	6
▁federal	6
▁actual	6
▁twice	6
▁Home	6
▁pregnancy	6
▁worldwide	6
▁Philip	6
▁Ce	6
What	6
▁giant	6
▁Jupiter	6
▁Last	6
▁indicate	6
▁quarter	6
▁impossible	6
▁Town	6
▁trigger	6
▁sensitive	6
hy	6
▁causing	6
▁diploma	6
▁Institute	6
▁Pan	6
▁Governor	6
▁centuries	6
▁flag	6
chlor	6
▁Google	6
▁dozen	6
▁storage	6
▁transform	6
▁destroy	6
▁bleeding	6
▁conscious	6
▁prisoner	6
▁passed	6
▁replace	6
▁Army	6
fl	6
▁filled	6
box	6
▁Jesus	6
▁luck	6
▁consult	6
46	6
▁45	6
▁gender	6
▁religion	6
▁grade	6
▁forever	6
▁disappear	6
▁opinion	6
▁precise	6
▁Call	6
▁Having	6
▁80	6
▁stole	6
▁fifth	6
▁length	6
▁relation	6
▁trap	6
▁exchange	6
▁hero	6
▁strict	6
ita	6
▁tape	6
▁mutual	6
▁agreement	6
▁spray	6
▁boil	6
▁extremely	6
▁disturb	6
▁promote	6
▁35	6
▁1,000	6
▁discover	6
▁applied	6
▁thick	6
▁fever	6
▁map	6
▁dangerous	6
▁noise	6
ę	6
▁counsel	6
▁Eastern	6
▁audience	6
▁format	6
▁Supreme	6
▁react	6
▁Love	6
▁perfect	6
▁extreme	6
▁background	6
▁hotel	6
▁stone	6
▁knock	6
▁society	6
▁doubt	6
▁split	6
▁register	6
▁Cause	6
▁tract	6
▁Street	6
▁Kong	6
▁properties	6
▁increasing	6
ã	6
▁1987	6
▁personality	6
▁dancing	6
ifi	6
▁Stay	6
▁roof	6
▁minister	6
▁independent	6
ل	6
▁Ter	6
▁treated	6
▁plot	6
▁si	6
▁fought	6
▁thin	6
▁failed	6
▁connection	6
▁narrow	6
▁Cra	6
▁descend	6
▁dropped	6
▁recover	6
▁troops	6
▁seeds	6
▁violence	6
▁password	6
▁proud	6
▁Christian	6
▁alarm	6
▁wake	6
▁pray	6
▁saving	6
21	6
▁pal	6
▁nervous	6
Ł	6
98	6
▁argue	6
▁Company	6
27	6
▁jail	6
▁smaller	6
▁barrier	6
▁Empire	6
▁rank	6
▁steel	6
▁iPhone	6
cular	6
▁consumer	6
▁standing	6
▁politician	6
▁introduce	6
▁fool	6
▁App	6
▁reflect	6
89	6
▁compound	6
owski	6
▁gently	6
▁previous	6
▁steam	6
▁administration	6
▁clinical	6
▁Opera	6
▁attend	6
▁TED	6
▁300	6
emp	6
▁flower	6
▁writer	6
12	6
▁association	6
▁breed	6
▁compliment	6
▁1999	6
▁Gold	6
▁Write	6
▁therefore	6
▁wild	6
▁huh	6
▁incorporat	6
▁flight	6
▁context	6
▁Book	6
▁wave	6
▁coast	6
▁lemon	6
▁internet	6
▁League	6
▁advantage	6
▁Op	6
▁arch	6
▁milk	6
▁accomplish	6
▁relieve	6
▁etc	6
▁Island	6
▁Vietnamese	6
▁ruin	6
▁birthday	6
▁Scott	6
▁diabetes	6
volving	6
▁contest	6
▁rescue	6
▁volunteer	6
ez	6
▁correspond	6
▁graduated	6
▁formal	6
▁specifically	6
▁facial	6
▁rain	6
▁base	6
▁Lab	6
07	6
▁Read	6
▁Bla	6
▁Est	6
а	6
и	6
▁presence	5
▁visible	5
▁obvious	5
▁restrict	5
▁instrument	5
▁commercial	5
▁opening	5
▁huge	5
▁removed	5
▁forgive	5
▁Security	5
▁Oliver	5
▁defeat	5
▁criminal	5
▁chicken	5
▁recruit	5
▁boyfriend	5
▁mentioned	5
ama	5
▁essay	5
▁Mike	5
▁category	5
▁evil	5
▁Among	5
▁emotion	5
▁browser	5
▁assassin	5
▁Show	5
▁conserv	5
▁FBI	5
▁changing	5
▁geo	5
▁Francisco	5
▁strain	5
▁shut	5
▁potassium	5
▁soap	5
▁derivative	5
▁Light	5
▁hiding	5
▁angry	5
▁sweat	5
▁generation	5
▁courage	5
▁prepare	5
▁Although	5
▁primarily	5
▁magazine	5
▁nail	5
▁recommended	5
▁Roman	5
Arabic	5
▁phrase	5
▁debate	5
▁vet	5
▁forced	5
▁conference	5
fish	5
▁prompt	5
▁Shu	5
▁hypo	5
▁neither	5
▁Four	5
▁reduction	5
▁terror	5
You	5
▁pitch	5
▁completed	5
▁Game	5
▁compress	5
ñ	5
▁California	5
▁statement	5
▁poll	5
▁derived	5
▁Muslim	5
▁storm	5
▁bastard	5
▁instruct	5
▁stroke	5
▁Thomas	5
▁blind	5
omy	5
▁Later	5
▁tiny	5
▁Walk	5
▁earthquake	5
flow	5
25	5
▁rose	5
▁Something	5
lash	5
▁electronic	5
▁Arab	5
▁session	5
▁airport	5
▁serving	5
▁proposed	5
▁Again	5
▁measurement	5
▁league	5
▁Pop	5
pharmac	5
▁Colombia	5
−	5
▁Uganda	5
▁1970	5
▁mirror	5
▁affair	5
▁Bru	5
▁Professor	5
▁careful	5
▁extend	5
▁appointed	5
▁Drawsk	5
▁winner	5
▁+	5
▁molecule	5
▁lay	5
fully	5
▁Could	5
▁Blue	5
▁towel	5
▁aspect	5
▁galaxy	5
▁earth	5
▁universe	5
▁Another	5
▁honey	5
▁gift	5
▁enemy	5
▁alien	5
▁fellow	5
▁rice	5
▁manager	5
5,000	5
▁operating	5
▁Sky	5
02	5
▁rob	5
▁Prince	5
▁exciting	5
ook	5
▁emergency	5
aries	5
86	5
▁Q	5
▁edit	5
▁naked	5
95	5
▁eliminate	5
▁classes	5
▁enzyme	5
room	5
▁Business	5
▁CEO	5
▁laptop	5
▁tissue	5
▁Using	5
▁Agent	5
▁controlled	5
▁Unlike	5
▁Turn	5
▁virtual	5
▁inspired	5
ń	5
dependence	5
▁evolution	5
▁broken	5
▁rub	5
▁smoking	5
▁prescription	5
▁lesson	5
▁Welcome	5
▁respectively	5
▁fail	5
▁Academy	5
▁mono	5
nna	5
▁gym	5
▁Only	5
▁nearby	5
▁blend	5
▁jealous	5
▁confess	5
▁vocal	5
ope	5
▁routine	5
▁vertical	5
▁medicine	5
▁cable	5
▁Group	5
▁joint	5
▁injection	5
▁counter	5
▁observe	5
▁outdoor	5
▁trace	5
▁Research	5
▁talent	5
▁reached	5
ension	5
cur	5
▁manner	5
▁boost	5
▁folder	5
▁collaboration	5
▁Rome	5
▁warning	5
▁manufacturer	5
▁spring	5
▁British	5
▁spending	5
▁tongue	5
▁broadcast	5
▁communicate	5
direct	5
rup	5
▁1994	5
▁stem	5
cause	5
▁reducing	5
▁edge	5
▁crisis	5
▁lab	5
▁mixture	5
▁Ly	5
▁tap	5
▁intention	5
▁Maria	5
▁download	5
▁fighting	5
▁valuable	5
▁Eat	5
▁bullet	5
▁participate	5
ux	5
▁goals	5
▁accus	5
▁gang	5
▁sacrifice	5
26	5
▁flood	5
▁signed	5
▁smile	5
▁rap	5
▁Dutch	5
▁Chicago	5
▁protest	5
▁Watch	5
▁disaster	5
▁sharp	5
▁crash	5
▁limited	5
▁winter	5
▁1983	5
ón	5
▁ignore	5
▁Martin	5
connect	5
▁stimulate	5
▁mood	5
▁naturally	5
▁Sorry	5
▁spoken	5
▁dose	5
▁strategic	5
▁vitamin	5
▁boss	5
▁suffer	5
▁urge	5
▁agency	5
▁museum	5
▁beyond	5
▁crush	5
▁external	5
▁mineral	5
▁minor	5
▁bridge	5
▁Camp	5
▁breathe	5
▁strategy	5
▁confront	5
▁Green	5
▁drill	5
▁originally	5
▁singer	5
▁fake	5
▁famous	5
▁Next	5
▁frequently	5
▁northern	5
▁elder	5
▁suspect	5
▁lying	5
▁gentlemen	5
▁passenger	5
▁alternative	5
blo	5
▁taught	5
▁Division	5
▁southern	5
▁deposit	5
▁Pomorski	5
▁electric	5
▁plastic	5
▁associate	5
▁newspaper	5
▁metres	5
س	5
▁gotten	5
▁keyboard	5
▁cyst	5
م	5
▁representative	5
▁driving	5
л	5
子	5
▁interrupt	4
▁Central	4
▁Bureau	4
▁Singapore	4
▁Parliament	4
▁engine	4
▁trauma	4
▁Pla	4
▁producer	4
▁Finally	4
▁herself	4
▁Short	4
▁Choszczno	4
▁zone	4
▁apparent	4
▁Command	4
▁cancel	4
▁hook	4
▁Arthur	4
▁Jewish	4
▁terrible	4
▁mechanism	4
▁Bank	4
▁crew	4
▁concentration	4
و	4
ا	4
▁Canada	4
▁Nobody	4
▁fashion	4
over	4
▁shelter	4
loc	4
▁poly	4
▁snake	4
bal	4
▁introduced	4
▁hoping	4
▁coin	4
▁peak	4
▁incredibly	4
▁funeral	4
▁industry	4
▁opera	4
▁twin	4
▁arrived	4
▁paid	4
▁Friday	4
04	4
▁1996	4
active	4
▁requirements	4
▁Linux	4
▁definition	4
▁statu	4
▁critical	4
▁Van	4
▁guitar	4
ggle	4
▁algorithm	4
▁Media	4
▁suppose	4
▁soul	4
▁driver	4
▁feedback	4
▁staff	4
▁mid	4
▁Lady	4
▁excuse	4
▁communication	4
▁holding	4
▁tools	4
▁innocent	4
▁witch	4
▁estimate	4
▁Museum	4
▁1995	4
▁Apply	4
▁cloud	4
▁medal	4
▁poet	4
▁variety	4
▁Captain	4
▁fourth	4
▁Development	4
▁carried	4
▁depth	4
▁replaced	4
▁wrap	4
▁400	4
▁Angel	4
▁proof	4
▁blog	4
▁Big	4
▁divorce	4
▁vast	4
▁professor	4
▁Director	4
▁flash	4
ene	4
▁collapse	4
▁analog	4
▁Italy	4
▁highest	4
▁Football	4
è	4
▁swear	4
▁del	4
▁appeal	4
▁Nu	4
▁landscape	4
▁evolve	4
▁proposal	4
▁portray	4
▁obviously	4
▁artificial	4
▁Mom	4
▁scream	4
▁edition	4
▁Santa	4
▁domestic	4
▁corrupt	4
▁moon	4
▁symbol	4
▁breathing	4
▁stream	4
▁extract	4
▁convert	4
▁retain	4
▁sensor	4
▁sculpt	4
▁zero	4
▁supplies	4
▁discipline	4
▁goddamn	4
▁Jim	4
nny	4
24	4
▁freak	4
▁manufacturing	4
▁Note	4
▁decrease	4
▁Day	4
▁excited	4
▁gradually	4
▁creative	4
▁trapped	4
▁equation	4
▁idiot	4
▁dating	4
▁BC	4
▁shadow	4
▁loyal	4
▁Pen	4
▁minimum	4
gging	4
▁killing	4
▁ought	4
▁secure	4
▁immediate	4
▁receiving	4
▁tension	4
▁Imagine	4
▁inflammation	4
▁dumb	4
▁Henry	4
▁consume	4
▁inhibitor	4
▁athlete	4
▁legend	4
▁knee	4
▁profile	4
▁construction	4
▁appointment	4
▁painful	4
▁uncomfortable	4
▁Second	4
▁knife	4
▁referred	4
▁Austria	4
▁worried	4
▁outcome	4
▁characteristic	4
▁2003	4
▁asleep	4
▁Phil	4
▁antibiotic	4
▁cheap	4
▁expression	4
▁Sunday	4
▁observation	4
▁recognition	4
▁possibility	4
▁seal	4
▁Through	4
▁atmosphere	4
▁eastern	4
▁Berlin	4
▁cluster	4
▁anyway	4
▁dedicated	4
▁argument	4
▁instance	4
▁explore	4
▁palace	4
▁innovation	4
▁cheat	4
▁hyper	4
63	4
▁budget	4
▁household	4
▁1997	4
▁everyday	4
▁succeed	4
▁Society	4
09	4
78	4
▁strange	4
▁lifestyle	4
▁angel	4
▁Count	4
▁resembl	4
▁winning	4
▁dimension	4
▁teaching	4
▁1988	4
▁concerned	4
▁regret	4
▁hydro	4
▁mild	4
▁automatically	4
▁exclusive	4
́	4
▁compassion	4
▁Earl	4
▁radiation	4
water	4
▁Government	4
▁resource	4
▁workers	4
▁experiencing	4
▁exception	4
▁breakfast	4
▁injury	4
▁sink	4
▁scrap	4
▁Besides	4
▁processes	4
▁determin	4
13	4
▁busy	4
▁illness	4
ographic	4
▁Ban	4
▁quit	4
▁Hospital	4
▁committed	4
▁Help	4
ი	4
▁foreign	4
▁Whatever	4
▁sector	4
▁vein	4
64	4
▁Tap	4
▁transition	4
▁CD	4
▁Depend	4
▁1992	4
▁creation	4
▁kidnap	4
espite	4
▁obtain	4
grade	4
▁welcome	4
▁owe	4
▁featur	4
▁clinic	4
▁department	4
▁Er	4
▁Remove	4
▁YouTube	4
phen	4
ken	4
▁Change	4
▁psychological	4
▁investment	4
▁pool	4
▁bunch	4
▁baking	4
omb	4
▁confirm	4
ف	4
▁monster	4
▁intense	4
▁composition	4
▁actress	4
▁urban	4
▁principal	4
▁melt	4
ˈ	4
▁affected	4
▁UK	4
▁reverse	4
97	4
ー	4
76	4
▁bread	4
▁kilo	4
▁desk	4
▁yogurt	4
▁twenty	3
cade	3
▁Statistics	3
▁moisture	3
▁grandfather	3
29	3
▁consistent	3
▁Music	3
$	3
▁convention	3
▁Entertainment	3
▁variation	3
▁announce	3
▁Film	3
▁prominent	3
▁resolve	3
▁raised	3
▁consumption	3
▁Civil	3
▁Mountain	3
▁enhance	3
▁judgment	3
▁construct	3
therapy	3
▁temporary	3
▁continent	3
▁concentrate	3
▁chosen	3
▁reputation	3
▁cotton	3
▁relevant	3
▁throat	3
▁secondary	3
▁default	3
▁compare	3
▁enforce	3
▁scholar	3
▁literary	3
▁survey	3
ū	3
▁Region	3
▁graphic	3
book	3
▁province	3
▁syndrome	3
▁plain	3
▁Observ	3
▁distinguish	3
▁variable	3
▁duty	3
▁prime	3
▁perception	3
▁string	3
▁weekend	3
▁Charlie	3
▁policies	3
▁library	3
▁Trans	3
▁mainly	3
▁Festival	3
▁philosophy	3
▁worst	3
▁repair	3
▁pursue	3
▁childhood	3
▁happiness	3
▁glad	3
80	3
▁indeed	3
maker	3
▁solid	3
Z	3
▁principle	3
▁resources	3
▁1998	3
▁territory	3
▁Canadian	3
▁mg	3
▁confidence	3
▁transferred	3
▁grandmother	3
▁rush	3
▁intended	3
▁frozen	3
ë	3
▁architecture	3
NA	3
▁refuse	3
▁electricity	3
▁convince	3
craft	3
▁selling	3
▁trail	3
which	3
▁Islam	3
▁radical	3
ç	3
▁interface	3
▁1989	3
▁forest	3
▁permission	3
ddle	3
▁covered	3
▁assistant	3
▁Daniel	3
▁expensive	3
▁Anyway	3
scribe	3
▁lean	3
▁psycho	3
ن	3
AR	3
▁terrorist	3
▁intellectual	3
▁biological	3
▁Therefore	3
▁establish	3
▁Public	3
▁Castle	3
▁castle	3
▁switch	3
▁loud	3
▁punch	3
▁blame	3
▁pipe	3
▁dramatic	3
▁gravity	3
emia	3
▁Chief	3
▁Hold	3
▁uncertain	3
▁Congress	3
▁random	3
▁Nations	3
▁invite	3
▁Revolution	3
▁truly	3
ż	3
▁episode	3
▁abstract	3
▁System	3
▁lecture	3
▁1984	3
▁Land	3
▁infant	3
▁motivate	3
▁USB	3
ria	3
▁removing	3
BA	3
▁audio	3
▁extent	3
▁Louis	3
▁smooth	3
▁cousin	3
66	3
▁snack	3
▁Between	3
▁architect	3
▁patent	3
▁opponent	3
▁About	3
▁borrow	3
▁investigate	3
▁occurred	3
▁dust	3
▁Life	3
▁Service	3
▁DVD	3
▁whenever	3
â	3
▁abandon	3
▁beneath	3
▁plate	3
▁absolutely	3
▁entry	3
▁literally	3
▁veterinar	3
▁complain	3
▁Venezuela	3
▁unusual	3
&	3
õ	3
▁jewel	3
▁complicated	3
▁parallel	3
▁pilot	3
▁kingdom	3
▁faster	3
▁Church	3
▁assert	3
▁200	3
▁Studies	3
▁vent	3
▁Creat	3
▁advance	3
▁lift	3
▁remote	3
▁buried	3
▁dump	3
▁Egypt	3
▁Part	3
▁diagnosis	3
▁diagnose	3
▁shopping	3
▁Taiwan	3
▁loan	3
▁hardware	3
ა	3
▁María	3
▁tournament	3
▁greatest	3
35	3
▁realized	3
▁drunk	3
He	3
▁vaccine	3
李	3
▁nausea	3
▁glu	3
▁opportunities	3
▁pump	3
down	3
▁ritual	3
▁meters	3
▁Project	3
▁Anti	3
▁Iraq	3
▁cooperation	3
▁Pacific	3
▁leak	3
▁punish	3
▁conclude	3
▁1960	3
▁subsequent	3
▁slip	3
▁float	3
▁closer	3
▁transmit	3
▁injured	3
▁preserve	3
▁Whether	3
▁fault	3
ą	3
▁Police	3
▁express	3
▁contemporary	3
▁prize	3
▁sponsor	3
▁Washington	3
▁senior	3
▁none	3
▁radius	3
▁opposite	3
ē	3
▁cash	3
▁nose	3
▁passion	3
▁alter	3
▁1986	3
▁vinegar	3
▁Committee	3
▁Texas	3
ة	3
▁kilometers	3
▁retail	3
ada	3
▁density	3
▁Southern	3
▁temple	3
▁queen	3
RI	3
▁hungry	3
cia	3
▁dye	3
plication	3
▁anger	3
▁tail	3
▁shock	3
▁Center	3
town	3
▁Health	3
▁formation	3
▁fuel	3
▁Back	3
▁depression	3
ā	3
ع	3
ي	3
ص	3
▁Understand	3
▁contrast	3
▁Del	3
▁dialect	3
▁bleach	3
▁rip	3
ancy	3
▁damn	3
‘	3
ʊ	3
dynamic	3
в	3
р	3
к	3
й	3
▁handle	3
美	3
▁Law	3
▁maximum	3
CBS	2
▁census	2
▁define	2
▁strike	2
▁concrete	2
▁mathematics	2
▁desert	2
▁shampoo	2
志	2
村	2
▁enemies	2
▁intelligence	2
Video	2
▁Albert	2
▁vulnerable	2
ï	2
▁bug	2
▁plug	2
▁heaven	2
ك	2
ر	2
|	2
▁domain	2
▁torture	2
▁arrangement	2
▁skill	2
▁decline	2
96	2
▁sharing	2
▁boundaries	2
▁colour	2
▁pepper	2
▁inhibit	2
▁tube	2
▁surround	2
▁extensive	2
▁implement	2
▁awake	2
•	2
formerly	2
▁error	2
⊕	2
▁equivalent	2
▁obsess	2
▁kitten	2
▁criticism	2
▁1945	2
▁illegal	2
▁Little	2
▁internal	2
aught	2
▁Britain	2
▁leadership	2
▁universal	2
▁database	2
▁plenty	2
▁exact	2
▁despite	2
ت	2
ب	2
د	2
▁steal	2
05	2
▁girlfriend	2
▁dollar	2
▁planned	2
▁entirely	2
▁Sega	2
▁nuclear	2
▁margin	2
`	2
▁climb	2
▁Microsoft	2
▁revenue	2
ź	2
▁Imperial	2
▁uniform	2
▁manufacture	2
▁Ministry	2
®	2
▁gate	2
▁fraction	2
▁angle	2
▁flat	2
AN	2
▁Middle	2
▁beauty	2
▁programming	2
▁disrupt	2
▁yesterday	2
▁pocket	2
▁depict	2
▁Night	2
▁academic	2
다	2
희	2
김	2
▁Amazon	2
à	2
03	2
▁royal	2
α	2
▁spoke	2
▁31	2
▁strengthen	2
▁reform	2
▁communities	2
ville	2
▁recipe	2
▁crown	2
▁slave	2
▁observed	2
hear	2
▁1975	2
ú	2
▁false	2
▁finance	2
▁focused	2
▁excess	2
ê	2
▁harvest	2
▁odor	2
▁update	2
≡	2
AT	2
▁aircraft	2
▁Princess	2
▁Stop	2
▁improvement	2
▁Global	2
▁import	2
▁continuous	2
▁illustrat	2
▁Food	2
▁NASA	2
▁praise	2
▁invited	2
▁Assembly	2
▁Claire	2
▁Unless	2
▁forgot	2
▁resolution	2
▁Dragon	2
▁managed	2
▁awful	2
▁administer	2
▁stood	2
▁underneath	2
▁pretend	2
▁practical	2
▁poem	2
▁motivation	2
▁industrial	2
▁ya	2
ER	2
▁justice	2
▁Ven	2
▁definitely	2
▁perceive	2
▁swimming	2
▁bull	2
▁stopped	2
▁advise	2
▁chip	2
▁moral	2
▁insect	2
ボ	2
ス	2
▁flavor	2
▁survival	2
▁crystal	2
▁Marshal	2
ć	2
▁ghost	2
▁dentist	2
手	2
巻	2
き	2
▁phenomenon	2
▁captain	2
▁pleasure	2
▁importance	2
▁surgery	2
cultural	2
▁Anna	2
▁aggressive	2
☉	2
▁apple	2
▁ال	2
▁trend	2
▁buddy	2
▁understood	2
▁insurance	2
▁circumstances	2
▁pregnant	2
▁bubble	2
▁darling	2
▁ratio	2
▁skip	2
▁incredible	2
off	2
▁Department	2
ɛ	2
ɒ	2
▁custom	2
▁headache	2
▁upset	2
▁combined	2
▁roughly	2
▁cycl	2
▁commission	2
▁crowd	2
79	2
▁exposed	2
▁sunlight	2
iya	2
š	2
▁advertising	2
▁Repeat	2
▁destroyed	2
▁hug	2
ground	2
▁examine	2
▁Control	2
▁bump	2
▁constitution	2
This	2
▁gentle	2
ime	2
♭	2
fact	2
▁contribution	2
▁coach	2
▁patch	2
▁‘	2
ु	2
़	2
▁cheese	2
▁Club	2
▁Emperor	2
▁Everybody	2
с	2
о	2
▁Run	2
▁vary	2
Ż	2
공	2
д	2
ў	2
β	1
▁ordinary	1
▁collective	1
け	1
ん	1
康	1
徳	1
∈	1
_	1
vir	1
▁turtle	1
⏎	1
ṇ	1
ḍ	1
▁sufficient	1
▁distribute	1
▁accurate	1
bacter	1
▁extension	1
▁chemist	1
▁apologize	1
σ	1
▁Nazi	1
▁1991	1
▁Power	1
▁wipe	1
▁yield	1
▁Somebody	1
▁twist	1
▁proper	1
ی	1
▁Pakistan	1
▁explanation	1
▁existence	1
横	1
須	1
賀	1
鎮	1
守	1
府	1
▁sword	1
▁Education	1
▁entertain	1
▁expense	1
▁Rachel	1
▁chose	1
#	1
▁clock	1
▁infected	1
▁acknowledge	1
▁somewhat	1
⌘	1
▁accident	1
▁ideal	1
▁1982	1
▁latter	1
▁desperate	1
▁extraordinary	1
▁Administration	1
▁privacy	1
ბ	1
რ	1
თ	1
შ	1
ვ	1
ლ	1
ს	1
ხ	1
დ	1
û	1
«	1
»	1
▁calculate	1
谨	1
行	1
communica	1
▁interfere	1
▁composed	1
÷	1
▁technologies	1
▁odd	1
习	1
近	1
平	1
克	1
强	1
▁Secretary	1
이	1
춘	1
호	1
春	1
昊	1
▁plus	1
▁surrounding	1
▁swelling	1
▁Common	1
▁excellent	1
sexual	1
ô	1
ể	1
ù	1
ố	1
ế	1
▁Science	1
▁Twitter	1
▁memories	1
、	1
寿	1
司	1
ḗ	1
ð	1
þ	1
▁flesh	1
▁interpret	1
▁$2	1
خ	1
▁description	1
▁festival	1
stream	1
▁Mexico	1
나	1
영	1
ò	1
▁Kenya	1
▁ladies	1
▁Focus	1
Š	1
ş	1
ğ	1
▁prince	1
▁Communist	1
▁combat	1
▁encounter	1
▁monkey	1
▁suppress	1
▁tie	1
▁×	1
ط	1
ه	1
▁technical	1
▁arrive	1
Ō	1
大	1
伴	1
家	1
持	1
▁flirt	1
▁Commission	1
牧	1
場	1
物	1
語	1
ハ	1
ベ	1
ト	1
ム	1
ン	1
イ	1
ガ	1
ル	1
▁differ	1
▁fulfill	1
▁reserve	1
▁diameter	1
▁suffering	1
▁Argentina	1
▁constant	1
ض	1
▁rinse	1
▁champion	1
▁Front	1
▁insert	1
क	1
ड	1
ख	1
£	1
慧	1
深	1
ì	1
▁infrastructure	1
Å	1
▁identified	1
武	1
舉	1
θ	1
▁wrist	1
С	1
т	1
н	1
Г	1
я	1
ч	1
П	1
п	1
32	1
ɪ	1
ŋ	1
ː	1
▁nurse	1
▁Jimmy	1
郷	1
里	1
制	1
▁Chile	1
94	1
▁flee	1
eau	1
▁Leave	1
ů	1
▁sauce	1
dependent	1
ق	1
ṭ	1
▁Out	1
▁thumb	1
▁parties	1
claim	1
▁necessarily	1
文	1
富	1
冨	1
芙	1
史	1
Â	1
▁loop	1
▁drain	1
▁instant	1
ơ	1
ă	1
ầ	1
Đ	1
ặ	1
익	1
인	1
권	1
법	1
재	1
단	1
감	1
▁magnitude	1
А	1
Ҳ	1
