.	8256
,	6769
▁và	2601
▁có	2556
▁là	2520
▁của	2369
▁một	2111
▁không	1954
▁được	1614
▁tôi	1349
▁thể	1315
▁trong	1300
▁các	1279
▁đã	1264
▁bạn	1233
▁người	1231
▁với	1192
▁cho	1142
▁đó	1038
▁sẽ	1025
?	955
▁ta	953
▁để	951
▁ở	946
▁những	943
▁này	929
▁-	837
▁khi	833
n	796
▁vào	791
▁anh	784
▁làm	779
▁ra	757
▁phải	712
▁chúng	711
▁đến	684
▁về	673
▁năm	667
▁như	656
▁sự	629
▁(	623
m	606
i	605
▁nó	587
▁lại	584
▁Tôi	576
t	575
▁đi	541
▁mà	535
▁bị	525
▁việc	521
▁nói	512
y	511
▁cô	502
▁gì	501
▁từ	496
ng	488
▁đầu	486
▁biết	482
▁điều	480
o	479
▁hơn	478
▁cũng	462
s	451
▁	448
▁trên	446
▁hoặc	442
▁thấy	442
▁thế	439
)	427
▁con	424
▁đang	423
▁"	421
u	418
▁thành	413
▁họ	411
a	410
▁khác	408
▁số	400
▁cách	395
▁cả	394
▁mình	391
▁nhà	390
▁muốn	390
▁chỉ	390
▁đây	389
▁ông	379
▁nhiều	375
▁cần	368
▁ấy	367
▁nào	365
▁nhất	365
▁dụng	364
▁tại	361
▁quan	360
c	357
▁nhưng	356
▁công	356
▁rằng	348
▁chính	341
▁học	335
▁động	334
▁Anh	330
▁sau	322
▁vì	320
▁nên	319
▁theo	317
▁bằng	313
▁sao	311
▁thực	305
▁ngày	304
▁nước	300
▁nghĩ	299
▁tự	297
▁còn	293
▁rồi	292
▁hiện	292
▁thì	290
p	289
▁gia	286
▁thời	285
▁em	283
▁Nếu	282
▁thứ	281
▁hợp	281
▁cảm	273
▁nhân	272
:	270
▁sử	268
▁trước	268
▁định	266
▁bộ	264
▁rất	261
▁tháng	260
▁cơ	260
▁Và	259
▁cái	257
▁hành	256
▁hình	250
▁thường	249
▁nhận	248
▁C	244
▁ý	243
▁nếu	242
▁phát	242
▁cuộc	242
!	241
▁S	239
▁1	238
▁bao	237
▁19	237
▁lên	236
▁vậy	236
▁tìm	234
▁qua	233
▁do	232
▁chuyện	231
-	229
▁A	229
▁hai	228
▁Chúng	227
▁sinh	224
▁giờ	224
▁loại	224
▁đề	224
▁cùng	224
▁tới	220
▁cậu	219
▁tin	218
▁hay	218
▁tính	217
▁trở	217
▁hàng	216
▁dùng	216
h	216
▁lý	215
e	214
▁độ	211
g	211
▁kết	211
▁bản	210
▁tiếp	209
nh	208
▁thông	206
▁bắt	204
▁giúp	203
▁quá	202
▁bà	201
▁toàn	199
▁hội	198
▁tay	198
▁gian	198
▁tốt	196
▁giới	195
▁viên	195
▁tế	193
▁trị	191
▁đồng	190
▁Có	189
▁mới	189
▁bởi	189
"	189
▁mọi	188
▁lớn	187
▁Một	187
▁T	186
▁Nhưng	186
▁Nó	185
▁trình	185
▁đối	184
▁gọi	183
▁nữa	183
▁ăn	183
▁phần	182
▁sản	182
▁xuất	182
▁liên	180
▁máy	180
▁mặt	180
▁lần	179
▁Không	176
▁Bạn	175
▁năng	175
▁Các	174
▁B	173
▁vị	172
▁3	171
▁vụ	171
▁tạo	171
▁nơi	169
▁cao	169
▁tên	169
▁trường	168
▁hiệu	168
▁thay	168
▁hệ	168
▁tác	168
▁ảnh	167
▁bảo	167
▁sống	167
▁lượng	166
▁đường	166
▁chưa	165
▁bệnh	165
▁giải	165
▁thức	164
▁nhiên	164
▁thích	164
▁bất	162
▁đổi	162
k	161
ch	161
▁nhau	160
re	159
▁g	158
▁khu	157
▁ai	157
▁sĩ	156
▁trọng	155
▁hãy	155
▁Ông	154
▁'	153
▁quả	153
▁2	152
▁thật	151
ra	151
▁điểm	151
▁vấn	151
C	151
▁chất	150
▁phía	149
▁tập	149
▁yêu	148
▁vẫn	147
▁r	147
▁tâm	147
▁cầu	145
▁xem	145
▁tình	144
▁phẩm	143
▁hoá	143
▁tiên	143
▁l	142
r	142
▁quốc	142
▁v	141
▁chủ	141
▁Cô	140
▁câu	140
▁đưa	139
▁vật	138
▁D	138
▁G	138
▁n	138
▁thiết	138
▁tiếng	137
S	137
▁trung	137
A	137
▁pháp	137
▁biệt	136
▁thống	136
▁đều	135
▁lập	135
▁bên	134
▁m	134
d	133
▁tưởng	133
▁gặp	132
▁chứng	132
▁phòng	132
▁thuốc	132
▁tất	132
▁Quốc	132
er	131
▁liệu	131
le	131
▁đâu	130
▁từng	130
▁mẹ	129
2	128
▁đại	128
▁cứu	127
▁Trong	127
▁giữa	127
▁gồm	127
▁khoảng	127
▁hết	127
la	126
▁kinh	125
▁dưới	124
▁chiến	124
▁M	124
▁chết	123
▁tăng	123
▁ng	123
▁khỏi	123
▁hỏi	123
▁nghe	122
▁mất	122
▁sát	122
in	121
▁ứng	120
▁thân	120
▁hoàn	120
▁lời	119
▁Đây	119
▁Ba	119
▁phụ	119
▁chuyển	119
th	119
▁thuật	118
▁ngay	118
▁báo	118
▁cấp	118
▁mục	118
▁đấy	118
▁bỏ	117
▁dân	117
▁chọn	117
▁diễn	116
or	116
▁vực	116
▁tranh	116
▁d	116
▁Em	116
D	116
▁chức	116
▁ngoài	116
▁nhỏ	115
▁hoạt	115
▁bán	115
▁đ	115
▁Đ	115
▁hiểu	115
▁phân	114
▁Khi	114
▁tiêu	114
▁nhìn	114
el	114
▁trang	114
▁lúc	114
ư	113
▁đơn	113
▁hắn	113
▁O	113
N	113
▁gần	113
),	113
▁x	112
▁E	112
▁kỳ	112
▁cứ	112
;	112
▁tiền	111
▁ch	111
▁Trung	111
▁chế	110
▁dẫn	110
▁biến	110
▁s	110
▁Ta	110
▁trí	110
▁V	110
M	110
▁H	110
▁đánh	109
▁nghĩa	109
▁nữ	109
▁bố	109
▁nh	109
▁tham	109
ạ	109
▁Hãy	109
en	109
▁đặc	108
4	108
5	107
▁giảm	107
I	107
▁Nam	107
▁lực	106
▁vài	106
▁chứ	106
lo	106
T	105
▁đặt	105
▁sáng	104
▁lấy	104
▁triển	104
ri	104
ro	104
▁I	103
▁mỗi	103
▁Mỹ	103
▁cố	103
on	103
▁xác	103
▁quyền	102
▁thương	102
▁b	102
▁gái	102
▁U	102
▁trẻ	102
7	102
▁4	102
▁nay	102
▁quyết	101
▁thu	101
▁N	101
▁nghiệp	101
▁phương	100
▁L	100
8	99
na	99
3	99
▁5	99
▁cá	99
▁mang	98
▁khiến	98
▁c	98
▁đủ	98
▁dịch	98
).	98
ol	98
▁viết	97
▁xe	97
▁F	97
▁âm	97
▁giáo	97
x	97
▁tư	96
▁hướng	96
▁K	96
▁sách	96
▁cảnh	96
B	96
▁kế	95
▁giá	95
▁giữ	95
▁thuộc	95
▁thôi	94
P	94
▁đồ	94
▁Đó	94
an	93
▁bài	93
▁bình	93
▁vi	93
▁ba	93
▁chơi	93
▁đạo	93
▁khó	93
▁điện	92
▁cuối	92
é	91
▁Cậu	91
▁nhớ	91
▁giống	91
▁da	91
▁tương	91
▁chú	90
▁nguyên	90
▁địa	90
▁dù	90
▁ít	90
▁sức	90
▁đúng	90
▁Họ	89
▁lo	89
▁à	89
li	89
▁thêm	89
b	88
▁gây	88
▁kiểm	88
▁thị	88
l	88
▁trả	87
▁di	87
▁cửa	87
▁cây	87
▁hạn	87
'	87
▁th	86
▁biểu	86
▁đất	85
▁nghiên	85
▁tài	85
▁bé	85
▁tra	85
▁mạnh	84
▁rõ	84
▁đau	84
▁Sau	84
▁tích	83
▁mua	83
▁dụ	83
▁chẳng	83
▁nhóm	83
▁Những	83
▁h	83
▁chiếc	82
▁tinh	82
▁dự	82
▁thư	82
▁bác	82
ta	82
ine	82
ả	82
▁vô	82
▁tượng	81
▁6	81
da	81
▁khả	81
▁suy	81
▁chí	81
▁vệ	81
▁phép	81
E	81
▁nhanh	80
▁đáng	80
▁xây	80
▁Ma	80
▁mắt	80
▁triệu	80
al	80
▁kiến	80
▁đời	80
▁lạc	80
▁Điều	79
▁7	79
▁thần	79
▁tử	78
▁kể	78
us	78
▁giác	78
▁xảy	78
▁sở	77
▁dựng	77
▁truyền	77
▁tr	77
▁minh	77
▁an	77
▁dễ	77
▁tuổi	77
▁mở	77
▁chắc	77
9	77
▁luôn	76
▁Tr	76
▁cổ	76
ur	76
▁xã	76
▁tục	76
▁Tuy	76
▁duy	75
▁tóc	75
▁chân	75
▁cung	75
▁Vậy	75
▁xa	75
▁chống	75
▁màu	75
▁thi	75
▁nhiệm	74
▁Lan	74
▁xuống	74
▁phục	74
▁dài	74
▁trò	74
z	74
▁lẽ	73
ma	73
▁quân	73
▁nổi	73
▁Ch	72
▁luật	72
▁tớ	72
▁quay	72
▁kẻ	72
ở	72
ền	72
▁uống	72
vi	72
▁Năm	72
▁nghệ	71
▁văn	71
▁án	71
▁Con	71
▁chi	71
▁Hoa	71
▁bàn	70
▁thú	70
▁dấu	70
▁nằm	70
▁phố	70
▁độc	70
ne	70
▁lưu	70
▁mạng	70
▁sợ	70
▁thanh	70
ã	69
ck	69
▁giao	69
▁giết	69
▁máu	69
▁so	69
▁tổng	68
▁y	68
to	68
▁thủ	68
▁10	68
▁kiện	68
▁thử	68
▁Người	67
▁ngôi	67
▁/	67
▁danh	67
▁đông	67
▁phim	67
▁đình	67
▁đội	67
te	67
▁nhập	67
▁phản	67
▁phá	67
▁khí	67
".	67
▁Do	66
▁đóng	66
▁ty	66
▁phủ	66
▁kỷ	66
H	66
▁xử	65
▁luận	65
▁sư	65
à	65
▁trai	65
man	65
▁Mi	65
V	65
▁Phi	65
▁cha	65
▁viện	65
▁kích	64
▁chút	64
▁La	64
▁trợ	64
▁Để	64
▁lỗi	64
▁tổ	64
co	64
ệ	64
▁tiến	64
▁hạt	63
▁cực	63
▁yếu	63
▁mối	63
▁chuyên	63
▁lịch	63
▁mô	63
▁Kỳ	63
▁nhiễm	62
▁Ro	62
ia	62
▁khoa	62
▁tuyệt	62
▁t	62
▁mức	62
▁18	62
▁Ph	62
▁nhiệt	61
▁đấu	61
▁8	61
▁chỗ	61
▁Li	61
▁Công	61
▁Th	61
▁càng	61
▁khách	61
▁lâu	61
ơ	60
▁nền	60
▁rộng	60
▁hưởng	60
▁Đức	60
▁P	60
▁vừa	60
▁trời	60
▁ban	60
▁đàn	60
▁giả	60
▁Việt	60
1	60
▁ngữ	60
▁nguồn	59
▁vùng	59
▁chạy	59
▁vòng	59
á	59
▁Ng	59
▁R	59
▁sẵn	59
▁vẻ	59
▁áp	59
▁phí	59
▁tối	59
▁dầu	59
▁hoà	59
▁dạng	59
O	59
▁to	59
de	58
▁lớp	58
ry	58
▁Thế	58
ba	58
▁kia	58
▁Vì	58
ặ	58
▁ngủ	58
▁dành	58
▁quanh	57
▁chịu	57
▁nghiệm	57
▁Vào	57
▁ca	57
▁Cha	57
▁đừng	57
ó	57
ki	57
me	57
ow	57
▁đẹp	57
▁đôi	57
▁trực	56
6	56
▁dục	56
▁cử	56
▁X	56
▁chương	56
▁xúc	56
▁cụ	56
▁chia	56
▁Al	56
▁thiếu	56
▁xin	56
▁nhạc	56
▁diện	55
▁phút	55
ị	55
▁trưởng	55
w	55
di	55
▁vai	55
▁tuần	54
ù	54
▁cáo	54
▁doanh	54
ka	54
ớ	54
▁Ở	54
ga	54
▁Ca	53
▁Sao	53
."	53
▁chấp	53
00	53
ợ	53
▁tiết	53
▁lắm	53
▁gắng	53
▁Cho	53
ter	53
▁não	53
▁Mar	52
▁nguy	52
▁Đại	52
▁lợi	52
▁ích	52
▁chứa	52
▁khoá	52
▁kiếm	52
▁nhắc	52
▁vũ	52
▁chắn	51
▁thấp	51
▁bay	51
▁p	51
ard	51
▁riêng	51
ắ	51
▁ngăn	51
▁khoẻ	51
▁cháu	51
▁hồi	51
▁cư	51
▁9	51
ò	51
▁dung	51
ẻ	51
▁thoại	50
▁Đừng	50
▁kỹ	50
▁chó	50
▁đầy	50
G	50
▁Tất	50
▁ghi	50
▁đoạn	50
▁Bà	50
▁lòng	50
▁tố	50
▁12	50
es	50
▁ma	49
▁Chỉ	49
▁sơ	49
▁ánh	49
▁nam	49
▁đảo	49
▁sàng	49
▁bọn	49
ên	49
í	49
se	49
▁hoạch	49
go	49
▁Bộ	49
ỉ	49
▁nội	49
▁tả	49
R	49
▁soát	48
ỗ	48
▁trạng	48
▁in	48
▁biển	48
▁–	48
▁cân	48
▁thuyết	48
▁vết	48
ủ	48
ss	48
▁ngồi	48
▁khá	48
▁loài	48
▁Ra	48
▁kéo	48
▁tức	47
▁An	47
▁hồ	47
f	47
▁áo	47
▁vui	47
▁bóng	47
/	47
▁hầu	47
▁đảm	47
za	47
êu	47
▁khăn	47
▁thúc	47
▁Vi	47
▁đọc	46
▁Jo	46
▁Bắc	46
▁châu	46
▁mày	46
ì	46
▁hôn	46
ic	46
▁cộng	46
▁dữ	46
wa	46
ce	46
▁rối	46
▁tiểu	46
ê	46
▁phạm	46
▁cười	46
▁Qu	46
▁Bo	46
son	45
▁ô	45
no	45
▁Ho	45
one	45
▁mật	45
▁hát	45
▁toà	45
▁đá	45
▁trái	45
▁Liên	45
è	45
▁chung	45
▁ký	45
▁ngài	45
▁sắc	45
▁phổ	45
▁coi	45
ti	44
▁mái	44
▁kiểu	44
ton	44
▁thảo	44
ve	44
▁xét	44
il	44
▁buộc	44
▁ơn	44
ũ	44
ĩ	43
▁hộ	43
▁cú	43
▁nghị	43
▁sạch	43
▁Nhật	43
▁mùa	43
▁thẳng	43
▁Re	43
▁thất	43
▁cạnh	43
▁hơi	43
▁lãnh	43
ie	43
▁sớm	43
do	43
▁Tây	43
▁bắc	43
▁nhé	43
▁sai	43
▁chuẩn	43
▁tồn	43
▁qu	42
▁15	42
et	42
▁Mo	42
▁ràng	42
▁xuyên	42
▁mặc	42
nd	42
▁thắng	42
▁Làm	42
▁Được	42
▁bức	41
F	41
▁la	41
ko	41
▁Á	41
▁đổ	41
ất	41
▁Bản	41
▁20	41
▁nối	41
▁phù	41
▁đứa	41
ar	41
▁đêm	41
▁cánh	41
▁suốt	41
▁toán	41
▁sâu	41
▁lệ	41
ú	41
▁hữu	41
ed	41
▁đô	41
ẩ	41
▁ngôn	41
▁trụ	41
ọ	40
▁Di	40
▁băng	40
▁cắt	40
▁vầ	40
▁tỷ	40
ya	40
▁tội	40
▁bổ	40
▁Nh	40
ha	40
▁W	40
ver	40
▁hạ	40
▁tránh	40
▁đạt	40
▁hậu	40
ấy	40
ô	40
▁trách	40
▁vọng	40
▁rời	40
▁Je	39
der	39
ad	39
▁ổn	39
ster	39
sa	39
▁tạp	39
ộ	39
▁k	39
va	39
K	39
▁trận	39
▁cuốn	39
▁quy	39
▁giản	39
▁Gi	39
ph	39
▁hôm	39
▁Theo	39
L	39
ina	39
▁quý	39
▁lửa	39
▁mèo	39
ử	39
▁bắn	38
▁tàu	38
▁Ka	38
▁bầu	38
▁Mẹ	38
▁thai	38
▁tây	38
▁quản	38
▁hỗ	38
▁kh	38
ân	38
▁đa	38
▁Pa	38
▁súng	38
▁lá	38
▁Ha	38
▁bước	38
▁lựa	38
▁sắp	38
▁vời	38
▁ngoại	38
▁đứng	38
▁gốc	37
▁thái	37
tiếng	37
▁bí	37
▁Ý	37
ul	37
▁nghiêm	37
▁thoát	37
▁khoản	37
▁nghi	37
▁ví	37
▁bào	37
▁Phải	37
▁sang	37
▁tấn	37
▁lộ	37
id	37
▁ph	37
ẹ	37
▁Chúa	37
▁khẩu	37
ệt	37
▁thiện	37
▁cải	37
▁lệnh	37
st	37
▁tỉnh	36
ứ	36
▁mấy	36
▁mẫu	36
▁ngắn	36
▁Tại	36
ke	36
ụ	36
▁chị	36
▁Co	36
▁Ki	36
▁Ja	36
▁chu	36
▁Thái	36
▁ước	36
▁de	36
▁ngươi	36
U	36
sh	35
▁vượt	35
▁lắng	35
▁Mu	35
▁De	35
bo	35
▁Ví	35
▁Hắn	35
▁Việc	35
ấu	35
▁Tớ	35
▁buồn	35
ờ	35
▁phiên	35
▁hút	35
▁giành	35
▁vợ	35
▁Su	35
▁dựa	35
▁khai	35
ếp	35
▁đoàn	35
▁trừ	35
▁Còn	35
▁bây	35
▁thiên	35
▁Đông	35
▁vận	35
▁tim	34
▁gi	34
▁căn	34
▁Kh	34
▁sửa	34
▁Giờ	34
▁thậm	34
▁thở	34
▁niên	34
▁Mặc	34
ết	34
▁loạn	34
be	34
▁đoán	34
ật	34
ni	34
▁Ga	34
▁phê	34
v	34
▁trì	34
ell	34
ăng	33
▁cận	33
▁thờ	33
▁gửi	33
ế	33
▁miễn	33
▁trông	33
pa	33
▁môi	33
▁tuyến	33
▁chiều	33
▁hoàng	33
▁Wi	33
▁tuyên	33
▁du	33
▁món	33
lu	33
▁tù	33
▁buổi	33
ru	33
▁mạch	33
▁đợi	33
ức	33
▁Sa	33
▁tao	33
đ	32
▁kháng	32
▁Bi	32
▁làng	32
ời	32
▁tĩnh	32
▁Ri	32
▁đỏ	32
▁In	32
▁Cái	32
▁Âu	32
0	32
▁ngược	32
▁tệ	32
▁cập	32
ing	32
▁đo	32
▁khô	32
ông	32
▁thập	32
▁hoa	32
▁chỉnh	32
▁lạnh	32
▁phi	32
▁Như	32
▁Se	32
▁Ban	32
▁thận	32
ian	32
▁thừa	32
un	31
ff	31
▁núi	31
od	31
▁hiểm	31
▁dòng	31
▁truy	31
▁quần	31
▁quên	31
▁J	31
▁sẻ	31
▁rượu	31
ắc	31
ge	31
▁đen	31
ét	31
▁hả	31
▁So	31
▁quen	31
▁nóng	31
▁nạn	31
▁hài	31
▁huy	31
▁bè	31
▁viêm	31
lin	31
▁Sự	31
▁kì	31
▁vàng	31
▁suất	31
▁hộp	31
▁Na	30
▁cũ	30
▁ngừng	30
shi	30
▁xung	30
▁The	30
▁Si	30
▁phong	30
▁Chi	30
▁hại	30
ừ	30
▁bang	30
▁Nói	30
▁giấy	30
▁khởi	30
▁mong	30
▁Tổng	30
▁chữ	30
▁hạnh	30
▁dõi	30
▁hề	30
▁Me	30
▁cấu	30
▁trúc	30
ối	30
ill	30
▁chờ	30
ề	30
▁Châu	30
ổ	30
▁tỏ	30
chi	29
▁trải	29
▁thưa	29
▁tầng	29
▁nhẹ	29
▁mộ	29
nes	29
%	29
▁f	29
▁ngân	29
▁đuổi	29
▁lạ	29
▁huống	29
▁co	29
▁luyện	29
▁cà	29
mo	29
▁chàng	29
gen	29
▁dây	29
▁căng	29
",	29
▁II	29
ây	28
▁phận	28
▁xếp	28
án	28
ự	28
▁thoải	28
▁chăm	28
▁sóc	28
▁Thu	28
▁đỡ	28
▁tái	28
ác	28
▁of	28
▁11	28
▁nghỉ	28
▁góc	28
▁phối	28
ỏ	28
▁giám	28
▁hi	28
▁Độ	28
▁Xin	28
▁Lu	28
▁xu	28
▁Thay	28
▁30	28
▁đích	28
▁chảy	28
▁hương	28
it	28
▁trùng	28
▁Car	28
▁huyết	28
▁tốc	28
▁ngành	27
▁tròn	27
▁Chắc	27
▁Nhà	27
êm	27
wi	27
▁chặn	27
▁kính	27
▁nửa	27
▁dần	27
▁Ai	27
▁ti	27
▁tường	27
▁trà	27
▁tộc	27
▁Nhiều	27
ẫ	27
▁nông	27
▁Po	27
ica	27
ski	27
▁giai	27
▁lĩnh	27
▁u	27
ate	27
ương	27
▁Du	27
▁chạm	27
▁17	27
ai	27
▁thịt	26
▁a	26
▁Da	26
▁Le	26
▁thụ	26
▁chuyến	26
▁giỏi	26
▁sổ	26
ăn	26
▁đem	26
▁dàng	26
▁i	26
▁cường	26
▁thuận	26
▁bại	26
▁sáu	26
ến	26
▁Lo	26
gu	26
min	26
▁xấu	26
ập	26
▁bếp	26
▁km	26
▁niệm	26
▁tách	26
▁mại	26
▁huỷ	26
▁giàu	26
▁bánh	26
om	26
▁mi	26
▁trứng	26
▁nặng	26
is	26
pe	26
▁thưởng	26
▁phức	26
▁Bây	25
▁chụp	25
▁siêu	25
ir	25
ide	25
▁tán	25
▁đáp	25
▁bảng	25
mi	25
▁chữa	25
▁rửa	25
▁web	25
▁giây	25
▁thuế	25
▁tịch	25
▁nhảy	25
▁xanh	25
▁nhờ	25
ăm	25
▁Ar	25
▁trữ	25
▁nỗi	25
▁Tao	25
▁trấn	25
▁màn	25
lic	25
▁Nghe	25
ca	25
▁dậy	25
▁thù	25
▁phúc	25
ồi	25
▁dạy	25
▁hẹn	25
▁sung	25
ci	25
▁đẩy	25
▁mai	25
▁bốn	25
ot	25
▁sợi	25
▁mã	25
▁thao	25
▁2008	25
ốn	24
▁Hạ	24
▁sa	24
▁bơi	24
ái	24
gi	24
kh	24
▁te	24
▁Vâng	24
ho	24
ett	24
▁mơ	24
▁khiển	24
▁Pháp	24
úp	24
les	24
▁miệng	24
▁nhật	24
▁tầm	24
▁mũi	24
ỡ	24
▁Thực	24
▁Thật	24
▁lỗ	24
▁tận	24
▁cầm	24
ễ	24
ếu	24
im	24
▁tuy	24
▁tín	24
▁Hy	24
▁nguyện	24
▁Ju	24
▁hạng	24
000	24
ồng	24
▁lai	24
▁nhỉ	24
▁tấm	24
▁trao	24
▁lục	24
ần	24
▁lái	24
we	24
▁mềm	24
ent	24
mer	24
▁ngờ	24
res	24
▁khám	24
▁Ti	24
ới	24
▁sữa	23
▁To	23
▁hoạ	23
▁lược	23
▁Ke	23
▁El	23
▁can	23
▁sân	23
▁giày	23
▁ly	23
▁Kinh	23
len	23
▁Bình	23
▁hà	23
▁nhiêu	23
▁Bởi	23
▁Hai	23
▁trăm	23
▁Với	23
▁Gia	23
▁khối	23
▁mệnh	23
gan	23
as	23
▁Cơ	23
▁yên	23
▁thả	23
ố	23
est	23
▁ro	23
▁thiệu	23
▁su	23
ation	23
▁tắc	23
▁San	23
ran	23
▁Y	23
per	23
▁Bọn	23
▁trắng	23
▁Nhân	23
▁Be	23
▁bó	23
▁thằng	22
▁Nga	22
▁lồ	22
▁kem	22
▁đột	22
▁mời	22
▁ủng	22
Đ	22
os	22
▁lu	22
ấm	22
▁e	22
um	22
▁ức	22
ầm	22
▁John	22
▁thăm	22
▁mắc	22
▁dương	22
▁biên	22
mp	22
▁Cam	22
▁tô	22
▁New	22
▁Ấn	22
▁bày	22
▁khuyến	22
▁khuẩn	22
ria	22
▁ga	22
j	22
po	22
▁nắm	22
▁bạc	22
▁khủng	22
▁Ni	22
▁ống	22
▁gấp	22
tra	22
ý	22
▁túi	22
▁chiếu	22
▁ấm	22
op	22
▁Tìm	22
▁dưỡng	22
▁2018	22
▁sóng	22
▁tan	22
▁Từ	22
ly	22
▁lí	22
▁album	21
▁phóng	21
tic	21
ham	21
▁đậu	21
▁khắp	21
▁Ne	21
▁He	21
ay	21
▁già	21
▁cơn	21
▁chậm	21
▁chuỗi	21
ov	21
que	21
ồn	21
▁lễ	21
▁lũ	21
▁kê	21
▁đăng	21
▁thí	21
▁khích	21
▁hiệp	21
▁tu	21
▁Tu	21
tin	21
▁vỡ	21
▁hứa	21
▁gương	21
▁chặt	21
▁Pi	21
art	21
▁tá	21
ct	21
▁mùi	21
▁Te	21
ł	21
sinh	21
▁hứng	21
▁chồng	21
▁the	21
àn	21
âm	21
▁tôn	21
▁phán	21
▁tiêm	21
▁cốc	21
▁miền	21
ja	21
ốt	21
▁2012	21
▁Chính	21
▁điên	21
▁hấp	20
▁tạm	20
▁Cháu	20
▁Wa	20
▁ổng	20
▁giọng	20
▁gã	20
ku	20
yl	20
▁khổng	20
hi	20
▁ung	20
ừng	20
▁tuỳ	20
ùng	20
▁Tra	20
▁Ngoài	20
▁thẩm	20
▁ẩn	20
ew	20
ric	20
▁chiếm	20
▁chủng	20
mon	20
▁Mọi	20
pp	20
▁che	20
am	20
ọc	20
▁Đi	20
▁50	20
▁bạo	20
land	20
rd	20
▁Là	20
▁mẽ	20
▁Dương	20
▁tuyển	20
▁địch	20
▁loạt	20
ste	20
▁tắt	20
▁Dùng	20
▁phiếu	20
20	20
ầy	20
▁14	20
▁No	20
▁al	20
▁xong	20
▁hàm	20
ện	20
▁thải	20
▁trào	20
▁kim	20
▁Hiệp	20
▁ẩm	20
ll	20
ung	20
▁giận	20
▁mãi	20
tr	20
▁đảng	20
▁nuôi	20
▁Danh	20
▁chào	19
▁bơ	19
▁lao	19
kin	19
▁Ben	19
▁Syria	19
▁li	19
▁táo	19
▁nâng	19
yo	19
▁Đúng	19
▁thuỷ	19
▁hải	19
▁Hàn	19
▁trích	19
▁dừng	19
▁Này	19
▁pha	19
▁điển	19
▁trồng	19
ner	19
▁Gmina	19
▁hỗn	19
▁Bar	19
▁o	19
▁quỹ	19
ực	19
wo	19
▁Ko	19
▁sắt	19
▁bẩn	19
âu	19
▁lưng	19
so	19
▁16	19
▁video	19
▁hẳn	19
▁Nhìn	19
bi	19
pi	19
▁Per	19
▁ghét	19
▁phó	19
▁Cách	19
▁Đối	19
▁bề	19
su	19
▁muối	19
▁giãn	19
▁ngực	19
▁Hu	19
▁lỏng	19
▁Chiến	19
ld	18
út	18
▁miếng	18
ley	18
▁Bu	18
▁Fi	18
▁niềm	18
▁ngại	18
▁gà	18
▁đương	18
▁Đưa	18
▁thước	18
▁Trái	18
▁Ả	18
▁protein	18
iều	18
lan	18
fe	18
▁lông	18
▁Câu	18
▁bi	18
▁cháy	18
em	18
▁lâm	18
▁rác	18
▁2016	18
W	18
ải	18
▁Chủ	18
▁tướng	18
▁sông	18
▁hiến	18
▁Gra	18
▁tờ	18
las	18
ber	18
▁rút	18
▁Bảo	18
▁Bố	18
▁lầm	18
▁tiềm	18
▁trại	18
▁tổn	18
▁cục	18
▁đĩa	18
▁tẩy	18
▁hy	18
zo	18
▁Ôi	18
▁xương	18
▁Phụ	18
▁Nha	18
▁chuột	18
▁lẫn	18
▁trú	18
▁đám	18
at	18
▁xoá	18
Th	18
▁lẻ	18
▁cản	18
▁vốn	18
▁diệt	18
▁Toà	18
▁cướp	18
▁kho	18
▁2010	18
▁gan	18
ler	17
▁nỗ	17
▁Mình	17
▁bật	17
▁lọc	17
ah	17
sto	17
men	17
30	17
▁Hội	17
▁Chọn	17
▁đựng	17
▁Rất	17
▁khớp	17
▁tắm	17
▁Đến	17
▁thiểu	17
▁bụng	17
▁Am	17
▁trầm	17
▁bò	17
▁lan	17
ước	17
▁Nên	17
▁cam	17
▁2011	17
▁khảo	17
▁thơ	17
ành	17
▁ạ	17
áng	17
▁ấn	17
▁tỉ	17
▁Pe	17
ạn	17
▁Ồ	17
ase	17
▁Mặt	17
▁dối	17
▁viễn	17
▁gắn	17
▁dao	17
▁đài	17
▁cẩn	17
▁xoay	17
▁lành	17
line	17
ốc	17
▁Giáo	17
Ch	17
▁may	17
▁lối	17
▁Tổ	17
▁Lúc	17
▁cãi	17
ắt	17
▁tai	17
ướng	17
▁vĩ	17
▁Thứ	17
▁Ste	17
fi	17
▁chóng	17
bu	17
▁béo	16
▁góp	16
▁thoả	16
▁ha	16
▁rơi	16
▁Dự	16
▁Thiên	16
▁kêu	16
ội	16
▁mắn	16
▁ảo	16
▁nấm	16
▁hầm	16
▁mảnh	16
▁tia	16
tan	16
▁rừng	16
▁hư	16
▁Internet	16
tu	16
▁Viện	16
▁Go	16
▁nhãn	16
▁Serie	16
▁tiện	16
▁liều	16
▁thuê	16
▁chúa	16
▁Hoàng	16
▁giam	16
▁Mer	16
▁2017	16
▁dị	16
▁nhấn	16
▁điệp	16
▁cứng	16
▁ngựa	16
▁môn	16
▁virus	16
▁linh	16
▁Wal	16
ger	16
cz	16
▁Chị	16
▁tải	16
▁chấn	16
vo	16
0%	16
▁ác	16
ể	16
▁quận	16
▁bột	16
▁St	16
ầu	16
dia	16
▁2014	16
▁hoang	16
óc	16
▁phẫu	16
sse	16
▁đào	16
▁tảng	16
▁Quan	16
▁lò	16
?"	16
'.	16
▁nghèo	16
▁binh	16
and	16
ft	16
▁thợ	16
▁nàng	16
all	16
▁nổ	16
▁song	16
và	15
▁chừng	15
ts	15
ak	15
▁Vương	15
▁thăng	15
▁khứ	15
▁gen	15
van	15
▁sứ	15
10	15
▁giấc	15
▁Hi	15
▁ngang	15
▁Đất	15
▁Xem	15
▁Oh	15
▁khuôn	15
50	15
ận	15
▁Ed	15
dy	15
ino	15
▁Tên	15
48	15
▁Chú	15
ana	15
▁tặng	15
▁đốc	15
▁chấm	15
ser	15
▁Har	15
▁mê	15
▁lương	15
▁rắc	15
▁Hồi	15
▁mãn	15
ssi	15
▁tàn	15
Cười	15
▁Cả	15
tro	15
rin	15
▁Hầu	15
▁13	15
dd	15
zz	15
▁Giải	15
▁nồng	15
▁nha	15
▁xâm	15
▁biện	15
▁cỡ	15
▁ho	15
Q	15
▁bom	15
▁cưng	15
ạc	15
▁ơi	15
ồ	15
▁ổ	15
▁đức	15
▁Phát	15
ut	15
▁móng	15
ene	15
ex	15
5%	15
ôi	15
▁Thưa	15
▁Pla	15
▁màng	15
▁chối	15
▁lưới	15
▁nhu	15
át	15
▁nhịp	14
không	14
▁Rập	14
▁huyện	14
▁khốn	14
▁cất	14
iệu	14
▁quán	14
▁Yo	14
▁Mà	14
▁Văn	14
ps	14
▁Phần	14
▁Tư	14
▁tri	14
▁Trước	14
▁Dân	14
▁nhằm	14
▁mát	14
▁Nor	14
▁Quá	14
ường	14
▁đỉnh	14
▁Xô	14
▁hiếm	14
▁For	14
▁thùng	14
ze	14
▁Com	14
X	14
▁gối	14
▁2015	14
nis	14
▁Philippines	14
▁thẻ	14
zi	14
▁ương	14
▁Hệ	14
▁khắc	14
▁Ừ	14
▁Sam	14
▁Ngay	14
▁24	14
12	14
▁Thôi	14
ac	14
▁phiền	14
▁Tri	14
▁than	14
▁hiển	14
han	14
▁mỏng	14
▁dư	14
áo	14
▁cựu	14
]	14
▁quảng	14
▁axit	14
he	14
▁chín	14
nie	14
▁Mày	14
▁ngạc	14
▁củ	14
xy	14
▁kịch	14
▁cột	14
▁khẳ	14
▁0	14
▁đốt	14
-19	14
▁cụm	14
ỷ	14
▁cấm	14
▁ngừa	14
▁vua	14
òng	14
▁trốn	14
▁bọ	14
▁phái	14
ỹ	14
▁21	14
ục	14
▁dâm	14
▁doạ	14
▁vương	14
lf	14
▁Sử	14
▁sàn	14
úng	14
oid	14
mb	14
một	14
▁Ngày	14
sta	14
▁ngưỡng	14
▁Ku	14
▁đẳng	14
▁gói	14
▁Dù	14
fa	14
▁Bắt	13
▁Đả	13
▁Hải	13
▁săn	13
q	13
▁Phương	13
▁Cứ	13
xi	13
cha	13
▁tuân	13
▁thượng	13
ột	13
▁đụng	13
▁Tập	13
▁nhi	13
▁bãi	13
▁War	13
▁dính	13
▁hùng	13
ight	13
▁lính	13
ion	13
ang	13
▁Za	13
▁phạt	13
▁bì	13
▁Mor	13
▁hổ	13
▁22	13
▁dứt	13
▁kĩ	13
▁gió	13
▁100	13
▁nhánh	13
▁Cảnh	13
▁giảng	13
Tiếng	13
age	13
[	13
▁lặng	13
▁bữa	13
ua	13
▁giường	13
▁thiệp	13
pro	13
▁đắt	13
▁nâu	13
my	13
ơi	13
▁Tối	13
ów	13
stan	13
▁chim	13
▁ngốc	13
▁quái	13
ài	13
▁Ge	13
▁hảo	13
ếm	13
▁ni	13
▁Cuối	13
▁dày	13
▁ngu	13
▁Paul	13
lia	13
▁vẽ	13
▁cổng	13
▁Lần	13
▁thua	13
▁Nintendo	13
▁răng	13
▁rào	13
▁hè	13
▁ưu	13
▁ghép	13
▁nướng	13
▁ngon	13
▁đe	13
▁lãng	13
▁vững	13
▁kiên	13
▁hò	13
▁(1	13
▁Thuốc	13
▁Hà	13
cia	13
sk	13
▁Ngài	13
▁Thậ	13
rea	13
fo	13
▁giặt	13
▁Sẽ	13
▁Fa	13
▁kèm	13
▁hãi	13
▁Man	13
▁Han	13
vis	13
▁no	13
▁gỗ	13
▁Kiể	12
tch	12
▁thảm	12
▁nghề	12
▁Ber	12
tha	12
▁Trên	12
ec	12
ssa	12
Nhấp	12
▁tồi	12
▁nắng	12
▁Về	12
▁dịu	12
▁Thánh	12
▁2007	12
ren	12
ud	12
OS	12
▁Mac	12
▁đế	12
▁Vị	12
▁nút	12
▁cỏ	12
▁Windows	12
▁Khu	12
▁York	12
▁Hôm	12
▁Đồng	12
▁thèm	12
ium	12
ẽ	12
▁dáng	12
▁cốt	12
ách	12
▁Z	12
br	12
▁gỡ	12
xa	12
▁2006	12
yn	12
▁vú	12
▁Voivodeship	12
ten	12
▁mì	12
▁Giống	12
tri	12
▁chán	12
cu	12
▁Chẳng	12
▁xinh	12
▁Szczecin	12
▁lặp	12
ven	12
▁rau	12
▁họp	12
▁bớt	12
▁Quân	12
ji	12
▁ghế	12
▁ngũ	12
si	12
▁Mỗi	12
zu	12
jo	12
▁She	12
▁Shi	12
▁cài	12
ậ	12
▁trá	12
Kể	12
▁trộm	12
▁Thời	12
▁Cảm	12
▁khiếp	12
▁hỏng	12
▁Kar	12
▁Uỷ	12
▁Thành	12
oxi	12
ôn	12
17	12
▁Bác	12
▁Cuộc	12
▁kín	12
▁Mal	12
▁Pu	12
▁Phó	12
ris	12
▁rãi	12
▁tạ	12
▁gián	12
▁Hợp	12
ity	12
▁pho	12
▁triết	12
▁60	12
ron	12
▁email	12
õ	12
▁hào	11
▁Col	11
-1	11
65	11
▁ngọt	11
▁thỏ	11
▁giật	11
▁Sara	11
ib	11
▁nhạy	11
▁1990	11
ỵ	11
▁dọc	11
▁kí	11
ab	11
▁bá	11
▁ám	11
▁Đầu	11
▁xả	11
▁chải	11
▁lưỡi	11
▁Chu	11
▁rễ	11
▁Cộng	11
▁mười	11
▁sót	11
▁lây	11
▁Cor	11
▁hòn	11
18	11
▁Thủ	11
nia	11
▁đua	11
▁2004	11
▁Bri	11
▁thói	11
▁nhàng	11
ẳng	11
▁Lạp	11
▁nạp	11
▁nấu	11
rt	11
▁bão	11
ella	11
▁CD	11
illa	11
▁im	11
▁2013	11
bia	11
▁Số	11
▁thác	11
▁ư	11
▁say	11
▁tha	11
▁Đã	11
ữ	11
-3	11
▁chở	11
▁Val	11
ick	11
▁26	11
▁Rồi	11
ń	11
úc	11
▁Nghệ	11
▁trưng	11
▁vỏ	11
▁ngón	11
▁khuyên	11
ment	11
▁dàn	11
▁ong	11
▁nạ	11
▁Bài	11
▁Canada	11
ía	11
▁rủi	11
▁nhấp	11
▁2005	11
Z	11
▁Mc	11
▁sánh	11
ble	11
▁Trường	11
den	11
ỳ	11
ão	11
▁lão	11
▁khổ	11
▁ép	11
mar	11
▁đớn	11
▁Bệnh	11
▁Mã	11
19	11
▁trộn	11
net	11
▁2000	11
▁Sch	11
ấp	11
ers	11
▁dược	11
▁World	11
▁Chuyện	11
▁am	11
▁Cố	11
▁Thông	11
▁mừng	11
▁ngàn	11
▁đáo	11
▁25	11
▁gợi	11
▁thơm	11
ánh	11
▁Cổ	11
▁bia	11
▁Sha	11
▁khát	11
▁mỏ	11
ose	11
▁Uni	11
ty	10
▁Giữ	10
▁gọn	10
▁xạ	10
▁Fu	10
▁vuông	10
▁Hơn	10
ằn	10
tes	10
▁Mexico	10
▁lô	10
▁tuý	10
▁Pre	10
▁tước	10
▁va	10
▁bồn	10
▁mưa	10
▁tuyết	10
▁kìa	10
▁đùa	10
▁tươi	10
ển	10
▁Đường	10
je	10
▁hồn	10
▁uỷ	10
▁Khoa	10
▁kiệm	10
▁Wo	10
▁Thi	10
tor	10
▁nêu	10
▁w	10
▁Thử	10
▁ngoan	10
▁Mont	10
▁Đội	10
uộc	10
▁tháo	10
Tr	10
▁đống	10
▁thổ	10
by	10
▁Mag	10
▁Cục	10
▁Thống	10
▁Khoảng	10
▁Chứng	10
▁Sinh	10
Ph	10
▁À	10
▁Or	10
lip	10
▁1999	10
▁Fe	10
▁hãng	10
ace	10
11	10
▁xô	10
▁Trời	10
J	10
▁Học	10
▁nhuận	10
▁lộn	10
▁(2	10
▁Cá	10
hu	10
▁West	10
▁ướt	10
▁Cùng	10
▁Mùa	10
▁Her	10
Y	10
▁Fo	10
▁phổi	10
▁2002	10
▁liệt	10
az	10
▁nhựa	10
und	10
▁đón	10
ấn	10
cho	10
ón	10
▁Đôi	10
ura	10
66	10
▁điệu	10
▁bể	10
tta	10
▁nở	10
ist	10
▁Thượng	10
▁dọn	10
▁khía	10
▁đập	10
ạt	10
▁cưới	10
▁Nữ	10
▁Min	10
▁thang	10
ếch	10
▁nghiện	10
▁trượt	10
▁thách	10
▁Đặc	10
▁lau	10
▁cờ	10
▁há	10
▁23	10
▁and	10
▁đèn	10
up	10
▁rẻ	10
▁Thuỵ	10
▁ve	10
Tôi	10
▁Điện	10
▁Bằng	10
▁Pan	10
▁Hay	10
▁tủ	10
▁sạn	10
▁nhóc	10
▁ngọn	10
▁Cuba	10
ami	10
▁Biển	10
▁xoa	10
▁mỹ	10
▁Lưu	10
ker	10
▁sếp	10
▁Lấy	10
▁nốt	10
▁bờ	10
▁nho	10
▁nhắn	10
▁Win	10
▁&	10
▁bám	10
▁chìa	10
lli	10
▁Bro	10
ậu	10
▁ngầm	10
▁sụp	10
▁Ter	9
AR	9
▁đằng	9
▁Nước	9
▁xứng	9
▁Chile	9
▁tháp	9
▁thánh	9
▁trục	9
SA	9
▁dãy	9
du	9
▁(19	9
▁Hoặc	9
ano	9
▁chợ	9
▁Tiên	9
àng	9
▁Loại	9
▁thìa	9
▁bong	9
▁bọc	9
▁Tor	9
▁hưu	9
▁Mở	9
▁Đáng	9
95	9
▁Ít	9
▁khuyết	9
▁duyệt	9
▁70	9
80	9
▁trôi	9
▁Paris	9
▁sưu	9
▁2009	9
▁nhẫn	9
▁lót	9
▁Luc	9
▁cát	9
▁thầy	9
▁khóc	9
▁phỏng	9
▁ninh	9
▁chôn	9
▁Frank	9
▁Google	9
▁tụi	9
▁Thị	9
▁Pro	9
▁Nhớ	9
▁Ăn	9
▁bát	9
bin	9
▁Tránh	9
▁Bên	9
▁vây	9
▁Star	9
ek	9
▁cưỡng	9
▁men	9
▁As	9
ey	9
▁chà	9
▁hydro	9
▁bù	9
log	9
ore	9
▁tân	9
▁Chà	9
▁Giê	9
▁Sp	9
AN	9
▁buôn	9
Â	9
▁dạ	9
▁0,	9
▁mét	9
rus	9
▁Kế	9
▁huấn	9
phi	9
▁cuộn	9
▁Tom	9
▁bu	9
}	9
▁lát	9
▁tật	9
▁phe	9
▁Hiện	9
▁giấu	9
")	9
▁Sĩ	9
▁Facebook	9
▁Vấn	9
ice	9
▁đếm	9
▁nát	9
qui	9
▁hước	9
▁Washington	9
▁Tự	9
▁Thư	9
▁Lý	9
▁tụ	9
▁tung	9
row	9
▁robot	9
▁âu	9
▁Jan	9
sz	9
▁Bill	9
dio	9
▁Gu	9
bra	9
▁mươi	9
▁200	9
▁Tốt	9
▁tàng	9
▁Tiến	9
▁vé	9
tar	9
▁dán	9
▁đói	9
ros	9
▁mỡ	8
▁Bur	8
▁móc	8
▁cu	8
▁May	8
▁tí	8
▁Tin	8
▁DNA	8
ept	8
▁1994	8
▁Sal	8
▁sỹ	8
▁dò	8
▁Ab	8
▁kém	8
cy	8
▁Cl	8
▁David	8
▁xứ	8
tion	8
▁King	8
▁xịt	8
▁+	8
▁truyện	8
▁tám	8
our	8
▁tràn	8
▁cặp	8
75	8
▁soạn	8
▁trạm	8
▁Can	8
▁liền	8
▁Hồng	8
▁cắn	8
ona	8
▁TV	8
▁muộn	8
▁Joe	8
▁Hoà	8
▁khái	8
34	8
▁Giám	8
▁tóm	8
▁Chương	8
gh	8
▁Cũng	8
▁Liệu	8
▁Luật	8
▁Thêm	8
▁chanh	8
▁chua	8
▁thề	8
▁1995	8
Chúng	8
▁Bra	8
▁lệch	8
▁cai	8
▁Park	8
▁Pomeranian	8
▁cám	8
▁tốn	8
ant	8
▁En	8
▁Tim	8
ef	8
▁mồ	8
▁lọ	8
▁sơn	8
▁Kết	8
▁Ngoại	8
▁thuần	8
▁game	8
▁quê	8
▁Hàng	8
tal	8
▁Brazil	8
ita	8
▁bắp	8
▁mờ	8
NG	8
car	8
via	8
▁1970	8
▁Che	8
▁nhầm	8
▁mạn	8
▁My	8
rie	8
▁Mon	8
▁thắt	8
▁dặm	8
▁mưu	8
▁tần	8
▁lồng	8
▁sưng	8
ite	8
▁vải	8
▁túc	8
▁=	8
▁Dar	8
▁Ad	8
▁Nhận	8
▁quyển	8
▁đâm	8
▁phím	8
▁31	8
ethyl	8
ctor	8
ou	8
▁dám	8
▁chả	8
▁pháo	8
ish	8
▁Kim	8
▁°	8
▁pa	8
▁40	8
▁thuyền	8
▁Úc	8
▁phô	8
▁Mary	8
▁khung	8
▁thiệt	8
ther	8
▁Chào	8
ín	8
▁bùng	8
ara	8
▁bội	8
▁Đế	8
▁Đài	8
▁bồi	8
▁vitamin	8
▁Tình	7
nny	7
ado	7
zy	7
▁chép	7
ę	7
▁45	7
▁kg	7
24	7
▁mực	7
▁ném	7
▁lừa	7
▁nộp	7
▁mây	7
▁hít	7
▁hoả	7
▁USD	7
▁Los	7
▁dường	7
▁lượt	7
▁mạc	7
▁đai	7
▁George	7
▁We	7
▁Bỏ	7
▁trễ	7
▁2020	7
▁tiếc	7
▁calo	7
▁mệt	7
▁Mô	7
cin	7
▁Đặt	7
▁nhạt	7
▁khẩn	7
▁Carl	7
Ứ	7
▁Thì	7
▁mò	7
▁bậc	7
fer	7
▁mọc	7
▁phun	7
▁Đạo	7
▁cắm	7
▁kịp	7
▁2019	7
▁bỏng	7
▁Ngân	7
ong	7
▁Gar	7
▁Giả	7
▁van	7
▁thạch	7
▁Đô	7
ượng	7
▁Hồ	7
▁Quản	7
ev	7
▁khúc	7
end	7
con	7
ậy	7
▁27	7
▁pro	7
được	7
port	7
▁vân	7
21	7
▁phẳng	7
rze	7
▁cm	7
▁dã	7
ō	7
tsu	7
▁mượn	7
▁tống	7
▁mông	7
Ô	7
▁gội	7
▁Ser	7
▁hố	7
▁leo	7
▁đòi	7
▁xà	7
▁nghìn	7
▁Ngươi	7
▁dạo	7
▁treo	7
▁Giá	7
san	7
▁35	7
▁xưa	7
che	7
▁mù	7
▁Xác	7
The	7
▁trống	7
▁nụ	7
sen	7
như	7
▁CO	7
▁Thổ	7
▁1980	7
▁Nghiên	7
▁Jack	7
gue	7
▁vở	7
▁thấu	7
▁khán	7
0.000	7
▁90	7
▁cắp	7
pho	7
ói	7
▁bú	7
▁Ru	7
▁cồn	7
▁Pri	7
ez	7
▁James	7
▁bạch	7
▁Viết	7
sha	7
▁Tiểu	7
▁thôn	7
com	7
▁vườn	7
ích	7
▁chẽ	7
unt	7
▁hoảng	7
burg	7
▁dẹp	7
ñ	7
▁chăn	7
▁xuân	7
▁Triều	7
▁ruột	7
▁Đảng	7
25	7
▁chai	7
▁Tính	7
→	7
iz	7
▁nét	7
▁đậm	7
▁NGC	7
▁Sta	7
▁nhá	7
#	7
▁Peter	6
60	6
ome	6
▁Vẫn	6
▁Cal	6
▁Bước	6
▁Trang	6
qua	6
uyên	6
67	6
▁Kat	6
▁kẹt	6
▁Thiết	6
▁nôn	6
▁Phòng	6
▁Christ	6
▁nợ	6
▁đạp	6
▁Thần	6
▁đới	6
▁trần	6
▁dĩ	6
▁Pol	6
▁Biết	6
▁hoại	6
▁canh	6
86	6
▁tiệc	6
▁nhắm	6
▁bối	6
Anh	6
ska	6
aw	6
▁quà	6
▁Chưa	6
có	6
sco	6
▁cậy	6
▁1996	6
▁hối	6
▁đáy	6
▁hồng	6
▁cong	6
onia	6
▁Trông	6
▁uý	6
▁2001	6
▁California	6
ẳ	6
▁thoa	6
ví	6
▁Nigeria	6
▁trăng	6
▁dinh	6
▁lạm	6
▁lỡ	6
har	6
68	6
▁keo	6
▁Tiếng	6
▁đeo	6
ook	6
▁Gần	6
▁đạn	6
▁Michael	6
▁lôi	6
ống	6
▁1950	6
▁bụi	6
▁Khá	6
▁Phân	6
64	6
ằng	6
lar	6
▁chìm	6
▁kẹo	6
▁Chất	6
▁lưỡng	6
▁sốt	6
▁trưa	6
▁Hình	6
▁vong	6
▁ngẫu	6
▁quang	6
▁chốt	6
▁You	6
▁khử	6
▁rũ	6
▁lõi	6
▁Ya	6
oc	6
▁kỉ	6
▁bôi	6
Á	6
▁29	6
α	6
pha	6
▁đồn	6
▁Vua	6
▁phu	6
▁me	6
99	6
▁William	6
▁Loan	6
amine	5
▁Yeah	5
▁Thanh	5
40	5
▁ôm	5
▁Chuẩn	5
▁củng	5
ye	5
▁chúc	5
ː	5
▁oxy	5
bar	5
⁄	5
xin	5
▁bận	5
ese	5
▁Ver	5
▁mỏi	5
▁chẩn	5
▁sôi	5
▁Tham	5
▁Stan	5
ney	5
▁re	5
▁vang	5
▁80	5
II	5
bb	5
96	5
▁hôi	5
▁bẫy	5
▁hung	5
▁lầ	5
▁Chờ	5
Ủ	5
▁khấu	5
▁Vũ	5
09	5
▁Yu	5
▁1960	5
▁Dan	5
▁Nơi	5
▁Robert	5
▁Mấy	5
▁huyền	5
▁nén	5
▁ngoái	5
ẵ	5
▁mụn	5
▁phấn	5
Ư	5
▁Bob	5
▁Tiếp	5
▁Vo	5
▁Bru	5
ban	5
▁khôi	5
▁Minh	5
▁Luôn	5
▁Hol	5
▁Nội	5
▁Cao	5
▁lật	5
▁hằng	5
▁sáp	5
rom	5
▁bông	5
▁đồi	5
ear	5
▁Uống	5
tis	5
▁ngâm	5
▁Trò	5
▁bảy	5
▁Địa	5
▁ngục	5
▁Martin	5
▁Van	5
▁Ac	5
▁xích	5
ằ	5
▁2003	5
▁Vụ	5
▁giấm	5
▁nô	5
gar	5
35	5
▁ốc	5
β	5
▁dắt	5
▁toa	5
▁khen	5
▁vay	5
win	5
▁đố	5
▁thấm	5
way	5
▁xơ	5
▁gãy	5
hoặc	5
▁thô	5
gg	5
phen	5
̣	5
▁Nhấn	5
▁bền	5
▁ưa	5
▁Cần	5
▁triều	5
▁1997	5
pr	5
▁Tương	5
PA	4
▁Ly	4
-20	4
▁Thằng	4
▁non	4
▁Ghi	4
▁Thường	4
08	4
▁võ	4
vel	4
▁bút	4
▁ngập	4
▁Mục	4
▁ngứa	4
ling	4
▁đam	4
▁mu	4
can	4
sky	4
▁ngơi	4
14	4
▁giáp	4
rz	4
ance	4
▁khoảnh	4
▁1998	4
▁châm	4
▁toả	4
▁Q	4
▁$	4
Ê	4
▁lợn	4
ub	4
▁đàm	4
▁tông	4
▁lắp	4
▁trừng	4
▁xỉ	4
01	4
▁se	4
▁khoáng	4
ữa	4
▁ngợi	4
▁hoan	4
▁London	4
▁mg	4
▁thám	4
15	4
▁Tác	4
▁tê	4
▁nhuộm	4
▁hẹp	4
▁Del	4
▁Máy	4
▁Ổng	4
Ł	4
ż	4
▁đắn	4
▁lãm	4
▁Cử	4
▁tị	4
▁mũ	4
là	4
▁Par	4
▁Argentina	4
▁At	4
lly	4
nica	4
ấ	4
▁Tháng	4
qu	4
▁súc	4
▁đuôi	4
▁ngã	4
▁sắm	4
▁rắn	4
▁thoảng	4
▁cởi	4
š	4
ü	4
▁Ze	4
â	4
▁đợt	4
▁vinh	4
▁Maria	4
레	4
오	4
▁hô	3
▁Cập	3
▁Toàn	3
Ă	3
the	3
▁hoãn	3
▁chớ	3
▁quỷ	3
ˈ	3
▁thổi	3
▁mồi	3
▁cạo	3
▁Nhóm	3
▁vĩnh	3
▁chậu	3
ɪ	3
Í	3
▁cương	3
Ó	3
À	3
05	3
06	3
69	3
▁Cân	3
▁má	3
▁pin	3
▁cọ	3
▁Quảng	3
▁nhở	3
▁Colombia	3
ola	3
▁trọ	3
▁lang	3
ence	3
▁ac	3
▁*	3
▁(20	3
ŏ	3
▁giọt	3
▁Nguyên	3
▁khoan	3
▁Điển	3
▁khoai	3
▁mòn	3
16	3
ð	3
ß	3
Ō	3
▁bốc	3
ï	3
▁rồng	3
07	3
▁Đánh	3
▁tím	3
lis	3
par	3
া	3
∗	3
=	2
off	2
ś	2
ɑ	2
ʊ	2
ə	2
Ự	2
Ờ	2
Ý	2
▁thuẫn	2
▁rã	2
ن	2
(	2
Ơ	2
~	2
▁óc	2
−	2
清	2
π	2
▁bo	2
47	2
É	2
Ð	2
Ở	2
Vỗ	2
ash	2
ari	2
ö	2
trong	2
▁mạo	2
▁Cám	2
̉	2
▁Tuỳ	2
94	2
if	2
▁Warsaw	2
ć	2
AS	2
▁quét	2
▁kênh	2
▁Hiến	2
良	2
品	2
†	2
▁Thể	2
팡	2
파	2
너	2
와	2
함	2
께	2
라	2
면	2
부	2
르	2
릉	2
쉅	2
다	2
솔	2
미	2
33	2
×	2
▁bê	2
▁Game	2
ঁ	2
ugh	2
س	2
ا	2
ر	2
ق	2
⊕	1
柏	1
木	1
幹	1
子	1
ア	1
ン	1
ナ	1
▁28	1
Ἴ	1
ω	1
ν	1
▁Đào	1
Ệ	1
Ĩ	1
☺	1
د	1
ک	1
ی	1
ɛ	1
ok	1
高	1
森	1
次	1
華	1
£	1
@	1
乌	1
江	1
γ	1
δ	1
▁thịnh	1
ź	1
Ạ	1
国	1
司	1
»	1
▁Apple	1
berg	1
–	1
Ả	1
Ồ	1
Č	1
Ấ	1
ă	1
<	1
≥	1
Ớ	1
Ề	1
ą	1
itz	1
к	1
百	1
盛	1
ǎ	1
Ś	1
▷	1
前	1
一	1
条	1
約	1
派	1
ū	1
13	1
▁Hành	1
ş	1
株	1
式	1
会	1
社	1
計	1
画	1
無	1
印	1
±	1
Ố	1
公	1
安	1
边	1
防	1
海	1
警	1
部	1
门	1
Ể	1
Ỹ	1
▁thỉnh	1
̀	1
Å	1
☰	1
⇧	1
⌥	1
­	1
ɡ	1
Ổ	1
ä	1
>	1
τ	1
▁Nguyễn	1
চ	1
ট	1
গ	1
ই	1
য	1
়	1
▁500	1
Ế	1
ā	1
ī	1
ي	1
ç	1
者	1
Ắ	1
